<unk>	0
<s>	0
</s>	0
.	-3.35279
,	-3.76324
▁của	-4.37451
▁là	-4.45493
▁có	-4.54368
▁và	-4.63278
▁	-4.81558
▁một	-4.81734
▁không	-4.83248
▁được	-4.98882
:	-4.99166
▁người	-5.04477
▁đã	-5.10237
▁trong	-5.17808
▁tôi	-5.18247
▁(	-5.18527
▁các	-5.20692
▁cho	-5.26312
?	-5.36176
▁thể	-5.37708
)	-5.39768
▁này	-5.41748
▁với	-5.43135
▁bạn	-5.44985
▁sẽ	-5.52889
▁những	-5.58305
▁“	-5.66444
▁đó	-5.68852
▁-	-5.70007
▁ở	-5.70501
▁năm	-5.70939
▁chúng	-5.713
▁đến	-5.75569
▁về	-5.7712
▁để	-5.78228
▁ta	-5.79073
▁ra	-5.84041
▁cũng	-5.84814
▁như	-5.86151
▁phải	-5.86219
▁từ	-5.8689
▁sự	-5.89045
▁làm	-5.90935
▁thế	-5.91852
▁lại	-5.94858
▁vào	-5.97281
▁gì	-6.01458
▁khi	-6.03105
▁"	-6.04546
▁công	-6.04652
▁hơn	-6.07128
▁đầu	-6.07297
▁nhất	-6.08168
▁con	-6.12091
▁cả	-6.13716
▁ngày	-6.13911
▁đi	-6.1418
▁nói	-6.14401
▁thành	-6.15898
▁thì	-6.1593
▁trên	-6.15969
▁nào	-6.16701
▁mình	-6.17426
▁bị	-6.17543
▁tại	-6.20334
▁mà	-6.25309
▁nhiều	-6.25727
!	-6.27067
▁dụng	-6.29639
▁nhà	-6.2964
▁việc	-6.30545
▁biết	-6.31295
▁học	-6.32107
▁chỉ	-6.32755
▁điều	-6.32974
▁anh	-6.33407
▁khác	-6.34141
▁họ	-6.34849
▁số	-6.35446
▁đang	-6.38031
-	-6.39441
▁sao	-6.41177
▁nó	-6.41563
▁hiện	-6.42444
...	-6.43942
▁thấy	-6.44568
▁chính	-6.44573
s	-6.46279
▁Tôi	-6.46321
▁hàng	-6.46717
▁đây	-6.47628
▁còn	-6.48723
▁mới	-6.49356
▁quan	-6.51793
▁nhân	-6.52041
▁động	-6.52876
▁giới	-6.53594
▁rất	-6.53928
▁rằng	-6.54854
▁tin	-6.55605
▁em	-6.5609
▁gia	-6.57358
▁ông	-6.57591
▁thực	-6.57695
▁sử	-6.58255
▁cách	-6.58455
▁muốn	-6.59239
▁bài	-6.59595
▁qua	-6.61025
▁giờ	-6.61312
▁viên	-6.63011
▁trước	-6.63708
”	-6.64757
▁phát	-6.67041
▁cần	-6.67239
▁cùng	-6.68368
▁sau	-6.68728
▁nay	-6.69057
▁nhưng	-6.6923
▁thời	-6.69999
▁1	-6.70278
▁hát	-6.70705
▁vậy	-6.71976
▁nhận	-6.73785
"	-6.74449
▁tự	-6.75357
▁tháng	-6.7562
▁2	-6.75983
▁hoặc	-6.76897
▁nước	-6.76978
▁sống	-6.77411
▁định	-6.77483
▁–	-6.77788
▁lần	-6.77863
▁nên	-6.78543
▁thứ	-6.79642
▁cuộc	-6.80406
▁sinh	-6.80921
▁ấy	-6.8126
▁rồi	-6.81702
▁Lời	-6.81909
▁theo	-6.82057
▁hai	-6.8249
▁cô	-6.82664
▁Anh	-6.83512
▁giá	-6.83987
▁vì	-6.84198
▁nhiên	-6.84223
▁bản	-6.84387
▁trường	-6.84488
▁thông	-6.85277
▁toàn	-6.86477
▁yêu	-6.86641
▁Nếu	-6.87036
▁trở	-6.8709
▁lý	-6.87252
▁trình	-6.87411
▁hành	-6.87607
▁lớn	-6.88818
▁Các	-6.90144
▁đề	-6.90699
▁cái	-6.9167
▁tốt	-6.92524
▁3	-6.92807
▁bao	-6.93494
▁do	-6.94475
▁hợp	-6.94728
▁gian	-6.94855
▁kết	-6.95632
▁tế	-6.96285
▁ai	-6.96844
▁đổi	-6.97011
▁tất	-6.97443
▁sản	-6.97552
▁Có	-6.97984
▁hình	-6.98217
▁cơ	-6.98746
▁Nhưng	-6.99997
▁lên	-7.00383
▁Trong	-7.0052
▁nữa	-7.00855
▁Không	-7.00927
▁vẫn	-7.0144
▁năng	-7.01883
▁tới	-7.0218
▁tiên	-7.02349
▁Một	-7.02965
▁tìm	-7.03071
▁bắt	-7.03564
▁xuất	-7.03861
▁thích	-7.04902
▁ý	-7.05307
▁Bạn	-7.05518
▁hay	-7.06372
▁The	-7.06463
▁đồng	-7.0656
▁Mỹ	-7.07047
▁bằng	-7.07345
▁đối	-7.07487
▁cầu	-7.07583
▁nhau	-7.07784
▁thật	-7.0793
▁cấp	-7.08419
▁quốc	-7.08581
▁Quốc	-7.08617
▁tiếp	-7.09245
▁mọi	-7.09941
▁cứu	-7.11539
▁lời	-7.11596
▁tiếng	-7.11713
▁vụ	-7.11883
▁thường	-7.12077
▁bộ	-7.12403
▁quá	-7.12762
▁hội	-7.13211
▁bảo	-7.13233
▁thức	-7.13894
▁dân	-7.14857
▁thay	-7.1531
▁lượng	-7.15465
▁ăn	-7.15586
▁tình	-7.15597
▁đều	-7.15621
▁trọng	-7.15817
▁chưa	-7.16631
▁bởi	-7.16819
▁Và	-7.17042
▁cảm	-7.17053
).	-7.17417
▁trị	-7.1785
'	-7.19121
▁Chúng	-7.19268
▁bất	-7.19488
▁phần	-7.1965
▁gần	-7.19679
▁thống	-7.2021
▁chọn	-7.20489
▁tính	-7.20591
▁Người	-7.206
▁tâm	-7.20659
▁chơi	-7.22212
▁tạo	-7.22613
▁mặt	-7.22664
▁bình	-7.22691
▁sách	-7.22722
▁xem	-7.23329
▁hệ	-7.2337
▁phẩm	-7.23418
▁nghĩ	-7.23521
▁thiết	-7.23622
▁máy	-7.23795
▁loại	-7.23966
▁chiến	-7.2543
▁ảnh	-7.25511
▁5	-7.26217
▁chủ	-7.26295
▁dịch	-7.26692
▁độ	-7.26995
▁điểm	-7.27767
▁4	-7.28085
▁hỏi	-7.28398
▁Trung	-7.28417
▁tuổi	-7.29211
▁chết	-7.29512
▁giải	-7.30274
▁cao	-7.30499
”.	-7.30924
▁Chúa	-7.31372
▁khách	-7.31503
▁chuyện	-7.32122
▁liệu	-7.32154
▁tên	-7.32221
▁nghiệp	-7.32389
.”	-7.32668
▁trẻ	-7.33582
▁kinh	-7.3361
▁đâu	-7.34906
▁liên	-7.3504
▁gọi	-7.35501
▁xe	-7.35799
▁Những	-7.3596
▁quả	-7.36173
▁lập	-7.36383
▁10	-7.36563
▁biệt	-7.36638
▁tài	-7.36675
▁[	-7.37063
▁nhìn	-7.37535
▁nghĩa	-7.3755
]	-7.38377
;	-7.38433
▁vấn	-7.38616
▁đại	-7.38622
▁dùng	-7.39336
▁tiền	-7.39427
▁nếu	-7.41863
▁báo	-7.42372
▁triển	-7.42486
▁thêm	-7.42757
▁âm	-7.42856
▁sĩ	-7.42937
▁nơi	-7.43011
▁phòng	-7.43335
▁tác	-7.44169
▁Khi	-7.44227
▁Nhà	-7.44484
▁đời	-7.44691
▁lúc	-7.45141
▁hiệu	-7.45289
▁sáng	-7.45744
▁hãy	-7.45767
▁luôn	-7.45891
▁vị	-7.4603
▁câu	-7.46278
▁hết	-7.46441
/	-7.46464
▁A	-7.46674
▁đường	-7.47386
▁hoàn	-7.48166
▁mất	-7.48742
▁vật	-7.48778
▁tập	-7.50404
▁Nhật	-7.5041
▁tương	-7.51076
▁thương	-7.51097
▁cuối	-7.51549
▁trung	-7.51573
▁pháp	-7.51669
▁kỳ	-7.51742
▁trang	-7.52165
▁bên	-7.52242
▁bệnh	-7.52434
▁nữ	-7.52647
▁mỗi	-7.52903
▁bỏ	-7.53074
▁ngoài	-7.53134
▁the	-7.53424
▁ứng	-7.53561
▁điện	-7.53896
▁trả	-7.55154
▁of	-7.55287
▁cung	-7.55316
▁tiêu	-7.55358
▁hiểu	-7.55748
▁giúp	-7.55878
▁ty	-7.56554
▁viết	-7.56628
▁tay	-7.56704
▁đất	-7.58158
▁chức	-7.58433
▁tăng	-7.58515
▁mạnh	-7.58765
▁...	-7.58918
▁phụ	-7.59045
▁thân	-7.5936
▁quyền	-7.60024
▁mua	-7.60847
▁Vì	-7.60867
▁đặt	-7.61025
▁quyết	-7.61343
▁kế	-7.61541
▁Bản	-7.61558
▁Tuy	-7.61784
▁ba	-7.61985
▁mẹ	-7.62065
▁tư	-7.62115
▁hôm	-7.62785
▁lực	-7.62985
▁:	-7.63162
▁6	-7.63206
▁ngươi	-7.63518
▁thị	-7.63524
▁trợ	-7.63632
n	-7.64395
▁7	-7.65064
▁nghe	-7.65321
▁gặp	-7.65383
▁khoảng	-7.65589
▁hóa	-7.65718
▁nhỏ	-7.66085
▁bay	-7.66139
▁đưa	-7.66428
▁I	-7.66605
▁nghiên	-7.66774
▁hoạt	-7.68248
▁phố	-7.68381
▁nghiệm	-7.68585
▁đánh	-7.68913
▁thôi	-7.6953
▁/	-7.69605
▁trí	-7.69608
▁chất	-7.70175
▁thuật	-7.70917
▁tranh	-7.70934
▁giáo	-7.71099
▁triệu	-7.71256
▁tử	-7.71602
▁Đức	-7.72605
▁dự	-7.72919
▁Điều	-7.73108
▁chuyển	-7.73277
▁Hãy	-7.73311
▁an	-7.73627
▁a	-7.73774
▁Tại	-7.73858
▁cứ	-7.73888
▁Đây	-7.74468
▁Ngày	-7.75124
▁Kỳ	-7.75147
▁bố	-7.75169
▁khỏi	-7.75296
▁từng	-7.75909
▁diễn	-7.76006
▁chứng	-7.7609
▁cậu	-7.76478
▁luận	-7.76683
▁ngay	-7.77218
▁đẹp	-7.77883
▁Sau	-7.77937
▁xác	-7.78233
▁tham	-7.78306
▁mục	-7.78446
▁sức	-7.78758
▁biến	-7.78766
▁chiếc	-7.79376
▁sạn	-7.79941
▁8	-7.79946
▁gái	-7.79994
▁tối	-7.80339
▁Hoa	-7.80545
▁phí	-7.80835
▁Ông	-7.81022
▁sát	-7.81129
▁mang	-7.8121
▁Công	-7.81644
▁doanh	-7.81766
▁giữa	-7.81856
▁tưởng	-7.82089
▁dẫn	-7.8232
▁Em	-7.82416
▁mở	-7.82439
▁nghệ	-7.82885
Tôi	-7.83953
▁bán	-7.84317
▁đơn	-7.84602
▁tuần	-7.84765
▁chẳng	-7.84827
▁xảy	-7.84887
▁tục	-7.84986
▁Chương	-7.85008
▁đình	-7.85372
▁lịch	-7.85475
▁minh	-7.85513
▁lòng	-7.85827
▁đồ	-7.8596
▁trò	-7.861
▁văn	-7.86203
▁to	-7.86255
▁đúng	-7.86665
’	-7.87112
▁cửa	-7.87216
▁đàn	-7.87562
▁kiếm	-7.88018
▁vệ	-7.88054
▁đáng	-7.88355
▁?	-7.88448
▁phép	-7.88827
▁địa	-7.88957
▁vực	-7.89125
?”	-7.89341
m	-7.89537
t	-7.89663
▁nhớ	-7.90276
".	-7.90329
▁kiến	-7.90348
▁nhanh	-7.90361
▁cá	-7.90725
▁phương	-7.90981
▁đặc	-7.91133
▁vô	-7.91411
▁kẻ	-7.91805
▁giống	-7.92095
▁chương	-7.9239
▁ít	-7.92489
▁mạng	-7.9259
▁Ta	-7.93069
▁B	-7.93291
▁Năm	-7.93645
a	-7.93708
▁phim	-7.93801
▁đủ	-7.93819
▁vui	-7.93977
▁thủ	-7.94155
▁Con	-7.94211
▁chú	-7.94334
▁khó	-7.94534
▁án	-7.94881
▁bà	-7.94942
▁Đó	-7.95003
▁giao	-7.95177
▁hạn	-7.95219
▁ngữ	-7.95356
▁phút	-7.95361
▁Chính	-7.95368
▁Nó	-7.95395
▁Sự	-7.95826
▁truyền	-7.96212
▁giảm	-7.96214
▁lỗi	-7.96537
▁cảnh	-7.96544
▁cáo	-7.96651
▁bé	-7.96996
▁Thế	-7.97145
▁&	-7.97167
▁phục	-7.97616
i	-7.97697
▁mắt	-7.98215
▁chắc	-7.99064
▁Cô	-7.99664
▁sở	-7.99765
▁Nam	-7.99862
▁dễ	-7.99871
▁kiện	-8.00055
▁khí	-8.00755
▁phân	-8.0102
▁tiến	-8.0111
▁chí	-8.01165
▁dài	-8.01298
▁mức	-8.01479
▁Tên	-8.01834
▁lâu	-8.01839
▁ơn	-8.01859
▁gồm	-8.02055
▁Họ	-8.02528
▁xin	-8.0268
▁quân	-8.0278
▁dữ	-8.0309
▁dù	-8.0314
▁nhé	-8.03225
▁tích	-8.0329
▁cố	-8.03549
▁trai	-8.03594
▁xuống	-8.03658
▁nhập	-8.03732
▁kiểm	-8.03839
▁rõ	-8.03862
▁tuyệt	-8.03905
▁tiết	-8.03934
▁lẽ	-8.04111
▁Từ	-8.04556
▁tổ	-8.04556
▁Tất	-8.05123
▁thần	-8.0598
▁đọc	-8.06028
▁lựa	-8.06333
▁trời	-8.06369
▁giữ	-8.06371
▁sợ	-8.06598
▁nổi	-8.07225
▁lấy	-8.07417
▁thuộc	-8.07448
▁bác	-8.07743
▁tra	-8.08014
▁kể	-8.08239
▁giả	-8.08943
▁ích	-8.09021
▁đạo	-8.09064
▁luật	-8.09216
▁dụ	-8.09275
▁tức	-8.09302
▁thoại	-8.09428
▁hướng	-8.09469
▁thư	-8.09682
▁hưởng	-8.09945
▁9	-8.09983
▁tượng	-8.10043
▁khả	-8.10071
▁nguyên	-8.10082
▁khu	-8.10368
▁lợi	-8.10434
▁12	-8.10682
▁thử	-8.10858
▁chi	-8.11106
▁hỗ	-8.11131
▁chứ	-8.11249
▁chuẩn	-8.11317
▁màu	-8.11409
▁Bài	-8.11628
▁nhạc	-8.11708
▁Vậy	-8.11714
▁châu	-8.11909
▁Đại	-8.12279
▁Pháp	-8.12424
▁and	-8.1245
▁in	-8.12473
▁thu	-8.12645
▁đăng	-8.1274
▁vọng	-8.12919
▁đấy	-8.12933
▁20	-8.12939
▁dựng	-8.12943
▁xã	-8.13059
▁dưới	-8.13174
▁dục	-8.13458
▁đấu	-8.13711
▁thuốc	-8.13758
▁Chỉ	-8.13905
▁chế	-8.1439
▁lai	-8.14703
▁ban	-8.15169
▁trái	-8.15423
▁trực	-8.15566
▁Âu	-8.15861
▁chạy	-8.15878
▁ký	-8.16026
▁Khách	-8.16503
▁danh	-8.17088
▁thanh	-8.17137
▁Theo	-8.17168
▁viện	-8.17726
▁đêm	-8.17885
▁uống	-8.17914
▁chuyên	-8.18813
."	-8.18819
▁xây	-8.18911
▁tội	-8.18946
▁riêng	-8.19408
▁Ai	-8.19512
▁quản	-8.19945
▁trưởng	-8.19987
▁tinh	-8.20073
▁duy	-8.20199
▁đội	-8.20513
▁vài	-8.20532
▁Làm	-8.20698
▁Do	-8.21385
▁hữu	-8.21586
▁di	-8.21677
▁web	-8.21941
▁C	-8.22067
▁ngủ	-8.22117
▁cập	-8.22137
▁kỹ	-8.22193
▁Nga	-8.22238
▁chia	-8.22246
▁cộng	-8.22503
▁ngôn	-8.22515
▁bây	-8.23189
▁lệ	-8.23512
▁Để	-8.23664
▁Ở	-8.23835
▁chị	-8.24232
▁lưu	-8.25062
▁Ngài	-8.25227
▁khoản	-8.25312
▁phủ	-8.25393
▁yếu	-8.25642
▁thúc	-8.25761
▁nhiệm	-8.25969
▁so	-8.26238
▁nhóm	-8.26372
▁cụ	-8.26672
▁Tiếng	-8.26699
▁15	-8.27156
▁kỷ	-8.27269
▁11	-8.27351
▁Thiên	-8.27578
▁bước	-8.27599
▁dành	-8.27768
▁khoa	-8.28301
▁độc	-8.28933
▁xa	-8.29363
▁càng	-8.29415
▁phá	-8.29626
▁hôn	-8.29974
▁vũ	-8.30219
▁phúc	-8.31006
▁New	-8.31033
▁chân	-8.31269
▁rộng	-8.31387
▁mùa	-8.31642
▁gây	-8.31666
▁chịu	-8.31713
▁chung	-8.32089
▁Tây	-8.32595
▁đôi	-8.32728
▁Tổng	-8.3287
▁Việt	-8.32895
▁Còn	-8.32936
▁vừa	-8.33015
C	-8.33065
▁khỏe	-8.33261
▁30	-8.33651
▁áp	-8.33813
▁You	-8.33852
▁|	-8.33907
▁Mình	-8.34
▁Google	-8.34167
▁sư	-8.34317
▁quy	-8.34397
▁đóng	-8.34526
▁lắm	-8.34766
▁diện	-8.35408
▁phía	-8.35564
▁nền	-8.35696
▁quên	-8.36192
▁hộ	-8.3631
▁chút	-8.36417
▁Thông	-8.36564
▁đứng	-8.36898
▁Với	-8.3733
▁Bộ	-8.37483
▁mật	-8.37497
▁Hôm	-8.37695
▁phản	-8.37771
▁đầy	-8.38021
▁cha	-8.3803
▁mộ	-8.38216
e	-8.38477
▁Cho	-8.38482
▁xét	-8.38515
▁tổng	-8.38803
▁vời	-8.38812
▁Xem	-8.38836
▁bóng	-8.39128
▁nguồn	-8.39158
▁đau	-8.39435
▁hạnh	-8.39617
A	-8.3967
▁nạn	-8.39789
▁thiên	-8.39836
▁Liên	-8.40099
▁hồ	-8.40364
▁biển	-8.40492
▁đạt	-8.40568
▁phiên	-8.40715
▁Cách	-8.40718
▁y	-8.41
▁Câu	-8.41272
▁thú	-8.41279
▁vi	-8.41284
▁Kinh	-8.413
(	-8.41429
▁chắn	-8.41588
▁Hiện	-8.41593
▁giết	-8.41729
▁vẻ	-8.41793
▁miễn	-8.4224
I	-8.42252
▁đứa	-8.42444
▁cổ	-8.43042
▁phạm	-8.43103
▁>	-8.43548
▁hiểm	-8.4357
▁sẵn	-8.43584
▁biểu	-8.43585
▁thắng	-8.43693
▁thất	-8.43862
▁gửi	-8.44203
!”	-8.44214
▁S	-8.44248
▁hòa	-8.44762
▁Phát	-8.44783
▁hồi	-8.45114
▁chờ	-8.45277
▁tàu	-8.45358
▁xử	-8.45519
▁nằm	-8.45867
o	-8.45922
▁nguy	-8.45923
▁vòng	-8.46262
▁Trời	-8.46293
▁tấn	-8.46433
_	-8.46885
▁môi	-8.46897
▁nhiêu	-8.46922
▁sớm	-8.47189
▁sang	-8.47446
▁ước	-8.47467
▁!	-8.47536
▁nhật	-8.47638
▁lo	-8.47639
▁hắn	-8.47837
▁nội	-8.47971
▁Trang	-8.4804
▁sắc	-8.48098
▁buổi	-8.48131
▁sẻ	-8.48178
▁vợ	-8.48832
D	-8.49199
▁sai	-8.49215
▁cây	-8.49415
▁quay	-8.49505
▁suy	-8.49675
▁Như	-8.49792
▁đa	-8.49923
N	-8.50063
▁T	-8.50243
▁kia	-8.50254
▁hầu	-8.50629
▁thi	-8.50644
▁chó	-8.51625
▁hoạch	-8.52299
▁khóa	-8.52339
▁chống	-8.5236
▁for	-8.52737
▁thiệu	-8.53008
▁USD	-8.53032
▁đợi	-8.53399
▁du	-8.53468
2	-8.53584
▁mai	-8.5364
▁Trước	-8.53753
▁Thời	-8.538
▁tuyến	-8.53919
▁đừng	-8.54039
▁mô	-8.54045
▁mối	-8.54231
▁»	-8.54449
▁Ban	-8.54585
▁Thành	-8.54791
▁mong	-8.54917
▁tồn	-8.55004
▁tỷ	-8.55229
S	-8.553
▁D	-8.55719
▁chỗ	-8.55878
▁trạng	-8.55909
▁Đừng	-8.56119
y	-8.56433
▁cạnh	-8.56434
▁đoạn	-8.56591
▁khiến	-8.56691
▁ạ	-8.56866
▁dạng	-8.56984
▁lãnh	-8.57265
▁đảm	-8.57329
),	-8.57508
▁'	-8.57885
▁mơ	-8.58111
▁13	-8.58206
▁Ba	-8.58333
▁Chủ	-8.58728
▁bàn	-8.58755
▁Hai	-8.58824
▁ngồi	-8.58943
▁thiếu	-8.59058
▁giản	-8.59098
▁Số	-8.59154
▁nghỉ	-8.59161
▁lạc	-8.59178
▁cực	-8.59393
▁mềm	-8.5986
▁mừng	-8.60251
▁đích	-8.60252
▁thiện	-8.60606
▁dàng	-8.60728
▁ngành	-8.6074
▁=	-8.60919
▁Là	-8.61395
▁toán	-8.61439
d	-8.61552
▁16	-8.61608
▁nối	-8.62076
▁à	-8.6229
▁nguyện	-8.6246
▁Kết	-8.62495
▁mặc	-8.62561
▁ngôi	-8.62584
▁ngoại	-8.62714
▁Cuộc	-8.62734
▁Phần	-8.62761
▁chồng	-8.63013
h	-8.63327
▁Giá	-8.63376
▁hại	-8.63416
▁quanh	-8.63464
▁Hotel	-8.63629
T	-8.63821
▁+	-8.64043
▁chấp	-8.64289
▁hâm	-8.64308
▁mãi	-8.64335
▁căn	-8.64545
▁nghị	-8.64605
▁Nha	-8.6466
▁Lan	-8.64665
▁nàng	-8.64873
▁cài	-8.65035
▁sửa	-8.65098
Chúng	-8.65115
▁trách	-8.65392
▁video	-8.65458
▁thấp	-8.65527
▁•	-8.65668
▁đá	-8.65839
▁14	-8.65845
▁dung	-8.65913
▁100	-8.66504
▁trận	-8.66707
▁Đối	-8.66834
▁vùng	-8.66856
▁18	-8.67224
▁Ví	-8.67406
▁Lần	-8.6752
▁nhỉ	-8.67555
▁truy	-8.67679
▁Xin	-8.67844
▁Ngoài	-8.68426
c	-8.68613
▁cũ	-8.68705
▁khá	-8.68706
▁giác	-8.68882
▁gắng	-8.68932
▁ràng	-8.68979
▁My	-8.69157
▁‘	-8.69159
▁cười	-8.69293
▁dạy	-8.69327
ng	-8.69464
▁Đã	-8.69556
▁Vào	-8.69681
▁đoán	-8.70203
▁Cuối	-8.70242
▁bức	-8.70361
ing	-8.70527
▁trải	-8.70609
▁thuyết	-8.70642
▁tim	-8.70681
▁)	-8.70864
▁Đến	-8.71024
▁cuốn	-8.71102
▁quen	-8.71179
▁ghi	-8.71492
▁đô	-8.71561
▁Tập	-8.71816
▁xấu	-8.72011
▁ko	-8.72046
▁cải	-8.72146
▁đảo	-8.72248
▁đen	-8.72322
▁M	-8.72437
▁Độ	-8.72569
▁Tìm	-8.7259
▁nửa	-8.72631
▁tải	-8.72641
▁Me	-8.73246
▁Bắc	-8.73302
▁vận	-8.73446
▁ca	-8.73637
▁chuyến	-8.73763
▁Mỗi	-8.73779
?"	-8.73781
▁Trên	-8.74163
▁Thánh	-8.74344
▁Hội	-8.75176
▁Tình	-8.75244
▁*	-8.75323
▁Dịch	-8.75366
▁Windows	-8.75401
▁khủng	-8.7563
▁khởi	-8.76278
▁mẫu	-8.76373
▁khăn	-8.76424
▁tôn	-8.76437
▁24	-8.76526
▁thưởng	-8.76574
▁To	-8.76605
▁máu	-8.76645
▁ánh	-8.76731
▁trắng	-8.76948
▁rời	-8.77022
▁Tháng	-8.77469
▁Thật	-8.77485
er	-8.77588
▁cử	-8.77596
▁hơi	-8.77773
▁mã	-8.77803
▁Châu	-8.77853
▁mấy	-8.78004
▁Cái	-8.78007
▁Bảng	-8.78041
▁đông	-8.78134
▁suốt	-8.78277
▁da	-8.78278
▁vượt	-8.78283
▁thăm	-8.78319
▁0	-8.78495
▁lớp	-8.78512
▁may	-8.78548
1	-8.79016
▁khai	-8.79052
▁Về	-8.79265
▁hoàng	-8.79328
▁đáp	-8.79566
▁17	-8.79734
▁Cả	-8.79858
▁lửa	-8.7999
▁Of	-8.80041
▁đoàn	-8.80129
▁phù	-8.80203
B	-8.8065
▁nghi	-8.80972
▁soát	-8.8108
▁sâu	-8.81555
▁dấu	-8.81706
▁bốn	-8.81846
▁loài	-8.819
▁coi	-8.8193
▁la	-8.82106
▁thù	-8.82123
▁thập	-8.82191
▁khẩu	-8.82231
▁khắp	-8.82589
▁lễ	-8.82683
▁Yêu	-8.82826
▁ơi	-8.8285
▁kích	-8.83048
▁L	-8.83051
▁áo	-8.83155
▁tố	-8.83187
▁nghiêm	-8.83512
▁vàng	-8.83628
▁25	-8.83765
▁ngờ	-8.84044
▁H	-8.84334
▁Hình	-8.84611
▁Nhiều	-8.84858
▁sân	-8.84932
▁bại	-8.85115
▁Ý	-8.85137
▁Giáo	-8.85216
▁sàng	-8.85385
▁thuận	-8.85414
g	-8.85456
▁bầu	-8.85598
▁G	-8.85752
▁chữ	-8.85845
▁Ấn	-8.85913
▁In	-8.8604
▁50	-8.86175
▁tiện	-8.86238
▁tiểu	-8.86273
▁tắc	-8.86385
▁lắng	-8.86403
▁Thái	-8.86449
▁trăm	-8.86553
▁rượu	-8.86827
▁Tin	-8.8705
▁chóng	-8.87134
▁lĩnh	-8.87233
▁Cảm	-8.87257
▁cháu	-8.87267
▁Việc	-8.87602
▁dòng	-8.87656
3	-8.87713
▁John	-8.87745
▁hoa	-8.87895
▁niệm	-8.88101
▁ngắn	-8.88123
▁mại	-8.88194
▁Lúc	-8.88207
▁Sao	-8.88428
▁Được	-8.88531
▁quý	-8.88668
▁Chiến	-8.88924
▁Nói	-8.88939
▁La	-8.89073
▁Mẹ	-8.89283
▁niên	-8.89289
▁cư	-8.89351
▁Microsoft	-8.89473
▁lạ	-8.89778
▁dựa	-8.89785
▁nặng	-8.89851
▁phổ	-8.90009
▁Nhân	-8.90221
▁xúc	-8.90303
▁bí	-8.90408
▁bang	-8.90413
x	-8.90452
▁niềm	-8.90621
▁Đông	-8.90824
▁Của	-8.90843
▁thậm	-8.90905
▁ổn	-8.90964
▁Hàn	-8.91127
▁ngân	-8.91344
▁Apple	-8.91578
▁game	-8.91768
▁tệ	-8.91856
▁món	-8.91921
▁trụ	-8.92006
▁gốc	-8.92037
▁lạnh	-8.92045
▁tuyên	-8.92105
▁xuyên	-8.9226
▁hy	-8.9238
▁chào	-8.9243
G	-8.92723
▁Thực	-8.92848
▁lệnh	-8.92976
▁lá	-8.93084
▁Facebook	-8.93141
▁Mọi	-8.93286
▁tai	-8.93554
▁Phòng	-8.93619
▁on	-8.9365
▁Hơn	-8.94093
M	-8.94234
▁Dù	-8.94609
▁P	-8.94864
▁Bởi	-8.95044
Không	-8.95123
ed	-8.95439
▁de	-8.95453
▁đệ	-8.95553
▁hậu	-8.95758
▁N	-8.95802
▁tín	-8.95921
▁York	-8.95937
▁dậy	-8.96288
▁mẽ	-8.96316
▁phán	-8.96332
▁Israel	-8.965
▁V	-8.96529
▁vua	-8.96626
▁linh	-8.96778
▁buộc	-8.97117
▁buồn	-8.97157
▁mèo	-8.97305
▁Love	-8.97311
▁lược	-8.97403
▁thái	-8.97469
▁núi	-8.97694
▁Internet	-8.97694
▁E	-8.97818
▁hạt	-8.97935
▁Á	-8.97955
▁chăm	-8.98709
▁nhiễm	-8.98792
▁ô	-8.98928
▁Giới	-8.99049
▁Đầu	-8.99165
The	-8.99311
▁ma	-8.99427
▁Cũng	-8.99448
▁xung	-8.99522
▁you	-8.9985
▁chiều	-8.99898
▁kéo	-9.00357
▁Học	-9.00546
▁dõi	-9.00718
▁Inn	-9.00843
▁vai	-9.00965
▁Ảnh	-9.00966
▁tốc	-9.00973
▁tận	-9.01087
▁trao	-9.01334
▁cánh	-9.01464
▁Hà	-9.01575
▁hủy	-9.01734
▁Bảo	-9.01769
▁is	-9.02064
▁giây	-9.02639
▁Bây	-9.02702
▁tớ	-9.02746
▁giấc	-9.02836
▁phê	-9.02843
▁ác	-9.02927
▁40	-9.03098
!"	-9.03185
▁Mặc	-9.03192
▁quảng	-9.03237
▁đỏ	-9.03296
▁già	-9.03305
▁K	-9.03423
▁Cơ	-9.0352
▁An	-9.03895
▁sắp	-9.03937
▁tù	-9.04046
▁Chẳng	-9.04165
▁hút	-9.04387
▁Trường	-9.04587
▁chữa	-9.04699
▁đỡ	-9.04762
▁Office	-9.04899
▁Thụy	-9.05015
▁Phim	-9.05065
▁lầm	-9.05304
▁Đi	-9.05384
▁trì	-9.05412
▁môn	-9.05517
▁phiếu	-9.05577
▁hứa	-9.05635
▁dầu	-9.05639
▁Cha	-9.05722
▁bữa	-9.05823
▁tạp	-9.06224
▁bè	-9.06277
▁mắc	-9.06346
▁Hoàng	-9.0635
▁Ghi	-9.06796
▁bọn	-9.06845
▁đốc	-9.06928
▁luyện	-9.07121
▁giàu	-9.07192
▁21	-9.07215
▁dối	-9.07306
▁ngăn	-9.0731
▁mười	-9.07331
▁tránh	-9.07685
▁yên	-9.07952
▁phong	-9.08086
▁tả	-9.081
▁F	-9.08143
▁hồn	-9.08158
▁khổ	-9.08323
▁tộc	-9.08426
▁lao	-9.08535
▁X	-9.08621
▁chỉnh	-9.08846
▁x	-9.09102
▁hè	-9.09308
▁Thứ	-9.09514
▁Cộng	-9.09603
▁Tiêu	-9.09752
▁giấy	-9.09774
▁cân	-9.10002
▁Y	-9.10032
▁Cậu	-9.10063
▁Bình	-9.10168
▁thẳng	-9.10209
▁Máy	-9.10418
▁Trái	-9.10535
▁đổ	-9.10541
u	-9.10621
▁Bà	-9.10698
P	-9.1076
▁lành	-9.10814
▁Mặt	-9.11219
p	-9.1123
▁đột	-9.11232
▁chụp	-9.11267
▁Canada	-9.11285
▁đám	-9.11309
▁khắc	-9.11438
▁hạ	-9.11698
▁thoát	-9.11712
▁phi	-9.11761
▁sóc	-9.11824
▁can	-9.12021
▁Đồng	-9.12033
▁World	-9.12093
▁tòa	-9.12314
▁xong	-9.12351
▁lái	-9.12435
▁Bất	-9.12807
▁tướng	-9.12884
▁bày	-9.13116
▁19	-9.13143
▁hề	-9.13212
▁Sinh	-9.13446
▁One	-9.1353
▁Home	-9.14072
▁Sử	-9.14203
▁22	-9.14245
Nếu	-9.14388
▁Địa	-9.14611
▁tái	-9.14671
▁Phi	-9.1521
4	-9.15268
▁nỗi	-9.15413
▁rơi	-9.15425
▁tầm	-9.1545
▁chối	-9.15643
▁nhiệt	-9.15668
▁Đánh	-9.15749
▁đức	-9.15851
▁trông	-9.1597
▁Thương	-9.16429
▁sơ	-9.16584
Em	-9.166
▁nóng	-9.16608
▁Giải	-9.16637
▁hài	-9.16753
▁bổ	-9.16802
▁ví	-9.16839
▁Tải	-9.16976
▁thịt	-9.17019
▁ẩn	-9.17154
▁nam	-9.17181
▁R	-9.17307
▁trừ	-9.17667
▁cưới	-9.1783
▁Văn	-9.18056
▁họa	-9.1818
▁Đ	-9.18191
▁tắt	-9.18265
▁Nữ	-9.18288
▁phóng	-9.18434
▁lương	-9.18698
▁xưa	-9.18699
▁khóc	-9.187
▁Ngay	-9.19126
▁suất	-9.19132
▁Dân	-9.19196
▁ngạc	-9.19218
▁đào	-9.19289
▁nâng	-9.19306
▁thảo	-9.19482
▁Sản	-9.19721
▁băng	-9.19836
▁#	-9.19907
▁xanh	-9.20273
▁bắn	-9.20357
▁kiểu	-9.20446
▁họp	-9.20479
▁giận	-9.20501
▁chàng	-9.20611
▁It	-9.20672
▁nghèo	-9.20779
▁ngàn	-9.2096
▁sáu	-9.21093
▁đuổi	-9.21202
▁chứa	-9.21244
▁hào	-9.21269
▁Mà	-9.21473
▁thờ	-9.21486
▁Paris	-9.21654
▁tóc	-9.21695
▁mời	-9.21745
▁cà	-9.21783
▁dừng	-9.21956
▁Tự	-9.22139
▁giám	-9.22334
▁đẩy	-9.2234
▁gấp	-9.22557
r	-9.22587
▁khứ	-9.22636
▁phận	-9.22877
▁thẻ	-9.22974
▁cắt	-9.2321
▁Phải	-9.23313
▁súng	-9.23363
▁ghét	-9.23398
▁khuyên	-9.23577
▁bạc	-9.23758
▁màn	-9.24009
▁tặng	-9.24153
▁khám	-9.24233
▁đón	-9.24243
▁ưu	-9.24343
▁Bên	-9.24384
▁thừa	-9.2441
▁thai	-9.24498
▁Hay	-9.24596
▁cấm	-9.2481
▁trúc	-9.24877
▁thách	-9.24902
Anh	-9.25026
▁mắn	-9.25077
▁Amazon	-9.25111
▁giai	-9.25189
▁miền	-9.25633
E	-9.25755
▁quần	-9.25832
▁Thượng	-9.26041
▁ừ	-9.26055
▁O	-9.26183
▁lộ	-9.26214
▁đem	-9.26381
▁biên	-9.266
▁hiển	-9.2664
▁Giờ	-9.26686
▁sổ	-9.26842
▁dọa	-9.26949
▁giảng	-9.27261
▁thuế	-9.27272
▁sạch	-9.27387
▁tảng	-9.27491
▁Mục	-9.27554
en	-9.27678
▁Nhạc	-9.27712
b	-9.28079
▁San	-9.28163
▁quà	-9.28211
▁thánh	-9.28228
in	-9.28248
▁cận	-9.28359
▁mày	-9.28645
▁bảy	-9.28646
▁Thay	-9.2871
▁e	-9.28734
▁Luật	-9.28814
▁nhắc	-9.2896
▁thao	-9.29549
▁ngừng	-9.29608
▁ngựa	-9.29682
▁Chắc	-9.29808
NG	-9.29825
▁Thủ	-9.29871
▁Đặc	-9.30089
▁mươi	-9.30185
▁Rất	-9.30244
▁cấu	-9.30261
▁ân	-9.30291
▁60	-9.30379
▁binh	-9.30397
”,	-9.30464
▁bánh	-9.30763
▁Tài	-9.30791
▁chiếm	-9.30882
▁sung	-9.30892
F	-9.30973
▁tùy	-9.31212
▁23	-9.31291
▁Thể	-9.31377
▁28	-9.31394
▁ninh	-9.31406
▁lặng	-9.31809
▁Hoạt	-9.31966
▁nuôi	-9.32192
▁nhu	-9.32234
▁hảo	-9.32256
▁ủng	-9.32322
▁góp	-9.32402
▁Cùng	-9.32434
▁thận	-9.3245
▁ngài	-9.3248
k	-9.32514
▁diệt	-9.32717
▁c	-9.32741
▁Nước	-9.32839
▁đe	-9.32951
▁Nội	-9.33065
▁Hệ	-9.33096
▁Hầu	-9.33156
▁Cập	-9.33347
▁vốn	-9.33536
▁Liệu	-9.33565
▁quán	-9.33649
▁Nguyên	-9.33793
▁thỏa	-9.33819
▁hả	-9.33877
▁Trò	-9.34223
▁hẹn	-9.34265
▁dường	-9.34454
▁All	-9.34832
▁Tiện	-9.35113
▁Hồi	-9.35159
▁dần	-9.35355
▁hạng	-9.35375
▁tầng	-9.35468
▁Hiệp	-9.35614
▁xếp	-9.35635
▁sứ	-9.35648
l	-9.3577
▁Hy	-9.35776
▁26	-9.35896
▁Tác	-9.36136
▁lẫn	-9.36194
▁rối	-9.36226
K	-9.3623
▁London	-9.36269
▁Rồi	-9.36369
▁t	-9.3646
▁não	-9.36567
▁Sĩ	-9.36666
▁Hành	-9.36767
▁No	-9.36776
▁City	-9.3713
▁Bắt	-9.37747
▁tắm	-9.37773
▁thủy	-9.37928
▁đương	-9.38156
▁Lại	-9.38195
▁sa	-9.38299
▁Gia	-9.38339
▁kính	-9.38384
▁chặn	-9.38386
▁Thiết	-9.38464
▁tịch	-9.38503
▁thụ	-9.3861
▁Bác	-9.38698
▁chúa	-9.39236
▁ngược	-9.39242
Có	-9.39558
▁cơn	-9.39584
▁Tiếp	-9.39805
▁chiếu	-9.39917
▁nông	-9.40072
▁miệng	-9.40113
▁Xe	-9.402
▁loạn	-9.40213
▁mái	-9.40216
▁nhắn	-9.40316
▁rừng	-9.40396
▁sông	-9.4055
▁nhảy	-9.40843
Am	-9.40906
▁Video	-9.40913
▁hấp	-9.40949
▁nghề	-9.4097
▁km	-9.41033
▁ngoái	-9.41145
▁—	-9.41196
▁Hàng	-9.41212
▁khảo	-9.41354
▁tường	-9.417
▁trốn	-9.42
▁$	-9.42084
▁tiếc	-9.42113
▁liền	-9.42139
▁thầy	-9.42257
U	-9.42437
▁bảng	-9.42549
▁trữ	-9.42587
▁Đất	-9.42658
▁hẳn	-9.4267
▁thuyền	-9.42858
5	-9.42954
▁Your	-9.42954
▁đài	-9.43388
▁b	-9.43495
▁xóa	-9.43499
▁On	-9.43546
▁nhằm	-9.43676
▁tỏ	-9.43903
▁hãng	-9.44298
▁thước	-9.44697
................	-9.44747
▁Hải	-9.44932
▁thiệt	-9.44973
▁nhẹ	-9.45024
▁Tiên	-9.45298
▁dưỡng	-9.45481
▁Chọn	-9.45752
▁trăng	-9.45811
▁nhờ	-9.45848
▁khiển	-9.45894
▁truyện	-9.45932
):	-9.4594
▁nỗ	-9.46189
▁cháy	-9.46415
▁by	-9.46532
▁Dự	-9.46665
v	-9.46697
▁kêu	-9.46755
▁tỉnh	-9.46776
▁tri	-9.4685
▁Mã	-9.46873
▁nha	-9.46905
▁Be	-9.46919
▁thơ	-9.46926
ra	-9.46931
O	-9.46953
▁blog	-9.4701
▁tàng	-9.47083
▁27	-9.47097
▁hãi	-9.47153
▁đua	-9.47187
▁rút	-9.47544
▁Game	-9.47694
▁nắm	-9.47714
▁đòi	-9.47909
▁ly	-9.48136
▁Tư	-9.48185
▁Danh	-9.48347
",	-9.48352
▁Khoảng	-9.48412
▁Gần	-9.48446
▁lục	-9.48554
▁vững	-9.48572
▁Mới	-9.4875
▁nổ	-9.48854
▁mệnh	-9.48977
▁chăng	-9.49172
▁thí	-9.49265
▁ro	-9.49423
▁Chị	-9.5009
▁J	-9.5021
▁Chuyện	-9.5052
▁Thần	-9.50605
▁m	-9.50638
▁nhẫn	-9.50697
▁Khoa	-9.50898
▁Phụ	-9.50913
▁Is	-9.50997
▁Mùa	-9.51012
▁Lý	-9.51024
▁chim	-9.51156
▁Chào	-9.51293
▁điệp	-9.51303
▁siêu	-9.51332
▁me	-9.51527
▁gói	-9.51541
▁Loại	-9.51625
▁hộp	-9.51757
▁địch	-9.51792
▁giành	-9.51799
▁So	-9.51845
▁Sáng	-9.52031
▁ung	-9.52082
▁bật	-9.52086
▁đế	-9.52132
▁Tính	-9.52453
▁vẽ	-9.52469
▁ngại	-9.52518
▁my	-9.52562
▁Giáng	-9.52575
▁Tokyo	-9.52835
▁Nhìn	-9.52858
re	-9.52979
▁vĩ	-9.53076
▁mưa	-9.53227
▁And	-9.5329
▁loạt	-9.53314
▁phức	-9.53372
▁Quan	-9.53407
▁Khu	-9.53436
▁Thị	-9.53715
▁Re	-9.54
▁kịch	-9.54232
▁Nên	-9.54315
▁tao	-9.54346
▁Man	-9.54366
▁sánh	-9.54373
▁đói	-9.54457
▁bận	-9.54499
▁dứt	-9.54551
▁phạt	-9.5467
▁[...]	-9.54775
▁ấn	-9.55005
▁Đọc	-9.55176
▁lừa	-9.55276
▁tổn	-9.55291
Hãy	-9.5542
▁email	-9.55456
▁Nghiên	-9.55531
Các	-9.55617
▁Nghe	-9.55672
▁hùng	-9.55689
▁khuôn	-9.55707
▁tạm	-9.55909
▁David	-9.56107
▁nợ	-9.56177
▁·	-9.56247
▁Quản	-9.56248
▁cãi	-9.56267
▁cường	-9.56354
▁dĩ	-9.56437
▁2015	-9.56481
Người	-9.56485
▁Tiến	-9.56494
▁Twitter	-9.56626
▁thiểu	-9.56809
▁ngoan	-9.56845
▁d	-9.56898
▁xu	-9.56914
▁Syria	-9.56969
▁ngon	-9.57145
▁hương	-9.57212
▁Tối	-9.57243
man	-9.573
▁cờ	-9.57303
▁Úc	-9.57409
▁Iran	-9.57463
L	-9.57534
▁Q	-9.57584
▁khuyến	-9.57738
▁lối	-9.57772
▁For	-9.5783
▁vỡ	-9.57972
▁29	-9.58078
com	-9.58272
▁bạo	-9.58318
▁TV	-9.58352
▁nhấn	-9.58384
es	-9.58456
▁dây	-9.58596
▁Chiếc	-9.5869
▁2013	-9.58834
▁lưới	-9.58838
▁giường	-9.58994
▁phối	-9.5907
▁Đường	-9.59106
▁thằng	-9.59223
▁tấm	-9.59251
▁Mô	-9.59636
▁Tương	-9.59828
&	-9.59835
▁Tổ	-9.59885
▁Nhận	-9.59894
không	-9.59972
▁II	-9.60039
▁kê	-9.60065
▁Cảnh	-9.60204
▁xinh	-9.60301
▁chậm	-9.60319
▁i	-9.60473
▁rẻ	-9.60851
▁Bệnh	-9.60891
▁Đêm	-9.60914
▁phỏng	-9.60917
▁Ngươi	-9.60925
▁Bằng	-9.60996
▁Michael	-9.61269
▁hổ	-9.61355
▁Time	-9.61375
V	-9.61478
▁Mac	-9.61555
▁Lịch	-9.61604
▁at	-9.61661
Ta	-9.61852
▁Vương	-9.61878
▁Nguồn	-9.61889
▁sót	-9.61995
▁đạp	-9.62029
▁thuê	-9.62046
▁kì	-9.62133
▁hoảng	-9.6222
▁chấm	-9.62227
▁cầm	-9.62257
▁cậy	-9.62284
▁Allah	-9.62287
▁Giê	-9.62377
▁Đôi	-9.62542
▁Tom	-9.62558
R	-9.62566
▁điên	-9.6259
▁James	-9.62602
▁Sẽ	-9.62628
▁lính	-9.62738
▁làng	-9.62901
▁kim	-9.62924
▁Don	-9.62939
▁tô	-9.63101
▁thang	-9.63253
▁iPhone	-9.63469
▁Chi	-9.63573
▁200	-9.64223
▁thở	-9.64271
▁tờ	-9.64442
▁WEB	-9.64483
▁tồi	-9.64528
▁Day	-9.6464
▁Báo	-9.64675
▁U	-9.6473
▁2:	-9.64766
▁2010	-9.6485
▁Màu	-9.64878
▁Bitcoin	-9.65045
▁Dương	-9.65066
▁tĩnh	-9.65127
▁tha	-9.652
▁House	-9.65245
▁Jack	-9.65309
▁xuân	-9.65361
▁động	-9.65386
▁bào	-9.65769
▁90	-9.6588
▁vong	-9.65888
▁31	-9.65971
▁kiệm	-9.66018
▁dị	-9.66186
an	-9.66229
▁Chia	-9.66356
▁khôn	-9.66405
▁be	-9.66442
▁thua	-9.66493
▁đẳng	-9.66558
▁Pro	-9.66681
▁Park	-9.66996
▁Toàn	-9.67177
▁Kẻ	-9.67195
▁with	-9.67354
▁trại	-9.67362
▁Cần	-9.67447
▁Lạp	-9.67534
▁khối	-9.67547
▁Bước	-9.6756
▁Phương	-9.67605
▁Nay	-9.67741
va	-9.67768
▁35	-9.68084
▁túi	-9.68157
▁Ma	-9.68237
▁ghế	-9.68391
▁Hỗ	-9.68443
▁khúc	-9.68794
▁lãng	-9.68872
▁cẩn	-9.68897
▁k	-9.68911
ly	-9.68949
▁Kim	-9.69148
▁Muốn	-9.69166
▁Al	-9.69167
▁Singapore	-9.69233
th	-9.69296
▁Lưu	-9.69324
▁cứng	-9.69403
▁Nghệ	-9.69493
▁Đạo	-9.69604
▁Nhất	-9.69643
▁ngu	-9.70006
▁lượt	-9.70043
▁Hỏi	-9.70099
▁dám	-9.70147
▁Trẻ	-9.70183
▁Vị	-9.70247
▁tuân	-9.70531
▁Triều	-9.70614
▁hứng	-9.70699
▁album	-9.70702
▁gió	-9.70709
▁”	-9.70729
▁vườn	-9.7074
▁Kể	-9.70758
▁điển	-9.70815
▁your	-9.71004
▁túc	-9.71062
▁quái	-9.71204
▁Vấn	-9.71336
▁Đấng	-9.71468
[	-9.71545
▁cặp	-9.71621
▁tàn	-9.71659
X	-9.71867
▁rủi	-9.71869
▁căng	-9.71876
H	-9.71936
▁vĩnh	-9.72014
▁muộn	-9.72181
▁Hướng	-9.72228
▁hiệp	-9.72376
▁We	-9.72505
▁Phiên	-9.72612
▁ngục	-9.72788
▁n	-9.72863
▁Thêm	-9.72867
▁Album	-9.72993
▁Nơi	-9.73033
▁nô	-9.73058
▁tiệc	-9.73682
▁trùng	-9.73792
▁im	-9.73867
▁Đúng	-9.74044
▁_	-9.74224
+	-9.74346
Những	-9.74359
▁bơi	-9.74562
Một	-9.74616
▁32	-9.7467
▁sóng	-9.74842
▁thói	-9.74883
▁Life	-9.74956
▁Hoặc	-9.75165
▁Du	-9.75165
▁ư	-9.75182
▁Sống	-9.75603
▁George	-9.75713
▁500	-9.7572
▁mê	-9.75902
▁hồng	-9.76044
▁đĩa	-9.76218
▁xứ	-9.76291
▁Ân	-9.7644
▁bò	-9.76565
▁Hắn	-9.76576
▁80	-9.76594
▁sắt	-9.76645
▁vinh	-9.76668
▁hải	-9.76744
▁Thư	-9.76749
▁răng	-9.76875
▁kênh	-9.77029
▁biện	-9.77134
▁hoang	-9.77186
▁trống	-9.77213
▁Đế	-9.77214
▁thải	-9.77452
6	-9.77497
▁De	-9.77524
▁phẫu	-9.77619
▁đảng	-9.77622
▁Sân	-9.77692
▁Philippines	-9.78084
▁Can	-9.78108
▁2014	-9.78155
▁giọng	-9.78226
▁Chưa	-9.7827
▁Chú	-9.78287
▁Ca	-9.78389
▁Go	-9.78544
la	-9.78557
z	-9.7857
▁Thanh	-9.78615
▁ấm	-9.78736
▁gỡ	-9.78859
▁Diễn	-9.78902
▁lão	-9.78935
▁tuyển	-9.78938
Con	-9.78996
▁mệt	-9.79011
▁cướp	-9.79136
▁lưng	-9.79164
▁it	-9.79202
▁chặt	-9.7943
▁say	-9.79662
▁Trump	-9.79783
7	-9.79826
▁Chơi	-9.79838
▁Vũ	-9.79859
▁Android	-9.80064
▁bãi	-9.80097
▁vết	-9.80129
▁Paul	-9.80156
▁giỏi	-9.8016
▁2012	-9.80245
▁khẳng	-9.80273
▁trấn	-9.80312
▁tá	-9.8039
▁Viết	-9.80395
▁giày	-9.80551
▁Mexico	-9.80685
▁Red	-9.80696
▁chạm	-9.80703
▁St	-9.81006
▁1:	-9.81044
▁Tân	-9.81056
▁Washington	-9.81107
▁thảm	-9.81244
▁khích	-9.81273
▁Thổ	-9.81359
▁sữa	-9.8136
▁^	-9.81379
▁v	-9.8182
▁Brazil	-9.82125
▁cổng	-9.82174
▁2017	-9.82206
▁tiềm	-9.8234
▁ngầm	-9.82571
▁trưa	-9.82611
▁kháng	-9.8263
...”	-9.82634
ch	-9.8265
▁kho	-9.82677
▁>>	-9.82693
▁2016	-9.82722
▁Biết	-9.82745
▁Black	-9.8277
▁Định	-9.82836
▁nghìn	-9.82931
▁Ứng	-9.82956
▁(1)	-9.83153
▁Âm	-9.83166
▁bền	-9.83181
▁Trở	-9.83292
▁70	-9.83359
▁300	-9.8345
▁AWS	-9.83465
▁Tử	-9.83533
▁cam	-9.83893
▁nầy	-9.83959
▁Tiền	-9.84
▁Nhóm	-9.84016
▁đo	-9.84085
▁thổ	-9.84126
▁quyển	-9.84239
na	-9.84358
▁Nhĩ	-9.84359
▁Đào	-9.84377
▁W	-9.84422
▁lặp	-9.84487
▁California	-9.84579
▁Điện	-9.84774
▁Tiểu	-9.84783
▁Giống	-9.84847
▁45	-9.85055
▁quỷ	-9.85092
▁giấu	-9.85245
▁Best	-9.8526
on	-9.85293
▁Nàng	-9.85351
▁King	-9.85645
▁Quá	-9.857
▁mùi	-9.85848
▁Điểm	-9.85939
▁Trả	-9.85999
▁viễn	-9.8614
▁Sức	-9.86185
▁huấn	-9.86274
▁hiếm	-9.86642
▁đáo	-9.86671
▁phiền	-9.86714
▁Ra	-9.86732
▁thẩm	-9.86753
▁chừng	-9.86795
to	-9.86841
▁May	-9.86843
▁Bố	-9.86995
▁tị	-9.86995
▁nhầm	-9.87041
Đây	-9.8714
▁chủng	-9.87146
▁Đảng	-9.87201
▁Quân	-9.87247
▁Maria	-9.87536
▁Sa	-9.87653
bằng	-9.87682
▁Web	-9.87723
▁trộm	-9.87997
▁Hợp	-9.88069
▁chuột	-9.88251
▁Business	-9.88279
▁Ngân	-9.88311
▁kiên	-9.88613
▁bếp	-9.88704
▁đèn	-9.88761
▁liệt	-9.88828
▁cắp	-9.88829
▁Obama	-9.88921
▁Super	-9.89045
▁Cầu	-9.89268
▁2018	-9.89361
▁cản	-9.89368
▁chán	-9.89369
▁Thầy	-9.89403
▁ngã	-9.89439
▁thề	-9.89473
▁săn	-9.89487
▁vé	-9.89576
▁khẩn	-9.89805
▁Kiểm	-9.89876
▁Bao	-9.89948
▁2011	-9.89992
▁International	-9.90081
▁quê	-9.90228
▁internet	-9.90271
▁gà	-9.90347
▁thoải	-9.9044
▁Giám	-9.90467
▁Di	-9.90545
▁vội	-9.90563
▁bom	-9.9058
▁Blue	-9.90584
▁sắm	-9.90648
▁Vụ	-9.90722
al	-9.90795
▁Up	-9.90832
▁xứng	-9.90839
▁huy	-9.90916
▁Thì	-9.90982
▁thượng	-9.91062
▁What	-9.91208
▁Le	-9.91248
8	-9.91353
▁100%	-9.91376
us	-9.91578
▁ngọn	-9.91663
▁Đang	-9.91738
▁đựng	-9.91765
▁Minh	-9.9177
▁Chất	-9.9186
▁tu	-9.91861
▁Đồ	-9.91862
▁Phân	-9.91977
▁Indonesia	-9.92001
▁ngốc	-9.92068
▁Tuần	-9.92121
▁file	-9.92136
▁lí	-9.9231
▁đỉnh	-9.92558
▁Mua	-9.9256
▁Điển	-9.92719
▁huống	-9.92763
▁EU	-9.92815
▁Cứ	-9.92854
Bạn	-9.92915
▁Vui	-9.92991
▁vương	-9.92997
▁Will	-9.93249
▁tám	-9.93252
▁Lấy	-9.93363
▁Quy	-9.93439
▁Viện	-9.93454
▁dương	-9.93471
▁Vua	-9.93519
>	-9.93707
▁trưng	-9.93727
▁phó	-9.9376
▁no	-9.93861
▁Giao	-9.93889
▁Tâm	-9.93962
▁nấu	-9.94
▁mãn	-9.94181
Khi	-9.94304
▁hoá	-9.94313
▁Xuân	-9.94529
▁Nghĩa	-9.94672
Nhưng	-9.94696
ma	-9.94986
▁Động	-9.95251
▁website	-9.95514
▁nhuận	-9.95684
▁kém	-9.9609
▁Australia	-9.96107
▁rửa	-9.9623
Nam	-9.96276
▁2008	-9.96589
▁Little	-9.96591
▁ảo	-9.9662
▁Ngoại	-9.96629
▁Tạo	-9.96678
▁Bị	-9.96707
▁xương	-9.96723
▁trứng	-9.96774
▁(1	-9.97019
▁Lễ	-9.97133
▁Malaysia	-9.97335
▁36	-9.97437
▁Dĩ	-9.97451
▁Server	-9.97925
▁tuy	-9.98013
▁365	-9.98162
▁xâm	-9.98234
▁hối	-9.98265
▁chúc	-9.98373
▁tan	-9.98429
▁ức	-9.98491
▁Long	-9.98581
▁lồ	-9.98593
▁tách	-9.98741
▁Next	-9.98744
▁tỉ	-9.98746
▁mũi	-9.98861
▁than	-9.98863
▁Bồ	-9.99015
▁gắn	-9.99095
▁33	-9.99402
▁up	-9.9946
▁Online	-9.99509
▁Hồng	-9.99571
▁đạn	-9.99719
Tất	-9.9975
▁Quảng	-9.99928
▁trồng	-10.0009
▁gương	-10.0019
▁chảy	-10.003
!!	-10.0031
▁ngũ	-10.0034
▁đốt	-10.0053
le	-10.0056
);	-10.0058
▁Mở	-10.0063
▁Iraq	-10.0067
▁mạc	-10.0083
▁hò	-10.0097
▁bờ	-10.01
▁hận	-10.0109
▁2019	-10.0124
Y	-10.0135
▁Ðức	-10.0138
▁l	-10.0155
▁Ít	-10.0156
▁rác	-10.016
▁Harry	-10.0174
▁Thậm	-10.0186
▁khổng	-10.0188
▁Kế	-10.0209
f	-10.0251
▁chín	-10.0267
▁2007	-10.0268
▁mỏi	-10.0268
▁sưu	-10.0277
▁trà	-10.0279
▁Mười	-10.0282
▁mây	-10.0286
▁Robert	-10.0298
▁Blog	-10.0299
▁Air	-10.0323
▁Chúc	-10.0335
ll	-10.0354
▁Căn	-10.0362
▁Sáu	-10.0374
▁đc	-10.0374
▁g	-10.0377
▁tán	-10.0389
10	-10.0396
ta	-10.0397
▁rãi	-10.0397
▁48	-10.04
▁dã	-10.0411
▁bậc	-10.0412
▁Xô	-10.0423
▁Good	-10.0425
▁Thảo	-10.0431
▁Đội	-10.044
▁cựu	-10.0448
*	-10.0466
▁béo	-10.0468
▁hiến	-10.0481
▁3:	-10.0494
▁Peter	-10.05
▁Đàn	-10.0513
▁tròn	-10.0531
▁University	-10.0533
▁ngưỡng	-10.0534
▁Ukraine	-10.0535
▁Big	-10.0543
▁duyệt	-10.0544
▁nút	-10.0545
▁trú	-10.0547
▁2009	-10.0562
▁Chết	-10.0563
▁cất	-10.0564
▁che	-10.0566
một	-10.0568
▁Đặt	-10.0572
▁tuyết	-10.0575
▁lẻ	-10.0582
▁p	-10.0618
▁mến	-10.0619
Cô	-10.063
Trong	-10.0643
▁Argentina	-10.0646
▁hòn	-10.0649
▁Chuyến	-10.0668
▁This	-10.0682
▁nụ	-10.0685
▁ném	-10.0699
▁nàn	-10.0711
▁Trình	-10.0712
▁Hạnh	-10.072
▁Ủy	-10.0722
có	-10.074
▁Ngôn	-10.0743
▁Linh	-10.0755
▁mù	-10.0756
▁thọ	-10.0756
▁Vẫn	-10.0757
▁hàm	-10.0763
▁rắn	-10.0775
▁Night	-10.0798
▁Cao	-10.0798
▁mạch	-10.0812
▁s	-10.0823
▁tật	-10.0841
▁PC	-10.0866
▁like	-10.0868
▁Hồ	-10.0895
▁or	-10.0897
▁ga	-10.0909
▁Trắng	-10.091
▁Center	-10.0922
▁dâm	-10.0928
-1	-10.0931
▁hỏa	-10.094
▁El	-10.0947
▁hằng	-10.0955
▁Like	-10.0959
▁Xã	-10.0963
người	-10.0966
▁Tag	-10.0982
ia	-10.0983
▁Resort	-10.0985
▁mát	-10.0987
▁tây	-10.099
▁Kỹ	-10.0993
▁Qua	-10.1
▁ngọt	-10.1005
▁Cá	-10.1009
▁trôi	-10.1015
▁Chứng	-10.1024
ri	-10.1026
▁tốn	-10.1042
▁liều	-10.1052
▁u	-10.1085
▁Hãng	-10.1085
▁bối	-10.1088
▁khấu	-10.1094
▁thả	-10.1112
▁cám	-10.1113
▁Thường	-10.1118
▁cỡ	-10.1127
▁How	-10.1129
▁mộng	-10.115
9	-10.1162
▁Sách	-10.1178
▁2000	-10.119
▁Hòa	-10.1193
su	-10.1209
▁Power	-10.1211
▁hỏng	-10.1225
▁are	-10.1237
▁khái	-10.1243
▁Bí	-10.1249
tiếng	-10.1267
▁Quả	-10.1271
▁Ngôi	-10.1272
▁đàm	-10.1281
▁hưu	-10.1291
nh	-10.1302
▁That	-10.1304
▁bia	-10.1312
▁With	-10.1313
▁buýt	-10.1316
▁Studio	-10.1324
Đừng	-10.1331
▁tươi	-10.1333
▁Tòa	-10.134
▁Truyền	-10.1348
▁sỹ	-10.1359
▁Bảy	-10.1378
▁Outlook	-10.1381
▁quang	-10.1401
▁hi	-10.1407
▁hư	-10.1411
▁from	-10.1421
▁đeo	-10.1429
▁Này	-10.1436
▁vang	-10.1444
▁blockchain	-10.1451
▁~	-10.1476
▁URL	-10.1483
▁bụng	-10.1483
▁Mark	-10.1485
▁rộn	-10.1498
▁Thống	-10.1501
▁34	-10.1509
▁chuỗi	-10.1512
▁nè	-10.1534
▁kịp	-10.1537
▁đếm	-10.154
▁Quyền	-10.1549
▁Rock	-10.1555
▁Girl	-10.1557
▁phú	-10.1571
▁HD	-10.1573
▁bề	-10.1576
▁xạ	-10.1577
▁Tốt	-10.1592
▁ám	-10.1595
W	-10.1595
▁Ki	-10.16
▁Heart	-10.1608
▁Viên	-10.1612
▁Z	-10.1617
▁nộp	-10.1637
▁đằng	-10.1642
▁huyết	-10.1649
▁trễ	-10.167
▁thưa	-10.1687
▁lỗ	-10.1695
▁Ả	-10.1698
▁Năng	-10.1701
▁bội	-10.1703
▁Buổi	-10.1703
▁virus	-10.1706
▁;	-10.1735
▁this	-10.1743
▁trích	-10.1746
▁Biển	-10.1746
▁đùa	-10.1754
▁tháp	-10.1775
▁thác	-10.1824
▁Star	-10.1827
▁Song	-10.1836
▁đ	-10.1838
▁Vô	-10.1839
▁thoảng	-10.1843
▁thăng	-10.1871
▁quỹ	-10.1877
▁chìa	-10.1879
▁Grand	-10.1883
▁Giêsu	-10.1896
▁thiệp	-10.1905
▁Bán	-10.1905
▁Mai	-10.1907
▁Bốn	-10.1916
▁400	-10.1921
▁Free	-10.1923
Vậy	-10.1926
▁robot	-10.1931
▁bê	-10.1932
▁mượn	-10.1932
▁ơ	-10.1955
Nữ	-10.1969
▁Disney	-10.1992
▁chôn	-10.2029
▁nêu	-10.2032
▁Live	-10.2032
▁West	-10.2033
▁Sư	-10.2053
▁Đơn	-10.2058
▁Vợ	-10.2063
▁chẩn	-10.2065
▁Dưới	-10.2069
▁đền	-10.208
▁not	-10.2082
▁Tớ	-10.2084
▁Khác	-10.2089
▁Barcelona	-10.209
▁lỡ	-10.2094
▁trầm	-10.2111
Tại	-10.2123
▁ghé	-10.2131
▁Street	-10.2151
▁all	-10.2153
▁Who	-10.2161
▁Cửa	-10.2166
ve	-10.2169
ne	-10.2185
▁Bé	-10.2195
▁Los	-10.2197
se	-10.2199
▁Christ	-10.2237
▁tuệ	-10.2246
▁39	-10.2262
▁huyền	-10.2272
w	-10.2293
da	-10.2305
▁Club	-10.2313
▁huynh	-10.2323
▁iOS	-10.2336
▁150	-10.2338
▁ngừa	-10.234
▁sàn	-10.2349
▁Get	-10.2353
▁Thu	-10.2367
▁Na	-10.2373
▁Đan	-10.2375
▁nắng	-10.2375
▁Baby	-10.2381
▁Ireland	-10.2383
Ngày	-10.239
▁Phong	-10.2422
▁Sam	-10.2424
em	-10.2427
▁h	-10.2428
▁dũng	-10.243
▁sụp	-10.2447
▁lan	-10.2461
▁xế	-10.2465
▁Thích	-10.247
▁xóm	-10.2471
▁42	-10.2473
▁Top	-10.2474
▁Back	-10.2478
▁Out	-10.2479
▁phàn	-10.2501
▁nhắm	-10.2501
▁Mạch	-10.2501
▁]	-10.2504
▁ưa	-10.2521
▁Tàu	-10.2541
▁Days	-10.2554
▁Jackson	-10.2571
▁ngơi	-10.2592
▁kèm	-10.2604
▁Mất	-10.2604
▁đắt	-10.2616
▁vitamin	-10.2618
J	-10.2627
▁ISO	-10.2637
▁Xuất	-10.2647
▁38	-10.2649
▁phiêu	-10.2653
▁Đa	-10.2662
▁Tuổi	-10.267
▁pin	-10.2671
liên	-10.2676
▁2020	-10.2693
▁mồ	-10.2693
▁chở	-10.2702
▁chép	-10.2714
▁khiếp	-10.2722
▁Green	-10.2722
▁Ước	-10.2725
▁Đề	-10.273
▁Hóa	-10.2743
▁online	-10.2755
▁bão	-10.2758
▁chả	-10.2762
▁Thẻ	-10.2773
▁Chuyển	-10.2776
▁ôm	-10.2776
▁khoảnh	-10.2796
▁vắng	-10.2814
▁tui	-10.2823
▁Gặp	-10.283
▁dược	-10.2832
▁(2)	-10.2832
▁<	-10.2843
▁triết	-10.2852
▁dư	-10.2861
▁giam	-10.2865
▁bắc	-10.2869
▁Đăng	-10.2869
▁Truyện	-10.2877
▁Steve	-10.2889
▁Bóng	-10.2902
▁Vâng	-10.2911
▁Suites	-10.2915
▁1000	-10.292
▁treo	-10.2921
▁Tham	-10.2928
ie	-10.2945
▁White	-10.2947
▁Bill	-10.2959
▁chục	-10.297
$	-10.2971
Ông	-10.2972
Z	-10.2977
▁túy	-10.2989
▁dạo	-10.2999
▁YouTube	-10.3006
▁ép	-10.3007
▁dinh	-10.3024
▁góc	-10.3035
▁cục	-10.3052
▁dịp	-10.3054
▁gần	-10.3071
▁one	-10.3077
▁cương	-10.3078
▁Post	-10.3082
▁lãm	-10.3084
▁khô	-10.3094
▁Berlin	-10.3097
▁Mary	-10.3099
▁vay	-10.3104
▁Are	-10.3108
=	-10.3114
▁Charles	-10.3118
▁thép	-10.3122
▁Đâu	-10.3127
▁ngón	-10.3129
20	-10.314
hô	-10.3141
▁Rập	-10.3141
▁Đời	-10.3147
▁khát	-10.3148
▁Hát	-10.3151
no	-10.3161
▁Da	-10.3183
con	-10.3185
▁ngang	-10.3187
▁Tỷ	-10.3191
▁Cung	-10.3197
▁thợ	-10.32
▁Phúc	-10.3208
▁dày	-10.3219
▁Linux	-10.3226
▁đãi	-10.3233
▁post	-10.3246
▁Bob	-10.3246
▁have	-10.3247
▁ngắm	-10.3252
Ngươi	-10.3255
▁tụ	-10.3258
▁Inc	-10.3262
mm	-10.3264
▁Nhờ	-10.3276
▁trọn	-10.3298
!!!	-10.3307
▁Vật	-10.3307
▁thỏ	-10.3328
▁fan	-10.3329
0	-10.3335
▁Cố	-10.3346
▁that	-10.3347
▁Hi	-10.3355
–	-10.3357
▁dáng	-10.3369
▁Lee	-10.3387
▁chai	-10.3389
▁Thomas	-10.3398
▁Santa	-10.34
▁bi	-10.3407
co	-10.3411
Xin	-10.3411
▁Never	-10.3418
▁37	-10.3421
và	-10.3421
▁mỹ	-10.3434
▁gián	-10.3446
▁William	-10.3451
▁Thôi	-10.3457
▁Real	-10.346
▁Dùng	-10.346
▁khiêu	-10.3465
▁4:	-10.3465
▁Cây	-10.3467
Đó	-10.3472
▁Hiệu	-10.3499
▁khôi	-10.3504
▁dọn	-10.3522
▁hỗn	-10.3531
Ai	-10.3534
▁buôn	-10.3539
▁Thạc	-10.3541
▁ID	-10.3543
▁táo	-10.3545
▁Ko	-10.3549
khoảng	-10.3554
▁Sun	-10.3555
▁IP	-10.3559
▁Angeles	-10.3561
▁Way	-10.3565
▁Music	-10.3568
li	-10.3578
▁Đá	-10.3585
▁Tuyết	-10.3597
▁mỏ	-10.3603
▁Mẫu	-10.3605
ca	-10.3609
ữa	-10.362
▁lũ	-10.3651
Thế	-10.3655
▁giãn	-10.3656
de	-10.3657
▁Vân	-10.3658
▁Bức	-10.3661
▁If	-10.3668
▁mau	-10.3669
▁TH	-10.3672
▁taxi	-10.368
▁Suite	-10.3685
▁Kong	-10.3685
▁khoẻ	-10.3696
▁đồn	-10.3706
▁Dữ	-10.3735
▁mạo	-10.3744
▁Previous	-10.3746
▁link	-10.3756
▁Bay	-10.3758
▁Ánh	-10.3766
▁75	-10.3769
▁Co	-10.3774
▁Pakistan	-10.378
ton	-10.378
▁View	-10.378
▁Lâu	-10.3783
▁CHÚA	-10.3788
▁khoán	-10.3792
▁Old	-10.38
▁44	-10.38
▁Đáng	-10.3806
▁Texas	-10.3806
▁Mạng	-10.381
▁ngực	-10.3812
▁chu	-10.3815
▁r	-10.382
▁cóc	-10.3826
▁mì	-10.3827
▁Cháu	-10.3846
Vì	-10.3848
▁rắc	-10.3854
▁Mức	-10.3863
▁Let	-10.387
▁Hong	-10.3872
12	-10.3874
hoặc	-10.3883
▁Môi	-10.3889
▁Luôn	-10.3895
▁Chuyên	-10.3905
Sự	-10.3918
sa	-10.3919
▁Max	-10.393
▁trừng	-10.3942
▁Martin	-10.3942
▁(2	-10.3944
▁Ben	-10.3947
▁Thức	-10.3969
▁Trận	-10.3991
▁đớn	-10.3992
▁ng	-10.4003
is	-10.4006
▁API	-10.4009
▁Chicago	-10.4009
▁tràn	-10.4009
▁Thuốc	-10.401
▁Nguyễn	-10.4026
▁lưỡi	-10.4034
▁41	-10.4034
▁Kích	-10.4036
Cậu	-10.4052
▁Java	-10.4052
▁Dead	-10.4053
▁thám	-10.4055
▁diệu	-10.4069
▁Phản	-10.4081
▁Thi	-10.4092
▁kìa	-10.4095
▁điệu	-10.4097
▁CD	-10.4099
▁Now	-10.4106
▁mạn	-10.4109
▁1.1	-10.411
▁lọc	-10.4133
▁trần	-10.4133
▁Beach	-10.4156
▁1)	-10.4157
or	-10.4158
▁pha	-10.4161
▁Radio	-10.4169
▁Johnson	-10.4178
▁Thiếu	-10.4191
▁rồng	-10.4197
▁Intel	-10.4212
▁American	-10.4216
▁rỗi	-10.4218
▁5:	-10.4221
▁mi	-10.4225
▁Afghanistan	-10.4227
▁School	-10.4269
▁hoại	-10.4269
▁vạn	-10.4269
▁tung	-10.4274
▁nhãn	-10.4276
▁lợn	-10.4292
son	-10.4292
▁Hỡi	-10.4316
▁Zealand	-10.4319
▁chớ	-10.4323
▁song	-10.4324
▁2006	-10.4335
▁CEO	-10.4351
▁Bar	-10.4358
▁Road	-10.4364
ers	-10.4366
▁Cuốn	-10.4373
▁USB	-10.4378
▁120	-10.4378
▁Cổ	-10.4385
▁Version	-10.4389
▁More	-10.4389
▁50%	-10.4407
▁Putin	-10.4409
▁Alex	-10.4409
▁Chân	-10.442
▁mảnh	-10.442
▁tệp	-10.4425
Điều	-10.4427
▁2)	-10.4431
▁Hoàn	-10.4434
▁Cuba	-10.4442
▁bông	-10.445
▁Instagram	-10.4451
▁Rome	-10.4452
▁ổ	-10.446
▁Mr	-10.4462
▁phu	-10.448
▁When	-10.4489
▁phái	-10.4494
▁Cụ	-10.4527
▁Chiều	-10.4528
▁thịnh	-10.4537
▁Thử	-10.4537
▁Khởi	-10.4537
▁chuông	-10.4538
▁SharePoint	-10.4546
▁dắt	-10.4552
▁dâu	-10.4553
▁Western	-10.4553
▁Down	-10.4565
▁Mấy	-10.4568
▁Cám	-10.4591
▁bẩn	-10.4591
▁ống	-10.4602
▁64	-10.4617
▁Quý	-10.4633
▁will	-10.4639
▁iPad	-10.4639
▁cai	-10.4643
▁Not	-10.4643
▁Tim	-10.467
▁Excel	-10.4671
▁bar	-10.4674
▁Richard	-10.4675
▁Plus	-10.4685
▁tiêm	-10.4686
▁dao	-10.4693
cười	-10.4696
▁Sở	-10.4696
▁trào	-10.4697
▁%	-10.4699
ngày	-10.4703
▁65	-10.471
▁Group	-10.4716
▁ngẫu	-10.4732
▁Tội	-10.4738
▁Joe	-10.4746
▁leo	-10.4749
▁camera	-10.4755
di	-10.4759
▁55	-10.4762
▁Francisco	-10.4762
▁Times	-10.4764
▁tủ	-10.477
▁khung	-10.4773
▁Lập	-10.4774
▁He	-10.4775
▁Tựa	-10.4777
▁cỏ	-10.4781
▁nhạy	-10.4785
▁Taylor	-10.4798
do	-10.4812
▁nguyền	-10.4816
▁Hiến	-10.4817
▁gã	-10.4817
ro	-10.4818
Họ	-10.482
▁Siêu	-10.4822
▁Adam	-10.4822
▁Mèo	-10.4826
▁đuối	-10.483
▁hoan	-10.4832
▁Giả	-10.4836
▁Cài	-10.4838
▁man	-10.4839
▁Dòng	-10.4851
▁gỗ	-10.486
▁Lớp	-10.4873
▁chợ	-10.4886
~	-10.4887
▁At	-10.4891
▁go	-10.4894
▁dạ	-10.4898
▁tang	-10.4901
▁Henry	-10.4903
▁10%	-10.4903
▁Ký	-10.491
▁Express	-10.4915
Mỹ	-10.4925
um	-10.4927
▁o	-10.493
▁cát	-10.4934
▁Biểu	-10.4941
▁Lợi	-10.4941
▁love	-10.4945
▁báu	-10.4961
▁Nhớ	-10.4974
▁Chris	-10.4981
▁Kiến	-10.4981
▁nọ	-10.4983
▁Đài	-10.4996
▁time	-10.502
17	-10.5035
st	-10.5042
▁vẹn	-10.5045
▁hoãn	-10.5045
▁Bangkok	-10.5062
te	-10.5063
▁Chó	-10.5069
▁Chuẩn	-10.5072
j	-10.5074
14	-10.5074
???	-10.5075
▁cược	-10.5084
ko	-10.5088
▁clips	-10.5089
▁đam	-10.5094
▁lạm	-10.5095
▁From	-10.5118
Tiếng	-10.512
▁Miễn	-10.5132
▁lâm	-10.5139
▁90%	-10.5143
▁cừu	-10.5147
▁College	-10.5171
▁43	-10.5172
▁Open	-10.5173
▁Tăng	-10.5174
▁Play	-10.5184
▁voi	-10.5185
me	-10.5185
▁CLB	-10.5188
▁Hạ	-10.5194
▁Media	-10.5199
▁out	-10.5203
▁Gửi	-10.5209
▁Nào	-10.5224
▁Bọn	-10.5237
▁Chàng	-10.5238
▁Thân	-10.524
▁trạm	-10.5241
Và	-10.5243
▁SCP	-10.5245
▁Series	-10.5247
▁bớt	-10.5257
▁viêm	-10.5258
11	-10.526
▁chẽ	-10.5265
Ảnh	-10.5271
▁mét	-10.5277
▁Gì	-10.5279
▁gánh	-10.5281
▁Lady	-10.5288
▁Airport	-10.5299
▁Cup	-10.53
▁gọn	-10.5301
▁2005	-10.5315
▁khía	-10.5317
▁High	-10.5332
▁Tay	-10.5335
▁Tinh	-10.5349
▁chìm	-10.5354
▁Hot	-10.5369
▁hôi	-10.5379
ví	-10.5385
▁gấu	-10.5395
▁Xác	-10.5396
ba	-10.5401
▁tí	-10.5406
▁Doanh	-10.5406
▁Samsung	-10.5411
▁Skype	-10.5429
-2	-10.5452
▁pháo	-10.5461
▁gối	-10.5489
▁gen	-10.549
▁Mi	-10.5501
▁Edition	-10.5506
▁khán	-10.5517
land	-10.5527
▁Cứu	-10.5536
Nhà	-10.5539
▁chấn	-10.5556
▁khen	-10.5557
▁hà	-10.556
▁Tạm	-10.5566
▁Just	-10.5574
▁Tao	-10.5574
▁Games	-10.5577
▁gan	-10.5578
▁long	-10.5586
▁muối	-10.5589
▁kí	-10.5591
▁Phật	-10.5598
▁ái	-10.5602
▁War	-10.5605
▁bồi	-10.5605
▁hầm	-10.5612
▁đập	-10.562
▁Nhãn	-10.5624
—	-10.5627
▁Smith	-10.5632
▁Yên	-10.5634
▁nhựa	-10.5637
▁cốc	-10.5642
▁am	-10.5654
▁Jesus	-10.5658
▁cột	-10.567
▁United	-10.5672
▁Nghị	-10.5678
▁Jordan	-10.568
▁Áp	-10.5686
▁47	-10.569
▁Wi	-10.5692
▁Khả	-10.5719
el	-10.572
▁Quần	-10.5721
▁Hôn	-10.5724
▁51	-10.5725
Thật	-10.573
▁new	-10.5731
▁THE	-10.5734
▁tước	-10.5745
▁ghen	-10.5746
▁Xây	-10.5767
▁49	-10.5769
▁Trọng	-10.5772
▁Last	-10.5775
▁kỉ	-10.5777
▁đàng	-10.5783
▁Đảo	-10.5792
▁CAS	-10.5801
▁Hill	-10.5809
▁Art	-10.5821
▁Young	-10.5824
▁46	-10.5827
“	-10.5833
▁America	-10.5834
▁Royal	-10.5837
▁Hiểu	-10.5842
▁Mắt	-10.5842
▁20%	-10.5844
▁First	-10.5846
▁Happy	-10.5852
▁xoay	-10.5855
ni	-10.5865
▁IS	-10.5868
▁lắp	-10.587
ha	-10.5879
▁as	-10.5895
▁National	-10.5895
▁Phố	-10.5897
▁kín	-10.59
▁hoài	-10.5915
▁Truy	-10.5926
30	-10.5933
▁Saudi	-10.5934
▁US	-10.5935
▁Phó	-10.5939
▁Lựa	-10.5943
▁ồn	-10.5952
▁trục	-10.5956
▁Vùng	-10.597
▁cốt	-10.5979
Chỉ	-10.5993
▁nạ	-10.601
▁Ôi	-10.6013
▁Italy	-10.6017
Làm	-10.6021
▁Moon	-10.6022
▁hét	-10.6035
▁we	-10.6041
▁Ford	-10.6054
▁mưu	-10.6057
vi	-10.6059
▁cảng	-10.6087
▁80%	-10.6088
▁f	-10.6089
Q	-10.6096
▁giáng	-10.6106
▁Lỗi	-10.6114
▁01	-10.6117
▁Giảm	-10.6118
▁Đẹp	-10.6121
▁^^	-10.6125
▁Italia	-10.6126
be	-10.6135
▁Ga	-10.6139
▁Dễ	-10.6141
▁móc	-10.6144
go	-10.616
▁Phía	-10.6163
▁nhục	-10.617
it	-10.617
▁Motel	-10.6171
▁del	-10.6172
▁Lãnh	-10.6184
▁thuần	-10.6188
▁đồi	-10.6189
▁Moscow	-10.619
▁cưng	-10.6197
Công	-10.6198
▁sướng	-10.6205
▁Tới	-10.6206
▁Project	-10.6216
▁Service	-10.6219
▁Lòng	-10.6223
▁đẻ	-10.6223
▁đắn	-10.6229
▁North	-10.6229
▁III	-10.6234
▁Great	-10.6236
▁Tu	-10.6241
▁Anna	-10.6242
Hôm	-10.6246
▁cắn	-10.6248
▁khiếu	-10.625
▁Room	-10.6256
▁Mối	-10.6257
▁Tranh	-10.626
▁Ưu	-10.626
▁tân	-10.6268
▁Exchange	-10.6277
▁News	-10.6282
▁Bàn	-10.6288
▁Nhập	-10.6288
▁Trăng	-10.6297
▁lang	-10.6304
▁Tuyệt	-10.6307
▁lùng	-10.6319
▁bẫy	-10.632
▁HIV	-10.6321
▁Chờ	-10.6326
▁đợt	-10.6336
▁khuẩn	-10.6337
▁code	-10.634
▁Đen	-10.6344
▁As	-10.6358
▁Brown	-10.6366
▁Myanmar	-10.6382
the	-10.6383
▁Mike	-10.6386
▁Las	-10.6387
▁gợi	-10.6391
▁South	-10.6406
▁(3	-10.6407
▁Chạy	-10.6423
▁HP	-10.6428
▁Quyết	-10.6432
▁Kiểu	-10.6438
▁ủy	-10.6443
▁Holiday	-10.6457
▁vây	-10.6479
tôi	-10.648
▁Món	-10.6486
▁mg	-10.6509
▁dại	-10.651
trong	-10.6513
▁Lodge	-10.6533
cho	-10.6537
▁al	-10.6542
▁À	-10.6546
▁kĩ	-10.6551
16	-10.6557
tạm	-10.657
▁đắc	-10.657
▁tựa	-10.6587
▁vâng	-10.6592
▁Nhiệm	-10.6595
▁Place	-10.6595
▁thèm	-10.6596
▁Venezuela	-10.6598
▁Alice	-10.66
▁1.2	-10.66
▁uy	-10.6605
▁bỗng	-10.6614
▁Nhanh	-10.662
▁more	-10.665
▁God	-10.6656
mi	-10.666
NH	-10.666
▁Saint	-10.6667
▁VN	-10.6673
▁Giấc	-10.6678
▁Queen	-10.6687
▁Hitler	-10.6689
▁Bad	-10.6691
▁ương	-10.6693
▁Tour	-10.67
▁dâng	-10.6706
▁sói	-10.6724
▁1.000	-10.6733
▁Boy	-10.6738
▁Tags	-10.6743
▁250	-10.6743
▁búp	-10.6743
▁DVD	-10.6748
▁Tôn	-10.6752
▁đoạt	-10.6752
▁cáp	-10.676
▁đậu	-10.676
▁Euro	-10.6762
▁Chuông	-10.677
▁800	-10.677
15	-10.6795
-3	-10.6795
▁protein	-10.68
▁dỗ	-10.6803
▁kiếp	-10.6806
▁Fire	-10.6809
▁Tám	-10.6811
▁Vi	-10.6813
▁ha	-10.6822
▁Lâm	-10.6822
▁Am	-10.6824
▁rào	-10.6835
▁Sony	-10.6835
▁bùng	-10.6837
▁nại	-10.6838
▁99	-10.684
▁thầm	-10.6844
25	-10.6846
▁Only	-10.6865
▁AI	-10.6874
#	-10.6883
Nhạc	-10.6884
▁dặm	-10.689
▁vân	-10.6904
▁sốc	-10.6908
▁tiệm	-10.6909
▁Jones	-10.6915
▁Lực	-10.6931
▁Vài	-10.6935
Từ	-10.6937
▁Mobile	-10.6939
▁visa	-10.6953
▁Trần	-10.696
ic	-10.6963
▁Mini	-10.6973
▁khốn	-10.6983
▁Thuật	-10.6985
▁English	-10.6987
ley	-10.6989
▁Gọi	-10.6992
▁Thấy	-10.6999
▁Quay	-10.7004
▁2003	-10.7004
▁j	-10.7006
▁nét	-10.7013
▁mũ	-10.7018
▁Mong	-10.7025
▁Chồng	-10.7029
▁thuẫn	-10.7032
▁Know	-10.7032
▁Rõ	-10.7042
▁nghịch	-10.7046
▁Hiển	-10.7051
▁nghiện	-10.7052
từ	-10.7054
▁bắp	-10.706
40	-10.7071
▁Kỷ	-10.7075
▁Security	-10.7076
▁dính	-10.708
▁cơm	-10.7089
▁mò	-10.709
▁Giấy	-10.7095
▁66	-10.7096
▁rốt	-10.7109
▁nồng	-10.7117
▁Đổi	-10.7123
▁600	-10.7124
▁Palestine	-10.7129
▁System	-10.713
▁Blockchain	-10.713
▁Cloud	-10.7131
▁bụi	-10.7136
▁Lo	-10.7138
▁Phục	-10.7139
▁Hostel	-10.7145
▁Uống	-10.7152
▁Tony	-10.7172
▁ngợi	-10.7184
▁Light	-10.7189
▁Island	-10.7194
▁Biệt	-10.7198
▁canh	-10.7201
▁nở	-10.7213
▁thỉnh	-10.7225
▁Giữa	-10.7231
▁ghép	-10.7234
▁Sát	-10.7236
▁ok	-10.7245
▁Cấu	-10.7245
▁Dream	-10.7251
▁App	-10.7251
▁Garden	-10.7259
ine	-10.7263
▁Story	-10.7265
▁cụm	-10.7266
▁Thủy	-10.7272
▁chinh	-10.7276
et	-10.7281
▁Daniel	-10.7287
▁Ô	-10.7289
▁ngập	-10.729
▁Giúp	-10.7305
▁She	-10.7306
▁bá	-10.7309
▁dò	-10.732
▁2004	-10.7337
▁Gái	-10.7342
▁Got	-10.7358
▁Rose	-10.7362
▁tr	-10.7368
▁bấm	-10.7368
▁Cựu	-10.7372
▁NASA	-10.7374
▁Lên	-10.7379
▁Ngược	-10.7389
▁lây	-10.7398
▁Trưởng	-10.74
Fi	-10.7401
▁Rượu	-10.7424
▁OS	-10.7435
▁Lê	-10.744
▁good	-10.7456
▁Point	-10.7466
▁nhánh	-10.7467
▁Bỏ	-10.7485
▁Watch	-10.749
▁Áo	-10.7494
5-03	-10.7497
như	-10.75
▁top	-10.7501
▁tựu	-10.7507
▁Đỏ	-10.7511
▁Quỹ	-10.7511
▁phấn	-10.7516
▁Su	-10.7521
▁Network	-10.7525
▁Sứ	-10.7535
▁52	-10.7536
▁rạp	-10.7536
▁Đô	-10.7541
▁Have	-10.7545
▁Ukraina	-10.7557
▁Lớn	-10.7568
▁nhi	-10.757
▁Mơ	-10.7577
ation	-10.758
▁rỗng	-10.7587
▁khiết	-10.759
▁xăng	-10.7596
▁Boston	-10.7599
▁Giữ	-10.761
các	-10.7616
▁Mang	-10.7617
▁múa	-10.7617
▁Bỉ	-10.762
▁Vegas	-10.7628
▁sốt	-10.7631
▁40%	-10.7651
▁cắm	-10.7667
▁Sky	-10.7674
▁Call	-10.7675
▁Khóa	-10.7675
▁Van	-10.7684
▁Come	-10.7685
▁cu	-10.7686
▁Digital	-10.7687
▁File	-10.7703
▁Dark	-10.7708
▁Cisco	-10.7709
▁Residence	-10.7713
nếu	-10.7718
▁hiếp	-10.773
▁Dr	-10.7736
ion	-10.7742
▁Store	-10.7746
▁Show	-10.7747
ka	-10.7748
▁Explorer	-10.7749
▁Mày	-10.7749
Sao	-10.775
▁lộn	-10.7758
ru	-10.7762
▁cookie	-10.7766
21	-10.777
▁Access	-10.7772
▁euro	-10.778
os	-10.7784
▁Tướng	-10.7792
00	-10.7801
▁Cấp	-10.7804
▁Luân	-10.7822
13	-10.783
▁Girls	-10.7845
▁Flash	-10.7845
▁Đau	-10.7847
▁Kông	-10.7851
▁chăn	-10.7859
▁30%	-10.7865
▁tỏa	-10.7874
▁Chapter	-10.7883
▁Tạp	-10.7895
ya	-10.79
▁Jim	-10.79
▁Roma	-10.7904
▁East	-10.7907
▁Elizabeth	-10.7915
▁2015,	-10.7916
▁Master	-10.7917
▁dì	-10.792
▁tóm	-10.7933
Cái	-10.7936
▁bút	-10.7936
▁Over	-10.7937
▁Dance	-10.7939
▁Apartments	-10.794
▁thắc	-10.7943
▁Say	-10.7948
▁Vừa	-10.7953
▁lông	-10.7957
ar	-10.7962
▁TR	-10.7965
▁Nick	-10.7967
04	-10.7971
bit	-10.7975
▁cớ	-10.7977
▁Vòng	-10.798
▁Vĩnh	-10.799
Nó	-10.7992
ce	-10.7998
▁day	-10.8002
▁lô	-10.8003
▁SEO	-10.801
▁miếng	-10.8016
▁bột	-10.803
▁54	-10.8033
▁tạ	-10.8036
▁mọc	-10.8037
▁đụng	-10.8037
▁Cà	-10.8057
▁Nền	-10.8063
▁There	-10.8065
▁Frank	-10.8065
▁Thất	-10.8065
▁56	-10.807
▁TA	-10.807
▁cú	-10.8075
▁nát	-10.8079
▁Data	-10.8086
at	-10.8093
▁Chế	-10.8093
..."	-10.8101
▁thôn	-10.8113
▁Đứa	-10.8121
%	-10.8126
ki	-10.8127
▁thấu	-10.8132
▁khói	-10.8139
▁Mật	-10.8147
▁hang	-10.8152
▁cởi	-10.8155
▁Adobe	-10.8155
lin	-10.8156
▁ẩm	-10.816
ham	-10.8162
45	-10.8163
▁tour	-10.8164
▁trúng	-10.8167
chi	-10.8179
bo	-10.818
▁quận	-10.8186
Cuộc	-10.8189
▁Florida	-10.8197
▁Nỗi	-10.8203
▁lỏng	-10.8206
▁trá	-10.8211
những	-10.8211
▁(3)	-10.8218
▁download	-10.822
up	-10.8231
lo	-10.8232
▁Màn	-10.8238
▁bit	-10.8242
▁Sea	-10.8244
▁Đốc	-10.8249
▁53	-10.825
▁Make	-10.8256
▁tháo	-10.827
▁nho	-10.8278
▁Campuchia	-10.8282
▁rưỡi	-10.8291
▁Dubai	-10.8291
▁Nokia	-10.8293
▁Johnny	-10.8297
▁Mar	-10.8297
▁Niềm	-10.83
▁Vàng	-10.8308
▁Huyền	-10.831
▁Biến	-10.8321
▁lui	-10.8323
▁Us	-10.8334
▁he	-10.8336
▁nhở	-10.8346
ry	-10.8354
▁Hollywood	-10.8358
▁co	-10.8363
50	-10.8365
▁mập	-10.8367
▁ngưng	-10.8368
▁á	-10.8374
sự	-10.8374
văn	-10.8386
▁Ấy	-10.8393
▁Oh	-10.8398
▁Tốc	-10.8417
▁Key	-10.8422
▁Kitô	-10.8434
▁Bang	-10.8435
▁By	-10.8439
▁khỉ	-10.8443
▁ruột	-10.8454
▁thiêng	-10.8459
▁Độc	-10.8464
▁radio	-10.8472
▁oxy	-10.8475
▁kiêu	-10.8476
▁Jane	-10.8479
▁Tức	-10.8481
▁Duy	-10.8482
▁72	-10.8489
▁Chức	-10.849
▁ngào	-10.8498
▁thùng	-10.8503
▁//	-10.8508
▁WordPress	-10.8509
▁mực	-10.8509
▁Ha	-10.8513
Lời	-10.8516
▁buông	-10.8522
▁Vận	-10.8527
▁lõi	-10.8531
▁rũ	-10.8531
▁Lượng	-10.8533
▁58	-10.8534
▁End	-10.8535
▁Lạc	-10.8546
▁tụi	-10.8548
▁Chữ	-10.8556
▁kg	-10.8562
▁rẽ	-10.8564
▁hoà	-10.8565
▁Chrome	-10.8565
▁life	-10.857
▁Gold	-10.8577
▁Kyoto	-10.8577
▁Victoria	-10.8581
▁2016,	-10.8584
▁Christmas	-10.8588
▁series	-10.8595
▁dãy	-10.8601
▁muôn	-10.8604
▁Town	-10.8605
▁Tầm	-10.8605
▁Ly	-10.8607
▁hẹp	-10.8608
▁Wikipedia	-10.861
▁Global	-10.8611
▁Take	-10.8611
ter	-10.8614
▁IBM	-10.8616
▁Arthur	-10.8625
▁Đưa	-10.863
▁quét	-10.8631
▁vs	-10.8646
▁Đáp	-10.8647
▁Khám	-10.8648
▁nộ	-10.865
▁khuyết	-10.8652
▁Hương	-10.8656
▁đuôi	-10.8665
▁thạch	-10.8665
si	-10.8669
▁NH	-10.8675
▁ủi	-10.8676
▁ghê	-10.8679
▁Đương	-10.8688
▁Tùy	-10.8688
▁Si	-10.869
▁phước	-10.8697
Xem	-10.8708
▁lường	-10.8708
Sau	-10.8709
▁non	-10.871
▁PDF	-10.8713
▁Standard	-10.8713
▁sạc	-10.8718
▁mm	-10.8719
▁VI	-10.872
▁PHP	-10.8734
▁Nửa	-10.8735
▁xách	-10.8737
Ở	-10.8737
▁trộn	-10.8742
anh	-10.8742
▁Opera	-10.8746
▁GB	-10.8755
▁Earth	-10.8769
22	-10.8777
▁70%	-10.8781
▁giáp	-10.8782
▁6:	-10.8784
▁Thắng	-10.8791
▁mâu	-10.8799
▁PR	-10.8807
▁cửu	-10.8807
▁lát	-10.8819
▁10.000	-10.8822
est	-10.8823
▁bus	-10.8824
35	-10.8826
▁Hỏa	-10.8826
▁xá	-10.8832
▁nhịp	-10.8834
▁ngột	-10.8836
▁bó	-10.8843
▁váy	-10.8844
▁Jobs	-10.8848
ian	-10.8851
▁Giai	-10.8873
▁Here	-10.8874
▁Nụ	-10.8876
▁Clinton	-10.8879
ity	-10.8883
▁Again	-10.889
▁thơm	-10.8893
▁vã	-10.8893
▁Win	-10.8896
net	-10.8896
▁Gian	-10.8897
▁tần	-10.8899
▁cưỡng	-10.8912
▁Tiết	-10.8917
▁làn	-10.8925
▁Nhỏ	-10.8926
as	-10.8941
▁CH	-10.8953
▁Word	-10.8963
▁Dường	-10.8964
tan	-10.8966
Mẹ	-10.8975
18	-10.8976
▁2013,	-10.8978
của	-10.8981
▁xưng	-10.8981
▁Hằng	-10.8983
▁69	-10.8987
▁nề	-10.8988
ên	-10.8989
▁ngộ	-10.8991
▁=>	-10.9006
▁Spa	-10.9015
▁Olympic	-10.9034
▁Phạm	-10.9043
▁02	-10.9048
▁DC	-10.9061
▁khớp	-10.9062
Mọi	-10.9062
▁soạn	-10.9062
▁Smart	-10.907
▁rau	-10.9071
▁State	-10.9071
ist	-10.9074
▁[-]	-10.9074
In	-10.9074
Live	-10.9075
ty	-10.9077
▁óc	-10.9077
▁trương	-10.9085
▁dẹp	-10.9085
24	-10.9093
▁Nông	-10.9101
Ma	-10.9101
ge	-10.9108
▁kẹt	-10.9108
▁Hilton	-10.911
▁Robot	-10.9128
▁BBC	-10.9133
▁cõi	-10.9135
▁2.0	-10.9141
▁Phí	-10.9144
▁trượt	-10.9144
▁Triển	-10.9146
able	-10.9151
▁lôi	-10.9159
▁vượng	-10.9167
▁About	-10.917
▁nhàng	-10.9174
▁Ngủ	-10.9174
▁Want	-10.9178
▁mini	-10.9178
▁[+]	-10.9179
đ	-10.9183
▁Tuyên	-10.9189
▁vả	-10.9194
▁nghênh	-10.9202
▁(4	-10.9204
▁nhóc	-10.9214
▁xót	-10.9214
▁Un	-10.9221
▁Dạ	-10.9224
▁101	-10.9225
Phần	-10.9227
am	-10.924
▁Lake	-10.9247
▁tiễn	-10.9249
▁Ni	-10.9251
▁phím	-10.9262
▁lò	-10.9265
▁Dựa	-10.9272
▁Biên	-10.9279
▁dịu	-10.9289
Đ	-10.9289
▁1.3	-10.9303
▁Charlie	-10.9304
▁:)	-10.9312
▁Villa	-10.9313
19	-10.9314
▁Car	-10.9315
▁Quên	-10.9316
▁Death	-10.9317
▁Scotland	-10.9323
▁Hứa	-10.9324
▁Japan	-10.9333
▁Colombia	-10.9335
▁Manager	-10.9338
▁Full	-10.9339
▁Hungary	-10.9347
▁Summer	-10.9356
▁giặt	-10.9356
▁hụt	-10.9356
▁thô	-10.9363
▁Tháp	-10.9366
▁quyến	-10.9371
▁Tai	-10.9374
Trung	-10.9383
▁gũi	-10.9392
▁trật	-10.9392
▁Website	-10.9394
▁Lá	-10.9397
▁MS	-10.9403
▁tăm	-10.9404
▁bỏng	-10.9419
được	-10.9419
▁Đứng	-10.9426
▁Kiếm	-10.9433
▁Lu	-10.9433
bao	-10.9437
▁trói	-10.944
▁Nobel	-10.9442
▁Control	-10.945
chúng	-10.9456
▁Khó	-10.9474
▁UpdateStar	-10.9476
▁360	-10.9485
▁700	-10.9491
▁110	-10.9492
▁about	-10.9494
▁server	-10.9498
▁Suy	-10.9499
▁Li	-10.95
▁Centre	-10.9504
▁vờ	-10.951
by	-10.9515
▁Nhiệt	-10.9516
▁đai	-10.9517
▁Piece	-10.9523
▁57	-10.9525
▁thiêu	-10.9525
▁khiêm	-10.9528
▁sơn	-10.9529
NET	-10.9536
▁Tưởng	-10.9541
năm	-10.9542
▁Bầu	-10.9542
▁Mãi	-10.9544
▁chip	-10.956
▁gõ	-10.9562
▁Hùng	-10.9562
▁Ethereum	-10.9564
▁04	-10.9566
▁Miền	-10.9567
▁nh	-10.9571
▁khoác	-10.9575
▁Hall	-10.9576
▁heo	-10.9576
▁dọc	-10.9586
▁Nghĩ	-10.9591
▁get	-10.9593
é	-10.9596
less	-10.9597
▁hoạn	-10.9601
Cho	-10.9607
▁re	-10.9614
▁Loài	-10.9616
▁River	-10.9619
▁1%	-10.9619
▁Manchester	-10.9625
▁bổng	-10.9633
ner	-10.9633
▁nương	-10.9635
▁Đoàn	-10.9653
▁Abraham	-10.9655
32	-10.9659
▁Touch	-10.9667
▁âu	-10.9669
▁See	-10.967
▁180	-10.9674
▁8:	-10.9681
▁95	-10.9682
▁Lost	-10.9686
▁Núi	-10.969
▁ốm	-10.9697
▁Sợ	-10.9711
▁nấm	-10.9721
▁Bo	-10.9724
▁duyên	-10.9727
▁Trí	-10.9727
▁what	-10.9738
▁Quái	-10.9738
▁Williams	-10.9746
▁xài	-10.9748
▁Python	-10.975
un	-10.9761
▁Mix	-10.977
48	-10.9771
▁85	-10.9773
▁Foundation	-10.9773
▁make	-10.9779
▁lấp	-10.9783
▁Ripple	-10.9785
▁Thú	-10.9786
▁Two	-10.9803
▁ICO	-10.9811
▁cự	-10.9814
▁Why	-10.9823
▁muội	-10.9823
▁tivi	-10.9823
▁thâm	-10.9835
▁Thưa	-10.9849
▁th	-10.9854
▁golf	-10.9857
▁Vệ	-10.9858
▁Băng	-10.9863
▁2002	-10.9868
▁Port	-10.9871
▁kem	-10.9875
▁Lẽ	-10.9878
▁3)	-10.988
▁Huy	-10.9888
▁Bạch	-10.9889
chỉ	-10.9891
▁Edward	-10.9894
▁Or	-10.9894
100	-10.9895
▁Pop	-10.9897
▁(18	-10.9902
▁Lão	-10.9909
▁inch	-10.9909
▁facebook	-10.9912
▁Firefox	-10.9912
▁59	-10.9914
ER	-10.9916
▁viếng	-10.9922
▁Rio	-10.9922
▁mông	-10.9926
km	-10.9929
▁nén	-10.993
▁Camera	-10.9937
▁OK	-10.994
▁Chu	-10.9958
▁thổi	-10.9958
▁Download	-10.9959
▁lận	-10.996
▁quát	-10.996
▁sợi	-10.996
▁Tri	-10.9967
▁1960	-10.9968
▁lệch	-10.9968
▁62	-10.9971
▁world	-10.9973
▁MB	-10.9973
▁nạp	-10.9975
▁Trạm	-10.9988
▁MBA	-10.9988
▁Sarah	-10.999
▁1.0	-10.9995
▁VPN	-10.9998
▁rủa	-10.9999
ở	-11.0003
▁Cục	-11.0007
▁Khá	-11.0011
▁Right	-11.0016
ti	-11.0019
▁Land	-11.002
mo	-11.0022
▁don	-11.0024
▁Riêng	-11.0025
à	-11.0025
bi	-11.0027
▁Hậu	-11.0027
▁mòn	-11.0033
▁sex	-11.0035
▁Â	-11.0036
Mình	-11.0045
▁FBI	-11.0045
▁su	-11.0047
ment	-11.0048
▁True	-11.0061
▁site	-11.0073
ga	-11.0076
▁2017,	-11.0076
▁phổi	-11.0077
▁Quỷ	-11.0091
▁7:	-11.0092
▁Family	-11.0094
▁Rolex	-11.0103
Đã	-11.011
......	-11.0111
xi	-11.0117
▁hô	-11.0117
▁tò	-11.0121
▁Đấy	-11.0122
▁if	-11.0129
▁Wall	-11.0135
Này	-11.0135
▁châm	-11.0139
|	-11.0143
▁Dành	-11.0148
▁NATO	-11.0149
▁03	-11.0151
▁Đôn	-11.0157
Ba	-11.0168
▁2010,	-11.0168
▁61	-11.0169
▁1950	-11.0171
▁60%	-11.0172
▁guitar	-11.0178
▁Chín	-11.0184
▁Team	-11.0186
▁Tế	-11.0186
▁Space	-11.0188
▁FIFA	-11.0195
23	-11.0201
▁Trải	-11.0205
▁gãy	-11.0207
▁Dầu	-11.0207
▁Magic	-11.0213
▁Sweet	-11.0213
line	-11.0232
▁Sydney	-11.0232
▁Angel	-11.0233
▁rảnh	-11.0243
▁lùi	-11.0243
▁CIA	-11.0246
28	-11.0251
▁pizza	-11.0257
▁phun	-11.0263
▁DNA	-11.0264
▁sôi	-11.0271
▁lãi	-11.0271
▁Ken	-11.0271
▁Design	-11.0275
▁GDP	-11.0276
2)	-11.0278
▁súc	-11.0282
▁Mountain	-11.0285
▁ướt	-11.0286
▁♥	-11.0308
▁Scott	-11.0315
▁bạch	-11.0319
/1	-11.032
▁hạm	-11.032
▁đoan	-11.0324
ur	-11.0324
▁van	-11.0326
▁Phù	-11.0326
▁Kate	-11.0328
▁back	-11.0332
▁(5	-11.0334
▁Khí	-11.0338
id	-11.0339
ol	-11.0344
▁thự	-11.0359
▁Đình	-11.0361
▁menu	-11.0368
tin	-11.0386
▁Bánh	-11.0386
▁đính	-11.0387
tr	-11.0391
▁Noel	-11.0403
You	-11.0408
▁móng	-11.0413
▁Museum	-11.0414
▁Buồn	-11.0415
▁Trợ	-11.0417
▁Donald	-11.0419
02	-11.042
▁Stay	-11.0424
▁vỏ	-11.0425
▁thoái	-11.0427
▁Company	-11.0427
▁China	-11.0432
▁Visa	-11.0434
▁Quang	-11.0443
▁show	-11.0446
Chính	-11.0453
ê	-11.0463
▁Visual	-11.0472
io	-11.0472
▁Too	-11.0475
▁Ka	-11.0479
Cảm	-11.0482
▁but	-11.0485
ster	-11.0487
▁va	-11.0489
▁Nghi	-11.0491
▁ngặt	-11.0494
▁Cực	-11.0495
▁Enterprise	-11.0496
▁Men	-11.0497
les	-11.0499
Được	-11.0507
▁gạt	-11.0508
▁09	-11.0509
▁Lincoln	-11.0509
▁logo	-11.0512
Còn	-11.0513
▁Golden	-11.0522
▁down	-11.0531
▁vứt	-11.0534
▁Thằng	-11.0535
▁Management	-11.0537
▁5%	-11.0542
▁Tóm	-11.0551
▁cafe	-11.0553
▁Ác	-11.0555
Đúng	-11.0561
Allah	-11.0562
sh	-11.0568
▁Head	-11.0572
za	-11.0572
▁mảng	-11.0578
▁Ngọc	-11.0578
kg	-11.0581
▁Lục	-11.0581
▁giọt	-11.0588
▁tiệt	-11.0588
▁Bush	-11.0588
▁Quận	-11.059
ơ	-11.0596
▁khoan	-11.0597
▁Milan	-11.0598
▁Cử	-11.0602
▁2012,	-11.0607
▁rồ	-11.061
▁miêu	-11.0615
▁đành	-11.0618
▁Xét	-11.062
▁Ruby	-11.062
so	-11.0624
▁Her	-11.0626
▁đâm	-11.0629
▁Joseph	-11.0631
▁Water	-11.0632
60	-11.0636
ho	-11.0643
▁CO	-11.0648
▁Gates	-11.0649
gi	-11.0653
▁free	-11.0663
▁Mời	-11.0665
ul	-11.0676
ir	-11.0677
36	-11.0682
▁cuồng	-11.0683
▁piano	-11.0686
age	-11.0687
ke	-11.0699
▁Anne	-11.0708
▁Cánh	-11.071
▁Limited	-11.0711
▁Libya	-11.0712
▁Software	-11.0713
▁Trực	-11.0716
▁Mạnh	-11.0716
▁Nghỉ	-11.0716
▁hỡi	-11.0721
▁Dung	-11.0721
▁Uber	-11.0725
▁Bãi	-11.0728
▁carbon	-11.073
▁--	-11.0733
▁Chăm	-11.0742
▁bì	-11.0743
▁đáy	-11.0746
▁Search	-11.0747
▁SQL	-11.0747
▁MU	-11.0749
▁Chí	-11.075
▁Sir	-11.0752
▁xăm	-11.0752
▁phe	-11.0757
▁!!	-11.0764
▁Beatles	-11.0768
xin	-11.0769
▁Boys	-11.0774
sửa	-11.0783
▁Tóc	-11.0786
▁League	-11.0798
▁Blood	-11.0801
▁Miss	-11.0802
▁Our	-11.0806
▁ngọc	-11.0807
▁vở	-11.0811
▁98	-11.0825
▁mỉm	-11.0836
làm	-11.084
▁Year	-11.0841
Là	-11.0852
▁Justin	-11.0855
▁Trụ	-11.0863
▁Nguyện	-11.0866
▁Quà	-11.0868
▁here	-11.0868
▁Dragon	-11.0878
▁Mừng	-11.0878
il	-11.0883
▁vải	-11.0897
▁tráng	-11.0907
▁Mưa	-11.0909
▁Away	-11.0912
▁Drive	-11.0916
▁Sơn	-11.092
▁Asia	-11.092
▁Xa	-11.0928
▁Youtube	-11.0931
▁Ninh	-11.0935
▁kệ	-11.094
với	-11.0949
▁Del	-11.0957
▁Jerusalem	-11.096
▁lưỡng	-11.096
▁!!!	-11.0966
▁2014,	-11.0969
▁Die	-11.098
▁WHO	-11.0987
7]	-11.0989
▁Louis	-11.0993
▁ham	-11.0997
▁Hè	-11.1001
▁nãy	-11.1003
99	-11.1006
là	-11.1006
09	-11.1018
ai	-11.1024
▁IV	-11.1027
▁Things	-11.103
?”.	-11.103
xem	-11.1042
▁Tô	-11.1045
▁Grace	-11.1047
▁khoá	-11.1048
Nguồn	-11.1049
▁Chỗ	-11.1052
▁mờ	-11.1056
▁Albert	-11.1057
▁Tránh	-11.1065
▁Thỉnh	-11.1066
55	-11.1069
▁Services	-11.1073
05	-11.1073
▁gởi	-11.1073
▁Hawaii	-11.1074
▁Thí	-11.1075
TM	-11.1075
▁Ryan	-11.1077
▁chợt	-11.108
▁88	-11.1091
▁Ray	-11.1091
▁Studios	-11.11
▁Jessica	-11.1117
▁Face	-11.1122
▁Card	-11.1123
one	-11.1126
▁Cơn	-11.1128
▁gìn	-11.1129
▁test	-11.113
▁68	-11.113
GB	-11.1136
▁63	-11.114
▁tennis	-11.1144
▁Collection	-11.1146
▁Central	-11.1149
▁67	-11.1155
▁BTC	-11.1155
▁96	-11.1158
▁hung	-11.1158
▁Son	-11.1164
▁Vườn	-11.1165
Dân	-11.1165
▁Robin	-11.1168
▁140	-11.117
▁Yahoo	-11.1176
▁ong	-11.1176
▁Sửa	-11.1183
▁được	-11.1187
▁Valley	-11.1202
Ga	-11.1202
▁Galaxy	-11.1203
▁Rốt	-11.1207
/10	-11.1215
▁vuông	-11.1216
▁Name	-11.1221
▁2.2	-11.1223
▁Stone	-11.1223
▁Cas	-11.1225
▁Đợi	-11.123
▁tẩy	-11.123
▁sanh	-11.1241
▁Amsterdam	-11.1246
▁qu	-11.1261
▁Ngữ	-11.1262
▁Woman	-11.1264
ji	-11.1269
▁Brian	-11.1271
Tình	-11.1272
▁mỡ	-11.1274
▁25%	-11.1275
▁Made	-11.1278
▁06	-11.1283
08	-11.1292
▁Hello	-11.1299
▁sếp	-11.1303
▁Fort	-11.1305
64	-11.1308
▁Nghiệp	-11.1317
()	-11.1319
▁Đĩa	-11.132
▁Lạnh	-11.132
pe	-11.1322
▁Airlines	-11.1333
▁củng	-11.1333
▁name	-11.1335
Cha	-11.1337
▁Code	-11.1342
▁Jean	-11.1345
Dm	-11.1345
▁Nigeria	-11.1348
▁Bank	-11.135
▁Book	-11.1351
]]	-11.1354
cách	-11.1356
▁rỡ	-11.1361
▁Đóng	-11.1363
▁Quán	-11.1369
▁Trừ	-11.1371
▁Season	-11.1372
▁Sai	-11.1379
▁Xanh	-11.1382
▁Cổng	-11.1384
▁Eyes	-11.1391
▁check	-11.1392
▁2012.	-11.1396
▁HTML	-11.1397
▁há	-11.14
▁gươm	-11.1405
per	-11.1405
▁www	-11.1406
▁Thưởng	-11.1408
▁Cặp	-11.1409
▁KHÔNG	-11.141
!”.	-11.1413
▁Hard	-11.1416
▁Line	-11.1422
▁dê	-11.1425
▁''	-11.1425
▁After	-11.1427
▁men	-11.1432
đổi	-11.1442
No	-11.1445
▁Rain	-11.1446
ân	-11.1449
▁Tower	-11.145
▁[[	-11.1451
▁Trông	-11.1459
▁Soul	-11.146
▁Language	-11.1467
▁Kiss	-11.1469
▁Nguy	-11.147
▁2.1	-11.147
▁ah	-11.1478
công	-11.1479
-5	-11.1482
▁2001	-11.1482
▁bốc	-11.1488
q	-11.1488
▁GL	-11.149
▁z	-11.1501
▁tùng	-11.1507
▁tặc	-11.1508
Do	-11.1511
▁lân	-11.1514
▁Chứ	-11.1519
▁Emma	-11.1524
ina	-11.1524
La	-11.1529
▁2013.	-11.1533
▁mẻ	-11.1538
▁Forever	-11.1544
ron	-11.1547
▁see	-11.1554
ja	-11.1554
▁over	-11.1566
▁ch	-11.1571
▁(4)	-11.1571
▁Toán	-11.1571
▁know	-11.1573
▁Musa	-11.1576
▁Tết	-11.1589
▁Chile	-11.1591
▁130	-11.1593
▁điền	-11.1595
▁vất	-11.1597
/12	-11.1601
▁Mario	-11.1609
▁Money	-11.161
▁hố	-11.1612
▁lụt	-11.1612
▁ngẩn	-11.1612
▁Đoạn	-11.1619
-10	-11.162
▁chuộc	-11.1627
▁xưởng	-11.1627
▁hãnh	-11.1627
ler	-11.1628
▁Hữu	-11.1628
▁Golf	-11.1629
ã	-11.1631
tháng	-11.1637
▁Simon	-11.1644
▁Swift	-11.1645
▁97	-11.165
▁Georgia	-11.1653
▁1.5	-11.1656
▁quãng	-11.1657
▁People	-11.1661
▁Movie	-11.1665
âm	-11.1666
Năm	-11.1667
?!	-11.1668
▁Cat	-11.1669
▁w	-11.1676
1)	-11.1677
ts	-11.1683
▁Player	-11.1685
▁Bell	-11.1686
▁Azure	-11.1688
▁Ex	-11.1695
▁nhường	-11.1707
▁cán	-11.1713
▁Kênh	-11.1722
▁Lương	-11.1723
▁Dấu	-11.1725
26	-11.1732
▁Auto	-11.1733
▁Bếp	-11.1733
▁xả	-11.1737
▁axit	-11.174
▁LED	-11.1743
▁tia	-11.1747
▁gật	-11.1748
▁Premium	-11.1751
▁Thỏa	-11.1757
▁nhặt	-11.1763
▁nhạt	-11.1763
▁Apache	-11.1765
▁bể	-11.1765
▁Kelly	-11.1766
▁Tận	-11.1768
▁Tui	-11.1776
▁nghiệt	-11.1778
ô	-11.1781
ling	-11.1786
cy	-11.1788
▁hacker	-11.179
po	-11.1791
▁Eric	-11.1795
▁Run	-11.1805
▁MV	-11.1807
ker	-11.181
▁Ngành	-11.1815
đã	-11.1817
ber	-11.182
▁bã	-11.1828
▁bitcoin	-11.1828
▁Link	-11.1828
▁Casino	-11.1829
▁Thuyền	-11.183
▁77	-11.184
▁DJ	-11.1841
▁Ltd	-11.1843
▁Comfort	-11.1844
▁chiên	-11.1852
▁1,5	-11.1856
▁Far	-11.1863
▁Cẩn	-11.1865
▁Ibrahim	-11.1866
▁Andrew	-11.187
ana	-11.1872
▁lũng	-11.1874
▁1990	-11.188
TV	-11.1881
▁Page	-11.1885
»	-11.1893
hay	-11.1894
▁Yammer	-11.1901
▁Iceland	-11.1903
▁xám	-11.1906
▁Ya	-11.1911
▁hèn	-11.1914
07	-11.1919
▁Wanna	-11.1919
▁Jimmy	-11.1919
số	-11.1922
▁google	-11.1923
ong	-11.1925
▁Mo	-11.1929
▁CỦA	-11.1932
▁Nepal	-11.1932
▁bấy	-11.1932
ông	-11.1934
▁Virginia	-11.1935
▁9.	-11.1935
▁Off	-11.1941
▁Matt	-11.1943
▁Plaza	-11.1949
▁2008,	-11.1952
▁EUR	-11.1953
▁cm	-11.1956
▁nướng	-11.1963
ary	-11.1971
▁Country	-11.1971
▁Ti	-11.1971
▁2011,	-11.1975
Đại	-11.1991
▁Th	-11.1996
▁Vượt	-11.1998
▁cống	-11.2003
27	-11.2009
▁người	-11.2009
▁khỏa	-11.2009
▁Tích	-11.2013
▁rực	-11.2025
▁kiệt	-11.2025
▁Thẩm	-11.2028
To	-11.203
▁Sắp	-11.2031
▁logic	-11.2039
▁lồng	-11.2039
95	-11.204
▁Holmes	-11.2041
▁giật	-11.2041
▁nhấp	-11.2041
▁trinh	-11.2043
▁update	-11.2043
33	-11.2046
▁đố	-11.2055
▁Easy	-11.2061
▁71	-11.2064
▁Giết	-11.207
▁Phone	-11.2079
▁Giọng	-11.208
▁màng	-11.2086
Tạm	-11.2086
▁bưu	-11.2088
▁Deep	-11.2088
cô	-11.2092
▁2014.	-11.2101
▁1/3	-11.2109
▁Nạn	-11.211
đi	-11.2114
▁Better	-11.2115
Giới	-11.2117
▁PH	-11.2121
▁tweet	-11.2123
▁Costa	-11.2128
06	-11.2128
US	-11.2129
▁has	-11.2133
▁Wilson	-11.2135
▁Prince	-11.214
▁ranh	-11.2141
▁Khủng	-11.2143
▁Bi	-11.2144
▁Ho	-11.2159
29	-11.2161
▁phì	-11.2166
▁Ngồi	-11.2176
▁Nhấn	-11.2185
▁ngư	-11.219
▁99%	-11.219
đa	-11.2195
der	-11.2195
▁(“	-11.2196
▁Vista	-11.2202
ville	-11.2212
Đức	-11.2213
Thiên	-11.2213
▁Đà	-11.2217
▁Remix	-11.2226
01	-11.2226
▁SP	-11.2228
31	-11.2232
▁nãi	-11.2234
▁2.000	-11.2235
▁[1]	-11.2241
▁nhiếp	-11.2246
▁testosterone	-11.2248
▁Than	-11.2249
▁dưng	-11.225
We	-11.2251
▁user	-11.2253
▁81	-11.2256
▁76	-11.2257
-4	-11.2263
cha	-11.2264
▁Where	-11.2267
▁Súng	-11.2268
▁Lượt	-11.227
Thời	-11.2277
▁gạo	-11.2278
▁đà	-11.2287
▁hệt	-11.2288
▁Four	-11.2288
sen	-11.2297
▁Houston	-11.2313
▁Conan	-11.2315
▁Dell	-11.2317
▁Stop	-11.2332
▁05	-11.2336
90	-11.2342
▁cỗ	-11.2342
▁steroid	-11.2345
▁Wild	-11.2349
ey	-11.2349
▁Area	-11.2357
▁off	-11.2357
Để	-11.2358
▁2015.	-11.236
▁Oracle	-11.2362
▁ASEAN	-11.2363
▁who	-11.2369
▁100.000	-11.237
▁cưỡi	-11.2374
▁Han	-11.2382
▁Bed	-11.2382
GƯ	-11.2385
CH	-11.2385
▁Spotify	-11.239
▁thiếp	-11.2391
▁87	-11.2393
▁MA	-11.2397
▁Dũng	-11.241
lan	-11.2417
▁Christian	-11.2417
▁đỗ	-11.242
▁nuốt	-11.2423
▁quí	-11.2426
▁Môn	-11.2428
▁chốn	-11.2438
ran	-11.2439
▁kiêng	-11.2445
▁way	-11.2451
▁MC	-11.2454
Như	-11.2458
▁Latin	-11.2459
▁liêng	-11.246
▁Cười	-11.2469
▁Huawei	-11.2473
▁PowerPoint	-11.2473
nhưng	-11.2475
▁cạn	-11.2488
▁ho	-11.2491
▁bến	-11.2491
▁khinh	-11.2496
▁Sơ	-11.2501
▁Gi	-11.2501
▁08	-11.2502
▁Gmail	-11.2506
▁sỉ	-11.2521
▁best	-11.2524
▁Feel	-11.2532
▁07	-11.2535
▁khao	-11.2538
pa	-11.254
▁Village	-11.254
▁Nâng	-11.2543
▁CPU	-11.2544
▁just	-11.2546
Hai	-11.2548
▁Vé	-11.2549
▁Potter	-11.2554
▁now	-11.2554
▁Blues	-11.2556
▁Honda	-11.2556
▁bèn	-11.2564
▁Please	-11.2567
▁Lửa	-11.2574
▁Mùi	-11.2575
▁7,	-11.2582
▁Yes	-11.2585
▁Lạy	-11.2593
▁Hope	-11.2601
▁Dan	-11.2604
ate	-11.2606
▁95%	-11.2612
hi	-11.262
▁Siri	-11.2621
▁Lao	-11.2621
▁Lord	-11.2624
-8	-11.2624
Love	-11.2628
▁Séc	-11.2634
▁chốt	-11.2636
▁2007,	-11.2641
86	-11.2649
▁ôi	-11.2652
Ân	-11.2653
▁Thập	-11.2658
▁Bridge	-11.2658
▁oán	-11.2665
▁1995	-11.2668
▁sòng	-11.267
Re	-11.2671
Thành	-11.2673
▁Đảm	-11.2673
▁91	-11.2675
▁chặng	-11.2679
▁Beautiful	-11.268
▁78	-11.2684
/11	-11.2685
▁kẹo	-11.2686
▁lật	-11.2686
▁1991	-11.2688
▁Debian	-11.2688
▁2018,	-11.2689
▁Chelsea	-11.269
▁kh	-11.2691
▁Update	-11.2692
▁1.4	-11.2692
▁Mc	-11.2695
▁hiền	-11.2697
▁Inter	-11.27
Trước	-11.2706
▁ao	-11.2708
▁Union	-11.2709
''	-11.271
▁Kính	-11.2711
▁2-3	-11.2713
▁Sông	-11.2723
rs	-11.2726
▁Look	-11.2729
▁Madrid	-11.2736
▁lầu	-11.2736
▁xích	-11.2737
5-05	-11.2741
▁15%	-11.2751
▁bầy	-11.2753
▁nhượng	-11.2756
▁Ro	-11.2763
▁Three	-11.2763
org	-11.2764
▁Ver	-11.2769
▁lứa	-11.277
▁dán	-11.2774
▁hổng	-11.2779
▁Double	-11.2784
▁rung	-11.2796
▁Khoản	-11.2796
▁93	-11.2797
Nói	-11.2813
▁son	-11.2815
▁nảy	-11.2821
▁đứt	-11.2821
Chúa	-11.2826
52	-11.2835
and	-11.2851
▁Tuấn	-11.2856
▁Trà	-11.286
tên	-11.2866
▁Đệ	-11.287
▁Ngựa	-11.2877
▁Từng	-11.2881
▁General	-11.2885
▁Audio	-11.2887
men	-11.2891
▁Phút	-11.2892
▁Triệu	-11.2895
▁pro	-11.2897
▁côi	-11.2897
USD	-11.2899
▁???	-11.2905
▁Part	-11.2906
▁Ch	-11.2908
▁Jason	-11.2912
Cải	-11.2917
▁vú	-11.2919
▁Entertainment	-11.2922
▁triều	-11.2923
One	-11.2924
98	-11.2928
▁Túi	-11.2929
▁89	-11.2931
▁KB	-11.2933
▁MP	-11.2935
▁Arabia	-11.2935
▁GI	-11.2936
▁Harvard	-11.2942
▁khoái	-11.2944
▁Tỉnh	-11.2946
▁USA	-11.2955
▁giềng	-11.2957
▁trân	-11.2958
▁Cafe	-11.2959
▁Thỏ	-11.296
Với	-11.2962
▁(10	-11.2967
▁Model	-11.2968
▁Ad	-11.2974
▁Nổi	-11.2978
▁Miller	-11.298
▁Box	-11.2982
▁(5)	-11.3005
min	-11.3008
▁Age	-11.3009
▁Carter	-11.3009
▁Nằm	-11.3012
▁only	-11.3022
sinh	-11.3023
▁Yoga	-11.3026
▁láng	-11.3026
▁un	-11.3033
▁tống	-11.3033
▁mốc	-11.3043
▁Side	-11.3045
▁Im	-11.3054
▁Was	-11.3064
▁TI	-11.3064
▁Khuyến	-11.3067
▁Máu	-11.3069
")	-11.3074
▁run	-11.3074
▁never	-11.3078
▁Alexander	-11.3081
▁côn	-11.3082
box	-11.3089
▁rụng	-11.3095
▁quấy	-11.3095
▁Howard	-11.3098
Hỡi	-11.3101
đun	-11.3102
Đi	-11.3104
▁Ever	-11.3108
▁Phẩm	-11.3112
▁live	-11.3112
▁000	-11.3115
▁Batman	-11.3115
▁160	-11.312
▁Nóng	-11.3126
ting	-11.3126
▁dời	-11.313
▁Jerry	-11.3133
▁ĐI	-11.3143
▁Bangladesh	-11.3149
of	-11.3152
▁IT	-11.3157
▁2007.	-11.3158
▁Càng	-11.3158
▁Need	-11.3158
▁Kill	-11.3158
▁Machine	-11.316
▁Safari	-11.3167
▁82	-11.3175
▁3000	-11.3179
á	-11.3179
tic	-11.318
lô	-11.3182
▁hước	-11.3182
▁hack	-11.3185
▁Chung	-11.3191
▁Test	-11.3194
▁NO	-11.3196
ism	-11.3196
▁Alan	-11.3197
▁lăn	-11.3198
▁nhện	-11.3199
▁Kennedy	-11.3201
▁Institute	-11.3204
WEB	-11.3207
cái	-11.321
ING	-11.3216
▁manh	-11.3216
▁OneDrive	-11.3217
▁nếm	-11.3235
▁Tạ	-11.3236
▁Uy	-11.3247
▁nhá	-11.3251
MA	-11.3254
▁Tường	-11.3257
▁Micro	-11.3257
▁Perfect	-11.3261
▁Block	-11.3266
▁tê	-11.3269
▁một	-11.327
▁hãm	-11.3272
▁Chuột	-11.3273
▁1999	-11.3275
▁Xử	-11.3276
▁Nhi	-11.3276
ger	-11.3278
▁Trị	-11.329
▁Kd	-11.3293
▁bám	-11.3294
Mỗi	-11.3295
▁chánh	-11.3298
wa	-11.3298
▁Kids	-11.33
▁Iron	-11.33
▁PS	-11.33
▁gác	-11.3305
▁Work	-11.3306
▁Thuế	-11.3308
▁UFO	-11.3309
▁Oscar	-11.3309
▁Party	-11.3311
▁Hết	-11.332
▁nhị	-11.3322
My	-11.3323
▁Ed	-11.333
▁Archives	-11.3331
▁Future	-11.3331
way	-11.3336
▁2.3	-11.3337
▁Osaka	-11.3344
.....	-11.3345
▁Snow	-11.3346
▁Xóa	-11.3347
]:	-11.3347
▁Binh	-11.335
▁Secret	-11.335
fan	-11.3351
▁125	-11.3351
2.	-11.3354
▁ào	-11.3354
▁Episode	-11.3359
▁Toyota	-11.3359
if	-11.3359
▁Valentine	-11.336
▁Give	-11.3363
▁Cross	-11.3364
ước	-11.337
▁Technology	-11.3378
▁hormone	-11.3381
<	-11.3387
ẫu	-11.3388
▁tọa	-11.3394
▁want	-11.3396
▁Gonna	-11.3397
ant	-11.3398
▁Ar	-11.3399
▁Band	-11.34
tô	-11.3403
Tên	-11.3406
▁Hưng	-11.3413
▁Vitamin	-11.3416
▁Heaven	-11.3417
▁Edge	-11.3418
▁Einstein	-11.343
ờ	-11.343
▁lăm	-11.343
▁Xếp	-11.3433
▁Gấu	-11.3435
▁Keep	-11.3436
38	-11.3439
Chiến	-11.3439
▁Chớ	-11.3441
▁But	-11.3441
ten	-11.3442
▁9:	-11.3444
▁Ty	-11.3449
▁xí	-11.3453
34	-11.3455
▁bù	-11.347
▁Suốt	-11.3474
▁Station	-11.3476
Câu	-11.3477
▁ti	-11.3481
▁Satan	-11.3488
▁Princess	-11.3498
▁đúc	-11.3503
)"	-11.3514
nhà	-11.3515
▁home	-11.3515
▁Core	-11.3516
▁dội	-11.352
out	-11.3525
Hiện	-11.353
▁Pizza	-11.3541
42	-11.3541
▁Đột	-11.3541
▁ở	-11.3543
▁le	-11.3546
All	-11.3553
▁Fox	-11.3557
▁Oxford	-11.3558
▁Rồng	-11.3561
ness	-11.3567
49	-11.3572
▁cuộn	-11.3575
▁2010.	-11.3588
▁BMW	-11.3594
▁Nelson	-11.3596
▁Tín	-11.3601
▁83	-11.3604
▁Cook	-11.3605
▁En	-11.361
▁Nice	-11.3611
▁Diana	-11.3613
MB	-11.3617
▁Final	-11.3618
▁key	-11.3629
▁OneNote	-11.363
▁IQ	-11.3631
▁xôi	-11.3632
▁Hẹn	-11.3638
▁Pan	-11.364
ad	-11.3641
▁gi	-11.3642
▁thạc	-11.3646
▁Cambridge	-11.365
▁đống	-11.365
TI	-11.3655
wood	-11.3662
▁Tam	-11.367
▁Xưa	-11.3671
-20	-11.3671
-19	-11.3673
▁HTTP	-11.3673
▁Sleep	-11.3673
▁Kịch	-11.3674
▁86	-11.3683
▁căm	-11.3685
▁Hạng	-11.369
▁Zero	-11.3698
▁Shop	-11.3702
▁na	-11.3704
▁hít	-11.3704
51	-11.3705
den	-11.3705
mail	-11.3708
my	-11.3708
▁900	-11.3714
▁(6	-11.3716
▁74	-11.3719
Bất	-11.3734
▁Net	-11.3736
▁qui	-11.3739
▁2011.	-11.374
▁Per	-11.374
▁huỷ	-11.374
▁Gió	-11.3748
▁3.1	-11.3753
▁đòn	-11.3753
▁card	-11.3757
▁lặn	-11.3757
▁XP	-11.3759
▁Ocean	-11.3759
/2	-11.376
▁84	-11.376
▁94	-11.376
▁soi	-11.3766
▁Huấn	-11.3769
bạn	-11.3771
▁Fall	-11.378
▁Samuel	-11.3782
▁Lệnh	-11.3783
đăng	-11.379
Tổng	-11.379
▁dàn	-11.3793
▁Rừng	-11.3802
▁Ice	-11.3802
80	-11.3808
Việc	-11.3808
▁73	-11.382
▁Mind	-11.3822
▁chay	-11.3824
▁Lạ	-11.3825
▁quỳ	-11.3833
▁Giày	-11.384
theo	-11.3844
▁Lai	-11.3851
▁Jêsus	-11.3852
▁khơi	-11.3852
▁toà	-11.3852
”?	-11.3855
▁there	-11.3859
54	-11.3861
▁3.0	-11.3863
ard	-11.3863
▁ni	-11.3863
Dù	-11.3864
▁tứ	-11.3873
ze	-11.3875
▁1998	-11.3884
time	-11.3886
▁Gaga	-11.3887
New	-11.3888
▁Hell	-11.3893
▁Khóc	-11.3897
▁Dog	-11.3898
▁lờ	-11.3905
▁5.000	-11.3908
▁Brasil	-11.3913
▁Research	-11.3913
▁lội	-11.3919
▁Tra	-11.3919
▁92	-11.3921
▁Khuôn	-11.3931
▁Mau	-11.3931
▁Chống	-11.3932
▁điếm	-11.3951
▁họng	-11.3962
▁11,	-11.3965
▁Chụp	-11.3969
▁please	-11.3971
thi	-11.3972
▁OF	-11.3973
▁TO	-11.3974
-6	-11.3975
▁Nothing	-11.3979
▁Mad	-11.3982
▁đắm	-11.3984
▁Nhiên	-11.3984
▁Hat	-11.3985
▁Square	-11.3987
▁flash	-11.3989
▁stress	-11.3989
▁2%	-11.399
▁Peru	-11.3991
84	-11.3994
im	-11.4
▁rùa	-11.4003
▁Watson	-11.4006
Thưa	-11.4018
▁Captain	-11.4029
▁Marketing	-11.4029
▁Child	-11.4029
▁Loan	-11.4031
br	-11.4034
cc	-11.404
▁rỉ	-11.4041
▁Sang	-11.4044
▁Tree	-11.405
▁BTS	-11.4052
▁tông	-11.4058
▁chằm	-11.406
▁bực	-11.4061
▁Professional	-11.4063
▁Tunisia	-11.4064
▁nhát	-11.4065
▁Stephen	-11.4083
▁us	-11.4083
▁Gói	-11.4084
▁Daily	-11.4085
▁rock	-11.4085
▁page	-11.4086
▁Thuyết	-11.4093
▁Giu	-11.4098
▁Morgan	-11.4099
▁chày	-11.41
▁Bỗng	-11.4101
tor	-11.4104
▁hiếu	-11.4106
▁Phép	-11.4107
▁Phil	-11.4117
▁Guest	-11.4118
▁Emily	-11.4119
▁WhatsApp	-11.412
▁MySQL	-11.4122
▁79	-11.4128
▁Read	-11.4129
▁Chả	-11.4132
▁CSS	-11.4135
▁giếng	-11.4137
▁trùm	-11.4139
▁hot	-11.4141
▁Law	-11.4144
▁Classic	-11.4153
▁1980	-11.4156
▁thẹn	-11.4156
dy	-11.4159
▁quyên	-11.416
▁Premier	-11.4161
▁Casa	-11.4161
▁Jennifer	-11.4161
▁Bulgaria	-11.4161
▁4)	-11.4166
í	-11.4174
▁Gun	-11.4175
▁giơ	-11.4177
▁li	-11.4178
▁Triết	-11.4181
An	-11.4187
ies	-11.4191
▁Trailer	-11.4199
▁Hàm	-11.4201
▁Tấn	-11.4202
ah	-11.4209
▁Giang	-11.4211
▁ad	-11.4213
ak	-11.4214
▁1996	-11.4221
bar	-11.4223
▁Health	-11.4225
zo	-11.4227
▁Chim	-11.423
▁Ngục	-11.4234
▁rể	-11.4234
▁Sỹ	-11.4234
▁1997	-11.4239
▁Hạt	-11.4244
▁VIP	-11.4244
▁CNN	-11.4255
▁Pin	-11.4257
▁Quality	-11.4258
▁Brothers	-11.426
47	-11.426
▁RAM	-11.4269
▁ngụ	-11.427
bu	-11.4275
▁Miami	-11.4277
▁Trai	-11.4279
▁Panama	-11.4279
▁Ok	-11.4292
▁ngạo	-11.4293
▁Melbourne	-11.4295
▁Sex	-11.4308
▁yoga	-11.4313
▁115	-11.4314
▁lũy	-11.4318
▁Cover	-11.4322
▁Cam	-11.4329
▁[2]	-11.4332
▁Human	-11.4334
▁Category	-11.4335
▁SSD	-11.434
▁click	-11.434
▁2.4	-11.4345
▁3.000	-11.4346
Hình	-11.4349
▁bọc	-11.4352
200	-11.4358
▁Vai	-11.436
ảnh	-11.4366
▁Khai	-11.4368
chưa	-11.4369
▁was	-11.4369
39	-11.437
▁10:	-11.4374
▁Taliban	-11.4374
▁Khối	-11.4374
▁khuya	-11.4377
/6	-11.4389
field	-11.4389
▁Amy	-11.4389
▁Pinterest	-11.4394
▁Tiếc	-11.4394
▁Ten	-11.4397
▁Battle	-11.4398
▁2009,	-11.4404
▁Tell	-11.441
▁thoáng	-11.4411
▁5)	-11.4414
▁Fan	-11.4418
▁Crazy	-11.4418
▁BI	-11.4419
▁ngự	-11.4425
▁Lion	-11.4426
▁Ron	-11.4429
▁Living	-11.4434
▁củ	-11.4442
rd	-11.4445
▁Ku	-11.4446
▁Talk	-11.4449
▁1994	-11.445
▁Sài	-11.4451
▁Antonio	-11.4454
▁Mĩ	-11.4454
▁VR	-11.4456
▁Bắn	-11.4463
Chị	-11.4469
▁rễ	-11.447
▁thấm	-11.447
▁hân	-11.4471
▁105	-11.4472
▁Academy	-11.4474
▁Vẻ	-11.4478
ria	-11.4485
65	-11.4486
▁Dây	-11.4494
▁Tuyển	-11.4495
▁mỏng	-11.4495
▁104	-11.4505
Phải	-11.4509
▁Education	-11.4515
▁20.000	-11.4523
mar	-11.4524
▁AC	-11.4528
Chẳng	-11.453
▁Marie	-11.4534
▁->	-11.4539
▁Kid	-11.455
Bây	-11.4551
▁en	-11.4554
▁Kevin	-11.4555
▁Hộp	-11.4558
▁baby	-11.4558
▁nến	-11.4571
▁Đèn	-11.4574
ver	-11.4576
ance	-11.4576
▁Phóng	-11.4578
▁Email	-11.4579
▁Special	-11.4582
▁Set	-11.4583
▁1993	-11.4584
Số	-11.4586
▁Toronto	-11.4591
▁Khắc	-11.4591
▁Tonight	-11.4594
1.	-11.4599
▁thiền	-11.4609
88	-11.4617
▁Sound	-11.4617
▁Sắc	-11.462
▁Ronaldo	-11.4621
san	-11.4628
▁Marina	-11.4633
▁Columbia	-11.4634
-7	-11.4634
▁Serbia	-11.4637
▁AMD	-11.4637
▁nôn	-11.4637
▁Đấu	-11.4637
▁Records	-11.464
▁Mail	-11.4645
▁Marx	-11.4651
▁lọt	-11.4653
▁Wikimedia	-11.4654
▁Phú	-11.4654
▁Deluxe	-11.4657
▁token	-11.4657
mg	-11.466
▁Pay	-11.4666
au	-11.4666
▁iTunes	-11.4673
▁Tesla	-11.4673
▁Palace	-11.4674
70	-11.4674
▁Khẩu	-11.4674
▁Beat	-11.4675
ex	-11.4678
▁tụng	-11.4684
▁(8	-11.4684
▁thê	-11.4684
▁Under	-11.4688
À	-11.469
để	-11.4693
▁Tha	-11.4693
Bản	-11.4701
ó	-11.4705
ous	-11.4709
▁11.	-11.471
▁khép	-11.4712
▁dở	-11.4713
Liên	-11.4714
▁Taxi	-11.4714
▁Les	-11.4718
▁Walk	-11.4719
▁2008.	-11.472
▁hàn	-11.4721
▁Ball	-11.4721
▁Eva	-11.4722
▁Ung	-11.4722
▁thắt	-11.4733
▁úy	-11.4733
▁Diego	-11.4733
▁Restaurant	-11.4734
▁IELTS	-11.4735
▁Hồn	-11.4735
▁data	-11.4737
▁Nghề	-11.4738
▁cúng	-11.4738
▁Thing	-11.4745
▁#1	-11.4747
▁Thoại	-11.4753
▁chén	-11.4753
/3	-11.4755
vì	-11.4755
Theo	-11.4756
▁Netflix	-11.4757
▁Evil	-11.4758
▁Thơ	-11.4759
fi	-11.4766
▁Cry	-11.4768
▁Bấy	-11.4769
▁nhốt	-11.4774
▁win	-11.4776
▁et	-11.4778
-18	-11.4779
▁Trách	-11.478
▁Advanced	-11.4787
▁2009.	-11.4788
▁bồ	-11.4791
▁vươn	-11.4793
▁Seoul	-11.4798
It	-11.4798
▁sexy	-11.4801
mon	-11.4803
tự	-11.4805
▁Type	-11.4806
▁sờ	-11.4811
▁des	-11.4817
Bởi	-11.4817
▁Marvel	-11.4819
▁Private	-11.482
▁Tặng	-11.4823
Man	-11.4825
Hoa	-11.4826
▁Note	-11.4828
▁Kho	-11.4831
▁lam	-11.4833
▁Nhau	-11.4834
res	-11.4834
▁bướm	-11.4836
▁lắc	-11.4836
▁nghiêng	-11.4838
▁Wars	-11.484
▁Trao	-11.4846
▁1992	-11.4847
▁huyện	-11.4848
ara	-11.4854
▁work	-11.4854
▁dặn	-11.4856
▁lúa	-11.4857
▁Vịnh	-11.4859
▁(19	-11.486
▁Pack	-11.4861
▁Source	-11.4868
▁Framework	-11.4877
▁Tờ	-11.4877
▁rèn	-11.4877
▁IN	-11.488
▁Napoleon	-11.4882
▁Morning	-11.4884
▁Sol	-11.4885
▁Five	-11.489
▁(2013)	-11.4898
▁đạc	-11.4898
ban	-11.4904
ino	-11.4904
▁hưng	-11.4904
nd	-11.4908
▁>>>	-11.4908
▁right	-11.4912
-9	-11.4917
▁2006,	-11.4918
▁TM	-11.4919
▁râu	-11.4919
▁vạch	-11.4919
Muhammad	-11.4921
Lúc	-11.4922
▁Hơi	-11.4925
▁blogger	-11.4925
▁Body	-11.4927
▁1989	-11.4932
▁Ain	-11.4933
▁Sara	-11.4938
▁Hamilton	-11.4942
fa	-11.4944
▁Cu	-11.4944
▁Shadow	-11.4947
▁350	-11.4952
500	-11.4953
./.	-11.4958
▁nhàm	-11.4961
▁Jose	-11.4963
World	-11.4963
▁Development	-11.4963
thế	-11.4964
▁Mars	-11.4974
▁Tan	-11.4975
▁<3	-11.4978
▁TT	-11.4982
▁xé	-11.4984
▁people	-11.4984
Ngài	-11.4984
sau	-11.4987
▁Ngọn	-11.4996
▁Messenger	-11.5004
side	-11.5004
▁Ali	-11.5005
▁Mount	-11.5008
ish	-11.5013
▁Se	-11.5016
Bà	-11.5017
▁1970	-11.5017
▁Philip	-11.502
sai	-11.502
▁lít	-11.5021
▁đẽ	-11.5021
▁chiêm	-11.5024
▁việt	-11.5024
▁2.5	-11.5024
▁Sport	-11.5026
▁Tấm	-11.5029
▁little	-11.503
▁Hero	-11.5034
▁19,	-11.5039
▁lau	-11.5042
▁cấy	-11.5045
▁Halloween	-11.5047
Album	-11.5048
Nhật	-11.5048
▁Perry	-11.5048
600	-11.5048
▁Pre	-11.5056
▁chiết	-11.5067
▁Mệnh	-11.5069
vo	-11.5079
back	-11.5081
cm	-11.5084
▁sương	-11.5088
▁Pha	-11.509
▁Croatia	-11.5091
kin	-11.5092
▁Wonder	-11.5094
▁Has	-11.5103
ăn	-11.5105
▁đậm	-11.5108
▁Pass	-11.5112
“.	-11.5112
OS	-11.5112
lu	-11.5118
37	-11.5124
▁Ferrari	-11.5132
▁Phỏng	-11.5134
▁Nature	-11.5134
▁Beyond	-11.5135
▁Carl	-11.5135
head	-11.5136
▁11:	-11.5146
▁2005,	-11.5154
▁4.0	-11.5154
▁Kenya	-11.5155
Lần	-11.5155
▁Canon	-11.5159
▁chùa	-11.5172
▁laser	-11.5173
Về	-11.5177
Chuyện	-11.5177
44	-11.5188
▁HLV	-11.5194
Tớ	-11.5196
▁lăng	-11.52
▁EC	-11.5202
▁Fair	-11.5204
▁Science	-11.5206
▁Khải	-11.5208
▁rổ	-11.5212
[1]	-11.5213
▁Jersey	-11.5215
▁Yemen	-11.5217
▁Theme	-11.5218
▁123	-11.5221
▁ốc	-11.5222
▁set	-11.5223
▁Nhu	-11.5224
▁Single	-11.5233
fr	-11.5234
hợ	-11.5238
▁Comment	-11.5243
▁Đằng	-11.5243
▁UK	-11.5249
▁FDA	-11.5257
▁Diện	-11.5258
▁single	-11.5263
ano	-11.5265
▁Newton	-11.5269
▁got	-11.5279
▁chuộng	-11.528
▁chuyền	-11.528
▁đới	-11.528
▁đệm	-11.5285
▁1972	-11.5286
▁Dẫn	-11.5288
▁128	-11.5294
▁khoe	-11.5295
▁Hey	-11.5297
▁Hút	-11.5306
▁need	-11.5307
▁Luận	-11.5308
▁Jan	-11.5309
▁Eye	-11.5311
▁Spring	-11.5313
▁Were	-11.5316
▁Image	-11.5317
▁mổ	-11.5319
▁Bon	-11.532
▁Dylan	-11.5324
▁chê	-11.5328
don	-11.5335
▁concert	-11.5337
â	-11.5342
▁Think	-11.5342
▁về	-11.5345
▁bệ	-11.5354
▁Seven	-11.5355
▁Food	-11.536
43	-11.537
▁Thank	-11.5376
▁Dạo	-11.5377
▁Active	-11.5378
▁Diamond	-11.538
▁Market	-11.539
▁Jeff	-11.5393
Thực	-11.5395
ku	-11.5397
▁GPS	-11.5397
▁Adventure	-11.5398
▁Ðấ	-11.54
▁Born	-11.54
▁Driver	-11.5401
▁Act	-11.5406
▁Friends	-11.5408
▁xíu	-11.5411
▁2020.	-11.5412
▁khoai	-11.5413
International	-11.5417
▁ago	-11.5418
▁nhộn	-11.5419
▁big	-11.543
▁phơi	-11.5432
62	-11.5433
56	-11.5434
▁Vienna	-11.5435
▁Latinh	-11.5435
Chào	-11.5439
Bộ	-11.5439
▁Leo	-11.5445
▁DNS	-11.5447
▁Mông	-11.5448
▁Simple	-11.5449
▁muỗi	-11.5454
▁gục	-11.5454
IN	-11.5455
▁trọ	-11.5459
▁(12	-11.5466
▁1968	-11.5468
/4	-11.5472
MS	-11.5472
▁Sri	-11.5475
▁Philadelphia	-11.5478
▁Istanbul	-11.5479
▁McDonald	-11.5484
▁Roger	-11.5486
▁hái	-11.5487
▁Bit	-11.5488
▁khe	-11.5489
▁Hand	-11.5493
▁Ann	-11.5495
▁thầu	-11.5498
▁MT	-11.5499
▁Jamaica	-11.55
▁how	-11.5501
bản	-11.5507
Kẻ	-11.5507
que	-11.551
46	-11.551
▁team	-11.5515
▁xông	-11.5523
ph	-11.5525
2,	-11.5531
▁chat	-11.5534
▁9,	-11.5534
▁Phá	-11.5538
▁AT	-11.5541
▁thét	-11.5543
▁vùi	-11.5543
▁túng	-11.5544
▁model	-11.5555
▁Ghế	-11.5566
▁Apollo	-11.5568
▁Before	-11.5577
▁xỉ	-11.5577
▁JavaScript	-11.5587
▁Sudan	-11.5587
▁Dụng	-11.5587
▁Nhẫn	-11.5592
▁driver	-11.5593
03	-11.5596
▁class	-11.5599
97	-11.5599
▁phô	-11.5601
▁Voice	-11.5601
▁niêm	-11.5609
▁nhậu	-11.5609
▁plugin	-11.5612
▁Hillary	-11.5614
▁Gòn	-11.5621
▁nhì	-11.5625
▁thể	-11.5631
▁sưởi	-11.5632
▁Thoát	-11.5636
▁Arab	-11.5638
▁Pháo	-11.5639
du	-11.5641
▁nhã	-11.5642
▁Quyển	-11.5642
▁85%	-11.5642
▁Thịt	-11.5646
▁(2014)	-11.5654
▁Dược	-11.5654
!)	-11.5656
▁tạng	-11.5657
oc	-11.5662
▁her	-11.5666
▁Jin	-11.5668
▁Bird	-11.567
ive	-11.5674
83	-11.5676
ier	-11.5676
▁phẳng	-11.5676
▁khuất	-11.5677
▁Save	-11.5681
red	-11.5682
▁NBA	-11.5684
off	-11.569
mer	-11.5692
ea	-11.5692
▁Po	-11.5693
▁Social	-11.5694
▁Hộ	-11.5698
▁Hills	-11.5699
▁nâu	-11.5699
ến	-11.5703
rơ	-11.5705
▁our	-11.5709
▁Ghost	-11.5712
66	-11.5712
▁Everything	-11.5712
▁Start	-11.5714
ek	-11.5715
Cách	-11.5722
▁Nguyệt	-11.5723
▁NGƯ	-11.5724
▁Laura	-11.5725
▁Silver	-11.5727
▁England	-11.5727
▁Thách	-11.5728
▁75%	-11.5735
▁bách	-11.5736
▁Speed	-11.5738
▁lười	-11.5744
▁khốc	-11.5744
▁loa	-11.5748
zi	-11.5748
▁Action	-11.5753
he	-11.5753
phần	-11.5754
▁Nô	-11.5756
75	-11.5766
▁(2015)	-11.5767
▁Tỉ	-11.5767
▁take	-11.5771
▁Tủ	-11.5771
▁điếu	-11.5771
▁marketing	-11.5772
Ý	-11.5774
▁Giêng	-11.5779
▁Wind	-11.5784
▁Basic	-11.5785
▁lót	-11.579
▁Stars	-11.5792
▁Low	-11.5794
▁mụ	-11.5797
ram	-11.5807
.(	-11.581
▁khéo	-11.5812
▁chọc	-11.5813
▁Rằng	-11.5816
▁Creative	-11.5816
▁Pacific	-11.5817
▁pop	-11.5819
▁ngủi	-11.582
▁Most	-11.5825
▁Billy	-11.5825
▁(7	-11.5825
berg	-11.5829
▁Ultimate	-11.5835
▁nản	-11.5837
▁Falls	-11.5839
▁Xung	-11.5842
Rất	-11.5846
Đối	-11.5846
▁Tú	-11.5849
sê	-11.5857
▁kề	-11.5858
▁nhược	-11.5859
▁(2011)	-11.5862
▁Planet	-11.5868
▁CBD	-11.5868
vn	-11.587
▁má	-11.587
67	-11.5877
▁Smile	-11.5886
▁Thám	-11.5887
▁Nhảy	-11.5892
Vâng	-11.5892
▁Photo	-11.5894
▁Maya	-11.5905
che	-11.5906
▁France	-11.5907
▁Junior	-11.5908
▁Hoài	-11.5909
▁Wolf	-11.591
▁Lãng	-11.5911
▁Virtual	-11.5912
96	-11.5921
▁Corporation	-11.5927
▁(2012)	-11.5927
▁đực	-11.5927
ford	-11.5928
▁His	-11.5928
▁container	-11.5928
sha	-11.5937
▁Converter	-11.5937
vẫn	-11.5938
▁Children	-11.5938
▁Parker	-11.594
▁SSL	-11.5944
▁Ph	-11.5946
rin	-11.5946
▁thảy	-11.5958
Tháng	-11.5962
ris	-11.5963
▁Click	-11.5964
3.	-11.5967
▁Class	-11.5968
▁(15	-11.5971
▁Pi	-11.5971
-11	-11.5973
▁sẹo	-11.5973
-15	-11.5974
▁MI	-11.5976
▁when	-11.5977
▁nhịn	-11.5979
▁Zen	-11.598
▁Sexy	-11.598
Chương	-11.5985
▁1-2	-11.5986
exe	-11.599
mp	-11.5998
▁Fly	-11.6001
▁Lối	-11.6002
về	-11.6011
▁book	-11.6017
▁thẳm	-11.6019
▁suối	-11.6019
▁Franklin	-11.602
▁Andy	-11.602
▁nhủ	-11.602
▁Min	-11.6021
▁Surface	-11.6024
▁Guitar	-11.6025
uk	-11.6026
▁Small	-11.6026
94	-11.6027
▁Rick	-11.6029
▁Women	-11.6029
▁Universal	-11.6029
▁CA	-11.6031
tất	-11.6033
▁Fe	-11.6034
▁nốt	-11.6043
ft	-11.6045
▁Yếu	-11.6046
▁Cash	-11.6048
▁cúm	-11.6051
▁Awards	-11.6053
▁Án	-11.6053
▁Today	-11.6053
▁chè	-11.6054
▁108	-11.6055
▁Gà	-11.6056
▁WTO	-11.6059
▁Lisa	-11.6061
▁3.2	-11.6061
▁1-	-11.6064
▁Viễn	-11.6066
▁Return	-11.6067
ck	-11.607
▁AIDS	-11.6076
▁trội	-11.6089
▁Alexis	-11.609
▁Brussels	-11.6092
▁Sub	-11.6092
▁come	-11.6092
▁studio	-11.6095
▁Điệp	-11.61
▁Gã	-11.6101
▁too	-11.6109
▁ngớ	-11.6109
▁2-	-11.6111
▁Jay	-11.6113
▁XRP	-11.6124
▁Apartment	-11.6125
ES	-11.6131
▁Style	-11.6135
41	-11.6136
▁Aurora	-11.6136
▁Press	-11.6137
▁Guide	-11.6144
điều	-11.615
phải	-11.615
▁Ru	-11.6151
▁shop	-11.6154
▁Jon	-11.6155
▁Grande	-11.6156
▁rớt	-11.616
TR	-11.6161
▁nhúng	-11.6161
▁Patrick	-11.6163
op	-11.6166
▁hao	-11.617
▁Vietnam	-11.617
▁Tái	-11.6181
▁truồng	-11.6184
▁ST	-11.6185
▁Cole	-11.6186
ren	-11.6186
trước	-11.6198
▁VÀ	-11.6202
-35	-11.6206
▁luồng	-11.6207
ED	-11.6209
▁3%	-11.6213
53	-11.6219
Trên	-11.6221
▁per	-11.6223
▁night	-11.6228
▁hở	-11.6229
▁Ng	-11.6229
▁India	-11.623
▁vọt	-11.6231
▁sập	-11.6231
▁dập	-11.6231
▁nga	-11.6232
▁massage	-11.6233
ada	-11.6234
▁xà	-11.6242
▁Turn	-11.6243
▁Arts	-11.6243
▁Monster	-11.6248
▁view	-11.6253
▁dải	-11.6255
▁Bá	-11.6255
▁Xbox	-11.6256
▁LG	-11.6256
▁Without	-11.6263
▁Mộc	-11.6266
▁cay	-11.6266
▁Kingdom	-11.6267
▁Nabi	-11.6268
▁heart	-11.6269
/7	-11.6269
▁Motor	-11.6277
▁nấy	-11.6279
▁Cảng	-11.6284
▁Cắt	-11.6284
▁Mon	-11.6288
▁SD	-11.629
star	-11.6297
▁Matthew	-11.6297
▁User	-11.6297
ci	-11.6299
ari	-11.6301
▁ibis	-11.6303
-12	-11.6304
còn	-11.6305
▁Paradise	-11.6307
▁Capital	-11.6308
▁bổn	-11.631
▁Ultra	-11.6311
▁car	-11.6311
▁bìa	-11.6311
▁Force	-11.6313
▁Beauty	-11.6314
ung	-11.6316
▁wiki	-11.6319
▁Pa	-11.6321
▁xoá	-11.6326
▁Porsche	-11.6329
▁ATM	-11.6331
khi	-11.6334
▁Săn	-11.6337
▁2/3	-11.6343
▁tà	-11.6346
▁Fast	-11.6347
▁2016.	-11.6348
▁chước	-11.6351
▁Nike	-11.6351
▁si	-11.6352
ee	-11.6357
800	-11.6358
our	-11.6359
▁Thang	-11.6359
▁PV	-11.6362
chính	-11.6366
trên	-11.6366
▁block	-11.6369
Bài	-11.637
▁phụng	-11.6375
▁Susan	-11.6375
▁vầy	-11.6375
▁450	-11.6378
▁Boss	-11.6386
AL	-11.6388
▁mãnh	-11.6391
ent	-11.6398
▁Charlotte	-11.6399
▁HTC	-11.64
▁Cameron	-11.6401
▁Giô	-11.6401
1,	-11.6401
▁Benjamin	-11.6403
▁Hòn	-11.6404
TH	-11.6408
▁mo	-11.6411
▁Train	-11.6421
ps	-11.6427
▁Cấm	-11.6434
▁gào	-11.6435
thành	-11.6436
▁calo	-11.6437
▁lề	-11.6438
▁girl	-11.644
▁Julia	-11.6443
ell	-11.6444
▁gai	-11.6446
▁IMF	-11.6447
▁BlackBerry	-11.6447
▁ngẫm	-11.6447
ola	-11.645
▁Anthony	-11.6451
▁lánh	-11.6453
▁Vinh	-11.6456
▁Cân	-11.6456
▁Travel	-11.6459
ite	-11.646
▁Tech	-11.646
▁Mother	-11.6467
MP	-11.647
▁huệ	-11.6471
▁Bluetooth	-11.6472
▁nhậm	-11.6472
▁dỡ	-11.6472
▁Seattle	-11.6474
▁Claire	-11.6476
▁Journal	-11.6478
▁Ke	-11.648
▁Still	-11.6481
sk	-11.6482
▁help	-11.6488
58	-11.649
▁Bia	-11.6493
▁102	-11.6495
▁Puerto	-11.6497
▁Devil	-11.6501
▁tab	-11.6504
DS	-11.6506
▁Jacob	-11.6508
▁Camp	-11.651
▁Hu	-11.6514
Giờ	-11.6514
▁miện	-11.6519
▁Solomon	-11.652
▁Vọng	-11.652
▁xướng	-11.6521
▁106	-11.6521
▁(0)	-11.6525
jo	-11.6526
▁KH	-11.6527
▁Hạn	-11.6538
▁ruồi	-11.6545
Go	-11.6546
▁Coffee	-11.6547
▁Lonely	-11.6548
▁thà	-11.6551
▁Khánh	-11.6551
▁Lanka	-11.6556
ac	-11.6557
4)	-11.6558
▁TED	-11.6562
câu	-11.6563
▁năn	-11.6569
▁Other	-11.657
▁Somalia	-11.6571
▁Phiêu	-11.6574
▁kiềm	-11.6594
▁Alibaba	-11.6597
▁Hài	-11.6603
▁Đủ	-11.6605
▁Friend	-11.6608
3)	-11.6611
▁Color	-11.6612
▁Ne	-11.6613
bài	-11.6614
hai	-11.6617
▁size	-11.6618
▁Qatar	-11.6619
▁Sạn	-11.6619
hiện	-11.6628
set	-11.6632
▁Lái	-11.6633
▁mồi	-11.6633
▁1984	-11.6634
Thông	-11.6637
thời	-11.6637
▁112	-11.6645
▁2017.	-11.6655
▁Always	-11.6658
▁first	-11.6658
▁Wood	-11.6667
▁Bond	-11.6668
▁Coi	-11.6673
▁Dục	-11.6673
end	-11.6675
name	-11.6677
ny	-11.6677
▁4.1	-11.668
▁Total	-11.6681
▁Luke	-11.6683
▁Ð	-11.6687
▁dơ	-11.669
++	-11.669
nes	-11.6691
▁Alzheimer	-11.6693
▁Society	-11.6693
▁bẩm	-11.6693
▁Association	-11.6696
▁Atlanta	-11.6696
CO	-11.6696
NE	-11.6697
▁se	-11.6701
IS	-11.6702
▁clip	-11.6709
▁hard	-11.6713
▁Pink	-11.6717
▁đắp	-11.6718
▁khử	-11.6719
▁Peace	-11.6725
▁ả	-11.6731
▁chóc	-11.6733
▁Case	-11.6736
Nước	-11.674
▁??	-11.674
▁Zuckerberg	-11.6743
▁đến	-11.6743
▁Nhắc	-11.6743
▁Steam	-11.6743
▁tể	-11.6743
style	-11.6745
▁They	-11.6745
▁Ubuntu	-11.6745
▁Manhattan	-11.6746
▁nhạo	-11.6746
yo	-11.6746
▁toa	-11.6747
▁TPP	-11.6753
trái	-11.6762
▁Fa	-11.6762
89	-11.6768
▁Thiện	-11.677
▁Jake	-11.6772
ella	-11.6775
▁thung	-11.6777
▁Yu	-11.6784
300	-11.6787
93	-11.6788
▁2018.	-11.679
▁Avenue	-11.6794
▁Tượng	-11.6798
▁Gone	-11.6802
▁Virus	-11.6803
▁(17	-11.6804
▁Lệ	-11.6811
▁tú	-11.6812
ura	-11.6813
▁TP	-11.6815
▁gram	-11.6817
▁lướt	-11.6818
IC	-11.6822
▁Around	-11.6844
▁ve	-11.6844
sy	-11.6846
▁Sch	-11.6846
tu	-11.6854
▁part	-11.6855
▁Đền	-11.6865
▁Systems	-11.6865
tra	-11.6867
tel	-11.6867
nay	-11.6868
girl	-11.6868
giờ	-11.6869
gia	-11.6871
▁Escape	-11.6873
▁quạ	-11.6875
79	-11.6877
▁Mu	-11.6879
IP	-11.6886
▁Helen	-11.689
▁Guy	-11.6891
cũng	-11.6893
sky	-11.6897
▁PM	-11.6901
nt	-11.6908
▁8.1	-11.6912
▁Glass	-11.6924
▁Oliver	-11.6927
ski	-11.6931
▁Tr	-11.6935
▁1977	-11.6936
▁Cool	-11.694
ica	-11.6944
pro	-11.6947
▁Russell	-11.6948
ii	-11.6948
▁bo	-11.6948
▁Karl	-11.6951
▁Sữa	-11.6953
▁Jazz	-11.6954
▁Xu	-11.6955
▁AR	-11.6956
▁êm	-11.6958
▁5000	-11.6961
ml	-11.6964
▁Yuri	-11.697
▁triệt	-11.6971
ou	-11.6972
▁Mercure	-11.6973
▁Non	-11.6975
▁Every	-11.6978
PC	-11.698
▁Wish	-11.698
57	-11.6983
2:	-11.6988
▁app	-11.699
▁ADHD	-11.6996
▁Liverpool	-11.6999
bin	-11.7016
▁Anderson	-11.7022
72	-11.7023
5.	-11.7027
▁CS	-11.7029
▁OEM	-11.7029
▁Knight	-11.7037
▁version	-11.704
▁12,	-11.7041
▁vớ	-11.7042
▁Lào	-11.7043
▁beta	-11.7043
ix	-11.7046
▁đậy	-11.7048
▁Wales	-11.7048
▁nhũng	-11.7048
▁UNESCO	-11.7051
▁Hán	-11.7053
92	-11.7056
▁ME	-11.7057
▁LA	-11.7058
▁Change	-11.7063
▁Hạm	-11.7066
ward	-11.7066
Don	-11.7068
▁Logo	-11.707
đặc	-11.707
Bảo	-11.7071
▁Trích	-11.7072
▁Brad	-11.7072
hùc	-11.7072
CA	-11.7074
▁Okinawa	-11.7075
▁bồn	-11.7078
▁Michelle	-11.7078
82	-11.708
▁Lũ	-11.7081
▁project	-11.7084
For	-11.709
▁116	-11.7095
▁Mộng	-11.7101
▁Phoenix	-11.7103
If	-11.7106
What	-11.7122
Tập	-11.7123
▁Ninja	-11.7131
▁solo	-11.7132
xu	-11.7133
▁Stalin	-11.7137
▁article	-11.714
▁Ross	-11.7141
▁Break	-11.7142
▁quầy	-11.7151
▁Sen	-11.7154
▁12:	-11.7155
▁Khiêu	-11.7155
Me	-11.716
qui	-11.7167
ấy	-11.7171
▁ấu	-11.7176
▁Reuters	-11.7181
▁5.1	-11.7182
▁Lane	-11.7187
▁FC	-11.7191
▁Thù	-11.72
John	-11.7201
▁đinh	-11.7203
▁giùm	-11.7204
▁Vĩ	-11.7204
▁cholesterol	-11.7206
▁Rachel	-11.7207
▁Help	-11.7207
▁Bạc	-11.7207
ful	-11.7208
▁Boeing	-11.7209
▁Truth	-11.721
▁max	-11.7213
▁Sha	-11.7213
▁Già	-11.7219
ble	-11.7224
▁Rich	-11.7225
Chủ	-11.7229
▁thâu	-11.723
▁Cưới	-11.723
▁Sói	-11.7231
▁170	-11.7233
▁Đạt	-11.7234
▁sầu	-11.7236
ium	-11.724
chủ	-11.7245
▁Dean	-11.7253
81	-11.7255
▁Ibis	-11.7258
gen	-11.7261
mu	-11.7263
ít	-11.7263
▁Ted	-11.7264
▁feel	-11.7266
▁club	-11.7267
ậc	-11.7281
▁list	-11.7282
▁AM	-11.7284
▁Bus	-11.7286
▁Won	-11.7296
▁Alexa	-11.7298
▁vịt	-11.7311
ita	-11.7315
▁Tomorrow	-11.7315
▁Lewis	-11.7319
▁Che	-11.7323
▁Review	-11.7329
▁Sing	-11.7332
▁thắn	-11.7334
▁Phu	-11.7334
▁Barbie	-11.7336
▁lìa	-11.7337
▁1990,	-11.7339
▁111	-11.734
▁Te	-11.7342
ú	-11.7343
▁Tầng	-11.7344
▁911	-11.7361
▁1987	-11.7362
▁Francis	-11.7364
▁Palm	-11.7365
▁thính	-11.7366
▁MAC	-11.737
▁Plan	-11.7372
▁Monte	-11.7373
ì	-11.7375
▁Via	-11.7377
lần	-11.7388
Cả	-11.739
▁Bella	-11.7391
▁4.000	-11.7392
▁Gương	-11.7394
RO	-11.7398
▁Allen	-11.7399
▁hoạ	-11.7404
▁1,2	-11.7407
▁Thó	-11.7412
tt	-11.7413
Tự	-11.7415
sus	-11.7417
▁Tạng	-11.7418
▁Lăng	-11.742
▁đắng	-11.742
▁Information	-11.7423
▁Pierre	-11.7428
How	-11.7431
▁Hosting	-11.7431
▁ếch	-11.7438
400	-11.7439
▁Film	-11.7439
▁Armenia	-11.744
▁2,5	-11.7447
▁better	-11.7448
ini	-11.7448
So	-11.7452
Giá	-11.7454
▁240	-11.7455
▁bú	-11.7458
▁Congo	-11.746
▁Mega	-11.7465
▁khiên	-11.747
▁Kindle	-11.747
▁trơn	-11.7471
▁Adams	-11.7473
▁Chấp	-11.7476
▁Lin	-11.7477
▁cúi	-11.7478
▁3.5	-11.748
5%	-11.748
tion	-11.7481
▁Alpha	-11.7482
ang	-11.7484
ning	-11.7484
▁add	-11.7494
▁Hampton	-11.7496
▁lén	-11.7496
▁chocolate	-11.75
▁bát	-11.7504
▁103	-11.7514
▁Nữa	-11.7521
▁texas	-11.7523
▁chửi	-11.7523
▁ráp	-11.7523
Cháu	-11.7523
▁Photoshop	-11.7526
▁[3]	-11.7527
▁tuỳ	-11.7528
▁Tiger	-11.7529
ens	-11.7531
▁Winter	-11.7532
▁Thảm	-11.7535
5-02	-11.7537
▁CAD	-11.754
▁2004,	-11.7541
ST	-11.7541
ette	-11.7543
▁chì	-11.7549
▁Gen	-11.7549
▁ruộng	-11.755
▁vỗ	-11.755
▁sụt	-11.7551
all	-11.7555
71	-11.7555
▁1988	-11.7557
▁Cooper	-11.7558
▁Dạy	-11.7559
PM	-11.7559
▁cún	-11.7561
▁(20	-11.7562
▁Làng	-11.7563
/8	-11.7563
▁Nu	-11.7568
book	-11.7571
▁YOU	-11.7577
▁thạo	-11.7577
▁xuôi	-11.7578
▁Dear	-11.7578
▁Mozilla	-11.7582
▁Posted	-11.7583
tte	-11.7585
85	-11.7599
3,	-11.76
▁đấm	-11.7605
77	-11.7609
▁Bổ	-11.7609
▁Vampire	-11.7609
▁SE	-11.7611
▁Sớm	-11.7611
ID	-11.7616
▁Giăng	-11.7617
-0	-11.7619
▁mu	-11.7619
▁chải	-11.762
▁room	-11.7621
▁Springs	-11.7624
900	-11.7624
▁full	-11.7624
port	-11.7627
▁County	-11.7633
Nhân	-11.7633
▁chiêu	-11.7634
▁Lily	-11.7642
▁50.000	-11.7645
▁Khung	-11.7648
1:	-11.7648
for	-11.7656
▁iPod	-11.7659
▁phẫn	-11.7659
▁dệt	-11.7659
▁Dreams	-11.766
▁Care	-11.7661
▁bơm	-11.7662
▁Rủ	-11.7663
▁Il	-11.7663
▁Another	-11.7666
▁Juan	-11.7668
RE	-11.7673
▁Anti	-11.7674
▁going	-11.7674
▁cong	-11.7675
▁(11	-11.7684
▁(6)	-11.7685
▁Kiện	-11.7687
▁thắp	-11.7687
▁Moskva	-11.7689
▁118	-11.7694
▁BB	-11.7698
EU	-11.77
▁XML	-11.7701
▁play	-11.7704
▁gay	-11.7708
▁Multi	-11.7708
-17	-11.7709
▁GO	-11.771
nia	-11.7713
len	-11.7714
▁Graham	-11.7714
▁Dư	-11.7715
▁lều	-11.7716
▁Kaspersky	-11.7716
thông	-11.7718
▁Warren	-11.7721
▁Elsa	-11.7722
lia	-11.7724
▁Giảng	-11.7726
▁Legend	-11.7726
▁::	-11.7726
▁any	-11.7728
▁Ji	-11.773
át	-11.7731
▁Ri	-11.774
/9	-11.7741
▁Chuùa	-11.7742
▁ngửi	-11.7742
▁Norton	-11.7742
▁đặng	-11.7743
Kinh	-11.7744
▁mụn	-11.7748
▁Tiệc	-11.7748
▁History	-11.7748
▁Had	-11.7752
▁Check	-11.7754
ev	-11.7756
▁last	-11.7766
▁2000,	-11.7771
▁much	-11.7773
61	-11.7774
▁Dì	-11.7777
▁Babylon	-11.7782
▁old	-11.7783
vin	-11.7784
▁photo	-11.779
▁box	-11.7791
▁Jo	-11.7792
▁chốc	-11.7797
▁bàng	-11.7798
Đọc	-11.78
tức	-11.7801
Ha	-11.7802
▁Thuộc	-11.7808
▁(9	-11.7817
shi	-11.7819
▁107	-11.7819
▁Sports	-11.782
▁buồng	-11.7821
▁suýt	-11.7825
▁Pennsylvania	-11.7827
amp	-11.7829
Sửa	-11.783
▁Góc	-11.783
▁Xấu	-11.7831
Le	-11.7837
63	-11.7846
▁thoả	-11.7848
▁thanks	-11.785
▁thệ	-11.7854
▁bôi	-11.7854
▁phanh	-11.7855
▁Convention	-11.7856
▁Cận	-11.7857
▁1.6	-11.7858
▁1945	-11.7858
▁Hủy	-11.7859
more	-11.7864
▁AB	-11.7865
▁Chip	-11.7867
▁AS	-11.787
▁Alliance	-11.7884
▁LLC	-11.7884
cuộc	-11.7884
▁Ái	-11.7889
▁khoáng	-11.789
▁Trust	-11.7891
▁Walker	-11.7893
▁1500	-11.7897
ot	-11.7899
▁1978	-11.79
AR	-11.7903
CC	-11.7904
▁sét	-11.7909
▁́	-11.7916
hu	-11.7916
▁Cor	-11.7917
▁1985	-11.7921
▁MD	-11.7926
▁nón	-11.7927
▁đè	-11.7931
▁Muhammad	-11.7934
pi	-11.7934
▁khải	-11.7935
▁Lenovo	-11.7937
▁18:	-11.7938
▁Lính	-11.7941
▁Austin	-11.7942
▁Rửa	-11.7942
▁Mẹo	-11.7948
▁8%	-11.7951
ôn	-11.7952
▁Program	-11.7953
▁Short	-11.7953
Isa	-11.7955
▁Empire	-11.7957
▁TS	-11.796
▁again	-11.7965
▁Step	-11.7966
▁Starbucks	-11.7966
▁gán	-11.7967
▁LGBT	-11.7968
ator	-11.7969
đối	-11.7969
▁175	-11.797
ik	-11.7973
▁then	-11.7976
▁ph	-11.7984
▁Fun	-11.7984
▁Wiki	-11.799
▁Fish	-11.7994
▁thuỷ	-11.7996
well	-11.7996
▁system	-11.7997
view	-11.7997
▁things	-11.8005
▁113	-11.8006
▁CT	-11.8009
ok	-11.8011
▁Walt	-11.8018
▁cạo	-11.8023
▁luân	-11.8026
▁Could	-11.8027
▁Sorry	-11.8033
▁Hunter	-11.8035
▁Họa	-11.8036
▁Index	-11.8038
▁Bin	-11.8043
let	-11.8045
▁ngần	-11.8051
▁dốc	-11.8051
▁Hiroshima	-11.8054
▁sofa	-11.8054
▁Vision	-11.8054
▁TÔI	-11.8055
▁16:	-11.8055
thường	-11.8056
▁DN	-11.8056
▁Hẳn	-11.8064
▁xì	-11.8071
▁Six	-11.8071
▁tỉa	-11.8073
▁Ramada	-11.8075
▁Experience	-11.8081
▁Court	-11.8083
▁nguyệt	-11.8084
▁Broken	-11.8084
▁Marshall	-11.8085
▁chua	-11.8086
▁Ah	-11.8089
▁Roy	-11.8093
▁bế	-11.81
▁Tứ	-11.8101
▁ABC	-11.8102
▁san	-11.8103
▁Lennon	-11.8108
▁gieo	-11.8108
▁vấp	-11.8108
▁she	-11.811
▁Must	-11.811
▁Database	-11.8112
Chắc	-11.8113
▁DO	-11.8115
▁19.	-11.812
▁tết	-11.8124
▁ôn	-11.8126
▁rệt	-11.8137
▁thối	-11.8137
▁Christopher	-11.8139
▁Cờ	-11.8141
68	-11.8142
▁CC	-11.8142
▁lơ	-11.8144
▁Hổ	-11.8147
▁30.000	-11.8149
▁zombie	-11.815
▁Mall	-11.8151
4%	-11.8152
▁Ring	-11.8154
án	-11.8154
▁2003,	-11.8155
78	-11.8155
▁3-	-11.8158
▁oan	-11.816
▁Sim	-11.8164
▁Barbara	-11.8165
▁nguội	-11.8165
▁gạch	-11.8166
Nhiều	-11.8171
▁Giường	-11.8171
Tuy	-11.8172
▁Fu	-11.8172
▁Level	-11.8174
▁think	-11.8175
▁Forest	-11.8175
háo	-11.8181
sơ	-11.8183
▁Vả	-11.8184
▁bad	-11.8186
▁rò	-11.8189
▁Jun	-11.8189
▁Prime	-11.8193
▁vắc	-11.8194
▁sáp	-11.8195
òng	-11.8196
▁Samurai	-11.8198
▁Tiffany	-11.8198
▁before	-11.8199
▁thoughts	-11.82
▁Wireless	-11.8201
▁Bear	-11.8201
▁Bruce	-11.8207
▁rao	-11.8208
ez	-11.8209
▁them	-11.8209
TT	-11.8212
▁Host	-11.8213
▁Metro	-11.8214
▁Mine	-11.8216
Be	-11.8216
ena	-11.8216
▁Cold	-11.8217
▁Leave	-11.8217
▁1/4	-11.8218
▁oh	-11.8219
Gia	-11.8221
▁Alcatraz	-11.8223
▁Emirates	-11.8223
▁Kiev	-11.8224
▁(8)	-11.8224
▁vu	-11.8224
PS	-11.8226
▁Executive	-11.8227
ov	-11.823
▁Danny	-11.8231
▁Into	-11.8233
▁PA	-11.8235
▁Piano	-11.824
▁114	-11.8245
▁Hê	-11.825
▁Main	-11.8251
▁Darwin	-11.8252
▁trắc	-11.8252
▁Museo	-11.8253
▁SS	-11.8254
▁GNU	-11.8257
▁BS	-11.8261
Tin	-11.8262
▁Farm	-11.8262
▁Khảo	-11.8265
▁BIOS	-11.8265
EN	-11.8268
▁Connect	-11.8269
▁Coin	-11.8271
▁Number	-11.8277
▁casino	-11.8282
dân	-11.8282
▁3-4	-11.8289
-16	-11.8289
▁art	-11.8289
▁Norman	-11.8298
▁độn	-11.8299
▁Gran	-11.8306
▁Add	-11.831
▁(2008)	-11.8311
ray	-11.8313
▁Chừng	-11.8316
thực	-11.8318
▁Sẵn	-11.832
▁Dave	-11.8322
▁comment	-11.8324
▁Reader	-11.8336
▁võ	-11.8338
▁1.500	-11.8339
▁Michigan	-11.834
▁Alive	-11.8343
▁Diệu	-11.8344
▁Tuyến	-11.8346
▁Quick	-11.8351
▁Modern	-11.8356
▁call	-11.8359
▁they	-11.8363
▁Cortana	-11.8369
▁Sắt	-11.837
Al	-11.8371
▁Trương	-11.8374
▁CE	-11.8374
▁micro	-11.8376
OR	-11.8377
rất	-11.8378
ut	-11.838
▁1961	-11.838
59	-11.8384
/5	-11.8385
”).	-11.8387
▁00	-11.8388
91	-11.8389
▁Menu	-11.8391
▁Điên	-11.8392
Lu	-11.8397
▁vặt	-11.8399
▁look	-11.84
▁TOEFL	-11.8401
▁Tools	-11.8401
trừ	-11.8404
▁Hannah	-11.8405
▁Orange	-11.8406
Đến	-11.8408
▁Public	-11.8409
▁GT	-11.841
▁Pretty	-11.8412
▁(30	-11.8412
▁109	-11.8413
▁spam	-11.8414
ánh	-11.8418
chị	-11.8428
▁Sierra	-11.8428
▁ĐƯ	-11.8429
▁Kiều	-11.8429
▁Kazakhstan	-11.843
▁cước	-11.843
▁127	-11.8431
Chú	-11.8433
▁British	-11.8438
▁Pat	-11.844
lon	-11.8442
sẽ	-11.8444
▁750	-11.8447
▁đê	-11.8449
TA	-11.8456
▁với	-11.8458
St	-11.8459
▁Dối	-11.8459
▁Lebanon	-11.8461
▁Fantasy	-11.8463
▁(16	-11.8464
▁(*)	-11.8465
gan	-11.8469
▁Zombie	-11.8474
light	-11.8482
69	-11.8487
day	-11.8495
▁Engine	-11.8495
^	-11.8495
▁Bão	-11.8496
bất	-11.8497
▁Vết	-11.8497
▁mail	-11.8498
ò	-11.8499
▁Miles	-11.85
▁đôla	-11.8501
▁Clear	-11.8505
▁Sean	-11.8507
▁Dừng	-11.8508
▁blue	-11.8508
▁Jr	-11.851
▁Cát	-11.8512
▁Jet	-11.8514
▁Dallas	-11.8517
▁ngất	-11.8518
▁Hiểm	-11.8518
▁Douglas	-11.852
▁Ethiopia	-11.852
je	-11.8522
▁5.0	-11.8522
▁Joy	-11.8522
▁Doctor	-11.8525
▁q	-11.8528
Hành	-11.8528
▁1943	-11.8533
town	-11.8534
▁Chap	-11.8543
des	-11.8546
▁other	-11.8548
non	-11.8549
▁khoang	-11.8551
▁ngâm	-11.8553
Phụ	-11.8555
▁Rica	-11.8555
ns	-11.8556
Video	-11.8556
Mục	-11.8557
▁2/	-11.8558
▁Phê	-11.8559
▁black	-11.8563
▁tam	-11.8569
▁Ace	-11.8571
▁Canh	-11.8572
▁Bee	-11.8572
▁Lab	-11.8573
▁MacBook	-11.8578
▁Gar	-11.8578
▁Bobby	-11.8578
▁Tours	-11.8579
▁Apps	-11.858
76	-11.858
▁FA	-11.858
▁Cruz	-11.8581
▁3.3	-11.8581
nghĩa	-11.8588
▁1986	-11.8589
▁RT	-11.8592
▁end	-11.8594
Vào	-11.8595
▁sp	-11.8599
▁5-	-11.86
▁made	-11.8602
Pro	-11.8606
▁Ebola	-11.8607
▁Thăm	-11.8608
▁Ngực	-11.8611
▁Grant	-11.8617
▁HI	-11.8618
▁icon	-11.8624
▁dồn	-11.8626
▁Extended	-11.8627
▁lê	-11.8638
▁ngắt	-11.8638
▁gầm	-11.8638
▁into	-11.8638
▁Budapest	-11.8639
▁Cư	-11.8642
▁Vladimir	-11.8643
▁Cháy	-11.8644
▁Order	-11.8647
Ra	-11.8648
phiên	-11.8648
▁Cut	-11.8649
▁mod	-11.8649
ven	-11.865
▁4-	-11.8651
can	-11.8652
ane	-11.8654
▁level	-11.8654
▁Edit	-11.8655
▁Titan	-11.8659
▁Linda	-11.8659
▁pho	-11.8659
ff	-11.8665
▁Field	-11.8666
▁Victor	-11.8666
▁Analytics	-11.8668
▁ngoạn	-11.8668
▁(2009)	-11.8668
▁vựng	-11.8668
▁Yến	-11.867
▁happy	-11.8677
▁Alone	-11.8677
Sẽ	-11.8679
▁Size	-11.868
▁Storm	-11.8682
▁=))	-11.8684
▁mồm	-11.8686
▁Mao	-11.8687
▁ONE	-11.8688
▁GS	-11.8689
▁hoành	-11.8691
▁chèn	-11.8693
▁ON	-11.8698
▁Festival	-11.8698
▁hé	-11.8701
▁Protection	-11.8702
ping	-11.8703
▁Midnight	-11.8704
▁Bạo	-11.8706
▁Client	-11.8706
▁Energy	-11.8708
▁Lắng	-11.8708
▁thản	-11.8709
viết	-11.8709
▁bong	-11.871
▁cụt	-11.8714
▁Lucy	-11.8714
▁red	-11.8719
▁Vol	-11.872
▁Haiti	-11.8723
▁always	-11.8729
▁hức	-11.8729
▁2005.	-11.8733
ip	-11.8741
Mặc	-11.8741
tại	-11.8742
Bố	-11.8743
▁tím	-11.8743
▁Bing	-11.8755
▁Val	-11.8757
▁ss	-11.876
▁rã	-11.876
▁Buffett	-11.876
▁Venice	-11.8764
▁Marc	-11.8764
▁Europe	-11.8767
ata	-11.877
▁Avengers	-11.877
zu	-11.8773
▁Clark	-11.8775
ác	-11.8777
▁Comes	-11.8777
▁gas	-11.8777
▁Moore	-11.8782
▁Kit	-11.8782
van	-11.8783
▁Fred	-11.8785
▁Grey	-11.8789
▁tởm	-11.879
▁Thề	-11.879
▁Luyện	-11.8795
▁Near	-11.8796
▁Well	-11.88
▁nạt	-11.8804
▁Nat	-11.8807
key	-11.881
▁gớm	-11.8821
▁giêng	-11.8821
▁lậu	-11.8821
▁đẫm	-11.8821
▁Fight	-11.8826
▁WiFi	-11.8826
▁Kiên	-11.8827
▁cối	-11.8828
▁Lucky	-11.8831
▁Assad	-11.8833
▁22:	-11.8835
▁Nova	-11.8836
▁Shin	-11.8836
▁dùm	-11.8842
SE	-11.885
▁wifi	-11.8852
▁chém	-11.8852
▁case	-11.8853
mann	-11.8853
tro	-11.8856
▁220	-11.886
Giải	-11.8864
Kết	-11.8865
▁:))	-11.8867
▁Gate	-11.8867
▁1900	-11.8874
▁Rooms	-11.8876
▁movie	-11.888
▁rồi	-11.8883
▁Kingston	-11.8883
▁vịnh	-11.8885
RA	-11.8886
”)	-11.8888
▁IoT	-11.889
Nhìn	-11.8895
▁Đều	-11.8897
tri	-11.89
▁Ju	-11.8911
ền	-11.8911
▁Tần	-11.8913
gate	-11.8913
Instrumental	-11.8914
▁Niệm	-11.8914
▁sừng	-11.8914
▁rành	-11.8914
▁Thiệu	-11.8914
▁256	-11.8915
▁ôtô	-11.8916
▁Price	-11.8924
ju	-11.8926
▁years	-11.8926
▁Đàng	-11.8926
đồng	-11.8927
?”“	-11.8928
IT	-11.8929
ization	-11.893
▁Cap	-11.893
▁lột	-11.8934
▁Hearts	-11.8935
▁Comments	-11.8936
▁Zone	-11.8937
▁câm	-11.8947
▁Nghiêm	-11.8949
▁xui	-11.8949
▁Vạn	-11.8951
▁1959	-11.8959
▁119	-11.8963
▁Porto	-11.8964
He	-11.8968
▁găng	-11.8976
▁gậy	-11.8976
▁Fukushima	-11.8979
▁Qu	-11.8985
ene	-11.8988
▁Chịu	-11.8988
▁Ky	-11.8989
▁house	-11.8991
▁ass	-11.8993
▁Meet	-11.9003
eo	-11.9005
▁mầm	-11.9008
▁must	-11.9008
▁Rosa	-11.9008
▁Jakarta	-11.9012
▁season	-11.9014
▁Ram	-11.902
▁Freedom	-11.9026
▁CON	-11.9028
▁open	-11.903
▁Picasso	-11.9039
▁trèo	-11.9039
▁Geneva	-11.9039
▁ròng	-11.9041
▁Recovery	-11.9043
▁Prague	-11.9043
max	-11.9044
▁Thuận	-11.9044
▁Major	-11.9047
▁AD	-11.9049
Thứ	-11.9051
▁Beta	-11.9051
▁35%	-11.9052
Single	-11.9052
Tiểu	-11.9052
▁Trade	-11.9053
▁17:	-11.9061
log	-11.9063
▁nick	-11.9064
▁Cụm	-11.9064
▁Lync	-11.9064
lem	-11.9066
▁Manila	-11.9071
Mi	-11.9078
▁Own	-11.9083
▁Bom	-11.9085
▁»»	-11.9088
▁Au	-11.9093
▁Creek	-11.9093
▁Yo	-11.9099
▁Dị	-11.9099
This	-11.9099
nói	-11.9101
▁nhuộm	-11.9102
▁súp	-11.9102
▁Davis	-11.9102
▁eBay	-11.9102
ds	-11.9104
▁007	-11.9106
▁rập	-11.9106
▁Brand	-11.9111
▁4000	-11.9111
▁Castle	-11.9112
tha	-11.9114
▁Mây	-11.9115
ặp	-11.912
ship	-11.9122
thiên	-11.9125
tis	-11.9127
▁15:	-11.9128
▁răn	-11.9133
▁List	-11.9134
▁Enter	-11.9137
▁Lĩnh	-11.9138
▁phế	-11.9139
▁4.2	-11.9143
▁Shell	-11.9144
▁Base	-11.9145
▁Lang	-11.9146
▁his	-11.9147
▁pre	-11.9149
▁2003.	-11.9155
▁biếng	-11.9158
▁Solo	-11.9158
FS	-11.916
▁Nixon	-11.9165
▁nhức	-11.9165
▁Dublin	-11.9166
▁Rối	-11.9166
▁cúp	-11.9169
▁Thúc	-11.917
▁Channel	-11.9172
73	-11.9176
ab	-11.9177
▁Hắc	-11.9179
▁Maps	-11.918
iz	-11.918
▁nano	-11.9183
yêu	-11.9183
▁ùn	-11.9184
▁Kìa	-11.9188
▁light	-11.9189
▁1951	-11.919
▁Nexus	-11.9197
bus	-11.9198
▁trêu	-11.9198
▁chênh	-11.9198
ye	-11.9199
ted	-11.9199
▁bẻ	-11.92
▁ngai	-11.9203
▁lạy	-11.9204
▁Romania	-11.9205
▁2006.	-11.9206
sp	-11.9206
▁Circle	-11.9206
▁Arms	-11.9206
▁Round	-11.9214
vô	-11.9214
Di	-11.9215
▁Carolina	-11.9229
▁chuồng	-11.923
▁Liều	-11.923
▁Chì	-11.9236
▁sim	-11.9236
▁Chợ	-11.9238
▁Moses	-11.924
CS	-11.924
Học	-11.9252
era	-11.9255
▁tro	-11.9256
▁port	-11.9261
▁Pedro	-11.9261
▁root	-11.9262
▁sút	-11.9262
▁Directory	-11.9262
▁Virgin	-11.9264
▁Jonathan	-11.9264
▁Twin	-11.9264
ero	-11.9265
▁Tĩnh	-11.9267
▁ven	-11.9267
▁would	-11.9267
▁something	-11.9268
▁mùng	-11.9273
▁Memory	-11.9273
▁98%	-11.9273
Let	-11.9276
▁nan	-11.9281
▁Find	-11.9288
▁#2	-11.929
▁Thanks	-11.9294
▁Ash	-11.9294
▁(2010)	-11.9294
▁sấy	-11.9294
▁1980,	-11.9295
▁khăng	-11.9295
▁EOS	-11.9296
val	-11.9296
▁Macedonia	-11.9296
▁Library	-11.9303
▁Rush	-11.9305
biết	-11.931
▁0,	-11.9311
▁Coast	-11.9311
▁mí	-11.9316
▁Spirit	-11.9316
▁ml	-11.9317
▁film	-11.9317
▁ETH	-11.9319
kh	-11.9323
▁Lie	-11.9326
▁Ana	-11.9326
▁sủng	-11.9326
Cơ	-11.9326
▁2019,	-11.9326
▁Heroes	-11.9327
▁Phổ	-11.9327
han	-11.933
▁Profile	-11.9332
▁Naruto	-11.9333
▁Generation	-11.9334
▁Carlos	-11.9337
▁two	-11.9339
FA	-11.9339
RI	-11.9347
▁1967	-11.9352
▁sô	-11.9354
▁Cũ	-11.9358
▁Bosch	-11.9359
▁thốt	-11.9359
▁126	-11.9361
▁Blogger	-11.9363
▁Estonia	-11.9363
▁Trại	-11.9364
▁Mũi	-11.9365
house	-11.9373
▁ĐH	-11.9377
▁vote	-11.9381
we	-11.9385
▁Eve	-11.939
▁khùng	-11.9391
▁ngỡ	-11.9391
▁Kobe	-11.9392
▁ngó	-11.9392
SP	-11.9393
▁124	-11.9393
PL	-11.94
▁(7)	-11.9407
▁SA	-11.9409
▁8)	-11.941
Sa	-11.9414
▁give	-11.9415
▁Cookie	-11.9417
▁hope	-11.9419
▁Xiaomi	-11.9425
▁Roll	-11.9426
▁Thừa	-11.9428
▁dc	-11.9429
king	-11.943
▁khoát	-11.9433
▁module	-11.9434
▁IU	-11.9436
▁Isaac	-11.9439
nhân	-11.9442
▁FOR	-11.9446
▁true	-11.9447
▁2020,	-11.9447
▁Thà	-11.9449
▁mộc	-11.9451
▁21,	-11.9454
▁Robinson	-11.9458
è	-11.9461
▁youtube	-11.9461
▁Left	-11.9465
▁Remember	-11.9467
▁ắt	-11.9469
Thôi	-11.9474
Trang	-11.9475
▁vợt	-11.9476
tương	-11.9477
▁Labs	-11.9477
-1)	-11.948
▁1971	-11.9481
▁1975	-11.9481
▁NêPhi	-11.9489
▁(2007)	-11.9489
▁Tùng	-11.9492
▁135	-11.9494
▁away	-11.9496
▁Tù	-11.9501
hấp	-11.9502
xa	-11.9503
cu	-11.9503
▁Something	-11.9504
▁Madonna	-11.9505
▁Sant	-11.9509
▁1/	-11.9513
▁Close	-11.9514
▁xô	-11.9515
AP	-11.9516
▁1981	-11.9518
▁Harris	-11.9521
▁1970,	-11.9521
▁Stand	-11.9521
▁Boutique	-11.9522
▁Gateway	-11.9522
▁Khuyết	-11.9522
▁Jefferson	-11.9525
▁Years	-11.9526
▁Honor	-11.9527
▁Church	-11.9528
rr	-11.9528
tes	-11.953
▁start	-11.9531
▁que	-11.9531
▁Door	-11.9532
▁Urban	-11.9532
▁Hub	-11.9538
▁error	-11.954
Tìm	-11.9541
▁Quest	-11.9545
▁head	-11.9551
▁uế	-11.9556
▁let	-11.9556
▁Tắm	-11.9556
▁nhọc	-11.9556
▁Together	-11.9559
▁Lam	-11.956
▁vv	-11.956
▁nang	-11.9561
▁Luxury	-11.9561
▁Goes	-11.9561
▁USS	-11.9561
▁some	-11.9562
▁Audi	-11.9564
▁Tụ	-11.9564
aka	-11.9568
▁wa	-11.9568
▁1990.	-11.9572
▁chui	-11.9572
Nghe	-11.9574
▁Ngô	-11.9575
▁Put	-11.9578
▁mìn	-11.9578
tter	-11.958
▁Challenge	-11.9585
▁nhiễu	-11.9589
rt	-11.959
úng	-11.9592
▁129	-11.9596
▁Text	-11.9598
▁Fi	-11.9603
chẳng	-11.9608
Windows	-11.9609
▁Bio	-11.9614
▁media	-11.9619
▁Op	-11.962
▁Protocol	-11.9622
87	-11.9627
▁Tears	-11.963
▁sub	-11.963
▁gets	-11.9632
gar	-11.9634
▁Phán	-11.9635
▁Er	-11.9637
▁Nobody	-11.9638
sch	-11.9655
▁dog	-11.9655
▁Cairo	-11.9656
▁Dài	-11.9656
▁LAN	-11.9656
▁Larry	-11.9656
▁Hang	-11.9663
ide	-11.9667
▁SMS	-11.9672
Chưa	-11.9675
▁AL	-11.9677
ud	-11.9681
▁trỗi	-11.9689
▁[4]	-11.969
▁yết	-11.969
▁Athens	-11.9694
▁been	-11.9699
▁Julie	-11.9705
▁LEGO	-11.9707
pp	-11.9712
▁190	-11.9714
ão	-11.9722
▁bừng	-11.9723
▁Kansas	-11.9724
”(	-11.9725
▁Desktop	-11.9726
▁Dạng	-11.9727
▁Wa	-11.9727
ure	-11.9728
▁Support	-11.9729
▁Vốn	-11.9731
▁2019.	-11.9731
▁Contact	-11.9732
ball	-11.9733
▁bơ	-11.9736
▁SM	-11.9737
▁2002,	-11.9739
▁!”	-11.9744
EX	-11.9745
Thi	-11.9751
▁Did	-11.9751
▁vành	-11.9755
▁lốp	-11.9757
▁Site	-11.9757
▁Disneyland	-11.9758
▁Margaret	-11.9759
pin	-11.976
▁Through	-11.9761
2015	-11.9762
dia	-11.9763
▁Bấm	-11.9763
▁3,5	-11.9767
▁Learning	-11.9771
▁Bel	-11.9771
▁Duke	-11.9773
▁**	-11.9774
▁Fine	-11.9775
II	-11.9776
▁SO	-11.9776
display	-11.9777
Pháp	-11.9777
▁Võ	-11.9778
▁#3	-11.9779
▁1953	-11.9784
▁1930	-11.9787
▁Monroe	-11.9792
▁States	-11.9793
▁Gallery	-11.9795
▁Algeria	-11.9795
▁Nuôi	-11.9797
Mt	-11.9799
▁Mouse	-11.98
[2]	-11.9802
olo	-11.9804
ợc	-11.9806
▁Welcome	-11.981
▁Ảo	-11.981
When	-11.9811
AS	-11.9816
▁Rico	-11.9817
▁7%	-11.9818
▁Wave	-11.9821
▁Interactive	-11.9824
▁nứt	-11.9824
▁Collins	-11.9828
▁Tyler	-11.9828
qua	-11.9829
▁Huyết	-11.9831
yan	-11.9831
▁Downtown	-11.9833
▁Republic	-11.9838
▁tản	-11.9842
Cũng	-11.9846
OK	-11.9846
▁CP	-11.9849
bà	-11.985
yl	-11.9853
▁boy	-11.9857
▁Echo	-11.9863
▁ĐỨC	-11.9863
pt	-11.9866
▁NY	-11.9866
▁place	-11.9869
▁Xuống	-11.9869
▁6%	-11.987
▁1948	-11.9873
ss	-11.9875
▁HS	-11.9877
1000	-11.9878
Bác	-11.9879
▁hit	-11.9883
ốc	-11.9887
▁Orleans	-11.9892
▁phớt	-11.9892
▁Yourself	-11.9893
▁vẩn	-11.9893
▁Hiền	-11.9893
▁Niên	-11.9893
▁caffeine	-11.9893
▁GPU	-11.9893
▁Des	-11.9894
▁Coca	-11.9895
▁Walking	-11.99
▁Some	-11.99
▁Hands	-11.9904
▁“...	-11.9904
▁Den	-11.9905
hình	-11.9908
ON	-11.9911
▁Kings	-11.9915
Đồng	-11.9916
▁:3	-11.9921
▁Wake	-11.9922
▁2000.	-11.9926
▁Arizona	-11.9927
▁Maroc	-11.9927
▁6)	-11.9928
▁SDK	-11.9928
▁Lawrence	-11.993
ona	-11.9932
▁Unix	-11.9934
▁THI	-11.9934
▁Neil	-11.9934
▁-“	-11.9941
▁Mor	-11.9944
dan	-11.9944
▁Mộ	-11.9944
▁Phao	-11.9945
▁change	-11.9945
▁LÀ	-11.9945
Can	-11.995
▁117	-11.9956
▁Ep	-11.996
▁lay	-11.9961
▁Hudson	-11.9961
uri	-11.9964
▁Mercedes	-11.9964
▁Clip	-11.9965
▁Backup	-11.9967
▁chớp	-11.9967
▁Fortune	-11.9968
Co	-11.9968
▁Honey	-11.9968
fe	-11.9973
").	-11.9973
▁Spider	-11.9974
▁April	-11.9975
▁search	-11.9976
▁opera	-11.9979
▁Katy	-11.9979
▁Ian	-11.9983
▁13:	-11.9984
fer	-11.9984
▁Mode	-11.999
▁Copenhagen	-11.9996
▁nghiền	-11.9997
▁1979	-12
▁Steel	-12
▁Marco	-12.0001
▁trader	-12.0004
▁Mission	-12.0005
▁return	-12.0006
-13	-12.0006
▁many	-12.0007
▁121	-12.0012
▁chót	-12.0013
▁Cape	-12.0015
code	-12.0015
Khách	-12.0019
▁Sand	-12.002
▁Philips	-12.0021
Ngay	-12.0021
‘	-12.0026
▁number	-12.003
▁khuynh	-12.003
▁Elvis	-12.0031
▁smartphone	-12.0033
▁1976	-12.0036
▁Sunday	-12.0038
▁point	-12.004
▁could	-12.0042
▁HO	-12.0044
▁Ngàn	-12.0046
▁SIM	-12.0048
ther	-12.0051
▁Very	-12.0052
▁1982	-12.006
ice	-12.006
sin	-12.0061
rio	-12.0065
▁nắp	-12.0066
▁chổi	-12.0068
▁Phẫu	-12.0069
▁Cạnh	-12.0069
▁Shakespeare	-12.007
▁khống	-12.0071
▁Cướp	-12.0071
-22	-12.0071
▁6.000	-12.0072
▁UAE	-12.0073
▁SC	-12.0077
▁yeah	-12.0078
▁Editor	-12.0079
▁5/	-12.008
mà	-12.0083
▁Article	-12.0087
ney	-12.0088
eu	-12.009
▁Believe	-12.0091
▁Kia	-12.0092
▁Wine	-12.0094
▁Shi	-12.0094
GA	-12.0095
▁(10)	-12.0099
▁EM	-12.01
▁macOS	-12.01
TS	-12.0101
▁ngơ	-12.0103
▁2004.	-12.0106
ế	-12.0106
▁Madison	-12.0106
▁Blind	-12.0107
▁Chanel	-12.0109
▁Sugar	-12.011
▁Front	-12.0112
ap	-12.0112
ser	-12.0114
▁3/	-12.0114
▁Bach	-12.0116
row	-12.0119
▁12%	-12.0122
View	-12.0125
Lạy	-12.0125
▁í	-12.0126
ico	-12.0126
▁Korea	-12.013
▁dừa	-12.0135
▁Nancy	-12.0136
▁mầy	-12.0136
VI	-12.0138
3%	-12.0138
?’	-12.0139
SS	-12.014
▁Justice	-12.0142
▁Direction	-12.0146
▁trán	-12.0148
▁1800	-12.0151
Net	-12.0155
ồng	-12.0158
Nghệ	-12.016
▁Rabb	-12.016
Yêu	-12.016
▁Marriott	-12.017
▁Ja	-12.0171
▁đấng	-12.0174
▁Pixel	-12.0174
▁Tệ	-12.0177
▁profile	-12.0178
▁hông	-12.0179
giá	-12.018
▁Chan	-12.0181
▁Cầm	-12.0183
▁Tông	-12.0185
▁March	-12.0187
▁ex	-12.019
ins	-12.0191
Mo	-12.0193
▁EN	-12.0196
▁Tab	-12.02
▁Josh	-12.0201
ks	-12.0202
nó	-12.0206
▁background	-12.0206
▁liễu	-12.0206
▁Ohio	-12.0206
cả	-12.0211
▁Plugin	-12.0213
▁Har	-12.0213
▁(0	-12.0214
LL	-12.0214
▁LLM	-12.0216
ida	-12.0216
▁Follow	-12.0218
▁Tre	-12.022
▁1955	-12.0223
AC	-12.0229
Thêm	-12.0231
Mày	-12.0232
▁404	-12.0236
lic	-12.0238
▁CHƯ	-12.0239
▁Teresa	-12.0241
▁Dawn	-12.0241
▁Leonardo	-12.0242
▁Memorial	-12.0244
▁Journey	-12.0245
▁Hân	-12.0245
▁Testosterone	-12.0245
▁Gabriel	-12.0246
lt	-12.0247
▁Nắm	-12.0247
▁Chocolate	-12.025
▁cọ	-12.0251
2018	-12.0253
▁Quê	-12.0255
▁ever	-12.0257
▁Natural	-12.026
▁die	-12.0263
nguồn	-12.0267
▁Abu	-12.0267
chiến	-12.0267
▁TB	-12.0269
▁Tweet	-12.027
AI	-12.0277
▁Nẵng	-12.0277
▁nít	-12.0278
stone	-12.0278
▁nài	-12.0279
▁1942	-12.028
▁Terminal	-12.0282
▁Turbo	-12.0282
▁ủ	-12.0287
▁Sin	-12.0295
▁Saul	-12.0297
ớ	-12.0298
▁EX	-12.0299
▁doạ	-12.0302
▁Cú	-12.0303
▁Date	-12.0304
Free	-12.0305
▁Rob	-12.0308
▁Salvador	-12.0312
▁Phủ	-12.0316
▁Sàn	-12.0316
▁quăng	-12.0317
ù	-12.0319
▁18,	-12.0319
▁Ve	-12.0321
▁thank	-12.0325
▁Lover	-12.0326
▁read	-12.033
.“	-12.0332
▁Teen	-12.0332
▁Walter	-12.0332
▁under	-12.0339
▁money	-12.0341
▁Shield	-12.0348
▁để	-12.0348
▁vác	-12.0349
EC	-12.035
▁friend	-12.0352
▁Nhiếp	-12.0353
▁Breakfast	-12.0354
▁Noah	-12.0354
▁Thiệt	-12.0357
▁Tea	-12.0358
▁Sakura	-12.0358
▁Điệu	-12.0358
2;	-12.036
▁nhí	-12.036
▁Ready	-12.0364
▁Chữa	-12.0366
py	-12.0367
lie	-12.0369
AD	-12.037
▁Styles	-12.0371
▁him	-12.0374
▁23:	-12.0377
▁Hamburg	-12.0378
Ca	-12.038
▁Marilyn	-12.0384
▁đầm	-12.0384
▁Sahara	-12.0384
▁Cường	-12.0385
stra	-12.0385
▁TOP	-12.0386
▁Missouri	-12.0386
▁Karen	-12.0387
▁Phước	-12.0389
▁GM	-12.0391
▁Rời	-12.0391
▁Messi	-12.0393
▁Met	-12.0396
▁Thọ	-12.0398
▁Giác	-12.0399
chan	-12.0404
cal	-12.0404
▁Metal	-12.0411
Chiếc	-12.0412
▁Award	-12.0413
▁UTC	-12.0417
▁text	-12.042
▁giục	-12.042
▁Hyatt	-12.042
▁Pocket	-12.0422
▁Ham	-12.0425
▁Bolivia	-12.0425
▁Poker	-12.0426
▁Sổ	-12.0428
love	-12.0428
▁chà	-12.0429
▁lu	-12.0432
▁Financial	-12.0434
AM	-12.0434
▁Fear	-12.0436
▁Residences	-12.044
▁RSS	-12.0441
▁2030	-12.0441
Ôi	-12.0441
del	-12.0442
Cuối	-12.0448
▁2001,	-12.0449
MO	-12.0449
▁cover	-12.0449
/2011	-12.0455
▁lùn	-12.0455
▁Stanford	-12.0456
▁sủa	-12.0457
▁ngây	-12.0457
▁Bưu	-12.0458
GO	-12.0462
NO	-12.0465
[9]	-12.0466
Merak	-12.0469
▁next	-12.0469
HD	-12.0471
▁4%	-12.0471
▁1939	-12.0473
áp	-12.0476
CD	-12.0478
▁Winston	-12.0479
▁(13	-12.048
▁anime	-12.0493
▁gỉ	-12.0493
▁fucked	-12.0494
▁Trốn	-12.05
▁Coming	-12.05
On	-12.0502
▁ớt	-12.0504
▁Cruise	-12.0504
MI	-12.0505
ros	-12.0506
ever	-12.0508
▁very	-12.0508
-14	-12.0508
Thái	-12.0522
▁13%	-12.0523
▁Archive	-12.0524
▁tre	-12.0524
▁từ	-12.053
▁phông	-12.0532
▁someone	-12.0534
▁Alt	-12.0535
▁Huyện	-12.0535
▁Miệng	-12.0535
▁Chuỗi	-12.0536
ving	-12.054
▁Job	-12.054
▁power	-12.0544
▁Tor	-12.0546
ấn	-12.0553
▁Nắng	-12.0566
-21	-12.0575
▁Tắt	-12.0576
▁pH	-12.0576
cơ	-12.0577
car	-12.0579
▁Koh	-12.058
▁——	-12.0581
▁Once	-12.0586
▁Thuê	-12.0592
▁Horse	-12.0593
2%	-12.0594
Trái	-12.0595
tình	-12.0596
bên	-12.0599
var	-12.06
▁CÁC	-12.0602
▁line	-12.0603
ải	-12.0603
▁dép	-12.0603
▁Khoan	-12.0604
▁Idol	-12.0605
▁ván	-12.0605
▁table	-12.0606
▁Hold	-12.0609
▁ADN	-12.0611
▁Hit	-12.0616
▁chư	-12.0617
▁Amber	-12.062
▁Kai	-12.0623
▁views	-12.0627
▁Birds	-12.0628
▁eo	-12.0629
az	-12.0629
▁20:	-12.063
▁Goodbye	-12.0633
Sáng	-12.0635
▁Kem	-12.0637
▁ngõ	-12.064
▁story	-12.064
▁Mickey	-12.0643
De	-12.0643
▁Bieber	-12.0644
▁Community	-12.0647
▁SAP	-12.0647
▁Pete	-12.0649
UN	-12.0651
▁Nh	-12.0654
▁2001.	-12.0655
bel	-12.0656
▁Tel	-12.0659
ial	-12.0659
5)	-12.0663
bảo	-12.067
Life	-12.067
Dịch	-12.067
▁Ass	-12.0671
tính	-12.0673
4.	-12.0677
▁kiêm	-12.0677
▁chuối	-12.0677
▁Barack	-12.0677
▁Răng	-12.0677
▁Sherlock	-12.0681
▁Instant	-12.0681
▁Bến	-12.0683
▁vá	-12.0684
▁1969	-12.0687
▁Pu	-12.0688
▁Token	-12.069
▁spa	-12.0692
▁Angela	-12.0693
▁Ngă	-12.0705
▁Dã	-12.0707
Bắt	-12.0708
tối	-12.071
▁Chánh	-12.0715
▁Tuân	-12.0719
!!:	-12.0723
▁Nhị	-12.0725
▁bón	-12.0728
▁Map	-12.0731
▁1964	-12.0733
▁Forum	-12.0736
▁1,3	-12.0738
▁Original	-12.0739
▁19:	-12.074
Bọn	-12.0745
▁radar	-12.0746
▁Alaska	-12.0751
kẻ	-12.0751
▁Nợ	-12.0752
American	-12.0755
▁service	-12.0756
▁Trạng	-12.0756
ach	-12.0756
lee	-12.0757
ius	-12.076
aria	-12.0765
▁po	-12.0766
▁xức	-12.0768
▁Lộ	-12.077
▁Much	-12.077
bộ	-12.0778
Chi	-12.078
▁language	-12.0782
Google	-12.0782
▁Lite	-12.0785
▁ft	-12.0785
rum	-12.0787
▁gót	-12.0788
▁dồi	-12.0789
▁Azerbaijan	-12.0791
▁Nhiễm	-12.0791
EL	-12.0791
▁Dinh	-12.0792
▁Bờ	-12.0793
▁Khúc	-12.0794
▁bóc	-12.0794
▁feet	-12.0796
▁ECTS	-12.0796
▁Pearl	-12.0802
ula	-12.0803
ani	-12.0803
▁find	-12.0804
▁left	-12.0808
700	-12.0813
▁Brooklyn	-12.0826
▁should	-12.0827
▁Huế	-12.0829
▁Pokemon	-12.083
Ho	-12.0831
▁Annie	-12.0832
ora	-12.0832
▁Flight	-12.0834
▁Visio	-12.0834
▁Ngũ	-12.0834
bra	-12.0835
▁Vẽ	-12.0837
▁AND	-12.084
TP	-12.0842
▁host	-12.0846
▁von	-12.0855
ala	-12.0857
▁Ngu	-12.0859
▁dốt	-12.0864
Big	-12.0865
▁Chloe	-12.0866
▁Ethernet	-12.0867
▁vớt	-12.0869
▁Computer	-12.0871
▁filter	-12.0871
Star	-12.0877
▁1/2	-12.0877
▁1946	-12.088
ika	-12.0883
▁ổng	-12.0884
▁miss	-12.0885
▁1920	-12.0887
▁super	-12.089
▁xoa	-12.089
▁Chat	-12.0891
Is	-12.0892
Black	-12.0897
Lo	-12.0899
ới	-12.0899
Giáo	-12.0899
▁great	-12.09
đang	-12.09
▁Bloomberg	-12.0901
▁Cương	-12.0903
mb	-12.0905
▁hu	-12.0905
▁Kick	-12.0906
cia	-12.0908
▁++	-12.0908
▁bộc	-12.0917
▁thuở	-12.092
▁17,	-12.092
▁Leon	-12.0921
ig	-12.0921
▁Father	-12.0929
▁vãi	-12.0934
▁teen	-12.0934
▁mẹo	-12.0935
Vấn	-12.0935
▁mài	-12.0937
Tân	-12.0939
▁LinkedIn	-12.0939
▁Delhi	-12.094
▁đéo	-12.094
ất	-12.0945
▁Oregon	-12.0946
ding	-12.095
▁Lành	-12.0953
IL	-12.0954
▁(28	-12.0961
▁Châm	-12.0962
rat	-12.0964
▁Mama	-12.0967
VN	-12.097
ence	-12.0973
▁144	-12.0974
▁Salt	-12.0974
Tối	-12.0974
▁xuẩn	-12.0978
▁rải	-12.0978
▁TOEIC	-12.098
▁Orlando	-12.0981
▁Bò	-12.0982
sis	-12.0982
▁style	-12.0986
▁UEFA	-12.0988
▁Arena	-12.099
▁Browser	-12.0992
boy	-12.0993
▁lynn	-12.0994
▁Gray	-12.0996
▁Thung	-12.0996
▁Thai	-12.0996
▁Value	-12.0997
▁bùn	-12.0999
/2014	-12.1001
▁thing	-12.1011
LE	-12.1013
▁Forbes	-12.1016
▁Montreal	-12.1016
▁(2004)	-12.1016
6.	-12.1017
▁Docker	-12.1019
▁Kì	-12.102
▁Guatemala	-12.102
▁Carbon	-12.1021
▁Brexit	-12.1022
▁Dale	-12.1023
▁lẽo	-12.1024
▁Bơi	-12.1024
▁Talking	-12.1024
▁Cal	-12.1027
▁Je	-12.1028
▁Ci	-12.1029
▁fax	-12.103
▁4.5	-12.1033
ể	-12.1034
tre	-12.1038
ư	-12.1046
Đêm	-12.105
Hắn	-12.105
rk	-12.1051
giải	-12.1053
ý	-12.1054
▁(2006)	-12.1054
▁without	-12.1055
▁SUV	-12.1056
▁Vatican	-12.1057
▁1974	-12.1058
▁nháy	-12.1058
▁Angelina	-12.1059
▁Xuyên	-12.106
▁Wayne	-12.1062
▁Hiếu	-12.1064
▁copy	-12.1066
♥	-12.1071
▁Tool	-12.1073
ori	-12.1075
▁Shot	-12.1079
▁Eagle	-12.1081
▁Hack	-12.1082
▁Pen	-12.1084
▁ray	-12.1085
▁1,4	-12.1085
▁Cyber	-12.1087
ass	-12.1088
▁Trip	-12.1089
▁Lỗ	-12.1091
Web	-12.1092
▁Guinea	-12.1093
▁quặc	-12.1093
▁Binance	-12.1093
▁Edinburgh	-12.1093
▁Hảo	-12.1094
▁Somebody	-12.1099
▁Gary	-12.1099
rút	-12.11
▁(14	-12.1101
Nga	-12.1102
▁Direct	-12.1103
▁hand	-12.1103
▁Eco	-12.1104
▁NG	-12.1106
ub	-12.111
▁Shift	-12.1111
▁tràng	-12.1114
ef	-12.1121
▁IE	-12.1124
world	-12.1125
▁Hans	-12.1126
hành	-12.1128
đến	-12.1129
▁Ivan	-12.1129
▁type	-12.1129
▁Bernard	-12.113
phát	-12.113
▁KI	-12.1132
▁kép	-12.1132
ale	-12.1132
▁LCD	-12.1134
▁Khỏe	-12.1135
▁[8]	-12.1136
▁Rainbow	-12.1136
▁Trứng	-12.1138
aw	-12.1141
Si	-12.1143
▁1965	-12.1144
▁Dar	-12.1146
low	-12.1146
▁Jong	-12.1148
▁rom	-12.1148
▁admin	-12.1149
▁Baker	-12.1151
af	-12.1151
▁?"	-12.1151
▁Chain	-12.1152
▁Sister	-12.1162
DD	-12.1164
oi	-12.1166
Điểm	-12.1167
▁(11)	-12.1167
▁well	-12.1169
▁Luther	-12.117
▁7)	-12.117
Buenos	-12.117
▁Transfer	-12.117
▁vuốt	-12.1171
▁gầy	-12.1171
▁alexis	-12.1171
▁nồi	-12.1171
▁Bring	-12.1172
▁vòi	-12.1172
phi	-12.1174
▁watch	-12.1177
họ	-12.1177
▁Joker	-12.1178
▁Indiana	-12.118
▁tơ	-12.1183
▁Crown	-12.1184
▁street	-12.1185
▁Mê	-12.1191
▁won	-12.1196
▁Beast	-12.1197
ude	-12.1202
lis	-12.1208
▁Sar	-12.1208
Máy	-12.1209
▁Nhé	-12.1209
▁145	-12.1209
▁Broadway	-12.1209
▁Colorado	-12.1209
▁sushi	-12.121
123	-12.1213
▁14:	-12.1216
▁Lạt	-12.1218
▁Hoang	-12.1219
▁banner	-12.1225
▁Everybody	-12.1226
▁mind	-12.123
▁com	-12.1232
Game	-12.1233
Ro	-12.1235
▁answer	-12.1237
Se	-12.1239
Phiên	-12.1246
Thụy	-12.1246
▁Application	-12.1247
SC	-12.1247
phục	-12.1247
Dĩ	-12.1248
▁Roosevelt	-12.1248
▁Stewart	-12.1249
▁vướng	-12.1249
[8]	-12.1251
▁Florence	-12.1251
▁bóp	-12.1253
El	-12.1253
học	-12.1255
link	-12.1256
▁Aires	-12.1259
▁Mal	-12.1259
▁cat	-12.1262
NA	-12.1265
▁order	-12.1268
▁ĐT	-12.1269
▁khoăn	-12.1271
▁UN	-12.1276
▁bin	-12.1281
▁AN	-12.1283
▁Gordon	-12.1288
▁enzyme	-12.1291
Thay	-12.1291
ille	-12.1291
▁Mont	-12.1291
▁rủ	-12.1291
▁Ren	-12.1291
▁high	-12.1293
▁Rắn	-12.1294
▁ED	-12.1296
▁year	-12.1296
ae	-12.1297
▁dạn	-12.1298
-24	-12.1302
▁Mod	-12.1307
ware	-12.131
gin	-12.1312
art	-12.1313
js	-12.1314
môn	-12.1327
▁Huệ	-12.1327
▁nuối	-12.1327
▁trâu	-12.1327
▁Belle	-12.1328
▁rạng	-12.1328
▁stop	-12.1329
EST	-12.1332
▁.....	-12.1332
áng	-12.1332
▁RAID	-12.1333
▁Steven	-12.1334
▁byte	-12.1336
▁Mt	-12.1337
▁1973	-12.1337
▁Motion	-12.1337
▁Dậy	-12.134
▁Share	-12.1341
▁sườn	-12.1346
TE	-12.1347
RS	-12.1347
▁network	-12.1348
▁TIN	-12.135
Car	-12.1354
▁đu	-12.1355
DO	-12.1356
▁Crimea	-12.1356
ile	-12.1357
use	-12.1357
Gi	-12.1358
▁Pool	-12.1364
Rồi	-12.1366
▁had	-12.1367
▁Morocco	-12.1367
▁nhõm	-12.1367
▁gặt	-12.1367
▁biết	-12.1367
▁Rùa	-12.1368
▁Portland	-12.1368
cảm	-12.137
▁Lisbon	-12.137
▁Barry	-12.137
▁Bùi	-12.137
bị	-12.1372
▁AP	-12.1373
ld	-12.1375
▁trailer	-12.1375
▁Đinh	-12.1376
▁air	-12.1376
DC	-12.1376
▁Lyrics	-12.138
OL	-12.138
▁Lí	-12.1381
▁15.000	-12.1382
▁[5]	-12.1386
▁tụt	-12.139
▁kẻo	-12.1392
/2012	-12.1394
ize	-12.1395
▁Gets	-12.1397
ag	-12.1397
▁131	-12.1399
ys	-12.14
mor	-12.1404
▁Animal	-12.1405
Tiền	-12.1406
▁Stanley	-12.1407
▁khẽ	-12.1407
▁chướng	-12.1407
▁Kitty	-12.1408
▁st	-12.1408
▁Yokohama	-12.1408
▁khờ	-12.1411
êu	-12.1412
▁PVC	-12.1413
▁Mason	-12.1413
▁sun	-12.1415
▁French	-12.1415
Hà	-12.1416
▁UP	-12.1419
[3]	-12.1422
▁Board	-12.1423
▁Woo	-12.1424
▁use	-12.1429
▁choàng	-12.143
zz	-12.1431
▁té	-12.1431
▁Jam	-12.144
oni	-12.1446
▁Thả	-12.1446
▁Catalyst	-12.1447
▁NVIDIA	-12.1447
▁Tennis	-12.1447
nhiều	-12.1447
▁thỉu	-12.1447
▁lóc	-12.1448
▁Hour	-12.1448
▁Fashion	-12.1453
▁Crystal	-12.1453
▁Friday	-12.1457
you	-12.1457
▁Solutions	-12.146
gie	-12.146
ời	-12.146
▁1998,	-12.1462
SO	-12.1464
▁2050	-12.147
▁ri	-12.147
▁Zoo	-12.1471
▁mobile	-12.1473
▁132	-12.148
0000	-12.148
▁Ge	-12.1481
▁Dàn	-12.1485
đây	-12.1487
Bình	-12.1487
▁Luffy	-12.1487
▁Giận	-12.1487
▁Mafia	-12.1487
▁Parkinson	-12.1487
▁apple	-12.1487
▁Edison	-12.1487
▁FM	-12.1487
▁tẻ	-12.1487
▁Tennessee	-12.149
▁Ghét	-12.149
▁điềm	-12.149
▁Katie	-12.1493
▁Lưỡi	-12.1494
▁Sunny	-12.1494
▁Diệp	-12.1496
▁Address	-12.1498
▁quỉ	-12.1499
Lc	-12.1499
gram	-12.1499
▁map	-12.15
▁1932	-12.1507
sson	-12.1509
▁Event	-12.1513
bơ	-12.1515
not	-12.1516
▁né	-12.1516
▁coin	-12.1517
▁xơ	-12.1517
iv	-12.152
▁Inside	-12.1525
▁Thờ	-12.1525
thứ	-12.1526
tuần	-12.1527
▁đít	-12.1528
▁reading	-12.1529
▁Sebastian	-12.1529
▁Seasons	-12.153
▁OST	-12.1531
elle	-12.1532
▁Medical	-12.1535
-25	-12.1536
▁xỉn	-12.1536
▁Lego	-12.1538
fu	-12.1539
▁Hyper	-12.154
▁Going	-12.1546
ị	-12.1549
GS	-12.155
101	-12.1556
ỗ	-12.1558
▁European	-12.1559
ep	-12.1561
▁bỉ	-12.1564
▁far	-12.1565
▁Guesthouse	-12.1568
▁hăng	-12.1568
▁Gốc	-12.1569
Na	-12.1571
▁Mái	-12.1571
▁Vy	-12.1572
Du	-12.1573
▁Thép	-12.1573
úc	-12.1573
▁nothing	-12.1574
▁Certificate	-12.1574
▁Sunshine	-12.1574
zy	-12.1578
phê	-12.1579
▁today	-12.1579
ess	-12.158
▁cas	-12.1581
▁1.7	-12.1584
ison	-12.1587
▁21.	-12.1588
▁141	-12.1589
Á	-12.1591
▁TLS	-12.1592
▁Him	-12.1593
▁VPS	-12.1595
▁group	-12.1596
▁AG	-12.1598
▁Xứ	-12.1599
▁Ab	-12.1603
▁own	-12.1603
▁Ôm	-12.1603
▁Col	-12.1606
▁thốn	-12.1608
▁lấn	-12.1609
đầu	-12.1609
Hoàng	-12.161
▁Greenland	-12.161
kết	-12.161
▁share	-12.1611
laughing	-12.1611
▁days	-12.1611
tus	-12.1612
▁Đỗ	-12.1614
▁GP	-12.1618
▁BMI	-12.1619
CE	-12.162
▁ka	-12.1624
▁LOVE	-12.1625
ms	-12.1626
▁lọ	-12.1634
▁RFC	-12.1634
9%	-12.1636
pop	-12.1646
▁phượng	-12.1649
▁băn	-12.1649
▁tẩu	-12.1649
jpg	-12.1649
▁RE	-12.165
hãy	-12.165
Phim	-12.1652
▁Unlimited	-12.1655
▁Đua	-12.1656
▁1936	-12.1658
▁Rút	-12.1659
▁scan	-12.1659
▁Safety	-12.1661
tal	-12.1663
▁real	-12.1665
▁Qui	-12.1671
mel	-12.1671
▁water	-12.1673
▁PP	-12.168
▁1958	-12.1682
▁vạt	-12.1685
Th	-12.1685
▁star	-12.1688
▁Self	-12.169
▁Detroit	-12.169
▁Stadium	-12.169
▁ngoãn	-12.169
wan	-12.169
Microsoft	-12.1691
▁Second	-12.1691
▁nhôm	-12.1691
▁Monaco	-12.1694
▁Southern	-12.1694
Chấm	-12.1695
tar	-12.1701
▁Spy	-12.1701
▁Khổ	-12.1702
▁Fat	-12.1704
▁Clock	-12.1706
And	-12.1707
▁moon	-12.1715
aya	-12.1717
▁SEC	-12.172
dar	-12.1722
ska	-12.1722
▁Hunt	-12.1723
ric	-12.1727
▁CHÚ	-12.1728
▁Michel	-12.1729
▁face	-12.173
▁Spark	-12.173
▁Uganda	-12.1731
▁Vancouver	-12.1731
▁(2016)	-12.1731
▁Terry	-12.1732
▁Trouble	-12.1735
▁21:	-12.1737
▁Muối	-12.1737
▁Cinema	-12.1739
▁Switch	-12.1739
▁Object	-12.1739
▁Quinta	-12.1742
▁Yeah	-12.1743
▁RS	-12.1744
ay	-12.1745
▁Căng	-12.1745
oon	-12.175
mus	-12.1752
▁1.8	-12.1761
ise	-12.1764
▁DB	-12.1764
ow	-12.1768
▁tell	-12.1768
Mac	-12.1769
▁nhảm	-12.1774
▁beautiful	-12.1775
mặc	-12.1777
▁Cohen	-12.1777
▁Destiny	-12.1779
▁Xong	-12.1782
ique	-12.1782
▁woman	-12.1784
▁Buông	-12.1786
▁Selena	-12.1786
▁hắc	-12.1786
thì	-12.1792
▁EXO	-12.1797
!".	-12.1797
▁Gardens	-12.1798
ôi	-12.1809
▁Thompson	-12.1814
▁chạp	-12.1814
▁Conference	-12.1815
▁thế	-12.1815
▁wish	-12.1816
▁Uruguay	-12.1816
▁Bayern	-12.1816
ngoại	-12.1816
Ex	-12.1818
▁Extreme	-12.1818
▁Kar	-12.1818
▁1999,	-12.1819
▁500.000	-12.182
▁Nấu	-12.1822
▁Giàu	-12.1822
thay	-12.1822
▁Khán	-12.1826
Tao	-12.1832
▁Đổ	-12.1832
▁Angels	-12.1834
▁Et	-12.1835
▁Luis	-12.1838
▁Bull	-12.1842
ade	-12.1844
▁DE	-12.1845
mô	-12.1845
dĩ	-12.1846
RC	-12.1846
hợp	-12.1848
▁sảnh	-12.1849
sia	-12.1851
▁#4	-12.1852
▁Rise	-12.1855
▁Frankfurt	-12.1855
▁Juventus	-12.1855
▁Novotel	-12.1855
▁Floor	-12.1856
har	-12.1858
mit	-12.1858
tz	-12.1859
▁Thousand	-12.1859
Sức	-12.1859
▁ru	-12.186
▁Attack	-12.1862
▁Superior	-12.1862
▁Campus	-12.1864
▁3.4	-12.1864
▁Bận	-12.1865
▁XX	-12.1869
oo	-12.187
▁Clean	-12.1871
▁Dash	-12.1872
From	-12.1873
▁Saw	-12.1874
pha	-12.1878
▁Jamie	-12.1878
▁320	-12.1881
▁LI	-12.1883
▁Roman	-12.1886
▁Rocket	-12.1892
▁Columbus	-12.1897
▁(24	-12.1898
▁Dần	-12.1899
▁sâm	-12.1899
las	-12.1899
▁100%.	-12.1899
Hội	-12.1901
Nơi	-12.1901
8%	-12.1901
▁01:	-12.1902
/2013	-12.1905
▁Electric	-12.1907
▁ấp	-12.1908
▁Britney	-12.1908
ME	-12.1909
vis	-12.1911
tech	-12.1912
Gây	-12.1914
▁Para	-12.1915
▁Stark	-12.1918
yu	-12.192
▁điêu	-12.192
▁mớ	-12.1923
illa	-12.1923
▁talk	-12.1926
▁Many	-12.1927
▁4.3	-12.1931
Quả	-12.1936
▁đặn	-12.1938
▁mầu	-12.1939
▁Thâm	-12.1939
▁Lotus	-12.194
▁Miley	-12.1942
▁PlayStation	-12.1943
▁trỏ	-12.1943
▁xoắn	-12.1944
▁Trân	-12.1945
▁Daisy	-12.1945
trung	-12.1947
▁40.000	-12.1953
▁war	-12.1955
-30	-12.1959
ET	-12.1962
▁mạ	-12.1962
▁HDD	-12.1964
rô	-12.1965
▁ms	-12.1966
▁(9)	-12.1967
rick	-12.1968
▁body	-12.197
▁Safe	-12.1971
▁Dominica	-12.1976
3].	-12.1977
▁sọ	-12.1977
▁Mumbai	-12.1981
▁Harvey	-12.1981
▁Murphy	-12.1981
▁24:	-12.1982
▁CÔNG	-12.1982
▁Flickr	-12.1984
Đầu	-12.1985
▁twitter	-12.1985
tiền	-12.1985
▁Arsenal	-12.1985
000	-12.1986
Văn	-12.1986
▁pass	-12.1987
gu	-12.1989
cer	-12.1992
▁Command	-12.1995
▁Cent	-12.1998
▁Kind	-12.1999
▁Bou	-12.2
▁Horizon	-12.2
▁min	-12.201
▁Indian	-12.2012
ec	-12.2013
lam	-12.2015
▁Form	-12.2016
▁Woods	-12.202
”!	-12.2027
▁District	-12.2027
Nguyên	-12.2028
Super	-12.2028
▁Cửu	-12.2028
Mùa	-12.2028
▁Taiwan	-12.203
▁Huynh	-12.2035
▁Race	-12.2038
▁Faith	-12.2044
cat	-12.2046
▁form	-12.2047
▁Rogers	-12.2054
Ng	-12.2055
▁EA	-12.2057
▁1918	-12.2061
▁Dick	-12.2062
▁PayPal	-12.2066
▁Trạch	-12.2066
▁Beckham	-12.2066
▁Cừu	-12.2066
▁DirectX	-12.2067
▁xấp	-12.2067
▁Nổ	-12.2069
▁26:	-12.207
board	-12.2071
int	-12.2073
▁Khôi	-12.2075
▁Solar	-12.2075
AT	-12.2083
▁Pitt	-12.2088
lla	-12.2091
▁BD	-12.2093
▁jack	-12.2094
...!	-12.2096
6%	-12.2099
ụi	-12.2104
▁Mate	-12.2105
▁ver	-12.2105
▁cồn	-12.2108
▁Santiago	-12.2109
▁Catherine	-12.2109
▁Huân	-12.2109
74	-12.2109
▁Lầm	-12.211
▁Tommy	-12.211
▁Chai	-12.2111
Time	-12.2111
ology	-12.2113
▁GE	-12.2114
▁BC	-12.2115
▁Wide	-12.2115
▁Carey	-12.2116
▁computer	-12.2117
▁Aqua	-12.2119
ONE	-12.212
▁Africa	-12.2121
▁Pictures	-12.2123
ira	-12.2124
▁Soft	-12.2125
Thì	-12.2126
▁Report	-12.2127
▁Gods	-12.2129
▁[4	-12.2131
▁khánh	-12.2132
▁16%	-12.2138
▁Mer	-12.2142
▁MHz	-12.2144
▁nao	-12.2144
▁tánh	-12.2147
▁Content	-12.2148
▁Carol	-12.2148
▁1997,	-12.215
250	-12.215
▁Mạc	-12.2151
▁Nano	-12.2151
▁vẫy	-12.2152
▁Motorola	-12.2152
▁Monica	-12.2152
▁Phiếu	-12.2152
▁Paper	-12.2153
▁JSON	-12.2158
-2)	-12.2158
Or	-12.2161
▁Rô	-12.2161
▁45%	-12.2167
▁1.200	-12.2167
▁Bông	-12.217
▁Rey	-12.217
ken	-12.2174
▁every	-12.2174
▁value	-12.2179
▁bạ	-12.2179
▁Trans	-12.2181
RT	-12.2189
▁Bali	-12.2189
▁Loves	-12.2194
Cứ	-12.2194
▁Technologies	-12.2195
▁giỡn	-12.2195
▁Chút	-12.2195
▁diễu	-12.2195
▁Lock	-12.2198
▁Cherry	-12.2199
•	-12.2199
▁Champions	-12.22
▁Angry	-12.22
▁Va	-12.2202
Best	-12.2206
▁Hear	-12.2208
lời	-12.2208
▁UNICEF	-12.2211
▁while	-12.2211
nước	-12.2214
▁[12]	-12.2215
▁Said	-12.2216
▁550	-12.2218
▁der	-12.2219
▁xen	-12.2219
ls	-12.2222
▁Castro	-12.2238
▁Centro	-12.2238
▁Duty	-12.224
▁Thor	-12.224
▁Nhược	-12.2241
▁Turner	-12.2242
rie	-12.2243
▁QU	-12.2243
fo	-12.2244
Tài	-12.2244
▁omega	-12.2245
bát	-12.2245
Vua	-12.2246
▁Sâu	-12.2247
▁Bật	-12.2248
met	-12.2249
▁6.0	-12.2253
▁#5	-12.2254
▁$100	-12.2259
▁đan	-12.2261
▁Europa	-12.2262
▁RC	-12.2263
/2010	-12.2266
▁Spot	-12.2267
soft	-12.227
▁đũa	-12.2281
▁(2018)	-12.2282
▁Duyên	-12.2283
▁Bu	-12.2283
▁Half	-12.2283
▁rùi	-12.2283
Bo	-12.2284
xe	-12.2284
▁TC	-12.2288
▁Course	-12.2289
▁Sp	-12.229
▁270	-12.2291
und	-12.2291
iya	-12.2292
▁Yellow	-12.2292
▁LHQ	-12.2292
áo	-12.2293
▁ASP	-12.2297
▁Ze	-12.2298
▁Thiền	-12.23
▁Fool	-12.23
▁Words	-12.2301
▁Chủng	-12.2302
ible	-12.2305
▁1966	-12.2305
-50	-12.2308
ếch	-12.231
▁phone	-12.2314
win	-12.2317
▁11%	-12.2322
▁Books	-12.2324
▁Grove	-12.2325
▁(2017)	-12.2325
▁Jenny	-12.2325
▁xắn	-12.2325
▁Week	-12.2327
▁Japanese	-12.2327
▁Continue	-12.2329
cần	-12.2333
▁Adele	-12.2334
▁1940	-12.2335
▁Filter	-12.2336
▁Strike	-12.2337
▁Beijing	-12.2337
▁Ngừng	-12.2338
Quan	-12.2338
▁Cáo	-12.2346
▁lot	-12.2347
ich	-12.235
▁Poly	-12.2351
▁Knights	-12.2352
▁Tố	-12.2354
NC	-12.2356
▁ngô	-12.2356
▁Creator	-12.2361
▁rain	-12.2367
▁lượm	-12.2369
▁Mệt	-12.237
▁138	-12.2371
▁ninja	-12.2374
▁Study	-12.2374
▁Panda	-12.2375
▁EP	-12.2375
mình	-12.2377
▁Harrison	-12.238
▁Mrs	-12.238
▁1962	-12.2381
▁Fate	-12.2383
▁Asian	-12.2384
▁đò	-12.2385
▁Lenin	-12.239
▁Culture	-12.2392
▁Bass	-12.2395
KB	-12.2396
▁Ngắ	-12.2406
ue	-12.241
▁điếc	-12.2413
▁Lừa	-12.2413
▁léo	-12.2413
▁Wifi	-12.2413
▁Diệt	-12.2414
Ô	-12.2415
▁mode	-12.2419
▁OPEC	-12.2419
ct	-12.242
▁Chance	-12.242
Luật	-12.242
ello	-12.2421
bắt	-12.2421
▁Council	-12.2421
Đang	-12.2422
▁Swiss	-12.2422
▁Rights	-12.2423
▁út	-12.2426
▁1999.	-12.2429
▁net	-12.2429
▁Sho	-12.2431
▁4.4	-12.2433
-28	-12.2433
air	-12.2437
SA	-12.244
▁BE	-12.2447
▁1200	-12.245
WA	-12.245
▁2002.	-12.2457
▁Chẩn	-12.2457
▁lạp	-12.2458
▁iphone	-12.2458
▁Phan	-12.2459
▁200.000	-12.2459
▁Silicon	-12.246
▁Volume	-12.2461
work	-12.2461
▁Grab	-12.2462
▁Rita	-12.2462
/2016	-12.2462
▁Remote	-12.2462
▁auto	-12.2465
▁Storage	-12.2466
▁159	-12.2467
war	-12.247
▁images	-12.2471
/2017	-12.2474
▁audio	-12.2475
▁tem	-12.2475
▁Musk	-12.2476
▁Reed	-12.2477
gần	-12.2477
wi	-12.2482
▁mắng	-12.2486
hr	-12.2486
▁2.6	-12.2491
ring	-12.2493
HA	-12.2495
▁Coco	-12.2497
▁Select	-12.2498
õ	-12.25
▁aspirin	-12.2501
▁Spencer	-12.2501
▁Tịch	-12.2503
▁134	-12.2504
▁Nights	-12.2505
▁ROM	-12.2506
▁Ave	-12.2507
▁dance	-12.251
▁Manuel	-12.2511
ồi	-12.2511
MU	-12.2512
ả	-12.2514
▁bọ	-12.2515
DE	-12.2519
▁acid	-12.2521
Ka	-12.2521
▁Juliet	-12.2522
▁Arc	-12.2525
rinh	-12.2527
▁Secure	-12.2527
gg	-12.2528
ston	-12.2529
▁Official	-12.2537
▁CN	-12.2545
▁153	-12.2545
▁chật	-12.2546
▁vơi	-12.2548
▁phiến	-12.2548
▁phàm	-12.2549
▁Build	-12.255
▁Belarus	-12.255
▁Brain	-12.2551
▁PRO	-12.2551
▁Sale	-12.2554
National	-12.2555
▁Nút	-12.2555
Tốt	-12.2555
Chúc	-12.2557
▁Really	-12.2558
▁pa	-12.256
lly	-12.2561
▁mốt	-12.2565
ối	-12.2566
bon	-12.2571
▁650	-12.2572
▁Wings	-12.2576
ă	-12.258
BA	-12.258
ganh	-12.2581
burg	-12.2583
ute	-12.2585
▁FX	-12.2586
▁break	-12.2589
▁1995,	-12.259
▁poster	-12.2591
▁café	-12.2591
▁Sophia	-12.2591
▁iCloud	-12.2591
▁sỏi	-12.2591
▁ngỏ	-12.2592
LY	-12.2592
▁đày	-12.2596
▁Warsaw	-12.2596
▁client	-12.2598
EP	-12.2599
Ch	-12.2599
Thể	-12.26
Cười	-12.26
Lại	-12.26
▁Trì	-12.2604
(1	-12.2606
tur	-12.2607
ợ	-12.261
▁1949	-12.2611
▁28:	-12.2617
▁AMP	-12.2617
▁TN	-12.262
▁hoi	-12.2621
ỷ	-12.2623
▁dãi	-12.2623
uff	-12.2623
▁Chase	-12.2624
▁Maker	-12.2628
▁Artist	-12.2629
▁Neo	-12.2633
▁Aaron	-12.2636
▁Minecraft	-12.2636
▁Desert	-12.2636
▁why	-12.2636
sta	-12.2637
▁Ngọt	-12.2638
▁Monkey	-12.2639
▁1963	-12.264
▁Lôi	-12.2641
▁used	-12.2641
▁Would	-12.2642
▁Upon	-12.2642
▁Zoom	-12.2642
ND	-12.2643
Trời	-12.2645
Lịch	-12.2646
▁Pet	-12.2648
▁Print	-12.2648
▁Table	-12.2651
110	-12.2653
▁sen	-12.2653
uch	-12.2655
▁CR	-12.2656
kar	-12.2657
▁1980.	-12.2658
▁Jul	-12.2661
▁Sanders	-12.2668
:39	-12.2669
▁most	-12.2672
▁ưng	-12.2672
▁lượn	-12.268
▁Par	-12.268
▁Lounge	-12.2681
▁Laser	-12.2681
▁dấy	-12.2682
tch	-12.2683
▁Liberty	-12.2689
Hỏi	-12.2691
Chờ	-12.2692
▁230	-12.2692
▁short	-12.2693
ated	-12.2693
▁Romeo	-12.2694
▁hạch	-12.2694
7)	-12.2695
:30	-12.2699
▁Mill	-12.2699
▁Sisters	-12.2699
▁Australian	-12.27
AA	-12.27
▁7.000	-12.2701
▁Hacker	-12.2701
▁friends	-12.2701
▁side	-12.2702
Li	-12.2703
▁Bra	-12.2707
▁Adventures	-12.2713
▁Nhã	-12.2714
▁!"	-12.2717
▁Lou	-12.2718
▁......	-12.2721
▁đun	-12.2722
▁Pattaya	-12.2726
▁CNTT	-12.2726
▁Loạn	-12.2727
▁RFID	-12.2727
▁Caroline	-12.2727
▁Ship	-12.2728
▁Masters	-12.2729
▁Sign	-12.2732
▁Jolie	-12.2732
▁Infinity	-12.2734
▁Ám	-12.2735
▁after	-12.2745
▁Sô	-12.2747
▁IC	-12.2748
????	-12.2757
DA	-12.276
▁1941	-12.2762
▁Guardian	-12.2764
▁Bedroom	-12.2765
quan	-12.2768
▁Acrobat	-12.2772
▁(2005)	-12.2772
▁sùng	-12.2772
▁nhổ	-12.2773
▁Track	-12.2774
▁FBS	-12.2775
▁Albania	-12.2777
▁Lô	-12.2777
ễ	-12.2779
▁Spanish	-12.2779
pu	-12.2781
▁Búp	-12.2781
▁Dancing	-12.2781
▁Daddy	-12.2782
mỗi	-12.2783
đạo	-12.2783
Sinh	-12.2783
▁LU	-12.2784
▁Behind	-12.2784
▁khiếm	-12.2784
gra	-12.2789
▁1944	-12.2791
▁tv	-12.2792
:23	-12.2794
▁hotel	-12.2795
▁access	-12.2795
▁Poster	-12.2796
mont	-12.2798
▁300.000	-12.2798
▁1983	-12.28
▁MSI	-12.28
▁[2	-12.2803
▁Killer	-12.281
ei	-12.2812
▁Pie	-12.2816
▁210	-12.2816
▁Massachusetts	-12.2818
▁ngoặt	-12.2818
▁toilet	-12.2818
▁APEC	-12.2818
▁Ridge	-12.2818
▁náu	-12.2818
▁might	-12.2818
▁Uyên	-12.2819
▁Vinci	-12.2819
▁NT	-12.282
▁dẫu	-12.282
▁Khổng	-12.282
2000	-12.282
▁Nicholas	-12.2824
▁Kris	-12.2825
Thần	-12.2829
tùy	-12.2829
Mặt	-12.283
Xe	-12.283
fish	-12.283
▁Bean	-12.2832
Âm	-12.2835
Good	-12.2836
▁gom	-12.2837
▁7-	-12.2838
ichi	-12.2839
▁king	-12.284
▁Vo	-12.2844
kia	-12.2844
ạ	-12.2851
▁Khan	-12.2852
▁báng	-12.2855
lock	-12.2858
▁Hoà	-12.2859
▁Send	-12.2862
▁vần	-12.2863
▁CB	-12.2864
▁Harbor	-12.2864
▁ngượng	-12.2864
▁poker	-12.2864
▁nới	-12.2865
▁Premiere	-12.2865
▁2.500	-12.2866
▁Strange	-12.287
▁vãng	-12.2872
ller	-12.2873
▁9%	-12.2875
iel	-12.2875
Hơn	-12.2876
rus	-12.2879
▁el	-12.2882
▁(26	-12.2882
▁Họp	-12.2886
▁5.2	-12.2888
............	-12.2888
▁eyes	-12.2888
sel	-12.289
▁white	-12.2892
Up	-12.2898
ứt	-12.2899
MM	-12.29
▁Concept	-12.2901
par	-12.2902
ua	-12.2904
▁DS	-12.2905
▁jQuery	-12.291
▁SkyTeam	-12.291
▁playlist	-12.291
▁nhấc	-12.291
▁Sally	-12.2913
▁***	-12.2914
▁Bột	-12.2915
▁Cẩm	-12.2919
▁Romance	-12.2919
▁Đỉnh	-12.2919
Việt	-12.2922
▁Eat	-12.2923
▁Candy	-12.2923
▁topic	-12.2926
dor	-12.2926
▁Posts	-12.2931
▁Request	-12.2931
▁4,5	-12.2933
She	-12.294
▁Being	-12.2942
▁Bách	-12.2946
▁8.000	-12.2952
▁nã	-12.2956
▁Đuổi	-12.2957
▁liếc	-12.2957
▁Khỏi	-12.2957
▁Marcus	-12.2959
▁Evolution	-12.296
▁everything	-12.2961
▁Imperial	-12.2962
▁Chiếu	-12.2963
▁Temple	-12.2964
▁Com	-12.2964
▁đỗi	-12.2966
▁TCP	-12.2969
Muốn	-12.2969
▁chổ	-12.2971
▁OECD	-12.2972
▁Atlantic	-12.2972
▁Qur	-12.2972
▁Unit	-12.2974
▁Đàm	-12.2975
ras	-12.2976
8.	-12.2978
ole	-12.2978
▁word	-12.2978
▁Ce	-12.2982
om	-12.2982
▁Pick	-12.2983
▁ten	-12.2987
ight	-12.2989
▁lộc	-12.2992
▁Rod	-12.2995
▁Za	-12.2996
4,	-12.2997
LS	-12.2998
▁Ghen	-12.3001
▁AirPods	-12.3003
="	-12.3003
▁Blair	-12.3004
▁Sal	-12.3006
▁pixel	-12.3006
▁Buy	-12.3007
:37	-12.3008
▁Enough	-12.3009
una	-12.3009
▁Dao	-12.301
▁Tiệm	-12.301
âu	-12.301
ề	-12.3011
▁Mia	-12.3016
thật	-12.3016
▁Sofia	-12.3019
▁Try	-12.3024
▁1919	-12.3026
▁dai	-12.303
▁Nan	-12.303
▁Skin	-12.3031
▁6.1	-12.3032
over	-12.3041
▁Campbell	-12.305
▁Assistant	-12.305
▁Rơi	-12.3051
▁Bolton	-12.3051
▁Jungle	-12.3051
▁Hawking	-12.3051
▁Não	-12.3052
▁Gal	-12.3054
▁Trinh	-12.3054
▁Nikon	-12.3054
▁HTTPS	-12.3055
001	-12.3055
▁Sandy	-12.3057
▁Dirty	-12.3058
▁Factory	-12.3058
▁Title	-12.3059
6)	-12.306
đó	-12.3061
▁where	-12.3062
▁301	-12.3063
CN	-12.3063
▁Gaza	-12.3064
▁music	-12.3071
Hệ	-12.3074
▁Bê	-12.3079
▁$1	-12.3082
IF	-12.3087
3:	-12.3093
▁Ride	-12.3096
▁Morris	-12.3097
▁Evernote	-12.3097
▁Mat	-12.3098
▁Pride	-12.3098
▁iMac	-12.3098
RP	-12.3098
▁Phượng	-12.3102
Un	-12.3104
▁Iris	-12.3105
IE	-12.3108
▁Against	-12.3108
eg	-12.311
▁manga	-12.311
berry	-12.3111
▁Shine	-12.3112
WHO	-12.3113
▁Reading	-12.3113
As	-12.3115
ben	-12.3116
▁Ye	-12.3118
Open	-12.312
▁NSA	-12.3124
▁1600	-12.3128
▁Kay	-12.3128
▁WP	-12.3129
▁banh	-12.3131
avi	-12.3133
▁Mile	-12.3134
▁Gas	-12.3134
▁Bồi	-12.3136
▁lộng	-12.314
nam	-12.3144
▁Luxembourg	-12.3145
▁Czech	-12.3145
▁nghếch	-12.3145
▁Airways	-12.3145
▁Jonas	-12.3145
▁Knew	-12.3145
▁Alfred	-12.3147
▁1,6	-12.3147
▁Tango	-12.3147
▁Oil	-12.3148
▁vách	-12.3148
▁00:	-12.3151
▁quạt	-12.3152
▁Sophie	-12.3152
▁1937	-12.3154
▁Common	-12.3154
Red	-12.3155
▁Neymar	-12.3155
▁were	-12.3157
▁165	-12.3157
bình	-12.3159
May	-12.316
cùng	-12.316
▁Abe	-12.3163
hy	-12.3165
▁Ros	-12.3166
▁hì	-12.3171
dis	-12.3172
ert	-12.3177
▁[9]	-12.3177
ele	-12.318
life	-12.3186
▁vãn	-12.3186
gọi	-12.3187
od	-12.3188
▁podcast	-12.3192
▁xộn	-12.3192
▁Alexandria	-12.3192
▁Petersburg	-12.3192
▁tuýp	-12.3193
▁len	-12.3194
▁México	-12.3195
▁Ontario	-12.3195
▁Elton	-12.3195
▁BA	-12.3197
–19	-12.3199
▁Twilight	-12.3199
▁Đợt	-12.32
▁account	-12.3201
▁Julian	-12.3206
▁136	-12.321
Hàng	-12.321
ase	-12.3215
▁Stan	-12.3216
ato	-12.3217
▁Chỉnh	-12.3218
▁tát	-12.3222
▁MK	-12.3223
▁Legends	-12.3224
.[1]	-12.3225
▁Knows	-12.3226
▁Xinh	-12.3228
din	-12.323
▁Picture	-12.3232
...”.	-12.3235
▁Lose	-12.3236
▁Semalt	-12.324
▁TNHH	-12.324
nơi	-12.324
▁Shopping	-12.324
▁Ngốc	-12.324
▁Ground	-12.324
▁Slovakia	-12.324
▁Lặng	-12.3241
▁ĐÂY	-12.3241
▁Toà	-12.3241
▁hiên	-12.3242
▁Caribbean	-12.3242
▁Building	-12.3242
▁green	-12.3243
▁Nevada	-12.3243
▁Ngắn	-12.3245
ois	-12.3245
LA	-12.3247
▁plan	-12.3248
▁139	-12.3248
▁Vincent	-12.3249
▁Ellen	-12.3253
Phát	-12.3256
▁nice	-12.3257
Sản	-12.3259
▁:(	-12.326
▁Count	-12.3261
khu	-12.3263
▁Password	-12.3263
▁Ngon	-12.3268
ẩy	-12.3274
ây	-12.3284
▁GA	-12.3284
▁uốn	-12.3287
▁Duterte	-12.3288
▁Illinois	-12.3288
▁Khứ	-12.3288
▁đầu	-12.3288
▁Canyon	-12.3288
▁EMA	-12.3288
▁Roof	-12.3288
▁HDMI	-12.3288
▁pound	-12.3289
▁Đoạt	-12.3291
âi	-12.3291
▁02:	-12.3292
▁Venus	-12.3293
▁JYJ	-12.3293
▁Writing	-12.3293
CI	-12.3294
▁Trầm	-12.3295
▁Xương	-12.3296
tta	-12.3298
▁122	-12.3299
▁forum	-12.3301
AN	-12.3301
Ngôi	-12.3304
▁Focus	-12.3304
adj	-12.3308
IA	-12.3311
mark	-12.3315
▁Marine	-12.3315
▁Expo	-12.3315
▁IPO	-12.3317
▁Os	-12.3323
5,	-12.3324
ương	-12.3328
Hi	-12.333
▁Blade	-12.3333
nm	-12.3333
▁phác	-12.3334
▁Lloyd	-12.3336
▁gắt	-12.3337
▁Shu	-12.3337
▁Lỡ	-12.3338
FF	-12.3338
▁Murder	-12.3341
AG	-12.3341
▁Chinh	-12.3343
her	-12.3343
▁29:	-12.3344
▁Ran	-12.3345
▁Blu	-12.3349
ơng	-12.335
are	-12.3351
▁Path	-12.3351
Đất	-12.3352
▁Wants	-12.3353
Bằng	-12.3353
cập	-12.3353
down	-12.3356
▁ALL	-12.3359
▁boot	-12.336
▁kiss	-12.336
▁Mel	-12.3362
▁Networks	-12.3364
top	-12.3367
▁Chà	-12.3368
▁Tồn	-12.3369
▁Paulo	-12.3371
▁SK	-12.3372
▁Designer	-12.3375
nc	-12.3375
CP	-12.3377
▁Sur	-12.3377
▁Window	-12.3384
▁Gandhi	-12.3385
lover	-12.3385
▁BBQ	-12.3385
▁nấp	-12.3385
▁Váy	-12.3385
▁Spears	-12.3387
▁Irish	-12.3388
▁Caesar	-12.3388
▁Fukuoka	-12.3388
▁Mirror	-12.3389
▁201	-12.339
rar	-12.3391
▁Cleveland	-12.3391
▁kìm	-12.3392
▁design	-12.3394
mes	-12.3396
▁142	-12.3398
ett	-12.3398
Thầy	-12.3401
Tính	-12.3402
Đôi	-12.3402
stein	-12.3403
tốt	-12.3404
▁1,8	-12.3404
^^	-12.3408
▁168	-12.3409
▁Joan	-12.3412
▁148	-12.3412
sống	-12.3413
150	-12.3413
▁999	-12.3415
ky	-12.3422
▁does	-12.3422
▁Disk	-12.3429
▁giỏ	-12.343
▁phà	-12.3431
▁18%	-12.3431
▁Orchestra	-12.3433
▁Churchill	-12.3433
▁Revolution	-12.3434
▁tuế	-12.3434
▁nếp	-12.3434
▁xiếc	-12.3434
▁Bìa	-12.3434
▁Discovery	-12.3434
▁sự	-12.3436
▁Jeremy	-12.3437
▁4-5	-12.3437
▁Foster	-12.3437
hàng	-12.3439
▁Trọn	-12.3441
point	-12.3441
▁Superman	-12.3442
▁Điền	-12.3442
yn	-12.3442
▁Trăm	-12.3444
▁(*	-12.3444
▁password	-12.3445
▁Sway	-12.3446
▁tụy	-12.3448
▁Commons	-12.345
Jacob	-12.345
▁/>	-12.3452
Tương	-12.3452
▁ship	-12.3453
▁Lies	-12.3454
▁Nicole	-12.3459
▁cup	-12.3467
▁pay	-12.3471
oz	-12.3471
▁Pe	-12.3471
tum	-12.3472
▁1933	-12.3477
▁Late	-12.3478
▁Đón	-12.3479
▁quáng	-12.3479
▁Heights	-12.3482
▁insulin	-12.3482
▁Dãy	-12.3485
▁152	-12.3487
▁bọt	-12.3487
▁Geo	-12.3489
▁tưới	-12.3489
▁Gift	-12.349
▁jazz	-12.3491
▁trù	-12.3493
▁1998.	-12.3494
▁GDPR	-12.3495
▁Lives	-12.3495
die	-12.3496
▁Đầy	-12.3498
Abraham	-12.35
Kể	-12.3501
máy	-12.3502
▁MY	-12.3502
eri	-12.3503
▁Found	-12.3503
Cám	-12.3504
▁nà	-12.3511
▁Thao	-12.3514
Vũ	-12.3514
▁POP	-12.3525
▁Dollar	-12.3525
▁MIT	-12.353
▁Route	-12.3531
nan	-12.3531
▁fuck	-12.3531
▁Gruzia	-12.3532
▁Coinbase	-12.3532
▁Saigon	-12.3532
▁sấu	-12.3532
▁Kéo	-12.3532
▁Địch	-12.3532
▁Christina	-12.3533
Vi	-12.3533
▁Whole	-12.3536
▁Worth	-12.3538
?""	-12.3539
▁Cream	-12.3539
▁Kal	-12.3543
▁Gotta	-12.3544
1;	-12.3546
▁1929	-12.3546
▁Row	-12.3549
▁These	-12.3549
Tây	-12.3551
▁Learn	-12.3551
ree	-12.3554
▁Kurd	-12.3559
▁Gay	-12.356
vào	-12.3566
▁trút	-12.357
▁thui	-12.357
▁FL	-12.3571
iro	-12.3572
▁Acer	-12.3573
▁chích	-12.3573
▁nhẽ	-12.3579
▁(25	-12.358
▁VS	-12.3581
▁Glacier	-12.3581
▁estrogen	-12.3581
▁Twain	-12.3581
▁THÍCH	-12.3581
▁đọng	-12.3582
▁Logan	-12.3582
▁múi	-12.3584
▁APK	-12.3584
▁PSG	-12.3585
▁Taipei	-12.3585
nin	-12.3586
coin	-12.3587
7.	-12.3588
eta	-12.3589
▁Bruno	-12.3591
▁đốm	-12.3593
▁FF	-12.3593
▁sorry	-12.3594
▁133	-12.3594
Thượng	-12.3599
Thiết	-12.36
Hy	-12.36
▁UPS	-12.3604
DVD	-12.3604
dra	-12.3605
▁cool	-12.3607
HS	-12.3609
▁VietSub	-12.3609
▁Luna	-12.361
▁Ny	-12.3612
TO	-12.3615
ral	-12.3615
▁nhét	-12.3615
▁Kent	-12.3616
▁Screen	-12.3618
cus	-12.3621
Tr	-12.3622
▁Brother	-12.3622
▁Bối	-12.3627
▁(12)	-12.3627
gle	-12.3628
PR	-12.3628
▁Oz	-12.3629
▁Tale	-12.363
▁nhăn	-12.363
▁góa	-12.3631
▁mặn	-12.3631
▁Century	-12.3631
▁ngậm	-12.3631
▁dẻo	-12.3632
▁Elite	-12.3633
▁1912	-12.3634
▁vặn	-12.3635
▁Stories	-12.3636
▁Ðó	-12.3637
kov	-12.3637
▁Extra	-12.3639
lit	-12.3644
▁Anime	-12.3645
▁IEC	-12.3648
MT	-12.3648
▁Viewer	-12.3648
▁NEW	-12.3651
▁Lân	-12.3651
tho	-12.3652
▁joy	-12.3652
▁Hart	-12.3655
rah	-12.3658
▁Cốt	-12.3661
uck	-12.3661
ụ	-12.3665
sao	-12.3669
▁FB	-12.3673
CR	-12.3675
▁Siberia	-12.3676
▁Rider	-12.3677
▁samurai	-12.3681
▁Copyright	-12.3681
▁Khỉ	-12.3681
▁nhích	-12.3682
▁Ber	-12.3682
▁Branch	-12.3683
▁Loving	-12.3684
/2019	-12.3684
▁Phantom	-12.3685
▁27:	-12.3687
▁Controller	-12.369
▁Nana	-12.369
▁Fund	-12.3691
bot	-12.3693
▁ngóng	-12.3694
▁theme	-12.3695
▁Electronics	-12.3696
▁Khốn	-12.3697
-40	-12.3698
▁ESL	-12.3698
111	-12.3698
▁Bet	-12.3702
chết	-12.3703
▁its	-12.3709
phim	-12.371
▁Pot	-12.3713
▁CU	-12.3716
ries	-12.3719
▁xua	-12.3723
phone	-12.3724
▁280	-12.3725
▁nóc	-12.3729
▁Eddie	-12.3731
▁khâu	-12.3731
▁picnic	-12.3731
▁Mậu	-12.3732
▁another	-12.3732
▁Lọc	-12.3733
▁Nghèo	-12.3734
ple	-12.3735
▁Ecuador	-12.3736
▁Rebecca	-12.3736
▁149	-12.3737
▁Been	-12.374
▁Titanic	-12.374
▁1957	-12.3743
▁Essentials	-12.3743
▁(21	-12.3748
▁Any	-12.3749
▁Dress	-12.375
Đường	-12.3751
▁Delta	-12.3752
▁count	-12.3753
▁Ella	-12.3756
▁Wu	-12.376
PO	-12.3762
▁1994,	-12.3763
▁nhẹn	-12.377
▁+1	-12.3771
▁ki	-12.3775
GL	-12.3776
▁Giáp	-12.3778
Pa	-12.3778
▁6000	-12.3779
▁Credit	-12.3779
ét	-12.378
▁MH	-12.378
▁Lot	-12.3781
▁Ferguson	-12.3781
▁Olivia	-12.3781
▁lẫy	-12.3781
▁Khắp	-12.3782
▁THƯ	-12.3782
▁Catch	-12.3783
▁reo	-12.3784
▁Birthday	-12.3786
▁Display	-12.3788
▁Eiffel	-12.3788
▁Monday	-12.3789
▁Banner	-12.379
▁Aston	-12.379
▁Phàm	-12.3792
▁Loa	-12.3792
▁330	-12.3795
▁idol	-12.3795
▁7.1	-12.3796
▁words	-12.3798
▁Electronic	-12.3799
hơn	-12.3801
Nàng	-12.3803
run	-12.381
▁cua	-12.3812
ally	-12.3815
▁Nation	-12.3816
▁Glen	-12.3816
▁dark	-12.3824
▁Uni	-12.3824
▁Nor	-12.3825
quá	-12.3825
TB	-12.3827
AF	-12.3829
▁Racing	-12.3832
▁Suzuki	-12.3832
▁Demi	-12.3832
▁rầy	-12.3832
▁Songs	-12.3833
▁Newcastle	-12.3833
▁loãng	-12.3833
▁Tivi	-12.3833
tai	-12.3833
▁Upper	-12.3834
▁Nicaragua	-12.3834
▁Performance	-12.3834
▁Tanzania	-12.3835
▁natri	-12.3838
▁String	-12.3838
GP	-12.3844
▁158	-12.3845
▁96%	-12.3845
▁Settings	-12.3847
qu	-12.3849
▁lữ	-12.385
▁price	-12.385
eur	-12.3852
▁Rap	-12.3852
Radio	-12.3853
ầm	-12.3853
Ấn	-12.3854
mới	-12.3865
dal	-12.3867
▁CM	-12.3868
Link	-12.387
▁1952	-12.3871
▁XM	-12.3872
Ban	-12.3873
ỡ	-12.3874
path	-12.3875
▁137	-12.3876
PD	-12.3878
▁Interface	-12.3883
▁rầu	-12.3883
▁NPK	-12.3884
▁tý	-12.3884
sol	-12.3886
▁Unity	-12.3886
▁Vin	-12.3886
▁Khăn	-12.3886
▁Nagoya	-12.3889
▁Thăng	-12.389
BO	-12.3892
Ve	-12.3892
▁cành	-12.3893
▁put	-12.3895
▁Fresh	-12.3898
▁Alien	-12.3902
Source	-12.3904
Phòng	-12.3904
Địa	-12.3904
SD	-12.3906
▁Ngư	-12.3907
▁rap	-12.3909
▁Yuki	-12.3909
▁Kh	-12.3909
mas	-12.3923
àn	-12.3924
Dạ	-12.3926
▁147	-12.3928
OH	-12.3928
▁Bryan	-12.3931
▁Auckland	-12.3934
▁chùm	-12.3935
▁náo	-12.3936
▁dào	-12.3936
▁Madagascar	-12.3937
▁fucking	-12.3937
▁Napoli	-12.3941
▁request	-12.3941
FI	-12.3942
▁xảo	-12.3942
▁Lay	-12.3943
▁Lyon	-12.3944
▁Highway	-12.3946
ere	-12.3948
▁Corp	-12.3951
▁169	-12.3951
▁Cốc	-12.3951
▁Chinese	-12.3951
DR	-12.3952
▁Burn	-12.3954
▁han	-12.3956
▁Chang	-12.3957
ssa	-12.3958
▁lung	-12.3959
▁Wait	-12.396
water	-12.3961
▁Record	-12.3969
▁Pho	-12.3971
▁Rom	-12.3972
▁UI	-12.3972
gs	-12.3973
room	-12.3973
▁64-	-12.3978
▁August	-12.3978
▁gene	-12.3978
▁163	-12.3979
▁Hotels	-12.3984
▁Waterfront	-12.3986
▁Hoạch	-12.3986
▁Quỳnh	-12.3986
▁Quyến	-12.3987
▁vaccine	-12.3987
▁Account	-12.3988
▁Stra	-12.3988
MAN	-12.399
▁Hidden	-12.3991
▁Hugh	-12.3991
▁LÀM	-12.3992
▁Eminem	-12.3995
▁Shanghai	-12.3995
▁Nov	-12.3998
bs	-12.4001
oro	-12.4001
▁Stock	-12.4003
▁found	-12.4003
▁AFP	-12.401
cent	-12.4012
▁xửa	-12.4016
▁Cast	-12.4017
hieân	-12.402
▁Does	-12.4021
VA	-12.4024
▁Moment	-12.4025
sto	-12.4027
▁157	-12.4028
EM	-12.4028
ùng	-12.403
▁Local	-12.4031
card	-12.4032
▁Ghé	-12.4033
eth	-12.4036
▁Kuwait	-12.4037
▁PHÍ	-12.4037
▁cocktail	-12.4037
▁giặc	-12.4037
▁ASUS	-12.4038
▁Cáp	-12.4038
▁drone	-12.4038
▁mẩu	-12.4038
▁Malta	-12.4038
▁Dying	-12.4039
▁dream	-12.4039
▁TU	-12.4042
▁Anniversary	-12.4042
uma	-12.4043
▁Twice	-12.4043
sar	-12.4043
▁band	-12.4044
▁Gaming	-12.4046
▁Cell	-12.4048
▁Calvin	-12.405
▁Merry	-12.4051
MD	-12.4051
▁Frost	-12.4051
▁1,1	-12.4052
read	-12.4053
▁CRM	-12.4054
▁small	-12.4056
▁Dong	-12.4056
▁content	-12.4058
bank	-12.406
giây	-12.4061
dịch	-12.4062
▁1993,	-12.4062
▁Condo	-12.4062
6:	-12.4062
dù	-12.4063
mất	-12.4064
▁nư	-12.4065
▁Fisher	-12.4068
▁Dựng	-12.407
▁Islands	-12.407
▁Ac	-12.4071
▁Sep	-12.4072
▁CV	-12.4075
trang	-12.4079
ỉ	-12.4081
CL	-12.4081
aga	-12.4082
▁Islam	-12.4086
rn	-12.4087
▁African	-12.4088
▁9000	-12.4088
▁Tang	-12.4089
▁Elastic	-12.4089
▁Gieâ	-12.4089
▁Airbnb	-12.4089
▁Heritage	-12.4089
▁Samantha	-12.4089
▁giầy	-12.4089
▁Reagan	-12.409
▁chéo	-12.409
▁đần	-12.409
▁tầu	-12.409
▁said	-12.409
▁đạm	-12.409
▁Blake	-12.4094
▁Đo	-12.4094
▁NGC	-12.4094
▁Drake	-12.4096
▁dơi	-12.4097
▁Adults	-12.4098
sse	-12.4099
▁Greg	-12.41
▁color	-12.4101
▁Admin	-12.4102
▁double	-12.4103
ington	-12.4104
▁Lucas	-12.4104
▁Holy	-12.4105
cher	-12.4105
[1].	-12.4106
▁Silent	-12.4106
▁Insider	-12.4109
zer	-12.4111
▁Ward	-12.4112
Master	-12.4115
▁Move	-12.4116
▁font	-12.4118
ắc	-12.4118
▁Views	-12.4119
▁luo	-12.412
etc	-12.4121
▁IPv	-12.4121
▁Jung	-12.4121
gon	-12.4122
:27	-12.4125
▁155	-12.4125
ĩ	-12.4126
▁[1	-12.4127
▁32:	-12.4129
Đồ	-12.4129
▁cộ	-12.413
▁bu	-12.4132
▁Developer	-12.4135
▁Youth	-12.4136
Tổ	-12.4136
ói	-12.4137
▁?!	-12.414
▁fa	-12.414
▁Acronis	-12.4142
▁GeForce	-12.4142
▁Mitchell	-12.4142
▁thấy	-12.4142
▁Claus	-12.4142
▁đục	-12.4143
▁Lợn	-12.4148
▁Đích	-12.4148
▁Đùa	-12.4149
▁Isle	-12.415
▁Dec	-12.4152
▁city	-12.4153
▁stay	-12.416
▁Drop	-12.4166
mọi	-12.4167
hoàn	-12.4172
▁Giản	-12.4173
cs	-12.4175
app	-12.4177
▁3/4	-12.4178
oli	-12.4179
cast	-12.418
▁React	-12.4184
▁Came	-12.4186
▁Device	-12.419
LO	-12.4191
2012	-12.4193
▁1970.	-12.4194
▁luyến	-12.4194
▁Pandora	-12.4194
▁switch	-12.4194
▁Maduro	-12.4194
▁Omega	-12.4195
▁Wendy	-12.4195
▁dột	-12.4195
▁Đắc	-12.4196
BS	-12.4197
▁Vời	-12.4197
▁ê	-12.4197
▁Laden	-12.4198
lar	-12.4198
▁phôi	-12.4202
▁ISIS	-12.4203
▁DI	-12.4206
▁support	-12.4207
▁Whitney	-12.421
▁Rocky	-12.4213
▁4/	-12.4215
▁boss	-12.4217
Hiệp	-12.4219
kể	-12.422
▁192	-12.4221
▁Kane	-12.4224
▁Same	-12.4225
▁Dev	-12.4229
▁lở	-12.423
▁Cy	-12.4232
▁Flat	-12.4237
ule	-12.4239
▁Cameroon	-12.4247
▁Enemy	-12.4247
▁Ralph	-12.4247
▁TWICE	-12.4247
▁Dropbox	-12.4247
▁Bề	-12.4247
▁lẩn	-12.4247
▁nhồi	-12.4247
▁mịn	-12.4249
▁Panel	-12.4249
▁nhìu	-12.425
▁Tàn	-12.425
▁Massage	-12.4252
▁keep	-12.4253
NT	-12.4259
hệ	-12.426
▁rét	-12.4261
-26	-12.4262
▁51%	-12.4262
▁Then	-12.4263
bury	-12.4266
ama	-12.427
Fan	-12.427
Blue	-12.4272
bridge	-12.4274
▁phai	-12.4274
▁156	-12.4274
That	-12.4275
▁kill	-12.4276
uro	-12.4276
▁Vu	-12.4276
pper	-12.428
▁comes	-12.4284
▁review	-12.4285
▁Tank	-12.4287
▁Gil	-12.4288
▁Đồi	-12.4291
▁loan	-12.4292
▁Stranger	-12.4293
▁Concert	-12.4297
BR	-12.4298
▁Megan	-12.4299
▁Budget	-12.43
▁Liền	-12.43
▁really	-12.4301
-27	-12.4301
▁ngứa	-12.4302
▁Andre	-12.4302
▁401	-12.4304
▁Craig	-12.4304
▁Đặng	-12.4306
▁Kha	-12.4306
▁Hurt	-12.4306
▁3-5	-12.4307
▁1927	-12.431
Tom	-12.431
▁[17]	-12.4311
▁LL	-12.4312
Rắc	-12.4313
9.	-12.4313
▁Use	-12.4314
▁Nord	-12.4315
▁Xả	-12.4317
▁Meta	-12.4318
▁NC	-12.4319
CT	-12.4319
long	-12.4322
av	-12.4322
ming	-12.4324
·	-12.4326
Đạo	-12.4326
VE	-12.4331
qub	-12.4332
▁spot	-12.4337
▁ne	-12.4339
bert	-12.434
▁Boot	-12.4341
/03	-12.4342
old	-12.4343
ux	-12.4345
Out	-12.4346
▁25:	-12.4348
▁Giây	-12.4354
▁wanna	-12.4354
▁Nguyền	-12.4354
▁Armstrong	-12.4354
▁Chromebook	-12.4354
▁bậy	-12.4354
▁McAfee	-12.4356
▁Mozart	-12.4357
▁Container	-12.4357
▁Travelodge	-12.4357
▁vo	-12.4359
▁Doraemon	-12.436
▁Rihanna	-12.436
▁Hanoi	-12.436
▁Eden	-12.436
▁Bích	-12.4361
▁báp	-12.4361
3]	-12.4366
▁---	-12.4368
▁NEO	-12.4371
▁Nations	-12.4371
eria	-12.4371
bia	-12.4372
đề	-12.4373
[...]	-12.438
Hầu	-12.438
miễn	-12.4381
▁8000	-12.4384
▁bén	-12.4389
Cola	-12.4389
THAY	-12.4396
▁Feeling	-12.4397
▁NGH	-12.4406
▁1996,	-12.4406
▁Bezos	-12.4407
▁GmbH	-12.4407
▁Merkel	-12.4407
▁thừng	-12.4408
▁Medicine	-12.4408
▁their	-12.4408
▁Dual	-12.441
▁Keys	-12.441
dd	-12.4413
cố	-12.4413
▁truth	-12.4413
▁Joshua	-12.4414
▁Assassin	-12.4415
▁Ask	-12.4417
ali	-12.4422
gue	-12.4425
lf	-12.4425
bal	-12.4427
[10]	-12.4428
Oh	-12.4434
▁Nina	-12.4435
▁Mono	-12.4435
▁pr	-12.4435
Ký	-12.4436
nhất	-12.4438
Never	-12.4439
Book	-12.4439
▁Reg	-12.4441
▁512	-12.4442
▁Feb	-12.4442
▁cent	-12.4443
oke	-12.4444
▁Quanh	-12.4444
▁XXI	-12.4445
nk	-12.4447
▁Error	-12.4449
lle	-12.4449
▁Files	-12.4449
cam	-12.4451
▁law	-12.4452
▁Baron	-12.4454
▁Sword	-12.4454
nie	-12.4455
̣	-12.4459
Box	-12.446
▁suôn	-12.446
▁Mississippi	-12.4461
▁vậy	-12.4461
▁Shareware	-12.4461
▁kẹp	-12.4462
▁kèo	-12.4462
▁Groove	-12.4463
ante	-12.4464
▁yến	-12.4467
▁CentOS	-12.4468
▁Thịnh	-12.4469
▁Tales	-12.4471
▁Mis	-12.4471
▁sky	-12.4472
/2007	-12.4472
▁Nicolas	-12.4473
▁Hair	-12.4473
tty	-12.4477
bol	-12.4479
▁Mom	-12.4479
chia	-12.4481
▁control	-12.4482
▁Font	-12.4483
việc	-12.4489
Gần	-12.449
ings	-12.4496
Danh	-12.45
4:	-12.4503
led	-12.4503
▁amin	-12.4512
There	-12.4514
▁VC	-12.4514
lay	-12.4515
▁Munich	-12.4516
▁Glory	-12.4516
▁hiện	-12.4516
▁McCain	-12.4516
▁Brunei	-12.4516
▁Denver	-12.4516
▁Harmony	-12.4516
▁Lightning	-12.4516
▁Pol	-12.4516
▁Cop	-12.4518
▁Platform	-12.4519
▁xoáy	-12.452
▁Táo	-12.452
▁hoán	-12.452
▁ập	-12.4523
▁Kháng	-12.4525
eau	-12.4526
▁Jump	-12.4529
3;	-12.453
▁Polo	-12.4531
▁choáng	-12.4532
▁false	-12.4532
▁Nathan	-12.4532
ái	-12.4533
Studio	-12.4544
Vẫn	-12.4544
ẻ	-12.4545
▁365,	-12.4547
▁Nine	-12.4549
▁Phối	-12.455
▁xít	-12.4551
▁185	-12.4551
▁Hz	-12.4553
fin	-12.4553
▁162	-12.4554
▁dB	-12.4555
▁Crypto	-12.4555
DI	-12.4557
▁times	-12.4558
AB	-12.4559
▁Rex	-12.4561
▁Mũ	-12.4568
▁Verizon	-12.457
▁việc	-12.457
▁MPEG	-12.457
▁Mụ	-12.457
▁Natalie	-12.457
▁Petit	-12.4571
▁Chen	-12.4572
▁[3	-12.4574
▁1947	-12.4574
▁1924	-12.4574
▁HPV	-12.4575
/2008	-12.4576
▁151	-12.4577
▁bự	-12.4578
ần	-12.4582
band	-12.4585
▁Early	-12.4585
▁party	-12.4588
IM	-12.4589
▁182	-12.4593
▁machine	-12.4594
▁chanh	-12.4595
”[	-12.4597
Isaac	-12.4599
▁Shark	-12.46
ùi	-12.4601
xx	-12.4602
Bên	-12.4606
▁AK	-12.4607
▁mac	-12.4611
▁Moto	-12.4612
iều	-12.4612
370	-12.4614
▁Wizard	-12.4615
▁Million	-12.4619
▁Heat	-12.462
SM	-12.4621
▁laptop	-12.4625
▁Tulip	-12.4625
▁Viêm	-12.4626
▁Chiêu	-12.4627
▁Napoléon	-12.4627
▁Uzbekistan	-12.4628
▁Rest	-12.4629
▁Timothy	-12.4629
Hay	-12.463
▁1,7	-12.4635
▁xay	-12.4639
▁Ruth	-12.4643
▁Evans	-12.4644
Day	-12.4644
▁CNC	-12.4646
dale	-12.4647
▁Apr	-12.4647
▁school	-12.4648
▁23%	-12.4648
▁Que	-12.4648
▁Epic	-12.4649
▁CBS	-12.4651
▁fly	-12.4653
▁comments	-12.4654
Liệu	-12.4655
nguyên	-12.4655
Cần	-12.4657
Su	-12.4662
▁9)	-12.4663
Your	-12.4669
▁giã	-12.467
▁chò	-12.4672
▁Angola	-12.468
▁Tuất	-12.468
▁Chiêm	-12.468
▁Ashley	-12.4681
▁Xảy	-12.4682
ress	-12.4684
▁Chậm	-12.4687
▁Jesse	-12.469
ability	-12.4691
▁Roberts	-12.4692
▁Slow	-12.4692
Girl	-12.4695
hìa	-12.4695
▁Should	-12.4696
▁BP	-12.4696
▁Solid	-12.4696
▁close	-12.4697
▁Luca	-12.4706
▁ion	-12.4706
3.000	-12.4708
lor	-12.4709
▁foot	-12.471
quyền	-12.471
đại	-12.471
Hello	-12.4712
▁ầm	-12.4712
180	-12.4714
▁HCM	-12.4715
▁buy	-12.4718
▁Dogs	-12.472
▁Arm	-12.473
▁rợ	-12.4731
▁đươc	-12.4736
▁karaoke	-12.4736
▁Richmond	-12.4736
▁Fluke	-12.4736
▁146	-12.4736
▁Console	-12.4736
▁Agent	-12.4737
▁Fuji	-12.4737
▁still	-12.4737
▁Greatest	-12.4737
▁Gỡ	-12.4737
▁Nhịp	-12.4737
SU	-12.4737
▁xi	-12.4738
tv	-12.4739
▁Nghìn	-12.4741
▁Kiếp	-12.4743
▁33:	-12.4746
▁bill	-12.4747
mate	-12.4749
▁Spin	-12.4749
▁Choice	-12.4749
▁260	-12.475
▁1995.	-12.475
▁FTP	-12.4754
tron	-12.4755
▁Tục	-12.4759
▁Bose	-12.4764
▁Santos	-12.4765
cậu	-12.4768
▁Links	-12.4768
right	-12.477
pre	-12.4772
aku	-12.4772
▁Pure	-12.4777
Get	-12.4779
▁1,000	-12.4779
▁ă	-12.4783
sing	-12.4784
▁Gan	-12.4784
▁MAX	-12.4789
▁lụa	-12.4791
▁Nghiệm	-12.4791
▁phường	-12.4792
▁(2003)	-12.4792
▁Coach	-12.4792
▁Nhắn	-12.4792
▁Flower	-12.4792
▁Fairy	-12.4793
▁Wonderful	-12.4793
▁Banks	-12.4796
▁WORLD	-12.4799
▁10,000	-12.4799
▁97%	-12.4801
▁Bat	-12.4802
▁65%	-12.4803
pur	-12.4804
▁HR	-12.4806
▁Sum	-12.4807
▁Complete	-12.4808
▁nhọn	-12.4808
ace	-12.4809
▁Xi	-12.4811
▁Abel	-12.4812
▁33%	-12.4813
▁young	-12.4815
Giăng	-12.4823
Trường	-12.4823
Cầu	-12.4824
Full	-12.4825
▁[10]	-12.4825
oy	-12.4826
!’	-12.4828
▁HN	-12.4835
▁human	-12.4838
▁Hood	-12.4839
▁154	-12.4839
PA	-12.4843
▁Ronald	-12.4845
▁Kinesis	-12.4848
▁diesel	-12.4848
▁Sachs	-12.4848
▁nhĩ	-12.4848
▁Snowden	-12.4848
▁Harley	-12.4848
▁lình	-12.4848
▁địt	-12.4848
▁Myself	-12.4848
▁job	-12.4848
▁Đầm	-12.4849
▁Hugo	-12.4849
▁bịt	-12.4852
Just	-12.4852
▁Rescue	-12.4855
▁est	-12.4856
tia	-12.4857
▁same	-12.4857
▁ERP	-12.4861
__	-12.4863
▁Peak	-12.4865
Khu	-12.4867
▁cút	-12.4868
OP	-12.4869
▁Rice	-12.4871
▁write	-12.4872
▁1935	-12.4877
▁Kin	-12.4878
chú	-12.4878
dưới	-12.488
▁1997.	-12.488
▁IBS	-12.488
thu	-12.488
Bắc	-12.4881
list	-12.4882
▁fire	-12.4882
Dự	-12.4883
Da	-12.4883
kan	-12.4888
▁sả	-12.489
▁Kara	-12.4892
Key	-12.4892
ima	-12.4893
▁[7]	-12.4894
1%	-12.4896
▁đĩ	-12.4897
▁soon	-12.4897
press	-12.4899
lum	-12.49
▁Rác	-12.4903
▁Relais	-12.4904
▁Clara	-12.4904
▁quật	-12.4904
▁Wife	-12.4904
▁Wright	-12.4904
▁ĐÂU	-12.4905
▁Macbook	-12.4905
▁Native	-12.4906
▁xẻo	-12.4906
▁189	-12.4906
ture	-12.4906
▁cọc	-12.4907
▁Cambodia	-12.491
uka	-12.4912
▁Mystery	-12.4912
▁Murray	-12.4913
▁Legacy	-12.4914
▁Dám	-12.4915
▁Goldman	-12.4915
▁Serviced	-12.4916
▁bùa	-12.4916
▁Shaw	-12.4916
▁Penn	-12.4918
▁Privacy	-12.4919
▁makes	-12.4919
cor	-12.4921
▁Joel	-12.4927
▁Ủa	-12.4928
cao	-12.493
▁Pub	-12.4936
Nhóm	-12.4937
vùng	-12.4937
▁pm	-12.4938
Chết	-12.494
▁17%	-12.4942
▁Sue	-12.4942
With	-12.4943
SI	-12.4945
ệ	-12.4945
▁MO	-12.495
▁JS	-12.495
get	-12.4954
▁1911	-12.4956
rate	-12.4959
▁Es	-12.496
-2999-	-12.4961
▁Kardashian	-12.4961
▁Ibiza	-12.4961
▁Autodesk	-12.4961
▁Walmart	-12.4961
▁Atlas	-12.4961
ect	-12.4963
ION	-12.4963
▁Swing	-12.4963
▁Chuck	-12.4965
▁Pablo	-12.4966
▁MTV	-12.4968
▁Defense	-12.4969
▁167	-12.497
▁Witch	-12.497
0%	-12.4975
▁XL	-12.4978
▁Task	-12.4978
▁troll	-12.4979
▁DHL	-12.498
▁COM	-12.4981
▁188	-12.4982
6;	-12.4982
Men	-12.4983
▁Timor	-12.4984
▁2;	-12.4985
▁touch	-12.4986
sey	-12.4992
ory	-12.4992
▁số	-12.4992
▁dell	-12.4994
Thanh	-12.4995
▁Ag	-12.4997
▁0%	-12.4999
2]	-12.5001
ăm	-12.5001
▁Tá	-12.5001
▁question	-12.5002
lot	-12.5003
ắt	-12.5008
▁Torre	-12.5009
rich	-12.501
▁sưng	-12.5012
test	-12.5012
▁Bailey	-12.5018
▁Studies	-12.5018
▁sững	-12.5018
▁Resorts	-12.5019
▁Depp	-12.5019
▁SBS	-12.5019
▁Kĩ	-12.5019
▁Gởi	-12.5019
▁sáo	-12.5019
▁toái	-12.5022
▁Response	-12.5022
▁Wil	-12.5022
ado	-12.5022
▁canxi	-12.5023
▁[6]	-12.5024
▁Product	-12.5024
▁Wedding	-12.5024
▁Hermione	-12.5025
▁android	-12.5025
▁Môsê	-12.5027
▁ke	-12.5027
▁Effects	-12.5033
360	-12.5033
▁mix	-12.5034
▁Kyle	-12.5034
Khoa	-12.5035
▁Bloom	-12.5039
▁Wo	-12.5042
▁master	-12.5043
▁thun	-12.5043
pan	-12.5044
AIDS	-12.5047
hl	-12.5047
▁RA	-12.5051
shu	-12.5051
Lưu	-12.5052
Biết	-12.5052
Im	-12.5053
xã	-12.5057
PDF	-12.5058
▁(22	-12.5063
ova	-12.5064
▁Hana	-12.507
▁Bát	-12.5075
▁Ishaq	-12.5075
▁Memphis	-12.5075
▁Dhabi	-12.5075
▁Championship	-12.5075
▁Toshiba	-12.5075
▁Playlist	-12.5075
▁Latvia	-12.5075
▁mỳ	-12.5076
▁(2000)	-12.5076
▁xẩy	-12.5076
▁Fury	-12.5077
▁Ser	-12.5079
́	-12.508
▁Icon	-12.5084
▁TRA	-12.5086
ủ	-12.5089
▁#6	-12.509
▁Bal	-12.5091
▁node	-12.5091
▁Detective	-12.5093
▁Ngón	-12.5095
▁thinh	-12.5097
▁1926	-12.5104
ầy	-12.5106
ENT	-12.5108
▁Trail	-12.5108
Bệnh	-12.511
đường	-12.511
▁park	-12.5111
▁RI	-12.5112
▁Nero	-12.5113
-34	-12.5114
ami	-12.5114
▁Images	-12.5117
▁Bath	-12.5118
▁Barca	-12.5118
▁Harbour	-12.5122
▁Origin	-12.5124
BTC	-12.5125
▁Module	-12.5126
▁PE	-12.5127
▁Alba	-12.5128
▁Scan	-12.5128
ical	-12.5129
▁Pier	-12.513
-23	-12.5132
▁Dortmund	-12.5133
▁Police	-12.5133
▁Tộc	-12.5134
nn	-12.5134
▁SARS	-12.5135
▁Sóc	-12.5135
▁Dâu	-12.5135
gio	-12.5136
▁(27	-12.5136
▁Muộn	-12.5137
▁Horror	-12.5137
ởi	-12.5138
▁Sleeping	-12.5138
▁EV	-12.5139
6,	-12.5139
ago	-12.5142
▁Fre	-12.5143
space	-12.5144
ÂU	-12.5146
▁hill	-12.5146
▁2,3	-12.5147
▁HA	-12.5147
▁Lược	-12.5149
▁Booking	-12.515
▁Flying	-12.5151
Chia	-12.5151
▁Surf	-12.5154
▁Doll	-12.5157
▁Logic	-12.5159
ify	-12.5159
▁Rate	-12.5162
▁office	-12.5166
▁Personal	-12.5166
Jack	-12.5168
địa	-12.5168
Home	-12.5171
Rock	-12.5171
map	-12.5176
▁Cher	-12.5177
▁Terra	-12.5177
▁SG	-12.5179
Bao	-12.518
uta	-12.518
▁Bur	-12.5185
▁(23	-12.5187
▁143	-12.519
▁cào	-12.5191
▁Hadoop	-12.5191
▁Trúc	-12.5191
▁UFC	-12.5192
▁Alabama	-12.5192
▁vóc	-12.5192
▁DÂN	-12.5192
▁Princeton	-12.5192
▁Warner	-12.5192
free	-12.5196
▁ball	-12.5197
▁Sharon	-12.5197
▁Jessie	-12.5198
▁Gồm	-12.5199
▁Todd	-12.5201
▁Mượn	-12.5201
unt	-12.5202
▁1903	-12.5203
OM	-12.5206
▁3.6	-12.5206
▁1934	-12.5206
ạm	-12.5208
▁láo	-12.521
▁VD	-12.5211
▁CHO	-12.5214
bb	-12.5221
tiếp	-12.5227
▁plus	-12.5228
cin	-12.523
Quá	-12.523
▁Đói	-12.5233
▁Push	-12.5236
▁Reason	-12.5239
str	-12.5245
ashi	-12.5245
LT	-12.5245
▁Kra	-12.5247
▁Rin	-12.5249
▁Catalonia	-12.5249
▁heaven	-12.5249
▁Magazine	-12.5249
▁Snapchat	-12.5249
▁Stockholm	-12.5249
▁Granada	-12.5249
▁Wrong	-12.525
▁thớt	-12.525
MV	-12.525
▁Kệ	-12.5251
▁Tarot	-12.5251
▁Hammer	-12.5251
▁did	-12.5255
▁Wanted	-12.5256
▁Ur	-12.5256
▁believe	-12.5257
▁windows	-12.5259
▁Dynamic	-12.5259
▁Bright	-12.5261
vers	-12.5262
▁RPG	-12.5264
▁Rolling	-12.5264
▁SR	-12.5264
▁55%	-12.5266
chen	-12.5267
▁Ski	-12.5273
ưng	-12.5274
▁Hung	-12.5276
▁RO	-12.5276
▁0,1	-12.528
Trả	-12.5283
hặng	-12.5283
▁Photos	-12.5284
▁bênh	-12.5284
điểm	-12.5286
thuộc	-12.5286
phút	-12.5286
đánh	-12.5286
sal	-12.5292
▁225	-12.5292
▁14%	-12.5296
▁365.	-12.5297
▁QR	-12.5301
Kim	-12.5302
▁IDE	-12.5302
Ki	-12.5304
ớc	-12.5305
▁Seo	-12.5305
▁xổ	-12.5306
▁wallpaper	-12.5308
▁AdSense	-12.5308
▁Miranda	-12.5308
▁Loạt	-12.5308
ré	-12.5308
▁nín	-12.5309
▁DIY	-12.5309
▁kiều	-12.5309
▁Lưới	-12.5309
▁đoái	-12.531
▁Arnold	-12.5311
▁Ôn	-12.5311
▁Ivy	-12.5312
ột	-12.5312
▁September	-12.5313
vị	-12.5313
▁Rumani	-12.5316
▁HDR	-12.5317
▁vụn	-12.5317
▁Funny	-12.5318
GI	-12.5323
ố	-12.5325
▁nhai	-12.5325
ste	-12.5328
MC	-12.5328
▁soul	-12.5335
pen	-12.534
▁Create	-12.5343
lio	-12.5345
▁Santo	-12.5346
Lý	-12.5346
▁cross	-12.5347
:46	-12.5347
▁yen	-12.5352
▁Viking	-12.5352
kinh	-12.5353
▁install	-12.5354
▁WE	-12.5356
▁1915	-12.5356
City	-12.5358
▁2015)	-12.536
ets	-12.5361
▁these	-12.5363
sie	-12.5364
▁Sales	-12.5367
▁[13]	-12.5367
▁Gomez	-12.5367
▁Melissa	-12.5367
▁Valencia	-12.5367
▁Khẩn	-12.5367
▁PowerShell	-12.5367
▁yourself	-12.5367
▁Keith	-12.5368
InterContinental	-12.5368
▁Nấm	-12.5368
▁đùi	-12.5368
▁hờn	-12.5369
▁NGHI	-12.537
▁kẽm	-12.537
▁Melody	-12.537
▁1989.	-12.5371
▁Champagne	-12.5372
▁Dangerous	-12.5375
ẩn	-12.5376
▁Truck	-12.5377
▁GH	-12.538
▁Oak	-12.538
bre	-12.538
▁Lồng	-12.5383
Take	-12.5386
▁try	-12.5387
ons	-12.5391
LD	-12.5391
▁turn	-12.5393
▁Ngã	-12.54
FC	-12.5402
óc	-12.5403
▁person	-12.5407
màu	-12.5408
▁1921	-12.5409
▁Sciences	-12.541
▁Var	-12.541
nna	-12.5412
▁Sonic	-12.5413
eh	-12.5415
▁CAN	-12.5417
2).	-12.5418
▁1901	-12.5419
oh	-12.5419
▁Jovi	-12.5421
▁Colin	-12.5424
▁buồm	-12.5427
▁Above	-12.5427
▁Presley	-12.5427
▁muốn	-12.5427
▁Amanda	-12.5427
▁Lambda	-12.5427
▁Rising	-12.5427
▁Đếm	-12.5427
▁soáng	-12.543
▁Thùng	-12.5431
▁tử	-12.5432
▁Spain	-12.5432
▁Serena	-12.5433
oa	-12.5433
▁fork	-12.5434
▁Fo	-12.5435
SL	-12.5438
sum	-12.5438
Bi	-12.5438
▁Mighty	-12.5439
▁Cali	-12.544
nel	-12.5441
lib	-12.5442
lôn	-12.5442
▁Sushi	-12.5444
▁Villas	-12.5446
▁Ngạc	-12.5446
▁Canal	-12.5446
▁1945,	-12.5447
▁Sad	-12.5448
▁digital	-12.5449
▁Sons	-12.5449
▁OR	-12.545
▁Cỏ	-12.545
▁1925	-12.5452
ized	-12.5453
like	-12.5454
doc	-12.5456
▁Homo	-12.5459
▁1996.	-12.5462
▁DJI	-12.5464
Châu	-12.5465
Hướng	-12.5466
Cộng	-12.5466
▁7000	-12.5469
Tech	-12.547
rock	-12.5473
▁UV	-12.5476
EE	-12.5477
▁(13)	-12.5477
▁1954	-12.5478
TF	-12.5482
tas	-12.5486
▁Bristol	-12.5486
▁Sinatra	-12.5486
▁(1993)	-12.5487
▁Garmin	-12.5487
▁Bút	-12.549
▁Chester	-12.549
▁CL	-12.549
▁salad	-12.5491
▁bới	-12.5491
▁Apart	-12.5491
▁Thở	-12.5494
▁Chạm	-12.5495
▁Wells	-12.5495
▁Partners	-12.5497
▁Khanh	-12.5499
▁(29	-12.5499
hôm	-12.5499
▁Má	-12.55
eus	-12.5501
▁Brave	-12.5508
▁Lights	-12.5509
7,	-12.551
▁Reach	-12.5511
▁shock	-12.5513
▁Cain	-12.5515
▁int	-12.5517
▁Mass	-12.552
Music	-12.5526
nhạc	-12.5526
Toàn	-12.5526
▁Papa	-12.5527
▁MFA	-12.5527
Đội	-12.5527
chu	-12.553
ug	-12.5531
102	-12.5532
▁Treasure	-12.5534
▁166	-12.5537
▁172	-12.5541
▁Effect	-12.5542
▁38:	-12.5546
▁Carnegie	-12.5547
▁Minnesota	-12.5547
▁Havana	-12.5547
▁hót	-12.5547
▁rụi	-12.5547
▁Hận	-12.5547
▁Fucking	-12.5548
▁gân	-12.5548
▁Math	-12.5549
▁Dọn	-12.5553
ặc	-12.5555
▁Đoán	-12.5555
▁Bradley	-12.5556
▁Courtyard	-12.5557
▁Stage	-12.5557
▁learning	-12.556
▁chói	-12.5561
▁Foot	-12.5563
▁tỏi	-12.5564
▁Ol	-12.5566
▁LE	-12.5567
▁kB	-12.5569
▁Lynn	-12.5571
▁inter	-12.5571
▁Gin	-12.5576
▁Triple	-12.5579
▁Toy	-12.5579
▁Nile	-12.558
lk	-12.558
▁10000	-12.5581
▁hốt	-12.5582
▁Evan	-12.5582
ROM	-12.5582
nny	-12.5583
(1)	-12.5584
ax	-12.5586
Qaeda	-12.5586
loại	-12.5587
đúng	-12.5587
̉	-12.5587
▁0.5	-12.5588
[4]	-12.5588
SH	-12.559
▁Thread	-12.5591
▁seo	-12.5592
▁build	-12.5594
[6]	-12.5598
nl	-12.5598
▁Sharp	-12.5599
▁1910	-12.5602
LM	-12.5603
▁Tehran	-12.5607
▁Miguel	-12.5607
▁Maggie	-12.5607
▁mafia	-12.5607
▁Cyrus	-12.5607
▁Gr	-12.5608
▁Bosco	-12.5608
▁COP	-12.5608
▁Elena	-12.5608
DP	-12.5609
▁Fever	-12.5609
▁Boat	-12.5611
▁Hâm	-12.5613
▁Tiềm	-12.5614
▁Formula	-12.5616
ult	-12.5616
▁nappi	-12.5616
▁Protein	-12.5616
▁Mari	-12.5618
▁Consumer	-12.562
▁business	-12.562
-47	-12.5622
▁image	-12.5622
ắp	-12.5625
mal	-12.5627
BT	-12.563
▁iu	-12.5631
▁Bot	-12.564
RU	-12.5641
▁shot	-12.5642
▁Lil	-12.5642
▁Lucia	-12.5643
▁Node	-12.5645
▁Works	-12.5648
rine	-12.5649
▁AF	-12.5649
giả	-12.5649
Báo	-12.565
Po	-12.5653
▁au	-12.5653
iko	-12.5654
inch	-12.5656
▁1-3	-12.5656
isch	-12.5657
master	-12.5657
Data	-12.5667
▁Simulator	-12.5668
▁Cotton	-12.5668
▁Wellington	-12.5668
▁which	-12.5668
▁Branson	-12.5668
▁Chấn	-12.5668
▁sấm	-12.5668
▁Flynn	-12.5668
▁Montana	-12.5668
▁miệt	-12.5668
▁VLAN	-12.5668
haùnh	-12.5669
▁TƯ	-12.5669
▁load	-12.5671
▁Nandrolone	-12.5673
▁Gu	-12.5674
▁161	-12.5675
▁Policy	-12.5676
fire	-12.5677
▁German	-12.5677
▁2.7	-12.5677
▁because	-12.5677
▁Slim	-12.5678
▁Mean	-12.5679
▁Sóng	-12.5679
▁LP	-12.5681
▁1992,	-12.5683
▁diên	-12.5683
▁sale	-12.5685
▁1994.	-12.5685
wen	-12.5687
▁176	-12.5688
▁tru	-12.5689
▁Kan	-12.569
▁1914	-12.5696
▁Gro	-12.57
▁Sense	-12.57
▁Fri	-12.5704
▁GHz	-12.5706
Sử	-12.5707
NI	-12.5708
DM	-12.5708
Trò	-12.571
Vương	-12.571
chuyện	-12.571
Back	-12.5711
duc	-12.5712
Hotel	-12.5713
▁mr	-12.5713
tham	-12.5713
bay	-12.5714
Sống	-12.5716
gel	-12.5716
une	-12.5718
▁index	-12.5719
gh	-12.5719
hen	-12.5719
▁Alto	-12.5721
Thị	-12.5723
▁thình	-12.5726
▁Swan	-12.5726
▁marathon	-12.5729
▁Harold	-12.5729
▁Kanye	-12.5729
▁Mansion	-12.573
▁vầng	-12.5731
/01	-12.5732
▁comp	-12.5733
bor	-12.5733
▁két	-12.5733
▁Pine	-12.5734
▁Yan	-12.5736
▁Piazza	-12.5738
▁eat	-12.5738
play	-12.5739
▁mon	-12.5747
form	-12.5748
▁upload	-12.5749
▁Eu	-12.5749
▁done	-12.575
rit	-12.575
▁850	-12.5751
▁mú	-12.5754
▁171	-12.5756
▁ES	-12.5759
▁NAT	-12.576
▁Lovers	-12.5761
▁199	-12.5764
lli	-12.5767
▁Mask	-12.5768
▁Dome	-12.5768
▁Tara	-12.5768
▁Mid	-12.577
tos	-12.5771
Điện	-12.5772
nhóm	-12.5772
Quốc	-12.5772
▁Nầy	-12.5773
Mới	-12.5774
Hồi	-12.5774
▁1956	-12.5775
6].	-12.5775
gr	-12.5777
▁Hip	-12.5777
▁Fighter	-12.5778
8)	-12.5778
▁Cable	-12.578
▁VND	-12.578
ớt	-12.5781
Not	-12.5782
▁Zo	-12.5783
▁Sta	-12.5784
Real	-12.5784
▁GIF	-12.5791
▁nghẽn	-12.5791
▁CHÍNH	-12.5791
▁rót	-12.5791
▁Genius	-12.5791
▁Tagged	-12.5791
▁Falcon	-12.5792
ese	-12.5793
▁Chernobyl	-12.5794
▁Amazing	-12.5796
▁Travis	-12.5798
365	-12.5798
▁GIÁ	-12.5799
▁Gene	-12.5799
▁hihi	-12.5801
▁GV	-12.5801
▁Ngờ	-12.5805
▁Quiet	-12.5806
▁mẫn	-12.5808
▁Bag	-12.5808
▁Dock	-12.581
▁Erik	-12.5811
èo	-12.5812
oka	-12.5817
▁Customer	-12.5819
▁Wise	-12.582
▁Ms	-12.5821
/2009	-12.5823
▁Royale	-12.5823
bie	-12.5823
▁IF	-12.5823
▁phả	-12.5825
▁AAA	-12.5826
▁Lauren	-12.5826
▁Cr	-12.5828
▁164	-12.5831
Thủ	-12.5834
Where	-12.5834
Vợ	-12.5835
khách	-12.5836
pl	-12.5843
▁walk	-12.5843
▁Brooks	-12.5846
gua	-12.5846
sti	-12.5847
▁6.2	-12.5847
▁function	-12.585
▁Stick	-12.585
▁Honduras	-12.5853
▁dioxide	-12.5853
▁VMware	-12.5853
▁Vanessa	-12.5853
▁Tanaka	-12.5853
▁Javascript	-12.5853
▁Colombo	-12.5853
hậu	-12.5854
▁Macau	-12.5855
hara	-12.5857
▁Revenge	-12.5857
▁Hối	-12.5857
▁Gilbert	-12.5858
oe	-12.5858
sor	-12.5859
▁Snake	-12.5859
ML	-12.5859
▁Pod	-12.5861
▁Rover	-12.5863
▁2011)	-12.5865
▁1917	-12.5869
▁mother	-12.5871
▁Joey	-12.5872
ếu	-12.5872
▁Fran	-12.5874
zh	-12.5878
:10	-12.5878
dom	-12.5879
lên	-12.5879
▁àh	-12.5885
anna	-12.5887
eel	-12.5887
▁1909	-12.5888
▁posts	-12.5889
▁666	-12.5893
ứng	-12.5894
quốc	-12.5897
Nhanh	-12.5897
▁22%	-12.5897
▁hydro	-12.5899
▁Strong	-12.5899
▁Wheel	-12.59
med	-12.5901
▁đả	-12.5907
▁Essential	-12.5909
▁sea	-12.591
App	-12.591
▁Economic	-12.5913
▁Nỗ	-12.5914
site	-12.5915
▁Nagasaki	-12.5915
▁Antivirus	-12.5915
▁Fusion	-12.5915
▁Nhện	-12.5915
▁Kitchen	-12.5915
▁Pokémon	-12.5915
▁thắm	-12.5915
▁Comp	-12.5915
▁rẩy	-12.5916
▁Otto	-12.5916
▁Fucked	-12.5916
▁‘’	-12.5916
▁Khôn	-12.5917
▁Maryland	-12.5918
▁Fidel	-12.5919
▁Tống	-12.5919
9;	-12.592
▁Arch	-12.592
▁0,5	-12.5921
▁Wing	-12.5922
▁Organization	-12.5923
▁Ladies	-12.5923
▁Preview	-12.5923
▁public	-12.5924
▁AOL	-12.5924
▁Thúy	-12.5925
▁Pep	-12.5925
cr	-12.5925
mai	-12.5926
▁hán	-12.5927
▁Communications	-12.5927
istic	-12.5928
▁Porter	-12.5929
ila	-12.5931
▁Omni	-12.5932
▁SV	-12.5933
▁rose	-12.5933
▁đốn	-12.5933
▁Jen	-12.5934
ente	-12.594
▁EPA	-12.5943
▁31:	-12.5944
▁Aero	-12.5946
0.0	-12.5946
▁Sh	-12.5957
Michael	-12.596
Green	-12.596
▁[7	-12.596
▁Nest	-12.5961
Bóng	-12.5961
tổng	-12.5962
▁Luck	-12.5964
▁chẵn	-12.5966
▁thủng	-12.5967
▁Mão	-12.5967
▁Dia	-12.5967
▁1923	-12.5967
▁Andrea	-12.5968
▁les	-12.5968
.000.000	-12.597
▁cày	-12.5971
▁1938	-12.5973
▁Mạn	-12.5977
▁Dakota	-12.5978
▁Libra	-12.5978
▁MediaWiki	-12.5978
▁rậm	-12.5978
▁Đẳng	-12.5979
▁Student	-12.5979
▁xịt	-12.5979
▁Towers	-12.5982
mbo	-12.5982
▁Trộm	-12.5984
▁Falling	-12.5984
▁búa	-12.5987
▁giaãi	-12.5987
▁Thunder	-12.5988
▁370	-12.5991
▁miên	-12.5994
▁SH	-12.5994
▁44%	-12.5995
▁ZIP	-12.5995
▁Thạch	-12.5995
1.000	-12.5996
vít	-12.5996
▁sleep	-12.5999
▁Looking	-12.5999
▁dead	-12.6
▁LTE	-12.6008
▁follow	-12.6008
▁26%	-12.6008
▁EURO	-12.6008
Mà	-12.6013
▁1/5	-12.6014
út	-12.6018
350	-12.6021
▁Bor	-12.6023
White	-12.6024
English	-12.6024
Internet	-12.6024
High	-12.6024
▁5.3	-12.6025
thể	-12.6025
cos	-12.6028
COM	-12.6029
▁Simpson	-12.603
Hey	-12.603
▁Guard	-12.603
▁720	-12.603
sô	-12.6035
▁hủ	-12.6036
125	-12.6036
ất	-12.6038
rom	-12.6039
nu	-12.604
▁1992.	-12.604
▁Worlds	-12.6041
▁bả	-12.6041
▁Lopez	-12.6041
▁Monsanto	-12.6041
▁Rockefeller	-12.6041
▁GitHub	-12.6041
▁Trưa	-12.6041
▁WITH	-12.6041
▁bừa	-12.6041
▁Dennis	-12.6041
▁gội	-12.6041
▁Terrace	-12.6042
▁else	-12.6042
▁lựu	-12.6042
▁Vỏ	-12.6042
▁Gấp	-12.6043
▁Yours	-12.6043
▁Bern	-12.6044
▁Sương	-12.6045
FX	-12.6045
▁ATP	-12.6046
San	-12.6049
</	-12.605
▁Battery	-12.605
▁chap	-12.6054
▁37:	-12.6058
▁Ariana	-12.606
aro	-12.6061
▁NI	-12.6062
UK	-12.6062
/2006	-12.6062
▁ồ	-12.6065
▁rách	-12.6065
hose	-12.6066
▁Quen	-12.6067
▁1906	-12.6067
▁ECB	-12.6067
park	-12.6067
▁Bọ	-12.6067
▁Halo	-12.6069
ết	-12.6071
Che	-12.6071
▁je	-12.6072
ISO	-12.6076
▁mom	-12.6078
▁photos	-12.6079
ui	-12.608
Qur	-12.6081
▁news	-12.6081
▁PCI	-12.6082
▁XD	-12.6083
UP	-12.6084
▁4.6	-12.6084
▁url	-12.6085
Global	-12.6088
Mười	-12.6088
United	-12.6088
▁Nico	-12.609
▁Yang	-12.609
▁Letter	-12.6091
▁pain	-12.6092
phụ	-12.6102
▁Kyrgyzstan	-12.6105
▁THÀNH	-12.6105
▁Agency	-12.6105
▁nhận	-12.6105
▁uổng	-12.6105
▁Louisiana	-12.6105
▁trước	-12.6105
▁gonna	-12.6105
▁Middle	-12.6105
▁Alicia	-12.6105
▁Đậu	-12.6106
▁Bye	-12.6106
14)	-12.6106
▁Parade	-12.6107
▁ETF	-12.6108
▁Graphics	-12.611
▁SPF	-12.6112
▁Resident	-12.6112
thị	-12.6114
▁Jacques	-12.6114
▁Between	-12.6115
rid	-12.6115
’’	-12.6115
▁FAQ	-12.6116
▁(32	-12.6117
▁yù	-12.6121
▁khâm	-12.6121
▁NA	-12.6122
▁183	-12.6124
▁Hoan	-12.6126
mat	-12.6126
DT	-12.6127
)(	-12.6129
▁giang	-12.6129
▁CFD	-12.613
▁NBC	-12.6131
▁Cứng	-12.6132
[7]	-12.6133
▁Kang	-12.6135
▁1922	-12.6137
ngay	-12.6137
▁174	-12.6138
▁Jae	-12.6139
mine	-12.614
ón	-12.6142
▁fi	-12.6146
▁173	-12.6151
chương	-12.6153
Khải	-12.6154
Cùng	-12.6155
nda	-12.6157
ido	-12.6159
▁Russia	-12.6159
▁04:	-12.616
▁Loved	-12.616
▁Wan	-12.6163
▁Mare	-12.6163
hội	-12.6165
▁JD	-12.6166
▁dei	-12.6169
▁Hongkong	-12.6169
▁Hiếm	-12.6169
▁getting	-12.617
▁Truman	-12.617
▁Betty	-12.617
▁diêm	-12.6171
▁Trống	-12.6171
▁Dải	-12.6172
▁Dictionary	-12.6173
iana	-12.6175
▁Chè	-12.6179
▁perfect	-12.6179
nor	-12.618
Mar	-12.6181
RF	-12.6182
▁Waiting	-12.6183
▁1908	-12.6183
▁License	-12.6185
▁Khói	-12.6188
▁Giant	-12.619
▁Sud	-12.6191
▁BU	-12.6191
▁ETC	-12.6192
▁MRI	-12.6192
▁60.000	-12.6193
▁Hawk	-12.6193
yama	-12.6198
hotel	-12.6198
▁Shake	-12.6198
▁Mag	-12.62
4;	-12.6205
Wi	-12.6206
▁1905	-12.6207
iii	-12.6209
▁Đố	-12.621
▁Tiny	-12.6211
▁Wear	-12.6212
▁SMA	-12.6212
nis	-12.6214
bệnh	-12.6217
▁Frontier	-12.6218
wo	-12.6218
Cảnh	-12.6226
▁(18)	-12.6227
▁Chán	-12.6227
ấp	-12.623
ery	-12.623
▁480	-12.6232
▁huỳnh	-12.6233
▁Ấm	-12.6233
▁Stuart	-12.6233
▁Universe	-12.6233
▁Yamaha	-12.6233
zen	-12.6234
▁Mandela	-12.6234
▁Airbus	-12.6234
post	-12.6234
▁lồn	-12.6235
nic	-12.6235
add	-12.6237
▁Liu	-12.6238
izer	-12.6239
▁chèo	-12.6239
TED	-12.6242
▁Visitor	-12.6242
▁Flow	-12.6243
rê	-12.6243
cker	-12.6243
▁Bồn	-12.6243
▁AKB	-12.6244
mẹ	-12.6244
▁Chaos	-12.6249
LC	-12.6249
▁message	-12.6249
▁ARM	-12.6251
▁195	-12.6254
▁Mas	-12.6256
▁Sims	-12.6259
▁Lề	-12.6259
muốn	-12.6259
▁1993.	-12.626
Bar	-12.6262
▁lost	-12.6264
gus	-12.6265
▁Domain	-12.6266
ăng	-12.6268
▁wait	-12.6268
God	-12.6269
▁care	-12.6271
KE	-12.6274
ien	-12.6275
▁Souls	-12.6275
▁[22]	-12.6276
2.000	-12.6276
▁Anton	-12.6278
▁Lò	-12.6281
Power	-12.6282
Tuần	-12.6282
Loại	-12.6282
Trở	-12.6282
thiết	-12.6282
▁[0	-12.6287
▁ngả	-12.6288
▁Nara	-12.6292
▁Squad	-12.6292
▁neo	-12.6296
▁Haven	-12.6297
ICE	-12.6297
▁rưởi	-12.6298
▁siết	-12.6298
▁Battlefield	-12.6298
▁ráo	-12.6298
▁Guam	-12.63
sil	-12.63
▁Ami	-12.63
▁nhơn	-12.6301
▁Nghịch	-12.6302
▁Naked	-12.6304
▁Saturday	-12.6305
▁Cube	-12.6305
rou	-12.6308
▁Martha	-12.6308
▁Monitor	-12.6309
hal	-12.6311
▁Third	-12.6312
Ko	-12.6315
▁Pig	-12.6317
▁videos	-12.6319
▁lách	-12.6321
sử	-12.6321
els	-12.6322
DL	-12.6323
▁Corner	-12.6326
▁Há	-12.6328
ill	-12.633
BB	-12.6331
750	-12.6336
▁pe	-12.6337
▁bot	-12.6339
động	-12.6349
chất	-12.6349
Apple	-12.635
▁Rama	-12.6353
wick	-12.6356
RY	-12.6357
▁nhú	-12.6358
shot	-12.6358
▁Hua	-12.6362
▁Helsinki	-12.6363
▁Trễ	-12.6363
▁184	-12.6363
▁Arkansas	-12.6364
▁lừng	-12.6364
▁Sunset	-12.6364
▁MacOS	-12.6365
▁mark	-12.6366
▁Quyên	-12.6366
▁java	-12.6366
Nhắm	-12.6368
danh	-12.6369
▁(20)	-12.6369
▁gold	-12.6369
▁information	-12.637
▁jo	-12.6371
▁khuấy	-12.6371
onia	-12.6371
worth	-12.6372
▁train	-12.6372
2013	-12.6374
▁command	-12.6376
▁Dynamics	-12.6381
▁Regional	-12.6381
▁sam	-12.6382
sco	-12.6382
▁dè	-12.6383
▁Ant	-12.6383
▁Mariah	-12.6384
▁0.00	-12.6384
gal	-12.6387
Quy	-12.6387
sville	-12.639
▁Mori	-12.639
▁alpha	-12.639
▁While	-12.6395
ative	-12.6399
▁Chôn	-12.64
▁Copy	-12.64
▁21%	-12.6402
▁Grow	-12.6406
▁Feed	-12.6407
▁2013)	-12.6409
▁food	-12.6409
▁2014)	-12.6411
pm	-12.6413
▁lẹ	-12.6413
Ngoài	-12.6414
power	-12.6414
Mở	-12.6421
▁Oct	-12.6423
▁420	-12.6425
▁Miracle	-12.6426
▁ngo	-12.6426
Vụ	-12.6427
▁DV	-12.6429
▁Qualcomm	-12.6429
▁Westminster	-12.6429
▁Zimbabwe	-12.6429
▁valentina	-12.6429
▁Nhựa	-12.6429
▁database	-12.6429
▁Pullman	-12.6429
▁quấn	-12.6429
▁dẫy	-12.6429
▁Gregory	-12.6429
▁Thắc	-12.643
▁Chiết	-12.643
▁nỉ	-12.643
▁Freddy	-12.643
▁chậu	-12.643
▁PUBG	-12.6432
▁Wilde	-12.6432
:49	-12.6433
cl	-12.6434
▁PTSD	-12.6436
▁Bennett	-12.6436
▁road	-12.6437
▁tom	-12.6437
!...	-12.6437
lê	-12.6439
▁event	-12.6439
▁Rails	-12.644
▁bớ	-12.6443
▁around	-12.6444
▁ae	-12.6445
▁Damon	-12.6446
▁380	-12.6448
160	-12.6448
zan	-12.6448
▁Tanks	-12.6449
▁NOT	-12.6449
▁36%	-12.6452
▁ngời	-12.6452
▁rộ	-12.6452
▁28,	-12.6452
▁bái	-12.6453
▁255	-12.6456
▁alone	-12.6457
game	-12.6461
Who	-12.6463
▁trừu	-12.6465
▁Troy	-12.6465
▁Owen	-12.6467
▁Wal	-12.6468
-29	-12.6469
▁Beats	-12.6469
aki	-12.6474
Truyện	-12.648
đọc	-12.6481
Nghiên	-12.6481
▁gả	-12.6483
▁Phillips	-12.6486
▁Cost	-12.6487
▁Penguin	-12.6492
▁Format	-12.6492
▁Vimeo	-12.6495
▁welcome	-12.6495
▁Jeffrey	-12.6495
▁nhất	-12.6495
▁Everest	-12.6496
▁Wonderland	-12.6496
▁Gre	-12.6496
▁Evening	-12.6497
▁Stream	-12.6497
▁Xúc	-12.6497
▁duệ	-12.6497
▁edit	-12.65
ans	-12.6501
▁Dĩnh	-12.6501
▁Puzzle	-12.6501
▁Pilot	-12.6501
▁Duo	-12.6503
www	-12.6503
▁Burger	-12.6504
▁Trịnh	-12.6504
▁51:	-12.6504
▁Ariel	-12.6504
▁Everyday	-12.6505
▁37%	-12.6506
▁Hits	-12.6506
En	-12.6506
hand	-12.6507
▁Stress	-12.6507
▁dĩa	-12.6507
1).	-12.6508
▁tree	-12.6508
▁Someone	-12.651
▁líu	-12.6512
ito	-12.6513
-31	-12.6516
▁Missing	-12.6516
pr	-12.6517
▁27%	-12.6518
sun	-12.652
VR	-12.6522
▁Theory	-12.6522
▁xao	-12.6523
▁Cruises	-12.6524
▁TQ	-12.6524
▁1907	-12.6525
▁[6	-12.6525
▁Load	-12.6527
▁Lima	-12.6527
show	-12.6528
CAS	-12.6535
▁5.5	-12.654
xúc	-12.655
elli	-12.6552
than	-12.6553
▁step	-12.6554
iff	-12.6554
Sai	-12.6555
Bí	-12.6556
▁Carlo	-12.6557
▁Prayer	-12.6557
mã	-12.6558
▁0.1	-12.656
via	-12.656
▁Ủ	-12.6561
▁Birmingham	-12.6562
▁Bosnia	-12.6562
▁Nintendo	-12.6562
▁GoDaddy	-12.6562
▁Sanchez	-12.6562
▁Authority	-12.6562
▁giếm	-12.6562
▁(1998)	-12.6562
▁trặc	-12.6562
▁khắt	-12.6562
▁Holly	-12.6562
▁pick	-12.6562
▁Vội	-12.6562
▁future	-12.6562
▁dể	-12.6563
▁Germany	-12.6564
Bị	-12.6564
▁Rooney	-12.6566
BC	-12.6568
▁THÔNG	-12.6568
▁Ném	-12.6569
▁Vải	-12.6572
8:	-12.6576
▁Platinum	-12.6577
▁DAY	-12.6579
▁PCB	-12.6579
▁RDS	-12.6579
▁poll	-12.6579
ob	-12.658
▁AUD	-12.6583
▁Mona	-12.6586
▁Kí	-12.6589
▁Levi	-12.6589
▁ỏi	-12.6589
▁Est	-12.659
yer	-12.659
▁[19]	-12.6591
rod	-12.6595
▁action	-12.6598
▁(+	-12.6599
▁BH	-12.6602
120	-12.6603
▁tag	-12.6604
nas	-12.6604
▁Match	-12.6605
▁Calle	-12.661
ions	-12.6612
Tâm	-12.6612
quin	-12.6615
▁Ak	-12.6615
.700	-12.6616
watch	-12.6617
lip	-12.6621
▁Pr	-12.6622
▁Pal	-12.6624
▁Nhằ	-12.6628
▁Adelaide	-12.6629
▁Kentucky	-12.6629
▁sôcôla	-12.6629
▁Zurich	-12.6629
▁chọi	-12.6629
▁Len	-12.6629
▁Animation	-12.6629
▁lửng	-12.6629
▁gập	-12.6629
▁Riley	-12.6629
▁vắt	-12.6629
▁death	-12.663
▁rãnh	-12.663
ndi	-12.663
txt	-12.663
▁Acid	-12.6631
▁Macintosh	-12.6634
GMT	-12.6638
-90	-12.6639
▁memory	-12.6643
▁Thy	-12.6643
TC	-12.6645
▁lanh	-12.6646
▁Mù	-12.6649
▁hòm	-12.6651
▁12.000	-12.6653
▁gàng	-12.6656
▁TRI	-12.666
▁Dee	-12.666
▁Chặn	-12.666
▁193	-12.6662
horn	-12.6663
▁Ir	-12.6667
WP	-12.6668
▁Higher	-12.6669
10)	-12.6671
▁Past	-12.6672
▁CDC	-12.6672
Mc	-12.6675
▁Hal	-12.6679
Cr	-12.668
▁Vacation	-12.668
Ví	-12.6681
▁Cai	-12.6681
▁Wang	-12.6682
zip	-12.6683
Tiếp	-12.6683
▁Fin	-12.6683
giới	-12.6683
,000,000	-12.6686
▁thềm	-12.6688
▁eye	-12.6689
▁ICE	-12.6689
▁;)	-12.6692
▁9.000	-12.6693
▁Ajax	-12.6696
▁Hôtel	-12.6696
▁Nhưỡng	-12.6696
▁Tucker	-12.6696
▁nhiều	-12.6696
▁(1995)	-12.6696
▁nu	-12.6697
▁Busan	-12.6698
▁Desire	-12.6699
▁777	-12.6699
▁Fed	-12.67
Mua	-12.6701
▁viền	-12.6701
▁Pittsburgh	-12.6701
▁Làn	-12.6701
iki	-12.6702
▁93%	-12.6703
▁Maroon	-12.6703
▁Package	-12.6703
▁Buffalo	-12.6704
▁id	-12.6705
NY	-12.6705
▁QUẢ	-12.6705
▁Jackie	-12.6706
▁ABS	-12.6708
▁Guns	-12.6708
▁Powell	-12.6708
▁Hum	-12.6709
▁yes	-12.6712
▁Tur	-12.6712
▁41%	-12.6713
▁Breaking	-12.6713
▁Asus	-12.6715
ments	-12.6716
ưỡng	-12.6719
▁SN	-12.672
▁28%	-12.672
rian	-12.6727
▁PT	-12.6727
osa	-12.6728
hon	-12.6729
▁HT	-12.673
▁Starter	-12.6731
kw	-12.6731
kho	-12.6738
▁Thua	-12.6741
▁316	-12.6743
▁2025	-12.6745
▁Sy	-12.6746
13)	-12.6746
▁Mác	-12.6747
én	-12.6749
load	-12.6749
nbsp	-12.6751
Quyền	-12.6751
First	-12.6751
Khoảng	-12.6751
Trẻ	-12.6751
Miễn	-12.6751
Tiêu	-12.6753
cầu	-12.6753
▁Manga	-12.6753
Chất	-12.6754
▁player	-12.6755
▁CẢ	-12.6755
ậy	-12.6757
▁Vietsub	-12.6758
▁mean	-12.6758
▁Rue	-12.676
▁Cove	-12.6761
vert	-12.6762
Môi	-12.6762
▁Janet	-12.6763
▁Gel	-12.6763
▁Eclipse	-12.6764
▁Joomla	-12.6764
▁Marseille	-12.6764
▁Giấu	-12.6764
▁gộp	-12.6764
▁QUY	-12.6765
[15]	-12.6765
▁vồng	-12.6766
▁Hiên	-12.6766
▁Yi	-12.6767
▁chưng	-12.6767
▁ngà	-12.6767
▁Led	-12.6768
▁Jaguar	-12.6768
▁1960.	-12.6769
▁Pain	-12.677
▁Invisible	-12.677
▁Biện	-12.6771
▁Cara	-12.6771
▁Harper	-12.6772
▁Running	-12.6774
▁Leonard	-12.6775
rina	-12.6775
▁earth	-12.6776
▁Cultural	-12.6777
▁Duck	-12.6778
LF	-12.6779
til	-12.6781
▁Demon	-12.6783
ges	-12.6787
Air	-12.6789
▁Ao	-12.6789
▁GUI	-12.6789
▁Hor	-12.6792
:“	-12.6794
▁space	-12.6799
rc	-12.6801
▁ISP	-12.6801
▁5-6	-12.6803
▁2021	-12.6804
TD	-12.681
ough	-12.6813
▁Sync	-12.6819
nữ	-12.682
Đánh	-12.6821
ộ	-12.6824
mong	-12.6825
new	-12.6826
RES	-12.6826
▁Hole	-12.6826
having	-12.6828
▁Baghdad	-12.6829
▁35:	-12.683
▁Wow	-12.6832
▁hen	-12.6832
▁Popular	-12.6833
▁Diễm	-12.6833
▁TRƯ	-12.6833
▁Rouge	-12.6833
▁José	-12.6833
▁lầy	-12.6833
▁mấu	-12.6833
▁Teddy	-12.6833
▁nần	-12.6833
▁ep	-12.6833
▁Andrews	-12.6833
▁Bẫy	-12.6834
▁Gõ	-12.6835
▁Minor	-12.6835
▁Pascal	-12.6835
eva	-12.6836
Type	-12.6836
hết	-12.6838
▁Nhung	-12.6838
illo	-12.6839
inger	-12.6839
▁Zi	-12.6841
▁Labels	-12.6842
▁Liberia	-12.6843
▁lả	-12.6843
▁Landing	-12.6844
▁Message	-12.6845
och	-12.6848
ách	-12.6851
▁1969,	-12.6851
▁trệ	-12.6852
▁70.000	-12.6855
▁Boo	-12.6855
▁sha	-12.6855
ete	-12.6856
▁HK	-12.6858
▁25.000	-12.6861
▁Clo	-12.6861
GE	-12.6863
ạch	-12.6865
2019	-12.6866
ùa	-12.6867
▁Killing	-12.6868
2/	-12.687
▁Lens	-12.6874
▁1.9	-12.6875
6.000	-12.6878
▁SHA	-12.688
[17]	-12.6882
ome	-12.6885
Linux	-12.6889
Phương	-12.689
ngoài	-12.689
phân	-12.689
aux	-12.689
Ít	-12.6891
ỏ	-12.6891
Hoàn	-12.6893
Â	-12.6894
▁Pirate	-12.6895
▁UC	-12.6895
▁catch	-12.6897
ela	-12.6898
▁pen	-12.69
▁Adolf	-12.6901
▁HSBC	-12.6901
▁Raymond	-12.6901
▁(1999)	-12.6902
▁(2001)	-12.6902
▁nấc	-12.6902
▁Fallout	-12.6902
▁Lầu	-12.6902
▁Rộng	-12.6902
▁Creed	-12.6902
▁Mills	-12.6902
▁sài	-12.6903
▁titan	-12.6903
oma	-12.6903
▁girls	-12.6904
▁vòm	-12.6905
▁Atom	-12.6905
tem	-12.6906
▁Zu	-12.6906
Per	-12.6907
ọc	-12.6907
PI	-12.6909
▁[16]	-12.6909
▁250.000	-12.691
▁1916	-12.6911
hard	-12.6912
▁sin	-12.6912
▁Meat	-12.6913
▁củi	-12.6913
▁Franz	-12.6914
tto	-12.6915
▁Rapunzel	-12.6915
▁Fame	-12.6915
▁HE	-12.6915
▁easy	-12.6917
tle	-12.6917
PT	-12.6921
▁EL	-12.6922
▁toan	-12.6923
▁Voi	-12.6923
bri	-12.6923
▁Tina	-12.6925
▁CHI	-12.6925
▁nành	-12.6926
Will	-12.6932
:15	-12.6933
▁toả	-12.6933
PV	-12.6934
etta	-12.6941
▁dưa	-12.6941
▁1;	-12.6944
▁Custom	-12.6945
12.	-12.6946
CM	-12.695
▁IL	-12.6952
**	-12.6952
▁Trend	-12.6952
+1	-12.6952
▁meet	-12.6958
đê	-12.6959
Kỳ	-12.696
Dragon	-12.6961
▁kẽ	-12.6967
▁JP	-12.6969
▁bed	-12.697
▁Arduino	-12.6971
▁tomorrow	-12.6971
▁Adidas	-12.6971
▁khuỷu	-12.6971
▁wrong	-12.6971
▁quẩn	-12.6971
▁Sheep	-12.6971
▁RED	-12.6972
▁SI	-12.6973
▁1989,	-12.6973
▁Method	-12.6976
<<	-12.6978
▁Target	-12.6979
8,	-12.6981
▁tôm	-12.6981
cco	-12.6982
▁Aug	-12.6983
▁Organic	-12.6983
PE	-12.6984
▁[11]	-12.6984
▁guys	-12.6984
▁Forget	-12.6984
▁Eastern	-12.6985
▁EQ	-12.6988
Ad	-12.6989
▁38%	-12.6989
▁Hopkins	-12.6989
CK	-12.6991
▁Gioan	-12.6994
▁310	-12.6994
gli	-12.6997
▁Dis	-12.7
▁2016)	-12.7002
▁Stellar	-12.7006
▁186	-12.7008
▁42:	-12.7008
sư	-12.7009
▁source	-12.701
▁Milano	-12.7014
ạn	-12.7015
▁heroin	-12.7015
9:	-12.7019
▁Petro	-12.702
sản	-12.702
▁Mbps	-12.7021
FL	-12.7022
user	-12.7022
lou	-12.7023
▁SB	-12.7029
450	-12.7029
Flag	-12.703
Canada	-12.703
Đương	-12.703
Viết	-12.703
ật	-12.7032
EI	-12.7032
GH	-12.7039
▁Hokkaido	-12.704
▁Eurostars	-12.704
▁Trading	-12.7041
▁Canaan	-12.7041
▁Liban	-12.7041
▁enough	-12.7041
▁IEEE	-12.7042
▁Diane	-12.7042
▁CHÚNG	-12.7042
999	-12.7042
ore	-12.7043
▁Loki	-12.7043
▁Lộc	-12.7045
▁Berkeley	-12.7046
▁Gatsby	-12.7046
▁Glasgow	-12.7047
▁Ctrl	-12.705
▁Civil	-12.705
▁Guess	-12.7051
▁nể	-12.7051
▁Liam	-12.7053
HR	-12.7055
▁43%	-12.7056
bỏ	-12.7056
VO	-12.706
▁Eight	-12.7061
Win	-12.7064
▁Ư	-12.7065
▁SF	-12.7065
▁1902	-12.7066
▁session	-12.7067
▁ngán	-12.7068
BL	-12.707
▁macro	-12.7071
▁MVP	-12.7072
▁Ger	-12.7073
asa	-12.7077
▁Info	-12.7078
ations	-12.7078
▁Vote	-12.708
▁Wire	-12.708
▁Dora	-12.7083
▁Pra	-12.7086
▁thoa	-12.709
ập	-12.7095
▁dollar	-12.7096
▁Saga	-12.7097
hill	-12.7098
▁fish	-12.7098
đừng	-12.71
Thiếu	-12.7101
tìm	-12.7101
gna	-12.7103
ces	-12.7103
▁demo	-12.7105
▁Gián	-12.7105
▁Eli	-12.7107
tăng	-12.7108
▁Paraguay	-12.7111
▁Publishing	-12.7111
▁ngợm	-12.7111
▁vampire	-12.7111
▁hashtag	-12.7111
▁software	-12.7111
▁mửa	-12.7111
▁(2019)	-12.7111
▁nức	-12.7111
▁Boris	-12.7111
▁Cõi	-12.7111
▁Leica	-12.7112
▁Poor	-12.7112
2.0	-12.7112
▁lúng	-12.7113
▁Army	-12.7114
▁Kali	-12.7114
▁Malcolm	-12.7116
▁Westin	-12.7117
▁Cliff	-12.7118
▁Riad	-12.7118
▁Ngộ	-12.7119
▁hehe	-12.712
▁Deal	-12.712
▁JIS	-12.7121
-60	-12.7123
anda	-12.7124
Paul	-12.7125
▁48%	-12.7125
▁Bro	-12.7126
▁Sếp	-12.7126
▁sweet	-12.7127
5:	-12.7128
▁Write	-12.7128
Đàn	-12.7131
ose	-12.7131
▁Till	-12.7132
▁hell	-12.7133
shan	-12.7133
▁205	-12.7134
▁log	-12.7135
▁ip	-12.7135
▁hoả	-12.7136
▁CES	-12.7136
▁Speak	-12.7138
▁drive	-12.7138
:50	-12.7138
240	-12.7139
▁bít	-12.714
▁forever	-12.714
ense	-12.7143
▁Viva	-12.7144
▁SAM	-12.7144
file	-12.7149
[5]	-12.7153
▁ANH	-12.7156
jin	-12.7157
▁June	-12.7158
aun	-12.7162
▁Hate	-12.7162
omi	-12.7169
▁Dom	-12.7169
▁Soldier	-12.717
▁Bomb	-12.717
Xuân	-12.7172
Giống	-12.7172
định	-12.7172
Tùy	-12.7172
xấu	-12.7173
AU	-12.7173
Media	-12.7173
▁Leader	-12.7176
ến	-12.7177
▁môt	-12.7178
▁cạ	-12.7178
▁angel	-12.718
▁Automation	-12.7181
▁Sheraton	-12.7181
▁Summit	-12.7182
▁nhỡ	-12.7182
▁Tuệ	-12.7182
▁Abdul	-12.7182
▁Khỏa	-12.7182
▁ngùng	-12.7182
▁cần	-12.7182
▁Kiệt	-12.7182
▁rước	-12.7183
▁Dậu	-12.7183
▁Tý	-12.7185
▁rên	-12.7185
▁Henderson	-12.7186
▁Jedi	-12.7187
▁Heavy	-12.7187
▁Tinder	-12.7189
▁Tablet	-12.719
▁Billboard	-12.719
▁Status	-12.719
▁Judy	-12.719
▁Az	-12.7191
▁Treo	-12.7193
▁Rapid	-12.7195
rập	-12.7195
▁Kat	-12.72
▁MX	-12.7202
2014	-12.7203
-70	-12.7206
▁Av	-12.7207
▁main	-12.7208
▁Frozen	-12.7209
▁Penh	-12.7212
▁34%	-12.7213
tsu	-12.7214
▁Dior	-12.7215
ego	-12.7215
105	-12.7216
▁ak	-12.7218
4.000	-12.7218
ual	-12.7219
▁24%	-12.722
▁Nhẹ	-12.7221
▁cry	-12.7222
Mobile	-12.7223
ĐT	-12.7225
▁Côn	-12.7225
db	-12.7226
▁AV	-12.7229
▁Đe	-12.723
Mark	-12.7231
ẽ	-12.7232
1.5	-12.7232
▁nhung	-12.7232
ISA	-12.7236
Qua	-12.7236
▁Nightmare	-12.7237
2.5	-12.7241
▁Dion	-12.7243
merciful	-12.7243
▁Paint	-12.7244
Light	-12.7244
chắc	-12.7245
▁dis	-12.7245
▁vò	-12.7245
Sách	-12.7245
▁DA	-12.7246
140	-12.7246
▁USP	-12.7247
▁Vita	-12.7249
ứa	-12.7251
▁Supply	-12.7253
▁morning	-12.7253
▁Damascus	-12.7253
▁Theatre	-12.7253
▁whisky	-12.7253
▁rượt	-12.7253
▁Viagra	-12.7253
▁Cún	-12.7253
▁Sil	-12.7254
Ab	-12.7254
▁LDL	-12.7255
▁Gỗ	-12.7255
▁COPD	-12.7255
▁looking	-12.7257
▁Thấp	-12.7257
▁field	-12.7258
▁Scarlett	-12.726
▁(17)	-12.726
▁Ngoan	-12.7261
▁leave	-12.7262
▁Oasis	-12.7262
esh	-12.7262
▁Cala	-12.7263
eli	-12.7264
▁Along	-12.7264
enko	-12.7266
▁Cristiano	-12.7267
▁Making	-12.727
▁FREE	-12.7271
▁328	-12.7275
▁Drama	-12.7275
▁Oriental	-12.7276
IX	-12.7285
▁Tro	-12.7285
▁report	-12.7286
ili	-12.7287
▁STAR	-12.7291
▁IM	-12.7293
▁date	-12.7294
mua	-12.7299
▁Builder	-12.7301
▁nom	-12.7302
▁2500	-12.7307
Sư	-12.7307
▁(15)	-12.7308
city	-12.7309
▁đái	-12.7311
:41	-12.7311
▁EMBA	-12.7311
may	-12.7313
Tiến	-12.7314
▁contain	-12.7316
Little	-12.7316
Why	-12.7316
▁1973,	-12.7316
Diễn	-12.7317
Màu	-12.7317
▁chừ	-12.7319
▁7/	-12.732
lim	-12.732
▁sửng	-12.7321
quy	-12.7322
▁xxx	-12.7324
1]	-12.7324
▁interface	-12.7325
▁Phnom	-12.7325
▁Mueller	-12.7325
▁NHẤT	-12.7325
▁snow	-12.7325
▁hăm	-12.7325
▁Pad	-12.7325
▁Kenny	-12.7326
▁Đạn	-12.7326
▁Estate	-12.7326
Tư	-12.7326
▁Roberto	-12.7329
▁Quạ	-12.7329
▁echo	-12.7332
▁Rabbit	-12.7333
▁Chợt	-12.7333
▁ask	-12.7334
▁Muội	-12.7334
▁Historic	-12.7335
▁drama	-12.7336
ám	-12.7336
▁NGÀY	-12.7336
▁Within	-12.7337
thê	-12.734
▁lòa	-12.7341
▁vâ	-12.7343
data	-12.7343
▁Mara	-12.7343
▁tã	-12.7346
9]	-12.7346
▁Ou	-12.7346
DB	-12.7351
oku	-12.7351
▁bell	-12.7353
▁1850	-12.7354
AY	-12.7355
▁TD	-12.7357
▁Takes	-12.7357
▁ICT	-12.7358
ock	-12.7358
16)	-12.7358
▁Mồ	-12.7359
pon	-12.7363
pad	-12.7364
.800	-12.7365
▁nhe	-12.7368
▁und	-12.7369
▁CG	-12.737
ash	-12.737
shima	-12.7371
Vị	-12.7372
quot	-12.7373
▁PCT	-12.7374
▁fun	-12.7375
▁Hoá	-12.7375
nce	-12.7375
lơ	-12.7377
▁8-	-12.7378
color	-12.7379
col	-12.7379
rm	-12.7379
▁Mil	-12.7385
▁LINE	-12.7387
▁Hide	-12.7389
cá	-12.7389
thần	-12.7389
mặt	-12.7392
Mấy	-12.7392
ngôn	-12.7393
▁[18]	-12.7393
Vui	-12.7394
▁Beck	-12.7395
web	-12.7397
▁Generator	-12.7397
▁Velvet	-12.7397
▁AutoCAD	-12.7397
▁Football	-12.7397
▁Boulevard	-12.7397
▁NHÂN	-12.7397
▁nực	-12.7398
▁bẩy	-12.7398
▁Reality	-12.7399
▁DHA	-12.74
▁còi	-12.74
ire	-12.7401
vision	-12.7401
▁Feet	-12.7403
▁ngụy	-12.7404
▁Diablo	-12.7405
▁trans	-12.7407
fic	-12.7407
▁IOS	-12.7407
▁Karma	-12.7409
▁Sparta	-12.741
▁Rules	-12.741
▁Imagine	-12.7412
▁Philippe	-12.7413
▁Mou	-12.7415
/20	-12.7424
▁Beer	-12.7427
At	-12.7427
▁440	-12.7427
Grand	-12.7431
aire	-12.7432
share	-12.7438
▁206	-12.7439
OT	-12.744
▁Process	-12.744
▁domain	-12.744
▁â	-12.7442
ạt	-12.7444
▁thục	-12.7444
▁Raise	-12.7447
▁Hook	-12.7447
nz	-12.7447
ghi	-12.7448
▁2007)	-12.7453
▁send	-12.7454
ủa	-12.7459
▁Stein	-12.746
▁Hin	-12.7461
▁fix	-12.7462
xuất	-12.7462
vid	-12.7463
▁Shan	-12.7463
11)	-12.7464
dine	-12.7465
tập	-12.7466
heart	-12.7467
▁6.5	-12.7468
▁Der	-12.7469
Quản	-12.7469
▁Dresden	-12.747
▁Volkswagen	-12.747
▁Kanji	-12.747
▁mượt	-12.747
▁khước	-12.747
▁Xót	-12.7471
▁nỡ	-12.7471
▁Gogh	-12.7471
▁CHUY	-12.7471
▁1/1	-12.7472
▁2022	-12.7472
▁Orient	-12.7473
▁Sandra	-12.7474
▁Fruit	-12.7474
▁Peterson	-12.7474
▁FedEx	-12.7476
▁Avatar	-12.7477
▁tì	-12.7479
▁Cleaner	-12.7479
▁bug	-12.748
BI	-12.7482
los	-12.7482
▁46%	-12.7483
▁Flags	-12.7484
têm	-12.7486
▁ách	-12.7487
▁Vine	-12.7488
Ah	-12.7491
4).	-12.7492
▁Graph	-12.7493
▁1880	-12.7493
5;	-12.7493
hiệu	-12.7497
▁Finn	-12.7502
▁Lines	-12.7502
▁DU	-12.7503
EW	-12.7504
▁(100)	-12.7504
▁lens	-12.7507
▁once	-12.7507
BE	-12.7513
▁Franco	-12.7516
▁ISS	-12.752
▁Jê	-12.7521
▁7.0	-12.7523
▁VM	-12.7524
▁2017)	-12.7527
▁Xê	-12.7527
▁problem	-12.7527
▁Dame	-12.7528
▁ku	-12.753
lat	-12.7531
biến	-12.7536
bởi	-12.7537
▁THU	-12.7537
wer	-12.7537
FP	-12.754
▁note	-12.7542
▁Nairobi	-12.7543
▁Ức	-12.7543
▁somebody	-12.7543
▁scandal	-12.7543
▁Blackmagic	-12.7543
▁giăng	-12.7543
▁Passport	-12.7543
▁protected	-12.7543
▁barbie	-12.7543
▁chapter	-12.7544
▁Hindu	-12.7544
EUR	-12.7544
▁Tia	-12.7544
▁ASTM	-12.7544
▁Mại	-12.7545
eng	-12.7545
Iran	-12.7546
▁Berry	-12.7546
▁Tyson	-12.7546
▁????	-12.7546
▁phở	-12.7548
▁Autumn	-12.7548
▁Đốt	-12.7548
▁Eternal	-12.755
yon	-12.755
▁Phấn	-12.7551
▁Ngụy	-12.7551
▁Manor	-12.7552
▁vol	-12.7552
▁peace	-12.7552
[14]	-12.7553
▁learn	-12.7553
ậu	-12.7553
TY	-12.7553
▁Trek	-12.7554
▁JPEG	-12.7554
▁Holdings	-12.7555
▁Wallet	-12.7556
▁][	-12.7556
▁Query	-12.7559
vũ	-12.7559
mond	-12.756
gger	-12.756
ches	-12.7561
▁PIN	-12.7561
▁Portal	-12.7561
▁Less	-12.7562
▁42%	-12.7564
▁sành	-12.7566
▁Flex	-12.7567
▁RGB	-12.7569
nee	-12.757
▁Gala	-12.757
▁Ballad	-12.7571
▁NV	-12.7573
Name	-12.7574
-300	-12.7575
TION	-12.7577
7:	-12.7577
▁80.000	-12.7577
▁Demo	-12.7583
▁giời	-12.7584
▁1080	-12.7585
▁Sửu	-12.7586
)[	-12.7591
▁1986,	-12.7598
10.	-12.7598
độ	-12.76
gt	-12.7601
-400	-12.7605
▁Breath	-12.7605
Nh	-12.7606
▁ja	-12.7607
▁Playa	-12.7607
▁JW	-12.7607
phy	-12.7609
hana	-12.7609
/18	-12.7609
▁board	-12.761
Xuất	-12.761
▁market	-12.7611
vật	-12.7611
lang	-12.7613
Max	-12.7615
dùng	-12.7615
kai	-12.7615
▁Lovin	-12.7617
▁Sapiens	-12.7617
▁cryptocurrency	-12.7617
▁Fedora	-12.7617
▁living	-12.7617
▁Migration	-12.7617
▁Regina	-12.7617
▁Marvin	-12.7618
▁Phe	-12.7618
▁Freeware	-12.7618
▁Carmen	-12.7618
▁xiềng	-12.7618
▁Liễu	-12.7618
▁Cuồng	-12.7618
▁Penny	-12.7619
▁Randy	-12.7619
▁Clash	-12.7619
170	-12.762
▁FPT	-12.762
▁tuông	-12.7621
▁1931	-12.7622
▁Samba	-12.7623
▁Economy	-12.7623
▁Tae	-12.7623
▁DDoS	-12.7624
▁Sat	-12.7625
sama	-12.7626
▁TIME	-12.7627
▁PG	-12.7627
yr	-12.7627
▁187	-12.7631
▁Which	-12.7631
▁OH	-12.7633
▁WA	-12.7634
▁credit	-12.7634
▁3.7	-12.7639
▁deep	-12.7639
▁Cave	-12.764
etic	-12.7641
▁Root	-12.7643
num	-12.7643
▁PO	-12.7644
▁Animals	-12.7646
▁Soon	-12.7648
▁Pri	-12.7654
1-	-12.7657
Gen	-12.7658
▁27,	-12.7662
▁Rôma	-12.7664
7%	-12.7665
HP	-12.7668
-36	-12.7673
zon	-12.7673
EV	-12.7674
▁Gear	-12.7675
▁Chemical	-12.7676
▁Finger	-12.7677
ée	-12.7677
Japan	-12.7685
▁cáu	-12.7686
lac	-12.7686
Rõ	-12.7687
▁2.8	-12.7687
sburg	-12.7687
Port	-12.7689
▁Deer	-12.7689
▁Cars	-12.7691
▁Hebrew	-12.7692
▁Symantec	-12.7692
▁together	-12.7692
▁Litecoin	-12.7692
▁Queensland	-12.7692
▁Braun	-12.7692
▁Infinite	-12.7692
pplied	-12.7692
▁cocaine	-12.7692
▁dấn	-12.7693
▁Bowl	-12.7693
▁beat	-12.7693
▁Lead	-12.7693
▁cannot	-12.7694
▁Becky	-12.7694
▁soái	-12.7695
nus	-12.7695
▁Iphone	-12.7699
▁Dry	-12.7699
▁Jimin	-12.7699
etti	-12.77
ực	-12.7701
▁600.000	-12.7701
▁Coral	-12.7703
ín	-12.7704
▁Sands	-12.7705
/15	-12.7706
▁Mun	-12.7707
▁181	-12.7712
▁$2	-12.7713
Maria	-12.7714
Cố	-12.7714
tec	-12.7724
▁Vũng	-12.7725
vy	-12.7726
tory	-12.7726
▁Đam	-12.7728
▁save	-12.773
▁1860	-12.7733
ati	-12.7735
.......	-12.7735
Come	-12.7736
▁amp	-12.7739
▁QUAN	-12.774
tinh	-12.7741
▁32%	-12.7742
▁Diet	-12.7745
chin	-12.7748
▁Bội	-12.7748
abi	-12.775
hel	-12.7752
uỳ	-12.7752
▁10/	-12.7758
▁PI	-12.7761
video	-12.7761
Hiển	-12.7761
Hạnh	-12.7762
trở	-12.7762
▁AA	-12.7762
▁(50	-12.7765
▁Thác	-12.7765
▁Gore	-12.7766
▁Cán	-12.7766
Show	-12.7767
▁Brisbane	-12.7767
▁Wyndham	-12.7767
▁mướn	-12.7767
▁đuợc	-12.7767
▁giờ	-12.7767
▁Architecture	-12.7767
▁shopping	-12.7767
▁Phaolô	-12.7767
▁cẩu	-12.7768
▁Tracy	-12.7768
▁Dinner	-12.7768
email	-12.7768
▁Burning	-12.7769
▁Sasha	-12.7769
▁Diary	-12.7769
▁Exclusive	-12.777
IR	-12.7771
▁Muslim	-12.7771
▁Counter	-12.7773
▁1928	-12.7779
▁Greater	-12.778
▁Matrix	-12.7781
▁wi	-12.7782
▁tạc	-12.7783
▁Sưu	-12.7783
▁Goin	-12.7784
▁Hào	-12.7784
▁Samari	-12.7785
▁smart	-12.7786
▁Stack	-12.7791
ios	-12.7792
▁11/	-12.7794
rim	-12.7794
▁501	-12.7796
siêu	-12.7796
▁Banana	-12.7796
cht	-12.7799
▁Heo	-12.78
(2)	-12.7803
.”“	-12.7804
▁Siam	-12.7806
▁Points	-12.7807
Make	-12.7807
▁Mina	-12.781
ander	-12.781
▁Gor	-12.7811
▁196	-12.7813
▁Mika	-12.7815
bed	-12.7815
▁Monsters	-12.7816
Bốn	-12.7817
▁Gap	-12.7817
script	-12.7821
▁Lem	-12.7823
▁Holland	-12.7823
▁2,7	-12.7825
▁late	-12.7827
Com	-12.7829
Tác	-12.7831
▁Dow	-12.7833
▁209	-12.7835
▁Dot	-12.7838
album	-12.7838
thy	-12.7838
vợ	-12.7839
Cửa	-12.7839
▁VII	-12.7841
Class	-12.7842
▁application	-12.7842
▁Bentley	-12.7842
▁trướng	-12.7842
▁Scanner	-12.7842
▁mới	-12.7843
▁Mavic	-12.7843
▁shall	-12.7843
▁Mercy	-12.7843
▁Frederick	-12.7845
▁lốc	-12.7845
▁đao	-12.7845
▁Tặc	-12.7845
▁Mễ	-12.7845
page	-12.7845
▁304	-12.7846
▁Apartamentos	-12.7846
▁Wei	-12.7846
Thu	-12.7846
▁Cỗ	-12.7847
▁Ul	-12.7847
▁Tháo	-12.7848
ược	-12.785
▁Rạp	-12.785
Like	-12.7853
INA	-12.7853
Coin	-12.7854
▁SHINee	-12.7854
edit	-12.7854
▁Serial	-12.7855
▁Range	-12.7856
▁Cớ	-12.7857
▁bành	-12.7859
dr	-12.7861
▁212	-12.7862
IO	-12.7864
▁Jess	-12.7866
";	-12.7866
tag	-12.7871
▁4.7	-12.7877
▁hero	-12.7878
lus	-12.7878
▁voice	-12.7879
▁CMS	-12.7879
llo	-12.788
she	-12.788
"!	-12.7881
▁cloud	-12.7881
API	-12.7882
▁Tv	-12.7882
▁TCN	-12.7885
▁self	-12.7891
▁1300	-12.7894
▁Saints	-12.7896
▁520	-12.7897
▁1979,	-12.7898
▁táng	-12.7899
▁2,4	-12.7907
▁php	-12.7908
live	-12.791
vel	-12.7913
Israel	-12.7914
▁Ðề	-12.7914
đơn	-12.7914
kỳ	-12.7915
Động	-12.7915
Baby	-12.7915
ors	-12.7916
Đông	-12.7916
▁dang	-12.7916
tài	-12.7917
Vô	-12.7917
UI	-12.7918
▁Utility	-12.7918
▁Anything	-12.7918
▁Cindy	-12.7918
▁Garcia	-12.7919
▁Kuala	-12.7919
▁nhứt	-12.7919
▁Trinity	-12.7919
▁Biden	-12.792
▁Bonnie	-12.792
▁Cer	-12.792
▁kèn	-12.7921
suê	-12.7922
part	-12.7922
▁Pisa	-12.7923
▁SegWit	-12.7923
sức	-12.7924
▁Trồng	-12.7927
▁GBP	-12.7927
▁Capitol	-12.7927
PH	-12.7931
act	-12.7932
▁OYO	-12.7934
green	-12.7936
5.000	-12.7936
▁AVI	-12.7937
▁ryan	-12.7938
▁Hormone	-12.794
pel	-12.7943
.[3]	-12.7945
Bàn	-12.7947
tree	-12.7948
▁tool	-12.7948
▁Ari	-12.7949
lation	-12.7952
SEC	-12.7954
▁wind	-12.7956
▁LO	-12.7959
▁Bend	-12.7961
▁GR	-12.7963
▁290	-12.7963
▁ACE	-12.7969
kka	-12.797
ret	-12.797
▁Comic	-12.798
User	-12.7981
ẩu	-12.7982
sten	-12.7982
sc	-12.7982
cle	-12.7988
▁UL	-12.7988
Japanese	-12.7991
London	-12.7991
nhìn	-12.7992
Mất	-12.7993
đôi	-12.7993
▁etc	-12.7995
▁Crack	-12.7995
▁PostgreSQL	-12.7995
▁Ðể	-12.7995
▁trẫm	-12.7995
▁ngòi	-12.7995
▁framework	-12.7995
bird	-12.7996
▁Oculus	-12.7996
-100	-12.7996
▁Lexus	-12.7996
▁Might	-12.7996
▁Darkness	-12.7996
▁debut	-12.7996
▁Louise	-12.7996
▁grow	-12.7997
▁400.000	-12.7997
rong	-12.7997
▁algorithm	-12.7998
▁Earl	-12.7998
▁Forex	-12.7998
▁#7	-12.8
▁Noble	-12.8
▁Bahrain	-12.8
▁Crush	-12.8
18)	-12.8001
''.	-12.8002
0.00	-12.8003
▁216	-12.8004
▁Unknown	-12.8004
▁(31	-12.8006
▁Đoan	-12.8007
ãn	-12.8007
ện	-12.801
trả	-12.8011
▁Moss	-12.8011
shire	-12.8013
ÂL	-12.8015
▁92%	-12.8015
▁Products	-12.8016
▁Tru	-12.8017
▁IMAP	-12.8017
▁Flowers	-12.8017
▁(60	-12.8018
TU	-12.8021
▁Mira	-12.8022
▁Tube	-12.8023
ako	-12.8024
▁Ventures	-12.8024
ain	-12.8025
THE	-12.8027
▁1984,	-12.8027
tay	-12.8029
ũ	-12.8029
mmer	-12.8029
▁null	-12.803
▁local	-12.8034
▁1830	-12.8036
▁QC	-12.8036
▁văng	-12.804
RAM	-12.8041
▁week	-12.8041
▁hí	-12.8043
▁Shape	-12.8043
▁Beth	-12.8043
mod	-12.8045
far	-12.8047
▁needs	-12.8051
▁Jade	-12.8052
ais	-12.8052
▁DR	-12.8055
Part	-12.8056
▁Podcast	-12.8057
▁moment	-12.8058
▁Doo	-12.8061
▁hê	-12.8063
uz	-12.8064
some	-12.8064
3).	-12.8068
works	-12.8069
▁Dana	-12.8069
▁Reserve	-12.8071
tội	-12.8071
Nghĩa	-12.8072
▁Beyonce	-12.8073
▁Carnival	-12.8073
▁HUAWEI	-12.8073
▁Monument	-12.8073
▁ThinkPad	-12.8073
▁1971,	-12.8073
▁lịnh	-12.8073
▁1965,	-12.8073
▁Interview	-12.8073
▁Abbott	-12.8073
▁Epson	-12.8073
▁Clarkson	-12.8073
▁Miêu	-12.8075
▁...............	-12.8075
▁Cúp	-12.8077
▁Nét	-12.8077
▁nhút	-12.8077
▁(24)	-12.8078
.300	-12.8079
▁Macron	-12.808
▁Sniper	-12.808
▁Phillip	-12.8083
▁177	-12.8084
AO	-12.8085
WS	-12.8085
▁Bệ	-12.8088
▁Aid	-12.8088
▁LC	-12.8093
▁215	-12.8095
▁Jude	-12.8096
8;	-12.8096
▁Ay	-12.8097
▁Finder	-12.8099
▁Minnie	-12.8099
2010	-12.8099
▁VA	-12.8102
▁tịnh	-12.8103
▁Spice	-12.8105
phe	-12.8105
-80	-12.8106
▁fall	-12.8107
▁Russian	-12.8108
▁Git	-12.8108
Code	-12.8109
▁Hostal	-12.8113
▁1988,	-12.8118
▁Korean	-12.8122
▁PU	-12.8122
▁32-	-12.8122
▁178	-12.8123
▁Mayer	-12.8123
Play	-12.8126
9)	-12.8126
Fire	-12.8129
nar	-12.8129
888	-12.8129
▁Pont	-12.813
▁Mali	-12.813
▁Promise	-12.8133
380	-12.8133
hoạt	-12.8136
ISS	-12.8136
▁Adrian	-12.814
rose	-12.8143
stream	-12.8148
Ngôn	-12.8148
phương	-12.8148
Next	-12.8149
ating	-12.8149
Only	-12.8149
▁Raffles	-12.815
▁Wisconsin	-12.8151
▁Wolverine	-12.8151
▁sandwich	-12.8151
▁major	-12.8151
▁Trấn	-12.8151
▁Cocktail	-12.8151
▁Khuyên	-12.8151
▁SMTP	-12.8151
▁rúp	-12.8151
▁dăm	-12.8152
▁Large	-12.8152
▁Iowa	-12.8152
▁Fir	-12.8153
▁LTD	-12.8154
▁xỉu	-12.8154
Hàn	-12.8155
▁ABBA	-12.8155
▁games	-12.8156
▁Hen	-12.8157
▁Telegram	-12.8157
▁Dante	-12.8158
▁nhể	-12.8158
▁Drink	-12.8161
▁Happiness	-12.8162
▁Knock	-12.8163
▁Productions	-12.8163
?(	-12.8164
▁CPI	-12.8165
▁par	-12.8168
tâm	-12.8168
ym	-12.817
▁Ry	-12.8171
hua	-12.8172
active	-12.8178
][	-12.8178
▁Matter	-12.8178
▁BY	-12.8181
▁202	-12.8182
zar	-12.8187
gas	-12.8188
▁34:	-12.8189
▁Shut	-12.8193
nos	-12.8194
ista	-12.8196
▁title	-12.8197
Rô	-12.8198
▁Ark	-12.8199
▁Sung	-12.8199
▁Aria	-12.8201
▁Bol	-12.8202
▁Markets	-12.8207
▁vế	-12.8211
aj	-12.8212
năng	-12.8216
Ð	-12.8219
▁Vale	-12.8219
roll	-12.8219
7.000	-12.8219
▁var	-12.8223
▁(14)	-12.8223
▁hormon	-12.8224
gy	-12.8224
▁Nê	-12.8224
/100	-12.8225
▁Hop	-12.8226
▁Dolly	-12.8226
trường	-12.8227
▁Toni	-12.8227
Buổi	-12.8228
lại	-12.8229
▁FR	-12.8229
▁Ngọ	-12.8229
▁Galileo	-12.8229
▁Metropolitan	-12.8229
▁Mềm	-12.8229
▁Punta	-12.8229
▁Radeon	-12.8229
▁Xperia	-12.8229
▁Raspberry	-12.8229
▁proxy	-12.8229
▁Programming	-12.8229
Mối	-12.8229
▁everyone	-12.8229
▁Joyce	-12.823
▁Giành	-12.823
▁Trader	-12.8231
▁Trùng	-12.8231
▁Prix	-12.8231
Lễ	-12.8232
▁Gang	-12.8232
▁thoi	-12.8233
2-	-12.8233
▁Fighting	-12.8233
▁Aleppo	-12.8234
▁MJ	-12.8234
▁1983,	-12.8235
▁Stones	-12.8236
00)	-12.8236
▁Kr	-12.8237
▁Nissan	-12.8238
uca	-12.8238
.10.	-12.824
▁Medium	-12.8241
▁Crime	-12.8242
nik	-12.8248
▁hear	-12.8251
▁6/	-12.8254
ằng	-12.8255
▁^^!	-12.8256
▁Blow	-12.8258
ọa	-12.8258
8.000	-12.8259
▁Parco	-12.826
[11]	-12.8261
▁gam	-12.8263
aught	-12.8266
ấ	-12.8268
▁Weed	-12.8274
▁mả	-12.8276
rew	-12.8279
▁Lamb	-12.8279
▁GSM	-12.828
ril	-12.8284
▁Mei	-12.8285
▁Soi	-12.8286
▁5.6	-12.8286
WE	-12.8288
▁kit	-12.8288
ao	-12.8289
▁KBS	-12.8293
[2].	-12.8293
▁lằn	-12.8294
▁thought	-12.8294
▁tea	-12.8295
▁codec	-12.8297
▁[26]	-12.83
210	-12.8303
▁Lữ	-12.8303
▁ac	-12.8306
Đưa	-12.8307
Đứa	-12.8307
Đăng	-12.8307
Thằng	-12.8307
▁179	-12.8308
▁Dumbledore	-12.8308
▁Hogwarts	-12.8308
▁Shepherd	-12.8308
▁Saddam	-12.8308
▁Fiesta	-12.8308
▁Grammy	-12.8308
▁(1997)	-12.8309
-32	-12.8309
▁(2002)	-12.8309
▁Percy	-12.8309
▁Keller	-12.831
▁Tiêm	-12.831
▁Rẻ	-12.831
bro	-12.8311
NS	-12.8311
▁Ether	-12.8312
▁Purple	-12.8315
▁Anonymous	-12.8317
▁Mazda	-12.8317
▁children	-12.8319
▁vít	-12.8319
▁Document	-12.832
▁3.500	-12.832
▁1870	-12.8321
▁[14]	-12.8323
▁Della	-12.8324
▁Tourist	-12.8324
▁RF	-12.8326
▁Boom	-12.8332
▁[15]	-12.8332
▁Elf	-12.8333
3/	-12.8333
▁JR	-12.8335
▁Ðiề	-12.8335
▁pc	-12.8336
▁Lc	-12.8341
NK	-12.8342
▁Bug	-12.8343
[16]	-12.8343
gui	-12.8343
Ni	-12.8345
▁Log	-12.8349
▁Apk	-12.8352
hm	-12.8355
ọ	-12.8356
bl	-12.8357
▁1890	-12.836
home	-12.8363
▁Used	-12.8364
▁trổ	-12.8366
▁te	-12.8366
▁Kurt	-12.8366
clo	-12.8376
▁IX	-12.8376
▁Cottage	-12.8378
▁204	-12.8378
arrow	-12.8378
▁Tả	-12.838
Mã	-12.8384
▁mĩ	-12.8386
▁Kei	-12.8386
trò	-12.8388
▁NÀO	-12.8388
▁PHẢI	-12.8388
▁beauty	-12.8388
▁Gloria	-12.8388
▁thật	-12.8388
▁Cebu	-12.8388
▁huyệt	-12.8389
▁Nặng	-12.8389
▁Nạp	-12.8389
▁tấu	-12.8389
▁Junsu	-12.8389
▁Razer	-12.8389
▁Jill	-12.839
▁ERC	-12.8392
▁Bachelor	-12.8394
▁LƯ	-12.8394
tie	-12.8395
▁Cooking	-12.8395
▁Portrait	-12.8396
▁says	-12.8396
mis	-12.8397
char	-12.8398
▁Arcade	-12.8398
▁Ways	-12.8399
▁Manual	-12.8401
▁410	-12.8401
▁Edgar	-12.8402
’”	-12.8403
▁lì	-12.8403
▁Vila	-12.8406
take	-12.8408
/16	-12.8411
▁Brook	-12.8411
▁takes	-12.8416
Soft	-12.8417
eb	-12.8417
▁8/	-12.8419
▁4;	-12.842
ious	-12.8421
▁multi	-12.8427
mir	-12.843
▁yet	-12.8432
lina	-12.8433
▁1400	-12.8433
▁coming	-12.8434
anne	-12.8435
▁Industrial	-12.8436
▁Dutch	-12.8436
▁bịa	-12.8437
ẹp	-12.8439
base	-12.844
▁ngàng	-12.8444
▁skin	-12.8446
▁GD	-12.8452
▁Cabin	-12.8453
▁Environment	-12.8453
OST	-12.8455
▁Bru	-12.8455
▁Tar	-12.8456
2007	-12.8457
Give	-12.8464
TN	-12.8465
7).	-12.8466
uel	-12.8466
▁302	-12.8467
▁Ven	-12.8468
config	-12.8468
HI	-12.8468
Giấc	-12.8469
▁Café	-12.8469
▁GNOME	-12.8469
▁McCartney	-12.8469
▁Ucraina	-12.8469
5-070	-12.8469
▁pretty	-12.8469
▁Aviation	-12.8469
lớn	-12.8469
▁điều	-12.8469
▁Lumia	-12.8469
▁Normandy	-12.8469
▁Phận	-12.8469
▁Communication	-12.8469
▁Gerald	-12.847
▁Ellie	-12.8471
▁NFL	-12.8471
▁#8	-12.8471
▁Minsk	-12.8471
▁Jules	-12.8471
▁sảy	-12.8472
▁Sukhumvit	-12.8472
▁tonight	-12.8472
▁Cincinnati	-12.8472
mùa	-12.8473
▁Perl	-12.8474
mac	-12.8477
▁86%	-12.8477
Yo	-12.8479
ELL	-12.8481
▁keo	-12.8482
▁smile	-12.8484
▁button	-12.8487
▁Connection	-12.849
▁Tone	-12.8493
▁blood	-12.8494
mos	-12.8494
▁Shah	-12.8498
core	-12.8498
Mr	-12.8499
▁XXX	-12.85
▁Đành	-12.85
▁Donna	-12.8501
lý	-12.8502
heim	-12.8503
TON	-12.8506
Of	-12.8506
550	-12.8506
ign	-12.8509
eve	-12.8511
▁SW	-12.8511
▁giàn	-12.8514
▁Intelligence	-12.8515
▁Deck	-12.8519
▁child	-12.8519
▁610	-12.852
ici	-12.852
▁Ending	-12.8523
▁APP	-12.8524
21)	-12.8528
▁mp	-12.8528
▁Limit	-12.8528
▁Sid	-12.8529
002	-12.853
Add	-12.8532
▁08:	-12.8532
▁Newman	-12.8534
▁Answer	-12.8534
▁Solution	-12.8534
[...]
