<unk>	0
<s>	0
</s>	0
.	-3.34731
,	-3.75718
▁của	-4.35856
▁là	-4.43927
▁có	-4.52779
▁và	-4.61708
▁một	-4.80139
▁không	-4.81653
▁	-4.85568
▁được	-4.97287
:	-4.9918
▁người	-5.02882
▁đã	-5.08653
▁trong	-5.16213
▁tôi	-5.16652
▁(	-5.18531
▁các	-5.19102
▁cho	-5.24765
?	-5.34923
▁thể	-5.36114
▁này	-5.40153
)	-5.41007
▁với	-5.4154
▁bạn	-5.4339
▁sẽ	-5.51294
▁những	-5.5671
▁“	-5.65322
▁đó	-5.67285
▁-	-5.68688
▁ở	-5.68905
▁năm	-5.69344
▁chúng	-5.69705
▁đến	-5.73974
▁về	-5.75525
▁để	-5.76633
▁ta	-5.77815
▁ra	-5.82812
▁cũng	-5.8322
▁như	-5.84567
▁phải	-5.84624
▁từ	-5.85298
▁sự	-5.8745
▁làm	-5.89292
▁thế	-5.90264
▁lại	-5.93262
▁vào	-5.9565
▁gì	-5.99877
▁khi	-6.01525
▁công	-6.03055
▁"	-6.03421
▁hơn	-6.05533
▁đầu	-6.05702
▁nhất	-6.06573
▁con	-6.10937
▁cả	-6.12162
▁ngày	-6.12316
▁đi	-6.12622
▁nói	-6.12798
▁thành	-6.14303
▁thì	-6.14337
▁trên	-6.14374
▁nào	-6.15105
▁mình	-6.15831
▁bị	-6.15984
▁tại	-6.18739
▁mà	-6.23764
▁nhiều	-6.24132
!	-6.26044
▁dụng	-6.28043
▁nhà	-6.28068
▁việc	-6.2895
▁biết	-6.297
▁học	-6.30506
▁chỉ	-6.31161
▁điều	-6.31379
▁anh	-6.31815
▁khác	-6.32551
▁họ	-6.33285
▁số	-6.33875
▁đang	-6.36436
▁sao	-6.39583
▁nó	-6.40003
▁hiện	-6.40849
-	-6.4277
...	-6.42944
▁thấy	-6.42973
▁chính	-6.42977
▁Tôi	-6.44718
▁hàng	-6.45121
▁đây	-6.46033
▁còn	-6.47133
▁mới	-6.4776
▁quan	-6.50222
▁nhân	-6.50446
▁động	-6.5128
▁giới	-6.51998
▁rất	-6.52333
▁rằng	-6.53259
▁tin	-6.54058
▁em	-6.54637
▁gia	-6.55824
▁ông	-6.55993
▁thực	-6.561
▁sử	-6.56673
▁cách	-6.56837
▁muốn	-6.57644
▁bài	-6.57997
▁qua	-6.5958
▁giờ	-6.59728
▁viên	-6.61416
▁trước	-6.62113
”	-6.64591
▁phát	-6.65443
▁cần	-6.65644
▁cùng	-6.66772
▁sau	-6.67197
▁nay	-6.67461
▁nhưng	-6.67629
▁thời	-6.68403
▁hát	-6.6911
▁vậy	-6.70381
▁nhận	-6.7219
▁tự	-6.73777
▁tháng	-6.74025
▁1	-6.74441
"	-6.74883
▁hoặc	-6.75301
▁nước	-6.75383
▁sống	-6.75811
▁định	-6.75888
▁–	-6.76215
▁lần	-6.76268
▁nên	-6.76948
▁thứ	-6.78053
▁2	-6.78329
▁cuộc	-6.78811
▁sinh	-6.79326
▁ấy	-6.79664
▁rồi	-6.80107
▁Lời	-6.80314
▁theo	-6.80465
▁hai	-6.81053
▁cô	-6.81109
▁Anh	-6.81957
▁giá	-6.82442
▁vì	-6.82603
▁nhiên	-6.82628
▁bản	-6.82803
▁trường	-6.82893
▁thông	-6.83682
▁toàn	-6.84882
▁yêu	-6.85046
▁Nếu	-6.85438
▁trở	-6.85495
▁lý	-6.85657
▁trình	-6.85816
▁hành	-6.86012
▁lớn	-6.87223
▁Các	-6.88552
▁đề	-6.89217
▁cái	-6.9007
▁tốt	-6.90927
▁bao	-6.91899
▁hợp	-6.93133
▁gian	-6.93264
▁do	-6.93623
▁kết	-6.94031
▁tế	-6.94702
▁ai	-6.95387
▁3	-6.95411
▁đổi	-6.95414
▁tất	-6.95848
▁sản	-6.95967
▁Có	-6.96399
▁hình	-6.96622
▁cơ	-6.97174
▁Nhưng	-6.984
▁lên	-6.98788
▁Trong	-6.98924
▁nữa	-6.99253
▁Không	-6.99328
▁vẫn	-6.99845
▁năng	-7.00288
▁tới	-7.00583
▁tiên	-7.00754
▁Một	-7.01368
▁tìm	-7.01476
▁bắt	-7.01969
▁xuất	-7.02266
▁thích	-7.03307
▁ý	-7.03712
▁Bạn	-7.03921
▁hay	-7.04795
▁đồng	-7.04964
▁The	-7.05373
▁Mỹ	-7.05451
▁bằng	-7.05748
▁đối	-7.05892
▁cầu	-7.05988
▁nhau	-7.06189
▁thật	-7.06335
▁cấp	-7.06824
▁quốc	-7.06986
▁Quốc	-7.07021
▁tiếp	-7.0765
▁mọi	-7.08346
s	-7.08731
▁cứu	-7.09942
▁lời	-7.10001
▁tiếng	-7.10114
▁vụ	-7.10315
▁thường	-7.10482
▁bộ	-7.10851
▁quá	-7.1129
▁hội	-7.11613
▁bảo	-7.11638
▁thức	-7.1229
▁dân	-7.13267
▁thay	-7.13714
▁lượng	-7.1387
▁ăn	-7.13985
▁tình	-7.14002
▁đều	-7.1402
▁trọng	-7.14222
▁chưa	-7.15036
▁bởi	-7.15224
▁cảm	-7.15426
▁Và	-7.1547
▁trị	-7.16255
▁Chúng	-7.17665
▁bất	-7.17901
▁phần	-7.18054
▁gần	-7.18083
▁thống	-7.18615
▁chọn	-7.18894
▁tính	-7.18995
▁Người	-7.19003
▁tâm	-7.19064
).	-7.19161
'	-7.19162
▁chơi	-7.20617
▁tạo	-7.21017
▁mặt	-7.21069
▁bình	-7.21095
▁sách	-7.21127
▁xem	-7.21723
▁hệ	-7.21786
▁phẩm	-7.21823
▁nghĩ	-7.21939
▁thiết	-7.22027
▁máy	-7.222
▁loại	-7.22371
▁chiến	-7.23835
▁ảnh	-7.23915
▁chủ	-7.24703
▁dịch	-7.25096
▁độ	-7.25446
▁điểm	-7.26171
▁hỏi	-7.26802
▁Trung	-7.26821
▁tuổi	-7.27616
▁chết	-7.27914
▁giải	-7.28674
▁cao	-7.28901
▁5	-7.29004
”.	-7.29775
▁Chúa	-7.29776
▁khách	-7.29892
▁chuyện	-7.30526
▁4	-7.3053
▁liệu	-7.30559
▁tên	-7.30625
▁nghiệp	-7.30794
.”	-7.31563
▁trẻ	-7.31987
▁kinh	-7.32015
▁đâu	-7.33327
▁liên	-7.33449
▁gọi	-7.33906
▁xe	-7.34229
▁Những	-7.34362
▁quả	-7.34595
▁lập	-7.34788
▁biệt	-7.35043
▁tài	-7.3508
▁nhìn	-7.35939
▁nghĩa	-7.35942
▁vấn	-7.37023
▁đại	-7.37026
▁dùng	-7.37739
▁tiền	-7.37831
;	-7.38948
▁nếu	-7.40267
▁báo	-7.40776
▁triển	-7.40892
▁10	-7.40934
▁[	-7.41083
▁thêm	-7.41162
▁âm	-7.41257
▁sĩ	-7.41342
▁nơi	-7.41416
▁phòng	-7.4174
]	-7.42512
▁tác	-7.42578
▁Khi	-7.42634
▁Nhà	-7.42888
▁đời	-7.43096
▁lúc	-7.43546
▁hiệu	-7.43693
▁sáng	-7.44149
▁hãy	-7.44171
▁luôn	-7.44296
▁vị	-7.44447
▁câu	-7.44683
▁hết	-7.44846
▁đường	-7.45791
▁hoàn	-7.46581
▁mất	-7.47147
▁vật	-7.47183
▁tập	-7.48808
▁Nhật	-7.48815
▁tương	-7.49481
▁thương	-7.49502
▁cuối	-7.49954
▁trung	-7.49977
▁pháp	-7.50072
▁kỳ	-7.50147
▁trang	-7.50568
▁bên	-7.50652
▁bệnh	-7.50839
▁nữ	-7.51063
▁mỗi	-7.51307
▁bỏ	-7.51481
▁ngoài	-7.51539
▁ứng	-7.51965
▁the	-7.52111
▁điện	-7.523
▁trả	-7.5357
▁cung	-7.53721
▁of	-7.53741
▁tiêu	-7.53763
▁hiểu	-7.54153
▁giúp	-7.54283
▁viết	-7.55032
▁tay	-7.55057
▁ty	-7.55242
/	-7.55606
▁đất	-7.56563
▁chức	-7.56834
▁tăng	-7.5692
▁mạnh	-7.57169
▁...	-7.57405
▁phụ	-7.57459
▁thân	-7.57764
▁A	-7.58201
▁quyền	-7.58428
▁mua	-7.59256
▁Vì	-7.5927
▁đặt	-7.5943
▁quyết	-7.59748
▁kế	-7.59958
▁Bản	-7.59968
▁Tuy	-7.60212
▁mẹ	-7.60479
▁tư	-7.60668
▁hôm	-7.61189
▁lực	-7.6139
▁ngươi	-7.61922
▁thị	-7.61997
▁trợ	-7.62051
▁ba	-7.62262
▁:	-7.62499
▁nghe	-7.6374
▁gặp	-7.63788
▁khoảng	-7.63989
▁hóa	-7.64122
▁nhỏ	-7.6449
▁bay	-7.64539
▁đưa	-7.64833
▁nghiên	-7.65184
▁hoạt	-7.66653
▁nghiệm	-7.66991
▁phố	-7.67021
▁đánh	-7.67318
▁/	-7.67875
▁thôi	-7.67934
▁trí	-7.68016
▁chất	-7.6858
▁thuật	-7.69322
▁tranh	-7.69338
▁giáo	-7.69481
▁triệu	-7.69661
▁tử	-7.70011
▁Đức	-7.71009
▁dự	-7.71338
▁7	-7.7141
▁Điều	-7.71511
▁chuyển	-7.71682
▁Hãy	-7.71711
▁Tại	-7.7226
▁cứ	-7.72311
▁Đây	-7.72869
▁6	-7.7324
▁Ngày	-7.73526
▁an	-7.73537
▁Kỳ	-7.73552
▁bố	-7.73611
▁khỏi	-7.73701
▁I	-7.74024
▁từng	-7.74296
▁diễn	-7.74411
▁chứng	-7.74493
▁cậu	-7.74883
▁luận	-7.75087
▁ngay	-7.75622
▁đẹp	-7.76288
▁xác	-7.76643
▁tham	-7.76723
▁mục	-7.7685
▁Sau	-7.76972
▁a	-7.77037
▁sức	-7.77161
▁biến	-7.77176
▁chiếc	-7.77781
▁sạn	-7.78346
▁gái	-7.78399
▁tối	-7.7874
▁Hoa	-7.78965
▁phí	-7.79265
▁Ông	-7.79424
▁sát	-7.79534
▁mang	-7.79675
▁Công	-7.80044
▁doanh	-7.80191
▁giữa	-7.80253
▁tưởng	-7.80494
▁dẫn	-7.80725
▁mở	-7.80843
▁nghệ	-7.81341
▁Em	-7.82329
Tôi	-7.82389
▁bán	-7.82732
▁đơn	-7.83007
▁tuần	-7.8317
▁chẳng	-7.83232
▁xảy	-7.83291
▁tục	-7.8339
▁Chương	-7.83412
▁đình	-7.83778
▁lịch	-7.8388
▁minh	-7.83918
▁lòng	-7.84232
▁đồ	-7.84393
▁trò	-7.84521
▁văn	-7.84611
▁đúng	-7.8507
▁8	-7.85487
▁cửa	-7.85617
▁đàn	-7.85977
▁kiếm	-7.86423
▁vệ	-7.8647
▁to	-7.86636
▁?	-7.86685
▁đáng	-7.86759
▁phép	-7.87232
▁địa	-7.87362
▁vực	-7.8753
?”	-7.88326
▁nhanh	-7.88766
▁nhớ	-7.88773
▁kiến	-7.88958
▁cá	-7.89213
▁phương	-7.89386
".	-7.89479
▁đặc	-7.89537
’	-7.89682
▁vô	-7.89831
▁kẻ	-7.90219
▁giống	-7.90499
▁chương	-7.90795
▁ít	-7.9089
▁mạng	-7.90995
▁Năm	-7.92049
▁phim	-7.92202
▁đủ	-7.92224
▁vui	-7.92382
▁thủ	-7.92571
▁chú	-7.92769
▁khó	-7.92978
▁án	-7.93279
▁bà	-7.93393
▁giao	-7.93544
▁hạn	-7.9363
▁Đó	-7.9371
▁ngữ	-7.93761
▁phút	-7.93764
▁Chính	-7.93771
▁Nó	-7.93977
▁Sự	-7.94229
▁giảm	-7.94609
▁truyền	-7.94617
▁cảnh	-7.94939
▁lỗi	-7.94941
▁cáo	-7.95047
▁Thế	-7.95584
▁bé	-7.95618
▁&	-7.95749
▁phục	-7.96011
▁Ta	-7.96264
▁Con	-7.96268
▁mắt	-7.9662
▁chắc	-7.97469
▁sở	-7.98181
▁dễ	-7.98275
▁Cô	-7.98306
▁kiện	-7.98461
▁Nam	-7.98965
▁khí	-7.99424
▁phân	-7.99424
▁tiến	-7.99521
▁chí	-7.99594
▁dài	-7.99703
▁mức	-7.99884
n	-8.00233
▁Tên	-8.00238
▁lâu	-8.00244
▁ơn	-8.00268
▁gồm	-8.0046
▁Họ	-8.00958
▁xin	-8.01125
▁quân	-8.01185
▁dữ	-8.01495
▁dù	-8.01558
▁tích	-8.01695
▁nhé	-8.01747
▁cố	-8.01991
▁xuống	-8.02063
▁nhập	-8.02137
▁trai	-8.0224
▁kiểm	-8.02243
▁rõ	-8.02267
▁tuyệt	-8.02309
▁tiết	-8.02339
▁lẽ	-8.02525
▁Từ	-8.0296
▁tổ	-8.02977
▁Tất	-8.03524
▁thần	-8.04385
▁đọc	-8.04433
▁lựa	-8.04738
▁trời	-8.04774
▁giữ	-8.04785
▁sợ	-8.05014
▁B	-8.05032
▁nổi	-8.05627
▁lấy	-8.05822
▁thuộc	-8.05853
▁bác	-8.06152
▁kể	-8.06643
▁giả	-8.07387
▁ích	-8.07424
▁đạo	-8.07468
▁luật	-8.07621
▁tức	-8.07706
▁tra	-8.07751
▁thoại	-8.07833
▁hướng	-8.07873
▁dụ	-8.07999
▁hưởng	-8.08351
▁thư	-8.08419
▁tượng	-8.08449
▁nguyên	-8.08487
▁khả	-8.08731
▁lợi	-8.08839
▁khu	-8.09235
▁thử	-8.09263
▁hỗ	-8.09549
▁chứ	-8.09674
▁chuẩn	-8.09722
▁màu	-8.09788
▁Bài	-8.10028
▁nhạc	-8.10112
▁Vậy	-8.10115
▁chi	-8.10309
▁châu	-8.10314
▁Đại	-8.10683
▁Pháp	-8.10828
▁đăng	-8.11144
▁and	-8.11267
▁vọng	-8.11324
▁đấy	-8.11338
▁dựng	-8.11345
▁xã	-8.11463
▁dưới	-8.11579
▁thu	-8.11848
▁dục	-8.11856
▁thuốc	-8.12163
▁đấu	-8.12167
▁Chỉ	-8.12307
▁chế	-8.12895
▁lai	-8.13189
▁trái	-8.13826
▁trực	-8.13971
▁ban	-8.14089
▁Âu	-8.14266
▁chạy	-8.14283
▁9	-8.14305
▁ký	-8.14431
▁Khách	-8.14907
▁danh	-8.15491
▁thanh	-8.15542
▁in	-8.15691
▁Theo	-8.15719
▁viện	-8.16131
▁đêm	-8.1629
▁uống	-8.16318
▁chuyên	-8.17218
▁xây	-8.17316
▁tội	-8.1735
."	-8.17644
▁20	-8.17778
▁riêng	-8.17813
▁quản	-8.18321
▁trưởng	-8.18392
▁tinh	-8.18478
▁vài	-8.18537
▁duy	-8.1862
▁đội	-8.18889
▁Làm	-8.19093
▁12	-8.19325
▁Ai	-8.19974
▁hữu	-8.19991
▁ngủ	-8.20533
▁cập	-8.20542
▁kỹ	-8.20598
▁chia	-8.20634
▁web	-8.20872
▁cộng	-8.20908
▁ngôn	-8.20921
▁Nga	-8.21059
▁bây	-8.21593
▁lệ	-8.21922
▁Để	-8.22068
▁Ở	-8.22236
▁chị	-8.22791
▁lưu	-8.23467
▁Ngài	-8.23631
▁khoản	-8.23727
▁di	-8.23793
▁phủ	-8.23798
▁yếu	-8.24046
▁thúc	-8.2416
▁nhiệm	-8.24374
▁nhóm	-8.24777
▁Tiếng	-8.25099
▁cụ	-8.25105
m	-8.25255
▁kỷ	-8.25674
▁Thiên	-8.25987
▁bước	-8.26004
▁Do	-8.26086
▁dành	-8.26172
t	-8.26604
▁khoa	-8.26795
▁độc	-8.2732
▁càng	-8.27819
▁xa	-8.27956
▁phá	-8.28091
▁so	-8.28378
▁hôn	-8.2838
▁vũ	-8.28626
▁phúc	-8.2941
▁chân	-8.29743
▁rộng	-8.29791
▁mùa	-8.30045
▁gây	-8.30071
▁chịu	-8.30113
▁chung	-8.30492
a	-8.30777
▁Tây	-8.30999
▁đôi	-8.31124
▁New	-8.31196
▁Tổng	-8.31273
▁Việt	-8.31299
▁Còn	-8.31339
▁vừa	-8.3142
▁khỏe	-8.31666
▁áp	-8.32213
▁|	-8.32383
▁Mình	-8.32403
▁Google	-8.32687
▁You	-8.32799
▁quy	-8.32812
▁sư	-8.32878
▁đóng	-8.32889
▁lắm	-8.33172
▁11	-8.33191
▁diện	-8.33813
▁phía	-8.33949
▁nền	-8.341
▁quên	-8.34594
▁chút	-8.34805
▁Thông	-8.34968
▁hộ	-8.3506
▁đứng	-8.35303
▁Với	-8.35734
▁mật	-8.35901
▁Bộ	-8.35907
▁Hôm	-8.36097
▁phản	-8.36176
▁C	-8.3626
▁đầy	-8.36426
▁15	-8.3647
▁mộ	-8.36642
▁xét	-8.3692
▁tổng	-8.37201
▁vời	-8.37216
▁Xem	-8.37234
▁30	-8.37295
▁bóng	-8.37532
▁nguồn	-8.37563
▁cha	-8.37796
▁đau	-8.37836
▁hạnh	-8.38012
▁nạn	-8.38195
▁thiên	-8.38245
i	-8.38294
▁Cho	-8.38482
▁Liên	-8.3873
▁hồ	-8.38797
▁biển	-8.38897
▁đạt	-8.38973
▁Cách	-8.39096
▁phiên	-8.39119
▁Câu	-8.39675
▁Kinh	-8.39704
▁thú	-8.39843
▁chắn	-8.39993
▁Hiện	-8.39996
▁giết	-8.40134
▁vẻ	-8.40197
▁miễn	-8.40644
▁đứa	-8.40849
▁y	-8.40944
▁cổ	-8.41449
▁phạm	-8.41508
▁hiểm	-8.41975
▁sẵn	-8.41989
▁biểu	-8.4199
▁thắng	-8.42098
▁>	-8.42228
▁thất	-8.42266
▁gửi	-8.42607
▁hòa	-8.43163
▁Phát	-8.43187
▁vi	-8.43256
!”	-8.43329
▁hồi	-8.43505
▁chờ	-8.43682
▁tàu	-8.43763
▁xử	-8.43935
▁nằm	-8.44272
▁nguy	-8.44504
▁vòng	-8.44666
▁Trời	-8.44697
▁tấn	-8.44838
▁môi	-8.45291
▁nhiêu	-8.45327
▁sớm	-8.45594
▁ước	-8.45865
▁sang	-8.45948
▁nhật	-8.46043
▁nội	-8.46374
▁Trang	-8.46443
▁hắn	-8.46456
▁sắc	-8.46503
▁buổi	-8.46536
▁sẻ	-8.46583
▁!	-8.4666
▁vợ	-8.47525
▁cây	-8.4782
▁quay	-8.47852
▁sai	-8.47918
▁suy	-8.48121
▁Như	-8.48126
▁đa	-8.48401
▁kia	-8.48682
▁hầu	-8.49034
▁lo	-8.49621
▁thi	-8.50031
▁chó	-8.50364
▁hoạch	-8.50705
▁khóa	-8.50723
▁chống	-8.50765
▁thiệu	-8.51492
_	-8.51667
▁đợi	-8.51804
▁Trước	-8.52156
▁Thời	-8.52202
▁tuyến	-8.52324
▁USD	-8.52439
▁đừng	-8.52444
▁mai	-8.52479
▁mô	-8.52633
▁mối	-8.52636
▁»	-8.52845
▁for	-8.52874
▁Thành	-8.53194
▁tồn	-8.53409
▁mong	-8.53419
▁tỷ	-8.53633
▁chỗ	-8.54282
▁trạng	-8.54314
▁Đừng	-8.54518
▁du	-8.5456
▁cạnh	-8.54838
▁đoạn	-8.54996
▁khiến	-8.55092
▁ạ	-8.55317
▁dạng	-8.55388
▁Ban	-8.55503
▁lãnh	-8.55669
▁đảm	-8.55733
▁mơ	-8.56516
(	-8.57127
▁Chủ	-8.57133
▁bàn	-8.57143
▁ngồi	-8.57347
▁thiếu	-8.57463
▁giản	-8.57485
▁lạc	-8.57561
▁Số	-8.57577
▁nghỉ	-8.57666
▁cực	-8.57797
▁'	-8.58081
▁mềm	-8.58265
▁mừng	-8.58657
▁đích	-8.58657
▁Hai	-8.58685
▁thiện	-8.59011
▁dàng	-8.59133
▁ngành	-8.59142
▁Là	-8.59833
▁toán	-8.60041
▁=	-8.6025
▁nối	-8.60482
▁T	-8.60562
▁nguyện	-8.60865
▁Kết	-8.60895
▁mặc	-8.60965
▁ngôi	-8.60988
),	-8.61009
▁ngoại	-8.61119
▁Cuộc	-8.61136
▁Phần	-8.61163
▁chồng	-8.61417
▁à	-8.61533
▁quanh	-8.61814
▁hại	-8.61815
▁Giá	-8.61827
▁Hotel	-8.62243
▁chấp	-8.62694
▁hâm	-8.62713
▁mãi	-8.62729
▁căn	-8.62955
▁nghị	-8.63116
▁nàng	-8.63276
▁sửa	-8.63413
▁cài	-8.63434
Chúng	-8.63551
▁trách	-8.63797
▁Nha	-8.63858
▁thấp	-8.63932
▁video	-8.64022
▁•	-8.64213
▁dung	-8.64313
▁đá	-8.64881
▁trận	-8.65112
▁Đối	-8.65237
▁vùng	-8.65261
I	-8.65374
▁Lan	-8.65652
▁Lần	-8.65923
▁nhỉ	-8.65962
▁truy	-8.66101
▁Ví	-8.66416
▁Xin	-8.66747
▁Ngoài	-8.66831
▁100	-8.67172
▁khá	-8.67179
▁giác	-8.67244
▁gắng	-8.67336
▁ràng	-8.67385
▁cũ	-8.67625
▁cười	-8.67693
▁dạy	-8.67731
▁‘	-8.67992
▁Vào	-8.68041
▁)	-8.68269
▁+	-8.68371
▁Đã	-8.68517
▁đoán	-8.68607
▁Cuối	-8.68646
▁bức	-8.68766
▁trải	-8.68978
▁thuyết	-8.69047
▁Đến	-8.69423
▁cuốn	-8.69512
▁tim	-8.69518
▁quen	-8.69698
▁Ba	-8.69974
▁ghi	-8.70035
▁Tập	-8.70219
▁cải	-8.70401
▁xấu	-8.70416
▁đô	-8.70547
▁đảo	-8.70653
▁đen	-8.70718
▁My	-8.70753
▁Tìm	-8.70994
▁Độ	-8.7102
▁nửa	-8.71036
▁tải	-8.71038
▁ko	-8.71628
▁Bắc	-8.71706
▁vận	-8.71851
▁chuyến	-8.72168
▁Mỗi	-8.72182
▁18	-8.72252
C	-8.72288
▁13	-8.7254
▁Trên	-8.72566
▁Thánh	-8.72748
2	-8.7311
▁S	-8.73111
▁Hội	-8.7358
▁Tình	-8.73646
▁Dịch	-8.7377
▁Windows	-8.73802
▁khủng	-8.74035
▁khởi	-8.74683
▁mẫu	-8.74778
▁16	-8.74822
▁khăn	-8.74833
▁tôn	-8.74839
A	-8.74861
▁thưởng	-8.74979
▁máu	-8.7505
▁ánh	-8.75116
?"	-8.75271
▁trắng	-8.75353
▁rời	-8.75429
▁*	-8.7557
▁D	-8.75593
▁Tháng	-8.75872
▁Thật	-8.75885
▁cử	-8.76016
▁hơi	-8.76177
▁Châu	-8.76257
▁Cái	-8.76405
▁mấy	-8.76409
▁Bảng	-8.76428
▁mã	-8.76481
▁đông	-8.76536
▁suốt	-8.76684
▁vượt	-8.76688
▁thăm	-8.76726
▁lớp	-8.76916
▁ca	-8.77105
▁may	-8.77211
▁khai	-8.77455
▁Về	-8.77668
▁hoàng	-8.77714
▁đáp	-8.77965
▁14	-8.78245
▁lửa	-8.78394
▁đoàn	-8.78534
▁phù	-8.78608
▁Of	-8.78711
▁soát	-8.79485
▁Cả	-8.79645
▁nghi	-8.79645
▁sâu	-8.79959
▁dấu	-8.8011
▁bốn	-8.80226
▁loài	-8.80305
▁coi	-8.80454
▁thù	-8.80539
▁thập	-8.80596
▁khẩu	-8.80636
▁24	-8.80813
▁khắp	-8.80995
▁lễ	-8.81087
▁Yêu	-8.8123
▁da	-8.81251
▁ơi	-8.81399
▁kích	-8.81452
▁áo	-8.81549
▁tố	-8.81645
▁vàng	-8.81851
▁nghiêm	-8.81917
▁Me	-8.82131
▁ngờ	-8.8246
▁Hình	-8.83014
▁Nhiều	-8.83262
▁sân	-8.83336
▁bại	-8.8352
▁Ý	-8.83537
▁Giáo	-8.83608
N	-8.83636
▁sàng	-8.8379
▁thuận	-8.83819
D	-8.83954
▁bầu	-8.84003
▁chữ	-8.84264
▁Ấn	-8.84325
▁tiện	-8.84643
▁tiểu	-8.84677
▁tắc	-8.84792
▁lắng	-8.84808
▁Thái	-8.84852
▁trăm	-8.84957
▁rượu	-8.85232
▁M	-8.85513
▁chóng	-8.85536
▁lĩnh	-8.85638
▁Cảm	-8.85646
▁cháu	-8.85672
▁To	-8.85756
▁Việc	-8.86004
▁la	-8.86057
▁dòng	-8.8606
▁hoa	-8.86417
▁niệm	-8.86507
▁John	-8.86519
▁ngắn	-8.86527
▁mại	-8.86599
▁Lúc	-8.86609
▁Tin	-8.86699
▁Được	-8.86933
▁quý	-8.87084
▁Nói	-8.87312
▁Chiến	-8.87326
▁Sao	-8.8765
▁0	-8.87656
▁Mẹ	-8.87691
▁niên	-8.87694
▁Microsoft	-8.87877
▁dựa	-8.88154
▁cư	-8.88187
▁nặng	-8.88256
ng	-8.88337
▁phổ	-8.88425
▁Nhân	-8.88624
▁xúc	-8.88707
▁50	-8.88878
▁niềm	-8.89025
▁lạ	-8.89181
▁Đông	-8.89227
▁Của	-8.89248
▁thậm	-8.8931
▁ổn	-8.89369
▁bang	-8.89374
▁Hàn	-8.89534
▁bí	-8.89628
▁25	-8.8967
▁ngân	-8.89748
▁tệ	-8.90264
▁món	-8.90331
▁Apple	-8.90378
▁gốc	-8.90444
▁lạnh	-8.90448
▁tuyên	-8.9051
▁xuyên	-8.90666
▁chào	-8.90834
▁game	-8.90891
▁trụ	-8.90897
▁Thực	-8.9125
▁lệnh	-8.91378
▁Facebook	-8.9164
▁lá	-8.91674
▁Mọi	-8.91687
▁tai	-8.91867
▁Phòng	-8.92023
▁hy	-8.92044
▁Hơn	-8.92497
▁Dù	-8.93013
▁Bởi	-8.93446
▁17	-8.93518
Không	-8.93559
▁on	-8.94108
▁hậu	-8.94161
▁tín	-8.94326
▁đệ	-8.94404
▁dậy	-8.94693
▁phán	-8.9471
▁mẽ	-8.94926
▁vua	-8.9503
▁Israel	-8.95121
▁York	-8.95166
▁linh	-8.95183
▁buộc	-8.95523
▁buồn	-8.95567
▁mèo	-8.9571
▁lược	-8.95809
▁thái	-8.95871
▁núi	-8.96099
▁Internet	-8.96099
▁Love	-8.96233
▁hạt	-8.96327
▁chăm	-8.97114
▁nhiễm	-8.97197
▁Giới	-8.9745
▁Đầu	-8.97569
e	-8.97637
▁ô	-8.97725
▁Cũng	-8.97851
▁xung	-8.97925
▁Á	-8.97983
▁chiều	-8.98303
▁In	-8.98697
▁you	-8.98758
▁kéo	-8.98761
▁Học	-8.98932
▁dõi	-8.99123
▁Ảnh	-8.99363
▁tốc	-8.9937
▁tận	-8.99492
The	-8.99523
▁trao	-8.99714
▁vai	-8.99782
▁cánh	-8.99863
▁hủy	-9.00139
▁Inn	-9.0014
▁Bảo	-9.00171
▁Hà	-9.00189
▁La	-9.00267
1	-9.00599
h	-9.01024
▁giây	-9.01043
▁Bây	-9.01104
▁tớ	-9.01162
▁giấc	-9.0124
▁phê	-9.01295
▁ác	-9.01324
▁Mặc	-9.01595
▁quảng	-9.01615
▁is	-9.0166
▁đỏ	-9.01701
▁già	-9.01736
▁Cơ	-9.01962
▁sắp	-9.02342
▁Chẳng	-9.02567
!"	-9.02691
▁hút	-9.02791
▁tù	-9.02812
▁Trường	-9.02991
▁chữa	-9.0309
▁đỡ	-9.03167
▁Office	-9.03315
▁H	-9.03317
▁Thụy	-9.03418
▁Phim	-9.03458
▁lầm	-9.0371
▁L	-9.03777
▁trì	-9.03819
▁de	-9.03847
▁môn	-9.03901
▁Đi	-9.03926
▁phiếu	-9.03984
▁hứa	-9.0404
▁dầu	-9.04043
▁bữa	-9.04228
▁tạp	-9.04628
▁bè	-9.04706
▁Hoàng	-9.04752
▁mắc	-9.04754
T	-9.04764
▁ma	-9.0527
▁đốc	-9.05332
▁bọn	-9.05433
▁luyện	-9.05527
▁giàu	-9.05593
▁dối	-9.05713
▁ngăn	-9.05715
▁mười	-9.05736
▁40	-9.05927
▁Ghi	-9.05999
▁tránh	-9.06089
▁yên	-9.06354
▁phong	-9.06489
▁hồn	-9.06537
▁tả	-9.06545
o	-9.0655
▁khổ	-9.06729
▁tộc	-9.06832
▁lao	-9.06925
▁chỉnh	-9.07229
▁Thứ	-9.07924
▁Cộng	-9.08007
▁hè	-9.08114
▁Tiêu	-9.08156
▁giấy	-9.08179
▁cân	-9.08406
▁Cậu	-9.08459
▁Bình	-9.08572
▁thẳng	-9.08613
▁Máy	-9.08821
▁Trái	-9.08938
▁đổ	-9.08957
▁lành	-9.09067
▁Bà	-9.0915
▁đột	-9.09564
▁Mặt	-9.09622
▁chụp	-9.09672
▁Canada	-9.09689
▁đám	-9.09696
▁khắc	-9.09843
▁thoát	-9.10117
▁hạ	-9.10162
▁sóc	-9.10228
▁Đồng	-9.10435
▁xong	-9.10756
▁phi	-9.10794
▁lái	-9.10826
▁World	-9.11043
▁Bất	-9.11208
▁tướng	-9.11288
▁tòa	-9.11413
▁bày	-9.11495
▁hề	-9.11619
▁Sinh	-9.11966
▁Cha	-9.11999
3	-9.12097
▁An	-9.1223
▁G	-9.12326
▁Sử	-9.12621
▁can	-9.12731
Nếu	-9.12824
▁Địa	-9.13015
▁tái	-9.13069
▁nỗi	-9.1381
▁rơi	-9.1383
▁tầm	-9.13854
▁chối	-9.14048
▁nhiệt	-9.14073
▁Đánh	-9.14153
▁đức	-9.14256
▁x	-9.14259
▁trông	-9.14375
▁Thương	-9.14834
▁nóng	-9.14969
▁sơ	-9.14999
▁Giải	-9.15037
▁Phi	-9.15068
▁hài	-9.15154
▁bổ	-9.15222
▁ví	-9.15262
▁Home	-9.15295
▁thịt	-9.1537
▁Tải	-9.1538
▁One	-9.15415
▁ẩn	-9.15544
▁nam	-9.15788
▁21	-9.16072
▁trừ	-9.16075
▁cưới	-9.16235
▁họa	-9.16301
▁V	-9.16362
▁Văn	-9.16457
▁tắt	-9.16669
▁Nữ	-9.16693
▁phóng	-9.16838
Em	-9.1689
▁khóc	-9.17082
▁lương	-9.17103
▁xưa	-9.17104
▁N	-9.17486
▁Ngay	-9.17506
▁suất	-9.17539
▁Dân	-9.17599
▁ngạc	-9.17631
▁đào	-9.17692
▁nâng	-9.17711
▁thảo	-9.17883
▁19	-9.17977
▁băng	-9.18238
▁Sản	-9.18346
c	-9.18492
▁xanh	-9.18674
▁bắn	-9.18761
▁họp	-9.18794
▁kiểu	-9.18851
▁giận	-9.18906
y	-9.18959
▁chàng	-9.19016
▁nghèo	-9.19184
S	-9.19297
▁ngàn	-9.19375
▁sáu	-9.19501
▁đuổi	-9.19607
▁chứa	-9.19618
▁hào	-9.19675
▁thờ	-9.19903
▁Mà	-9.19907
▁tóc	-9.201
▁mời	-9.20148
▁dừng	-9.20361
▁Tự	-9.20557
▁cà	-9.20561
▁Paris	-9.20564
▁It	-9.20582
▁giám	-9.20615
▁P	-9.20633
▁đẩy	-9.20745
▁gấp	-9.20962
▁phận	-9.21283
▁thẻ	-9.21379
▁cắt	-9.21614
▁khứ	-9.21694
▁Phải	-9.21714
▁súng	-9.21768
▁ghét	-9.21799
▁khuyên	-9.21982
▁màn	-9.22125
▁đón	-9.22152
▁bạc	-9.22167
▁tặng	-9.22557
▁khám	-9.22618
▁ưu	-9.22735
▁Bên	-9.22785
▁thừa	-9.22815
▁thai	-9.23065
▁cấm	-9.23215
▁trúc	-9.2328
▁thách	-9.23305
▁giai	-9.23429
Anh	-9.23456
▁mắn	-9.23487
d	-9.23518
▁miền	-9.24038
▁Amazon	-9.24168
▁Y	-9.2441
▁Thượng	-9.24444
▁ừ	-9.24454
▁X	-9.246
▁lộ	-9.24663
▁quần	-9.24765
▁đem	-9.24774
▁biên	-9.25005
▁hiển	-9.25044
▁Hay	-9.25115
▁dọa	-9.25354
▁sổ	-9.25503
▁giảng	-9.25646
▁thuế	-9.25676
▁Giờ	-9.25718
▁sạch	-9.25791
▁tảng	-9.25893
▁Mục	-9.25957
▁Nhạc	-9.26109
▁E	-9.26414
▁thánh	-9.26633
▁cận	-9.26765
▁quà	-9.26813
▁22	-9.26822
▁mày	-9.2687
▁bảy	-9.2705
▁Luật	-9.27217
▁nhắc	-9.27365
▁Thay	-9.27406
▁thao	-9.27949
▁Đ	-9.28011
▁ngừng	-9.28012
▁ngựa	-9.28086
▁Chắc	-9.28211
▁Thủ	-9.28283
▁Đặc	-9.28493
▁mươi	-9.2859
▁Rất	-9.28646
▁ân	-9.28654
▁cấu	-9.28665
”,	-9.28794
▁binh	-9.28804
▁#	-9.28913
▁bánh	-9.29191
▁Tài	-9.29194
▁chiếm	-9.29286
▁sung	-9.293
▁K	-9.29406
▁tùy	-9.29604
▁Thể	-9.2978
▁ninh	-9.29812
▁lặng	-9.30215
▁Hoạt	-9.30371
▁nuôi	-9.30597
▁hảo	-9.30653
▁ủng	-9.30723
▁góp	-9.30809
▁Cùng	-9.30837
▁thận	-9.30856
▁ngài	-9.30884
▁nhu	-9.3111
▁diệt	-9.31122
▁Nước	-9.31241
▁Nội	-9.3147
▁Hệ	-9.31496
▁Hầu	-9.3156
▁Cập	-9.31752
▁đe	-9.3176
▁quán	-9.31924
▁vốn	-9.31941
▁Liệu	-9.31968
▁Nguyên	-9.32197
▁thỏa	-9.32219
▁hả	-9.32294
▁hẹn	-9.32669
▁60	-9.32697
▁dường	-9.32859
▁F	-9.32894
▁Trò	-9.32935
▁Tiện	-9.33518
▁Hồi	-9.33557
▁hạng	-9.33753
▁dần	-9.33762
▁tầng	-9.33872
▁Hiệp	-9.34017
▁xếp	-9.34038
x	-9.341
g	-9.34294
▁Tác	-9.34542
▁lẫn	-9.34601
▁rối	-9.34631
▁London	-9.34672
▁Rồi	-9.34772
▁sứ	-9.34846
▁não	-9.34975
▁Sĩ	-9.35072
▁Hành	-9.35158
▁San	-9.35343
▁City	-9.35908
▁Bắt	-9.36149
▁tắm	-9.36177
▁thủy	-9.36296
▁đương	-9.36561
▁Lại	-9.36597
B	-9.36687
▁kính	-9.36786
▁chặn	-9.36796
▁Thiết	-9.36868
▁tịch	-9.36906
▁thụ	-9.37039
▁Bác	-9.37103
▁chúa	-9.37598
▁ngược	-9.37647
▁cơn	-9.37845
Có	-9.38018
▁Gia	-9.38019
▁Tiếp	-9.38209
▁chiếu	-9.38321
▁nông	-9.38479
▁miệng	-9.38517
▁loạn	-9.38621
▁mái	-9.38622
▁nhắn	-9.38722
▁Hy	-9.38726
▁All	-9.3874
▁rừng	-9.38801
▁sông	-9.38958
▁nhảy	-9.39248
▁hấp	-9.3935
▁nghề	-9.39373
▁ngoái	-9.3955
▁Xe	-9.39562
▁Hàng	-9.39602
▁28	-9.39698
▁khảo	-9.39726
▁e	-9.39751
▁km	-9.3993
▁tường	-9.40104
▁Video	-9.4021
▁R	-9.40288
▁trốn	-9.4041
▁tiếc	-9.40521
▁liền	-9.40544
▁thầy	-9.40661
▁—	-9.40707
▁bảng	-9.40883
▁trữ	-9.40992
▁Đất	-9.41061
▁hẳn	-9.41074
▁thuyền	-9.41263
▁Your	-9.41593
▁đài	-9.41793
▁xóa	-9.41903
▁nhằm	-9.42083
NG	-9.42254
G	-9.42445
▁23	-9.42624
▁hãng	-9.42702
▁tỏ	-9.42716
▁c	-9.42804
▁t	-9.42869
4	-9.42958
▁thước	-9.43102
Am	-9.43237
▁Hải	-9.43335
▁thiệt	-9.43377
▁Tiên	-9.43703
▁dưỡng	-9.43886
▁nhẹ	-9.44155
▁Chọn	-9.44156
▁trăng	-9.44216
▁nhờ	-9.44267
▁khiển	-9.44297
▁truyện	-9.44336
▁nỗ	-9.44605
▁cháy	-9.44819
):	-9.44999
▁by	-9.45136
▁kêu	-9.45155
▁tỉnh	-9.4518
▁tàng	-9.45485
▁thơ	-9.45554
▁hãi	-9.4556
▁đua	-9.45591
▁Dự	-9.456
▁Mã	-9.45722
▁rút	-9.45946
▁nắm	-9.46118
▁đòi	-9.46313
................	-9.4637
▁blog	-9.46662
▁Danh	-9.46755
▁Khoảng	-9.46814
",	-9.46825
▁Tư	-9.46835
▁Gần	-9.46849
▁lục	-9.46959
▁vững	-9.46979
M	-9.46982
▁sa	-9.47071
▁Mới	-9.47154
▁nổ	-9.4727
▁On	-9.47344
▁mệnh	-9.47381
▁nha	-9.47414
▁ly	-9.47475
▁chăng	-9.47575
▁26	-9.48256
▁Game	-9.48279
▁thí	-9.48319
▁Chị	-9.48491
▁Chuyện	-9.48921
▁Thần	-9.49008
▁nhẫn	-9.49105
▁Phụ	-9.49323
▁Khoa	-9.49336
▁Mùa	-9.49415
▁Lý	-9.49428
▁chim	-9.49575
▁Chào	-9.49693
▁điệp	-9.49708
▁siêu	-9.49735
▁gói	-9.49945
▁No	-9.49971
▁Loại	-9.50029
▁hộp	-9.50145
▁địch	-9.50199
▁giành	-9.50203
▁Sáng	-9.50432
▁bật	-9.50491
▁ung	-9.50515
▁Tính	-9.50855
▁vẽ	-9.50874
▁ngại	-9.50925
▁Giáng	-9.50973
▁đế	-9.51123
▁Tokyo	-9.51239
▁Nhìn	-9.5126
▁tri	-9.51268
▁vĩ	-9.51482
▁mưa	-9.51631
▁loạt	-9.51719
▁phức	-9.51777
ing	-9.52081
▁Thị	-9.52116
▁đói	-9.52331
▁tao	-9.52544
▁kịch	-9.52636
▁Quan	-9.52705
▁Nên	-9.52717
▁sánh	-9.52778
▁bận	-9.52904
▁dứt	-9.52957
▁phạt	-9.53078
▁[...]	-9.53179
▁ấn	-9.53391
▁Đọc	-9.53577
▁tổn	-9.5364
▁lừa	-9.5368
▁Khu	-9.53687
▁b	-9.53853
Hãy	-9.53856
▁Nghiên	-9.53938
Các	-9.54057
▁Nghe	-9.54074
▁hùng	-9.54095
▁email	-9.54103
▁khuôn	-9.54112
▁tạm	-9.543
▁nợ	-9.54582
▁ro	-9.54599
▁Quản	-9.54649
▁·	-9.54649
▁cãi	-9.54672
▁cường	-9.5476
▁my	-9.54863
▁Tiến	-9.54903
Người	-9.54921
▁dĩ	-9.54969
▁David	-9.55104
▁Twitter	-9.55177
▁thiểu	-9.55215
▁ngoan	-9.5528
▁Syria	-9.55374
▁ngon	-9.55538
▁hương	-9.55617
▁Tối	-9.55644
▁cờ	-9.5571
▁$	-9.55793
▁Úc	-9.55814
▁Iran	-9.55862
▁And	-9.55882
▁Is	-9.56011
▁khuyến	-9.56142
▁lối	-9.56176
▁m	-9.56182
▁vỡ	-9.56379
▁xu	-9.56455
▁bạo	-9.56722
▁nhấn	-9.56788
▁dây	-9.57
▁Chiếc	-9.57093
▁lưới	-9.57245
▁giường	-9.57402
▁phối	-9.57402
▁Đường	-9.57572
▁27	-9.57608
▁thằng	-9.57628
▁tấm	-9.57656
u	-9.58006
▁Tương	-9.58231
▁Nhận	-9.58298
▁Tổ	-9.58303
không	-9.58471
▁Cảnh	-9.58604
▁xinh	-9.58682
▁chậm	-9.58723
▁kê	-9.58878
▁rẻ	-9.59256
▁me	-9.59293
▁Mô	-9.59294
▁Bệnh	-9.59295
▁Ngươi	-9.59314
▁Đêm	-9.59316
▁phỏng	-9.59321
▁2013	-9.5933
▁Bằng	-9.59399
▁TV	-9.59646
▁hổ	-9.59788
▁Lịch	-9.60007
▁II	-9.60053
▁2015	-9.60103
▁Vương	-9.60281
▁Nguồn	-9.60287
▁sót	-9.604
▁đạp	-9.60434
▁thuê	-9.60536
▁kì	-9.60551
▁hoảng	-9.60627
▁chấm	-9.60632
▁cầm	-9.60662
▁cậy	-9.60688
▁Giê	-9.60791
▁làng	-9.60827
▁Đôi	-9.60941
▁điên	-9.60989
▁Sẽ	-9.61029
▁Allah	-9.61141
▁lính	-9.61145
▁thang	-9.61651
▁James	-9.61715
▁Time	-9.6199
▁iPhone	-9.62
▁Michael	-9.62011
▁kim	-9.62043
&	-9.62193
▁For	-9.62554
▁thở	-9.62675
▁tô	-9.62839
▁tờ	-9.62852
▁tồi	-9.62937
▁Báo	-9.63076
▁Be	-9.63155
▁Màu	-9.63275
▁WEB	-9.63341
▁Dương	-9.6347
▁tĩnh	-9.63532
▁Don	-9.63727
▁xuân	-9.63765
▁động	-9.63791
▁at	-9.64013
▁bào	-9.64125
▁Day	-9.64217
▁tha	-9.64277
▁vong	-9.64293
▁kiệm	-9.64424
▁O	-9.64667
▁Bitcoin	-9.6467
▁thua	-9.64839
▁khôn	-9.6484
▁đẳng	-9.64963
▁dị	-9.65151
▁200	-9.65395
▁Toàn	-9.65578
▁Kẻ	-9.65589
▁29	-9.6565
▁Chia	-9.65693
▁trại	-9.6577
▁Cần	-9.65849
▁Lạp	-9.6594
▁khối	-9.65952
▁Bước	-9.65963
▁Phương	-9.66009
▁with	-9.6606
▁House	-9.66287
▁Nay	-9.66541
▁túi	-9.6656
▁ghế	-9.66796
▁Hỗ	-9.66848
▁Tom	-9.66933
▁Jack	-9.67112
▁khúc	-9.67202
▁2:	-9.67205
▁lãng	-9.67277
▁cẩn	-9.67306
▁Park	-9.67459
▁Muốn	-9.67567
▁Singapore	-9.67637
▁2010	-9.67644
▁Lưu	-9.67727
▁cứng	-9.67788
▁Nghệ	-9.67895
▁Đạo	-9.68007
▁Nhất	-9.68047
com	-9.68441
▁lượt	-9.68448
▁Hỏi	-9.68501
▁Q	-9.68525
▁dám	-9.68552
▁Trẻ	-9.68586
▁Vị	-9.68655
▁Mac	-9.68672
▁”	-9.68715
Ta	-9.68903
▁tuân	-9.68935
▁ngu	-9.69001
▁Triều	-9.69018
▁hứng	-9.69105
▁gió	-9.69112
▁vườn	-9.69145
▁Kể	-9.6916
▁điển	-9.69216
▁quái	-9.69459
▁your	-9.6946
▁túc	-9.69465
▁Vấn	-9.69738
▁Kim	-9.69819
▁Đấng	-9.69872
▁album	-9.69941
▁cặp	-9.70026
▁tàn	-9.70078
▁căng	-9.70265
▁rủi	-9.70273
ed	-9.7028
▁vĩnh	-9.70417
▁muộn	-9.70586
▁Hướng	-9.70631
▁hiệp	-9.70775
▁90	-9.70939
▁Phiên	-9.71013
▁35	-9.71173
▁ngục	-9.71193
▁Thêm	-9.71269
▁31	-9.71371
▁Nơi	-9.71435
▁So	-9.72034
▁Man	-9.72091
▁tiệc	-9.72091
▁trùng	-9.72197
▁Album	-9.72353
▁nô	-9.72415
▁Đúng	-9.7244
Những	-9.72795
▁bơi	-9.72966
Một	-9.73052
▁sóng	-9.73251
▁thói	-9.73288
▁Chi	-9.73353
P	-9.73402
▁Hoặc	-9.73568
▁ư	-9.73746
▁Sống	-9.73997
▁George	-9.74295
▁hồng	-9.74427
▁d	-9.74491
▁đĩa	-9.74621
▁xứ	-9.74704
▁Ân	-9.74836
▁bò	-9.74963
▁Hắn	-9.74976
▁500	-9.75022
▁sắt	-9.75051
▁_	-9.75077
▁vinh	-9.75103
▁hải	-9.75131
▁be	-9.75186
▁Life	-9.75269
▁răng	-9.75279
▁J	-9.75283
▁kênh	-9.75432
▁mê	-9.75442
▁biện	-9.75539
▁hoang	-9.75581
▁trống	-9.75609
▁Đế	-9.7574
▁Thư	-9.75756
▁i	-9.7576
▁thải	-9.75849
▁phẫu	-9.76024
▁đảng	-9.76027
▁Sân	-9.76093
p	-9.76137
▁Philippines	-9.76485
▁giọng	-9.76631
▁Chưa	-9.76671
▁k	-9.76716
▁Chú	-9.76717
▁Thanh	-9.77016
▁ấm	-9.77124
▁gỡ	-9.77265
▁Diễn	-9.77305
▁tuyển	-9.77343
▁lão	-9.77345
▁mệt	-9.7742
E	-9.77529
▁cướp	-9.7754
▁lưng	-9.77571
▁chặt	-9.77838
▁im	-9.77914
▁Chơi	-9.78242
▁Vũ	-9.78264
▁say	-9.78392
▁it	-9.78496
▁bãi	-9.78499
▁vết	-9.78533
▁giỏi	-9.78566
▁khẳng	-9.7868
▁trấn	-9.78717
▁Trump	-9.78789
▁Viết	-9.78798
▁Android	-9.78852
▁tá	-9.78874
▁32	-9.78885
▁giày	-9.78937
▁Mexico	-9.79089
▁chạm	-9.79108
▁2014	-9.79225
▁Tân	-9.79456
▁Washington	-9.79627
▁thảm	-9.7964
▁khích	-9.79659
▁sữa	-9.79771
▁Thổ	-9.79772
▁^	-9.80556
▁cổng	-9.80568
▁We	-9.80622
▁tiềm	-9.80745
▁2012	-9.80784
▁ngầm	-9.80976
▁trưa	-9.81015
▁kháng	-9.81029
▁Biết	-9.81147
▁>>	-9.81211
▁Định	-9.8124
▁nghìn	-9.81335
▁Ứng	-9.8136
▁Brazil	-9.81433
▁Âm	-9.81564
▁bền	-9.81582
▁Trở	-9.81695
▁AWS	-9.81891
▁Tử	-9.81934
▁nầy	-9.82364
▁Tiền	-9.82402
▁Nhóm	-9.82419
5	-9.82445
▁Paul	-9.82636
▁quyển	-9.82647
▁Nhĩ	-9.82767
▁Đào	-9.82779
▁lặp	-9.82892
▁California	-9.82984
▁(1)	-9.83072
▁2017	-9.8317
▁Điện	-9.83177
▁Tiểu	-9.83185
▁Giống	-9.8325
▁đo	-9.83389
...”	-9.83463
▁quỷ	-9.83497
▁kho	-9.83584
▁giấu	-9.83654
▁Nàng	-9.83753
▁cam	-9.83933
▁thổ	-9.83945
▁Best	-9.84052
▁300	-9.84088
▁mùi	-9.84243
▁Điểm	-9.8434
▁Trả	-9.84412
▁viễn	-9.84545
▁Sức	-9.84584
▁Re	-9.84622
▁huấn	-9.84678
▁80	-9.84703
▁Quá	-9.84706
▁1:	-9.848
▁đáo	-9.85043
▁hiếm	-9.85046
▁phiền	-9.85122
▁thẩm	-9.85162
▁chừng	-9.85202
▁Pro	-9.85246
▁n	-9.85354
▁tị	-9.85418
▁Bố	-9.85436
▁nhầm	-9.8545
▁2016	-9.85464
Con	-9.85504
▁chủng	-9.85517
Đây	-9.85576
▁Đảng	-9.85604
▁Quân	-9.85651
▁Red	-9.8579
▁King	-9.85948
bằng	-9.86118
▁Can	-9.86251
▁trộm	-9.86402
▁Hợp	-9.86473
▁chuột	-9.86656
▁Ngân	-9.86715
▁kiên	-9.87022
U	-9.87076
▁bếp	-9.87111
▁đèn	-9.87164
▁cản	-9.87171
▁liệt	-9.87233
▁cắp	-9.87234
▁Obama	-9.87486
▁Maria	-9.87631
▁Cầu	-9.8767
▁Business	-9.87726
▁chán	-9.8778
▁Thầy	-9.87805
▁săn	-9.87888
▁thề	-9.87889
▁45	-9.88028
▁khẩn	-9.8821
▁Kiểm	-9.8828
▁Black	-9.88547
▁ngã	-9.88565
▁quê	-9.88646
▁May	-9.88654
▁internet	-9.88676
▁Giám	-9.8883
▁thoải	-9.88846
▁70	-9.88907
▁vội	-9.88971
▁sắm	-9.89053
▁bom	-9.89117
▁Bao	-9.89154
▁xứng	-9.89243
▁gà	-9.89358
▁Thì	-9.89398
▁vé	-9.8941
▁thượng	-9.89465
▁huy	-9.8964
▁International	-9.89645
▁Vụ	-9.89866
▁Đang	-9.90133
▁đựng	-9.9017
▁Chất	-9.90263
▁Đồ	-9.90291
▁Phân	-9.9038
▁100%	-9.90406
▁ngốc	-9.90472
▁Tuần	-9.90524
▁ngọn	-9.90603
▁What	-9.90605
▁file	-9.90801
▁Indonesia	-9.90804
▁Minh	-9.90809
▁lí	-9.90914
▁đỉnh	-9.90962
▁Điển	-9.91127
▁huống	-9.91168
▁Du	-9.91265
Bạn	-9.91351
▁Vui	-9.91395
▁vương	-9.914
▁2011	-9.91488
▁tám	-9.91643
▁Ma	-9.91657
▁Cứ	-9.91683
▁Lấy	-9.91766
▁Viện	-9.91858
▁dương	-9.91874
▁Mua	-9.91915
▁Vua	-9.91924
▁2018	-9.91986
▁Blue	-9.92037
▁trưng	-9.92134
▁Giao	-9.92276
▁Tâm	-9.92364
▁nấu	-9.92404
▁phó	-9.92465
▁Quy	-9.92626
▁St	-9.92664
▁hoá	-9.92725
▁mãn	-9.92754
▁EU	-9.92819
▁Xuân	-9.92932
▁Nghĩa	-9.93071
Nhưng	-9.93132
en	-9.93273
Khi	-9.93534
▁Động	-9.93645
▁nhuận	-9.94089
▁kém	-9.94498
▁Australia	-9.94527
▁rửa	-9.94635
+	-9.94924
▁Ca	-9.9493
▁ảo	-9.95012
▁Ngoại	-9.95032
▁Bị	-9.95043
▁Tạo	-9.95079
▁xương	-9.95131
▁trứng	-9.95178
Nam	-9.95239
▁Up	-9.95265
▁v	-9.95273
▁website	-9.95416
▁Lễ	-9.95536
▁Malaysia	-9.95739
▁Al	-9.95789
▁Web	-9.96344
▁Little	-9.96348
▁Dĩ	-9.96377
▁Will	-9.96391
▁xâm	-9.96644
▁hối	-9.96659
▁chúc	-9.96727
▁365	-9.96776
▁Server	-9.96804
F	-9.96814
▁ức	-9.96878
▁lồ	-9.97027
▁tách	-9.97076
▁tan	-9.97226
▁mũi	-9.9726
▁Next	-9.97465
K	-9.97489
▁U	-9.9751
▁gắn	-9.97511
▁tỉ	-9.97513
▁Super	-9.9756
▁than	-9.97719
▁Online	-9.97909
▁tuy	-9.97915
▁Hồng	-9.9797
[	-9.98075
▁Bồ	-9.98121
▁đạn	-9.98125
Tất	-9.98185
b	-9.9824
▁Quảng	-9.98321
▁trồng	-9.985
▁gương	-9.98597
▁chảy	-9.98696
▁ngũ	-9.9874
▁đốt	-9.98933
▁Mở	-9.99027
▁mạc	-9.9924
▁Iraq	-9.99384
▁Go	-9.99454
▁hận	-9.99491
▁hò	-9.99537
▁Ðức	-9.99785
▁rác	-10.0001
▁Harry	-10.0014
▁Ít	-10.0016
▁2008	-10.002
▁bờ	-10.002
▁Thậm	-10.0027
▁khổng	-10.0029
▁Kế	-10.0051
▁36	-10.0053
▁tu	-10.008
▁chín	-10.0097
▁mỏi	-10.0108
▁sưu	-10.0115
▁Mười	-10.0122
▁mây	-10.0127
▁Robert	-10.0148
▁Chúc	-10.0174
▁Long	-10.0188
▁Căn	-10.0202
▁trà	-10.0206
r	-10.0207
▁đc	-10.0214
▁Sáu	-10.0214
▁tán	-10.0229
▁rãi	-10.0237
▁bậc	-10.0253
▁dã	-10.0255
▁Thảo	-10.0271
▁Đội	-10.0276
▁Xô	-10.0287
▁cựu	-10.0288
▁up	-10.0296
ra	-10.0298
▁béo	-10.0302
▁hiến	-10.0321
▁Đàn	-10.0354
▁2019	-10.0356
▁tròn	-10.036
!!	-10.0363
▁University	-10.0374
▁ngưỡng	-10.0375
▁Ukraine	-10.0376
);	-10.0377
▁duyệt	-10.0385
▁nút	-10.0386
▁2007	-10.0386
▁trú	-10.039
▁33	-10.0396
▁Chết	-10.0403
▁cất	-10.0405
một	-10.0412
▁Đặt	-10.0413
▁tuyết	-10.0415
▁lẻ	-10.0423
O	-10.0443
▁Peter	-10.0454
▁mến	-10.0459
▁Blog	-10.0461
Trong	-10.0486
▁48	-10.0495
▁no	-10.0498
▁Chuyến	-10.0509
▁nụ	-10.0526
v	-10.0529
▁hòn	-10.0536
k	-10.054
▁ném	-10.054
▁nàn	-10.0553
▁Trình	-10.0553
▁Hạnh	-10.056
▁This	-10.0561
▁Ủy	-10.0562
▁Argentina	-10.0569
Cô	-10.0573
▁Ngôn	-10.0587
▁Linh	-10.0595
▁Vẫn	-10.0597
▁hàm	-10.0602
▁rắn	-10.0616
▁Cao	-10.0641
▁mạch	-10.0652
có	-10.0654
▁mù	-10.0662
▁Air	-10.0676
▁tật	-10.0681
▁3:	-10.0701
▁Hồ	-10.0739
▁Trắng	-10.075
va	-10.0751
▁like	-10.0754
▁Big	-10.0763
▁dâm	-10.0769
▁hỏa	-10.0779
▁thọ	-10.0788
▁hằng	-10.0795
▁Xã	-10.0803
người	-10.0809
▁mát	-10.0827
▁tây	-10.0831
▁Resort	-10.0833
▁Kỹ	-10.0834
▁Like	-10.0837
▁ngọt	-10.0846
▁trôi	-10.0856
▁Chứng	-10.0864
▁tốn	-10.0878
▁Cá	-10.0887
▁liều	-10.0893
▁Good	-10.0898
▁Ra	-10.0901
▁bối	-10.0917
▁Center	-10.0924
▁Hãng	-10.0926
▁khấu	-10.0934
▁cám	-10.0943
▁che	-10.0951
▁thả	-10.0957
▁Thường	-10.0958
▁cỡ	-10.0969
▁mộng	-10.099
▁Tag	-10.1004
▁Sách	-10.1019
▁Hòa	-10.1033
▁hỏng	-10.1066
▁Night	-10.1072
▁khái	-10.1076
▁2009	-10.1096
tiếng	-10.111
▁Ngôi	-10.1112
▁Quả	-10.1113
▁đàm	-10.1121
▁hưu	-10.1131
▁Bí	-10.1144
▁buýt	-10.1156
▁tươi	-10.1173
Đừng	-10.1175
▁Tòa	-10.118
▁Truyền	-10.1188
▁Studio	-10.1192
▁sỹ	-10.1199
▁Di	-10.1207
▁quang	-10.1209
▁Bảy	-10.1219
>	-10.1236
▁are	-10.1244
▁đeo	-10.1267
▁Outlook	-10.127
▁Này	-10.1275
▁With	-10.1275
▁That	-10.1291
▁hư	-10.1294
▁vang	-10.1301
▁bụng	-10.1324
l	-10.1327
▁bia	-10.1332
▁rộn	-10.1339
▁Thống	-10.1342
▁How	-10.1346
▁u	-10.1347
▁PC	-10.1347
▁chuỗi	-10.1352
7	-10.1361
▁kịp	-10.1378
▁đếm	-10.1379
▁Quyền	-10.139
▁from	-10.1397
▁bề	-10.1419
▁Tốt	-10.1432
▁ám	-10.1433
▁blockchain	-10.1447
▁or	-10.1452
▁Viên	-10.1452
▁nè	-10.1466
▁URL	-10.1476
▁nộp	-10.1478
▁xạ	-10.1481
▁đằng	-10.1483
▁huyết	-10.1489
▁l	-10.1497
▁Qua	-10.1511
▁trễ	-10.1511
▁Girl	-10.1511
▁thưa	-10.1519
▁bội	-10.152
▁phú	-10.1533
▁lỗ	-10.1537
▁Ả	-10.1538
▁Năng	-10.1541
▁Buổi	-10.1543
▁virus	-10.1546
▁this	-10.1547
6	-10.1567
▁trích	-10.1582
▁Biển	-10.1586
▁đùa	-10.1594
▁tháp	-10.1617
▁2000	-10.1624
▁De	-10.1655
▁thác	-10.1666
▁Power	-10.1669
▁Vô	-10.1678
▁ga	-10.1682
▁thoảng	-10.1684
▁thăng	-10.1712
▁quỹ	-10.1718
▁chìa	-10.1719
▁Giêsu	-10.1736
▁thiệp	-10.1746
▁Bán	-10.1746
▁Bốn	-10.1755
Vậy	-10.177
▁mượn	-10.1772
▁Heart	-10.1781
▁ơ	-10.1792
▁HD	-10.1797
Nữ	-10.1812
▁robot	-10.1828
▁Sa	-10.1849
▁Disney	-10.185
▁Mark	-10.185
an	-10.1855
▁bê	-10.1856
▁Song	-10.1856
▁chôn	-10.1871
▁~	-10.1872
▁nêu	-10.1872
▁đền	-10.1882
▁Đơn	-10.1899
▁Vợ	-10.1902
▁chẩn	-10.1906
▁Dưới	-10.1909
▁;	-10.1918
▁Tớ	-10.1924
▁Khác	-10.193
▁Barcelona	-10.1931
▁lỡ	-10.1935
▁Le	-10.1936
L	-10.1947
▁trầm	-10.1952
Tại	-10.1967
▁Cửa	-10.2005
▁Sư	-10.201
▁Rock	-10.2028
▁Street	-10.2032
▁400	-10.2058
▁Los	-10.2084
▁tuệ	-10.2086
▁ghé	-10.2104
▁huyền	-10.2112
▁not	-10.2124
er	-10.2129
▁huynh	-10.2169
▁iOS	-10.2177
▁W	-10.2179
▁ngừa	-10.2181
▁sàn	-10.2191
▁Đan	-10.2215
▁nắng	-10.2216
▁Grand	-10.222
▁Ireland	-10.2223
Ngày	-10.2233
▁Christ	-10.2243
▁Phong	-10.2262
▁Bé	-10.2264
▁dũng	-10.2271
▁]	-10.2286
▁sụp	-10.2288
▁Thích	-10.231
▁xóm	-10.2312
▁Club	-10.234
▁Live	-10.2341
▁phàn	-10.2342
▁nhắm	-10.2342
▁Mạch	-10.2342
V	-10.2344
▁ưa	-10.2359
▁p	-10.2366
▁Baby	-10.2369
▁xế	-10.2371
▁Who	-10.2373
▁Days	-10.2381
▁Tàu	-10.2381
▁34	-10.2404
▁lan	-10.2423
▁ngơi	-10.2433
▁Mất	-10.2445
▁kèm	-10.2445
▁đắt	-10.2457
▁vitamin	-10.2458
▁ISO	-10.2472
▁Xuất	-10.2487
▁phiêu	-10.2494
▁Tuổi	-10.251
liên	-10.252
in	-10.2543
▁chép	-10.2555
▁đ	-10.2556
▁khiếp	-10.2561
▁Ước	-10.2566
▁Jackson	-10.2567
▁Mai	-10.257
▁Đề	-10.2572
▁mồ	-10.2576
▁Hóa	-10.2583
▁chở	-10.2583
▁online	-10.2595
▁bão	-10.2599
▁Get	-10.2609
▁ôm	-10.2611
▁Thẻ	-10.2614
▁Chuyển	-10.2616
re	-10.2622
▁hi	-10.2632
▁khoảnh	-10.2633
▁Đa	-10.2639
th	-10.2641
▁vắng	-10.2654
R	-10.2656
▁150	-10.2656
▁giam	-10.2659
▁chả	-10.266
▁tui	-10.2664
▁Gặp	-10.267
*	-10.2672
▁dược	-10.2673
▁triết	-10.2692
▁Đăng	-10.2709
▁bắc	-10.271
▁all	-10.2716
▁Truyện	-10.2717
▁(2)	-10.2722
▁Steve	-10.2729
▁Bóng	-10.2742
▁Suites	-10.275
▁Vâng	-10.275
▁dư	-10.2761
▁treo	-10.2761
▁West	-10.2767
▁Top	-10.28
▁chục	-10.281
Ông	-10.2815
▁Tham	-10.2824
▁túy	-10.2829
▁dạo	-10.2838
▁ép	-10.285
▁dinh	-10.2864
▁pin	-10.2864
▁đãi	-10.2869
▁góc	-10.2875
▁Star	-10.2881
▁cục	-10.2888
▁dịp	-10.2893
▁gần	-10.2911
▁cương	-10.2918
▁lãm	-10.2924
▁s	-10.2938
▁YouTube	-10.2942
▁vay	-10.2945
▁1000	-10.2957
▁Charles	-10.2959
▁thép	-10.2963
▁Đâu	-10.2967
▁ngón	-10.297
▁Rập	-10.2982
▁khát	-10.2983
▁Đời	-10.2987
▁Hát	-10.2991
▁<	-10.2996
▁Free	-10.2997
▁El	-10.302
▁Back	-10.3022
▁39	-10.3023
▁ngang	-10.3028
▁Berlin	-10.3029
▁Tỷ	-10.3032
▁Cung	-10.3037
▁khô	-10.3039
▁thợ	-10.3041
▁Phúc	-10.3048
▁dày	-10.306
▁Linux	-10.3066
▁Mary	-10.3073
▁have	-10.309
▁ngắm	-10.3093
Ngươi	-10.3098
▁tụ	-10.3103
▁Nhờ	-10.3116
▁trọn	-10.3138
▁Vật	-10.3148
▁(1	-10.3153
▁Thu	-10.316
▁that	-10.3182
▁Out	-10.3185
▁dáng	-10.321
▁Bill	-10.3219
▁Thomas	-10.3238
▁gián	-10.324
hô	-10.3249
▁chai	-10.3249
▁mỹ	-10.3275
▁Thôi	-10.3297
▁Dùng	-10.3299
▁khiêu	-10.3305
▁Cây	-10.3307
▁thỏ	-10.3314
▁William	-10.3318
▁one	-10.3338
▁Hiệu	-10.3339
▁Are	-10.334
Xin	-10.334
▁khôi	-10.3344
▁38	-10.3359
▁hỗn	-10.3359
▁Cố	-10.336
▁dọn	-10.3363
▁Santa	-10.3378
và	-10.3378
▁buôn	-10.3381
▁Thạc	-10.3381
▁táo	-10.3384
Đó	-10.3387
khoảng	-10.3397
▁Angeles	-10.3401
▁post	-10.3405
▁Never	-10.3409
▁42	-10.3409
▁Lee	-10.3424
▁Green	-10.3425
▁Tuyết	-10.3438
▁Inc	-10.3444
▁Post	-10.3445
▁mỏ	-10.3445
▁Mẫu	-10.3445
▁cóc	-10.3446
▁White	-10.3471
!!!	-10.3494
▁giãn	-10.3497
Thế	-10.3499
▁Vân	-10.3499
▁Bức	-10.3501
▁mau	-10.3515
▁taxi	-10.3515
▁đồn	-10.3529
▁Suite	-10.3531
▁khoẻ	-10.3536
▁If	-10.3558
▁lũ	-10.3559
la	-10.3571
▁Dữ	-10.3576
▁mạo	-10.3584
▁Previous	-10.3586
▁2020	-10.3594
▁Bob	-10.3597
▁Ánh	-10.3605
▁Lâu	-10.3623
▁Kong	-10.3623
▁Sam	-10.3626
▁CHÚA	-10.3628
▁khoán	-10.3632
▁Đáng	-10.3646
▁Texas	-10.3647
▁Mạng	-10.365
▁fan	-10.3652
▁ngực	-10.3653
X	-10.3669
▁mì	-10.367
Ai	-10.3681
▁Cháu	-10.3686
Vì	-10.3692
▁rắc	-10.3694
▁Mức	-10.3703
ữa	-10.371
hoặc	-10.3726
▁Môi	-10.3727
▁Way	-10.3731
▁Chuyên	-10.3746
▁Hong	-10.3753
▁Đá	-10.3755
Sự	-10.3762
▁trừng	-10.3782
▁Music	-10.3795
▁Thức	-10.3806
▁Pakistan	-10.3811
▁Luôn	-10.3824
▁1)	-10.3828
▁Trận	-10.3832
▁đớn	-10.3832
▁tràn	-10.3848
▁Chicago	-10.385
▁Thuốc	-10.3851
▁link	-10.3864
▁Nguyễn	-10.3866
▁lưỡi	-10.3875
▁Kích	-10.3877
Cậu	-10.3895
▁thám	-10.3896
8	-10.3905
▁diệu	-10.3909
▁Phản	-10.3922
▁View	-10.3922
▁g	-10.3928
▁kìa	-10.3935
▁điệu	-10.3938
▁mạn	-10.3951
▁lọc	-10.3973
▁trần	-10.3974
▁37	-10.3979
ll	-10.3989
▁Johnson	-10.4017
▁Ki	-10.4021
▁Real	-10.4025
▁API	-10.4025
▁Java	-10.4025
▁Thiếu	-10.4031
▁rồng	-10.4038
▁Now	-10.4052
▁rỗi	-10.4059
▁Afghanistan	-10.4067
▁Intel	-10.4091
▁ID	-10.4095
▁hoại	-10.4109
▁vạn	-10.411
▁4:	-10.4112
▁Dead	-10.412
▁IP	-10.4123
▁lợn	-10.4132
▁Beach	-10.4138
▁tung	-10.4141
ly	-10.4146
▁Hỡi	-10.4155
▁Old	-10.4158
10	-10.4159
▁Zealand	-10.4159
9	-10.4164
▁chớ	-10.4165
▁2)	-10.4167
▁Radio	-10.4176
▁song	-10.4176
H	-10.4184
▁Max	-10.4189
▁CEO	-10.4191
▁Cuốn	-10.4215
▁USB	-10.4216
▁nhãn	-10.4218
▁American	-10.4219
▁Cổ	-10.4226
▁Putin	-10.4248
su	-10.4251
▁mảnh	-10.4262
▁tệp	-10.4264
Điều	-10.4271
▁Hoàn	-10.4275
▁Chân	-10.4289
▁bông	-10.4291
▁Instagram	-10.4291
▁ổ	-10.4301
▁chu	-10.4303
▁Bay	-10.4306
▁phái	-10.4325
▁Mr	-10.4326
▁When	-10.4329
▁TH	-10.436
▁Road	-10.4365
▁Chiều	-10.4368
▁thịnh	-10.4375
▁Khởi	-10.4377
▁chuông	-10.4379
▁School	-10.4385
▁SharePoint	-10.4387
▁dâu	-10.4393
▁dắt	-10.4393
▁Mấy	-10.4409
▁Western	-10.4409
▁Rome	-10.4419
▁Thử	-10.4419
▁Martin	-10.4425
▁Cám	-10.4428
▁bẩn	-10.4431
▁Version	-10.4433
▁ống	-10.4439
▁Cuba	-10.4445
▁phu	-10.4448
▁Alex	-10.4451
▁h	-10.4472
▁Cụ	-10.4479
▁cai	-10.4495
▁pha	-10.4512
▁Richard	-10.4522
▁Plus	-10.4524
▁Let	-10.4527
▁tiêm	-10.4527
▁dao	-10.4527
▁trào	-10.4536
cười	-10.4539
ngày	-10.4547
▁ngẫu	-10.4573
▁Quý	-10.4575
▁Tội	-10.4578
▁75	-10.458
▁Sở	-10.4582
▁Times	-10.4586
▁41	-10.4589
▁iPad	-10.4592
▁camera	-10.4595
▁Francisco	-10.4602
▁Sun	-10.4605
▁khung	-10.4611
▁Group	-10.4613
▁Tựa	-10.4613
▁Lập	-10.4614
▁tủ	-10.4614
▁cỏ	-10.4623
▁nhạy	-10.4625
▁nguyền	-10.4656
▁Hiến	-10.4657
▁Joe	-10.466
▁gã	-10.4661
▁Siêu	-10.4662
▁hoan	-10.4665
▁Mèo	-10.4667
▁đuối	-10.4671
▁Cài	-10.4677
▁Giả	-10.468
▁Excel	-10.4688
▁Dòng	-10.4691
▁gỗ	-10.4701
▁Taylor	-10.4707
▁bi	-10.4708
▁CD	-10.471
▁Lớp	-10.4713
▁5:	-10.4719
▁chợ	-10.4729
▁44	-10.4731
▁leo	-10.4732
▁will	-10.4734
▁Henry	-10.4743
▁Ký	-10.4749
▁50%	-10.4749
▁cát	-10.4759
Mỹ	-10.4768
Họ	-10.4768
▁Biểu	-10.4781
▁Lợi	-10.4781
▁tang	-10.48
▁báu	-10.4802
▁Nhớ	-10.4814
▁More	-10.4819
▁120	-10.482
▁Kiến	-10.4821
▁Đài	-10.4836
▁dạ	-10.4864
▁nọ	-10.4882
▁vẹn	-10.4885
▁hoãn	-10.4886
▁10%	-10.489
▁love	-10.4898
▁Thi	-10.49
▁Bangkok	-10.4902
▁Express	-10.4912
▁%	-10.4913
▁Chuẩn	-10.4913
▁Down	-10.4923
▁cược	-10.4925
▁đam	-10.4925
▁clips	-10.4927
▁lạm	-10.493
Tiếng	-10.4964
▁Miễn	-10.4972
▁lâm	-10.498
▁90%	-10.4981
▁Adam	-10.4984
▁cừu	-10.4988
▁Chris	-10.4996
mm	-10.5003
▁Tăng	-10.5015
▁CLB	-10.5028
▁Hạ	-10.5039
▁Gửi	-10.5049
▁Chó	-10.5055
▁time	-10.5061
▁Nào	-10.5064
▁Bọn	-10.5076
▁Chàng	-10.5078
▁Thân	-10.508
▁trạm	-10.5082
▁SCP	-10.5083
▁From	-10.5086
▁Series	-10.5087
▁bớt	-10.5098
▁viêm	-10.5098
▁chẽ	-10.5105
▁2006	-10.5115
Ảnh	-10.5115
▁Gì	-10.5119
▁gánh	-10.5122
▁Not	-10.5142
▁khía	-10.5144
▁voi	-10.5145
Và	-10.5158
▁mét	-10.5171
▁Tinh	-10.5187
▁chìm	-10.5194
▁Airport	-10.5202
▁hôi	-10.5218
▁gấu	-10.5235
ví	-10.5239
▁Doanh	-10.5246
▁Samsung	-10.5251
▁tí	-10.5253
▁Cup	-10.5267
▁Skype	-10.5268
▁Tim	-10.5289
es	-10.5292
▁1.1	-10.5293
▁pháo	-10.5293
▁gọn	-10.5297
▁Lady	-10.5303
▁College	-10.5314
▁ng	-10.5319
▁gối	-10.533
▁khán	-10.535
▁bar	-10.5356
▁Xác	-10.5356
▁Cứu	-10.5376
▁High	-10.5376
Nhà	-10.5383
▁chấn	-10.5396
▁khen	-10.5397
▁Tay	-10.5404
▁Tạm	-10.5404
▁hà	-10.5404
▁muối	-10.5429
▁Z	-10.5434
▁ái	-10.5434
▁Phật	-10.5438
▁kí	-10.5443
▁64	-10.5445
▁bồi	-10.5446
▁hầm	-10.545
▁đập	-10.5461
▁Nhãn	-10.5464
???	-10.5472
▁Yên	-10.5474
▁cốc	-10.5474
▁Edition	-10.5477
▁55	-10.5483
▁nhựa	-10.5485
▁man	-10.5485
▁r	-10.5485
▁Jesus	-10.5498
▁cột	-10.5511
▁Nghị	-10.5519
▁Games	-10.5531
▁United	-10.5537
▁Quần	-10.5563
▁Tao	-10.5563
▁Hôn	-10.5564
Thật	-10.5574
▁Áp	-10.5585
▁tước	-10.5586
▁ghen	-10.5586
▁Xây	-10.5607
▁Trọng	-10.5612
▁đàng	-10.5616
▁Just	-10.5616
▁kỉ	-10.5618
▁Media	-10.5626
▁Đảo	-10.5632
▁Last	-10.5642
▁gan	-10.5657
▁long	-10.5658
▁Hiểu	-10.5682
▁Mắt	-10.5682
▁Ben	-10.5684
▁America	-10.5685
▁First	-10.5686
▁xoay	-10.5695
▁gen	-10.5708
▁lắp	-10.5711
▁kín	-10.5739
▁hoài	-10.5755
▁Khả	-10.5767
▁Truy	-10.5767
▁Phó	-10.578
▁Lựa	-10.5783
▁Jordan	-10.5784
▁ồn	-10.5787
▁Hot	-10.5791
▁trục	-10.5793
▁out	-10.58
▁cốt	-10.5805
▁Vùng	-10.5811
▁Saudi	-10.5813
▁65	-10.5817
▁nạ	-10.585
▁2005	-10.585
▁Ôi	-10.5851
▁Phố	-10.5854
Làm	-10.5864
▁THE	-10.5869
▁Happy	-10.587
▁hét	-10.5873
▁Royal	-10.5874
▁Play	-10.5893
▁mưu	-10.5898
▁cảng	-10.5903
▁Italy	-10.5924
▁20%	-10.5928
▁giáng	-10.5934
▁Smith	-10.5936
▁Lỗi	-10.5954
▁Giảm	-10.5957
▁Đẹp	-10.5961
▁new	-10.5968
-1	-10.5979
▁Dễ	-10.5981
Chỉ	-10.5984
▁móc	-10.5984
▁Italia	-10.5985
▁43	-10.5988
▁Ford	-10.5999
▁Phía	-10.6003
▁nhục	-10.6011
▁Motel	-10.6011
▁đồi	-10.6012
▁Lãnh	-10.6024
▁thuần	-10.6029
▁Moscow	-10.603
▁80%	-10.6034
▁cưng	-10.6036
on	-10.6038
Công	-10.604
▁Tới	-10.6044
▁sướng	-10.6046
▁Young	-10.6046
=	-10.6059
▁Lòng	-10.6062
▁đẻ	-10.6063
▁Service	-10.6067
▁đắn	-10.607
▁National	-10.6078
nh	-10.6082
ve	-10.6085
▁cắn	-10.6089
Hôm	-10.609
▁khiếu	-10.609
us	-10.6092
▁Mối	-10.6097
▁Hill	-10.6099
▁Tranh	-10.61
▁Ưu	-10.61
▁Great	-10.6102
▁CAS	-10.6109
▁tân	-10.6109
▁Bàn	-10.6121
▁Nhập	-10.6129
▁Trăng	-10.6137
▁Tuyệt	-10.6147
▁lùng	-10.616
▁bẫy	-10.616
▁Chờ	-10.6166
▁Room	-10.6173
▁khuẩn	-10.6177
▁đợt	-10.6177
▁Đen	-10.6182
▁HIV	-10.6194
▁lang	-10.6208
▁47	-10.6216
▁Myanmar	-10.6222
▁gợi	-10.6231
▁Exchange	-10.6246
▁III	-10.6262
▁Chạy	-10.6263
▁Quyết	-10.6273
▁Open	-10.6278
▁Kiểu	-10.6278
▁Project	-10.6281
▁ủy	-10.6284
▁del	-10.629
▁Holiday	-10.6304
▁Da	-10.6315
▁vây	-10.6319
▁49	-10.632
tôi	-10.6322
trong	-10.6332
▁mg	-10.6349
▁dại	-10.6349
▁HP	-10.6369
▁tựa	-10.6372
to	-10.6377
▁Món	-10.638
▁Anna	-10.6385
▁kĩ	-10.6392
▁go	-10.6399
▁News	-10.6402
▁46	-10.6403
▁đắc	-10.6411
tạm	-10.6413
▁Mike	-10.6421
▁Hi	-10.6422
▁vâng	-10.6432
▁US	-10.6434
▁Nhiệm	-10.6435
▁thèm	-10.6437
▁Venezuela	-10.6438
▁Alice	-10.644
▁uy	-10.6441
▁code	-10.6448
▁bỗng	-10.6455
▁Nhanh	-10.646
▁At	-10.6467
▁51	-10.6479
▁Lodge	-10.6492
▁Art	-10.6508
▁Giấc	-10.6518
▁ương	-10.6529
▁Hitler	-10.653
▁dâng	-10.653
▁Saint	-10.6535
▁more	-10.6557
▁Moon	-10.6557
▁sói	-10.6565
▁Tags	-10.657
—	-10.6573
▁búp	-10.6584
▁Tôn	-10.6591
▁cáp	-10.6592
▁đoạt	-10.6593
▁đậu	-10.6601
▁Chuông	-10.6611
▁we	-10.6639
▁protein	-10.6639
▁dỗ	-10.6645
▁kiếp	-10.6648
▁Tám	-10.6651
▁1.000	-10.6652
▁Queen	-10.6656
em	-10.6658
▁Lâm	-10.6662
▁rào	-10.6676
▁Sony	-10.6676
▁bùng	-10.6677
▁nại	-10.6678
▁À	-10.6684
▁thầm	-10.6685
▁DVD	-10.669
▁Place	-10.669
▁Bar	-10.6691
▁sốc	-10.6698
▁Only	-10.6704
▁War	-10.6711
▁am	-10.6716
▁^^	-10.6722
Nhạc	-10.6728
▁dặm	-10.6731
▁Vài	-10.6738
▁vân	-10.6745
▁mi	-10.6752
▁tiệm	-10.6769
▁Lực	-10.6771
▁North	-10.6793
▁Trần	-10.68
▁khốn	-10.6824
▁Thuật	-10.6825
▁250	-10.6827
▁Gọi	-10.6832
▁Thấy	-10.684
▁Las	-10.6844
▁God	-10.6844
▁nét	-10.6854
▁(2	-10.6854
▁mũ	-10.6861
▁Chồng	-10.6869
▁thuẫn	-10.6872
▁visa	-10.6873
▁Rõ	-10.6882
▁nghịch	-10.6884
▁cơm	-10.6884
▁Hiển	-10.6891
▁nghiện	-10.6893
▁bắp	-10.6901
na	-10.6907
▁Kỷ	-10.6916
từ	-10.6916
▁dính	-10.6921
▁Giấy	-10.6935
▁Mobile	-10.6944
▁South	-10.6949
▁rốt	-10.6949
▁o	-10.6957
▁nồng	-10.6958
▁Security	-10.6963
▁Đổi	-10.6963
▁Quay	-10.6966
▁Palestine	-10.697
▁Blockchain	-10.6971
Từ	-10.6974
▁Phục	-10.6977
▁bụi	-10.6978
▁Jones	-10.6982
▁Uống	-10.6992
▁Know	-10.6996
▁ngợi	-10.7025
▁canh	-10.7037
▁Biệt	-10.7038
▁Brown	-10.7046
▁nở	-10.7054
man	-10.7059
▁thỉnh	-10.7065
▁Giữa	-10.7071
▁ghép	-10.7074
▁Sát	-10.7076
▁English	-10.7083
▁Cấu	-10.7086
▁600	-10.7091
▁cụm	-10.7094
▁Tour	-10.7103
▁Thủy	-10.7109
▁as	-10.711
▁Hostel	-10.7113
▁chinh	-10.7116
▁Tony	-10.7122
▁ngập	-10.7131
▁800	-10.7133
▁Island	-10.7139
▁Giúp	-10.7146
▁bá	-10.7157
▁Daniel	-10.7175
▁Gái	-10.7182
▁System	-10.7196
▁Boy	-10.7198
▁bấm	-10.721
▁Cựu	-10.7212
▁NASA	-10.7214
▁mò	-10.7222
▁Story	-10.723
▁Ngược	-10.723
▁ok	-10.7238
▁lây	-10.7239
▁Trưởng	-10.724
▁Lên	-10.7243
▁Rượu	-10.7265
▁Cloud	-10.7274
▁Na	-10.7287
▁nhánh	-10.7308
0	-10.7311
▁Point	-10.7314
▁Mong	-10.7317
▁Bỏ	-10.7325
▁tựu	-10.7326
▁Áo	-10.7328
▁Đỏ	-10.7351
▁Quỹ	-10.7351
5-03	-10.7355
▁phấn	-10.7358
như	-10.7362
▁2003	-10.7365
▁Đô	-10.7375
▁rạp	-10.7377
▁sốt	-10.7377
▁Lê	-10.7383
▁Ukraina	-10.7398
▁Lớn	-10.7409
▁Garden	-10.741
▁Sứ	-10.7414
▁dò	-10.7422
▁Mơ	-10.7424
▁rỗng	-10.7428
▁khiết	-10.7429
▁Ô	-10.7433
▁xăng	-10.7438
▁Boston	-10.7439
▁VN	-10.7442
$	-10.7449
▁Giữ	-10.7451
▁múa	-10.7458
▁IS	-10.7464
▁Vegas	-10.7468
▁top	-10.749
▁40%	-10.7498
các	-10.75
▁Bad	-10.7506
▁cắm	-10.7508
▁Khóa	-10.7515
con	-10.7521
▁Residence	-10.7561
nếu	-10.7561
▁Network	-10.7563
▁hiếp	-10.7569
▁Mini	-10.7572
▁Light	-10.758
▁Mày	-10.7585
W	-10.7587
▁Cisco	-10.759
▁lộn	-10.7593
▁cookie	-10.7602
▁Bỉ	-10.7613
▁Tướng	-10.7633
▁Digital	-10.7636
▁Have	-10.7641
▁Cấp	-10.7644
▁Luân	-10.7663
▁Girls	-10.7673
Sao	-10.7679
▁Đau	-10.7686
▁Kông	-10.7691
▁30%	-10.77
▁chăn	-10.7701
▁tỏa	-10.771
▁2015,	-10.7721
▁Tạp	-10.7735
Y	-10.7748
▁tóm	-10.7774
▁bút	-10.7776
▁Apartments	-10.7777
Cái	-10.7779
▁Mang	-10.7781
▁thắc	-10.7784
▁Got	-10.779
▁Euro	-10.7792
▁Vừa	-10.7793
▁lông	-10.7797
▁66	-10.7799
▁Wi	-10.7801
▁cớ	-10.782
▁Vòng	-10.782
▁bột	-10.7824
▁Vĩnh	-10.783
▁nhi	-10.7855
▁miếng	-10.7858
▁Explorer	-10.7859
▁Come	-10.7861
▁Watch	-10.787
▁mọc	-10.7878
▁đụng	-10.7878
▁Elizabeth	-10.788
~	-10.7883
▁Access	-10.7891
▁Nền	-10.7903
▁Thất	-10.7905
ma	-10.7917
▁cú	-10.792
▁nát	-10.792
▁dì	-10.7928
▁euro	-10.7929
▁SEO	-10.7933
▁Chế	-10.7934
▁Dream	-10.7943
▁tạ	-10.795
NH	-10.7953
▁thôn	-10.7954
▁lô	-10.7958
▁làn	-10.7959
▁khói	-10.7961
▁Đứa	-10.7961
▁day	-10.7968
▁thấu	-10.7973
▁good	-10.7979
▁Dance	-10.7982
▁Mật	-10.7987
▁cởi	-10.7995
▁ẩm	-10.7997
▁AI	-10.7999
▁trúng	-10.8007
▁File	-10.8013
▁(3)	-10.8021
▁Roma	-10.8025
▁quận	-10.8027
▁Show	-10.8028
▁Chapter	-10.8029
Cuộc	-10.8032
▁Adobe	-10.8038
▁Nỗi	-10.8043
▁lỏng	-10.8047
những	-10.8055
▁Florida	-10.8059
▁1.2	-10.8066
▁Màn	-10.8069
▁Nick	-10.8081
▁Cà	-10.8084
▁Đốc	-10.809
Nó	-10.8091
▁East	-10.8093
▁Store	-10.8105
▁He	-10.811
▁tháo	-10.8111
▁99	-10.8113
▁Rose	-10.8119
▁Campuchia	-10.8122
▁rưỡi	-10.8132
▁Dubai	-10.8133
▁Nokia	-10.8134
▁Johnny	-10.8137
▁Vàng	-10.8138
▁Niềm	-10.814
▁Huyền	-10.815
▁Biến	-10.816
▁lui	-10.8168
▁á	-10.8178
ch	-10.8182
▁01	-10.8188
al	-10.8189
▁Hollywood	-10.8198
▁mập	-10.8207
▁ngưng	-10.8209
▁Dark	-10.8215
sự	-10.8217
văn	-10.8228
▁Ấy	-10.8233
▁download	-10.8234
▁There	-10.8242
..."	-10.8254
▁Tốc	-10.8257
▁2004	-10.8263
▁nhở	-10.8269
▁Fire	-10.8271
▁Kitô	-10.8275
▁khỉ	-10.8284
▁trá	-10.829
▁thiêng	-10.8294
▁ruột	-10.8295
▁Độc	-10.8299
▁kiêu	-10.8317
▁Tức	-10.8321
▁radio	-10.8322
▁tour	-10.8327
▁Chức	-10.833
▁Duy	-10.8333
▁App	-10.8335
▁ngào	-10.8339
▁thùng	-10.8341
▁nho	-10.8342
▁OS	-10.8345
▁bit	-10.8348
▁mực	-10.835
▁WordPress	-10.835
Lời	-10.8359
▁buông	-10.8362
▁Vận	-10.8367
▁rũ	-10.8371
▁lõi	-10.8372
▁Lượng	-10.8373
▁Lạc	-10.8376
▁Make	-10.8385
▁tụi	-10.8387
▁hang	-10.8397
▁Chữ	-10.8397
▁Frank	-10.8398
▁2016,	-10.84
▁rẽ	-10.8405
▁oxy	-10.8407
▁hoà	-10.8409
▁//	-10.8411
▁Jim	-10.8413
▁52	-10.8417
▁Kyoto	-10.8418
▁Victoria	-10.8428
▁Christmas	-10.8428
▁series	-10.8434
▁muôn	-10.844
▁Master	-10.8444
▁Tầm	-10.8445
▁hẹp	-10.8449
▁Wikipedia	-10.845
▁Jane	-10.8455
▁Đưa	-10.847
▁quét	-10.8472
▁vs	-10.8476
▁life	-10.8484
▁dãy	-10.8485
▁Đáp	-10.8486
▁Khám	-10.8488
▁khuyết	-10.8493
▁Flash	-10.8495
▁Hương	-10.8496
▁thạch	-10.8505
▁đuôi	-10.8505
▁IBM	-10.8505
▁kg	-10.8514
▁ủi	-10.8518
▁Call	-10.8526
▁Đương	-10.8528
▁Tùy	-10.8528
▁phước	-10.8538
▁lường	-10.8549
Xem	-10.855
▁sạc	-10.8559
▁Chrome	-10.856
▁xách	-10.8565
▁Say	-10.8566
Fi	-10.857
▁Nửa	-10.8575
▁ha	-10.8579
▁trộn	-10.8583
▁Arthur	-10.859
▁giáp	-10.8593
▁PHP	-10.8597
▁Global	-10.8607
▁ghê	-10.8607
▁Thắng	-10.8631
▁mâu	-10.864
▁PDF	-10.8642
▁cửu	-10.8645
▁lát	-10.8651
▁Hỏa	-10.8666
▁nhịp	-10.8675
▁ngột	-10.8675
▁váy	-10.8685
▁Jobs	-10.8687
▁Opera	-10.8687
▁Standard	-10.8687
▁nộ	-10.8693
▁bó	-10.87
▁Giai	-10.8705
Sau	-10.871
▁Nụ	-10.8716
▁Clinton	-10.8719
▁thơm	-10.8729
▁Again	-10.8731
▁tần	-10.8741
▁Data	-10.8746
▁cưỡng	-10.8753
▁Tiết	-10.8757
▁Nhỏ	-10.8766
▁vã	-10.8773
▁Town	-10.878
▁Key	-10.8793
▁10.000	-10.8798
▁Dường	-10.8804
▁2013,	-10.8804
▁xá	-10.8805
▁non	-10.8806
▁xưng	-10.8822
ta	-10.8823
▁Hằng	-10.8823
của	-10.8824
▁Sky	-10.8825
z	-10.8829
▁nề	-10.883
▁Ko	-10.8832
▁Van	-10.8835
▁Co	-10.8841
▁rau	-10.8843
▁tr	-10.886
▁72	-10.8871
▁bus	-10.8873
Ở	-10.8879
▁Olympic	-10.8883
▁Phạm	-10.8883
▁She	-10.8891
cho	-10.8893
▁Take	-10.8894
▁56	-10.8898
▁Word	-10.8898
▁khớp	-10.8903
Mọi	-10.8906
▁Gian	-10.8906
▁Earth	-10.8906
▁óc	-10.8907
▁Us	-10.8914
▁[-]	-10.8914
▁f	-10.8914
▁trương	-10.8925
▁dẹp	-10.8925
Mẹ	-10.8928
▁al	-10.8938
▁Nông	-10.8941
▁kẹt	-10.8949
▁Hilton	-10.895
▁Dr	-10.8963
▁cõi	-10.8975
▁=>	-10.8977
▁trượt	-10.8985
▁nhàng	-10.8986
▁Triển	-10.8987
▁ngộ	-10.8993
▁lôi	-10.8999
▁vượng	-10.9008
▁About	-10.9011
▁Ngủ	-10.9014
▁[+]	-10.9019
▁Here	-10.9019
▁Tuyên	-10.9028
▁soạn	-10.903
▁70%	-10.904
▁nghênh	-10.9043
▁Oh	-10.9045
▁nhóc	-10.9055
▁xót	-10.9055
▁BBC	-10.9057
▁mm	-10.9061
▁Dạ	-10.9063
▁End	-10.9065
▁Phí	-10.9067
▁Want	-10.907
Phần	-10.9071
▁phím	-10.9078
Live	-10.9083
▁j	-10.9085
▁tiễn	-10.909
▁Tu	-10.9098
▁:)	-10.9103
▁Dựa	-10.9107
▁Biên	-10.912
▁dịu	-10.9128
▁State	-10.9138
▁GB	-10.9139
▁Charlie	-10.9144
▁Quên	-10.9156
▁Robot	-10.9156
▁Scotland	-10.9163
▁Hứa	-10.9164
▁By	-10.9173
▁Japan	-10.9174
▁53	-10.9185
▁Hungary	-10.9187
▁hụt	-10.9197
▁giặt	-10.9197
▁Tháp	-10.9206
▁quyến	-10.9211
Trung	-10.9227
▁gũi	-10.9233
▁trật	-10.9234
▁tăm	-10.9245
▁bỏng	-10.9251
▁Summer	-10.9255
được	-10.9263
▁58	-10.9264
▁thô	-10.9265
▁Đứng	-10.9266
▁Kiếm	-10.9273
▁vả	-10.9278
▁trói	-10.9282
▁Nobel	-10.9282
se	-10.9285
▁Bang	-10.929
▁Death	-10.9293
chúng	-10.93
▁Full	-10.9309
▁As	-10.9315
▁UpdateStar	-10.9317
▁Khó	-10.9317
▁about	-10.9333
20	-10.9335
▁đai	-10.9344
▁cu	-10.9352
▁Nhiệt	-10.9356
12	-10.9357
▁sơn	-10.9361
▁thiêu	-10.9366
▁khiêm	-10.9368
▁lò	-10.9368
▁Piece	-10.937
▁Mãi	-10.9379
▁Tưởng	-10.9381
▁Bầu	-10.9382
▁Colombia	-10.9384
năm	-10.9385
▁Centre	-10.9392
▁Manager	-10.9397
▁Suy	-10.9398
anh	-10.9398
▁Hùng	-10.9403
▁gõ	-10.9403
▁Ethereum	-10.9405
▁Miền	-10.9407
▁360	-10.941
▁Over	-10.9412
▁khoác	-10.9415
▁heo	-10.9416
▁Lá	-10.9423
▁dọc	-10.9427
▁Nghĩ	-10.9432
▁hoạn	-10.9441
▁1%	-10.9452
▁Loài	-10.9456
▁Manchester	-10.9466
▁bổng	-10.9472
▁nương	-10.9475
▁700	-10.9492
▁Đoàn	-10.9494
▁Abraham	-10.9495
▁TR	-10.9495
▁Sea	-10.9497
▁âu	-10.9498
▁Mi	-10.95
▁54	-10.9509
▁NH	-10.9528
▁Núi	-10.953
▁vờ	-10.9531
▁ốm	-10.9538
▁Website	-10.9543
▁Sợ	-10.9552
▁Gold	-10.9559
▁nấm	-10.9563
▁duyên	-10.9567
ia	-10.9567
▁Trí	-10.9568
bao	-10.9571
▁Quái	-10.9575
▁xài	-10.9588
▁server	-10.9608
▁Python	-10.9614
▁Villa	-10.9615
“	-10.9619
▁lấp	-10.9624
▁Ripple	-10.9625
▁Thú	-10.9626
▁180	-10.9628
▁Lost	-10.9633
▁cự	-10.9657
▁Williams	-10.966
▁tivi	-10.9662
▁muội	-10.9664
▁make	-10.9672
▁thâm	-10.9676
▁Thưa	-10.9683
▁Lake	-10.9687
▁what	-10.9694
▁Vệ	-10.9694
▁golf	-10.9699
▁Why	-10.97
▁Băng	-10.9703
▁kem	-10.9714
▁chip	-10.9726
▁Bạch	-10.9729
▁Foundation	-10.973
▁inch	-10.9741
▁Edward	-10.9744
▁quát	-10.9746
▁Lão	-10.9749
▁facebook	-10.9752
▁Firefox	-10.9753
▁mông	-10.9761
▁Spa	-10.9762
▁viếng	-10.9762
▁nén	-10.9772
▁Control	-10.9777
▁sợi	-10.978
▁thổi	-10.9795
▁lận	-10.98
▁lệch	-10.9804
▁3)	-10.9809
▁nạp	-10.9815
▁Lẽ	-10.9819
▁MBA	-10.9822
▁Trạm	-10.9828
▁Khá	-10.9834
▁rủa	-10.9839
▁Sarah	-10.9839
▁Cục	-10.9846
▁Two	-10.9857
▁Right	-10.9861
▁Riêng	-10.9865
▁Hậu	-10.9867
▁get	-10.9877
▁Download	-10.9885
▁River	-10.9888
chỉ	-10.9888
Mình	-10.9888
▁Smart	-10.9889
▁2017,	-10.9902
#	-10.9903
▁FBI	-10.9907
▁phổi	-10.9908
▁site	-10.9929
▁Quỷ	-10.9932
▁DC	-10.9933
-2	-10.994
▁Rolex	-10.9943
▁VPN	-10.9948
Đã	-10.9953
▁mòn	-10.9957
▁Đấy	-10.9962
▁tò	-10.9974
▁2010,	-10.9975
Này	-10.9979
▁châm	-10.9979
km	-10.9982
▁Dành	-10.9988
▁NATO	-10.9988
▁Ga	-10.9994
▁Đôn	-10.9996
▁ICO	-11.0015
▁TA	-11.0018
▁Chín	-11.0023
▁Huy	-11.0024
▁Tế	-11.003
▁Mix	-11.003
▁FIFA	-11.0036
▁Trải	-11.0042
▁gãy	-11.0046
▁Dầu	-11.0047
▁Touch	-11.0048
▁Family	-11.0051
▁Camera	-11.0051
▁sex	-11.0064
▁Sydney	-11.0073
▁Â	-11.0078
▁hô	-11.0083
▁rảnh	-11.0084
▁lùi	-11.0085
▁if	-11.009
▁pizza	-11.0098
▁phun	-11.0101
▁2002	-11.0102
▁DNA	-11.0102
▁world	-11.0105
▁sôi	-11.0111
▁lãi	-11.0111
▁GDP	-11.0116
▁súc	-11.0123
▁ướt	-11.0126
▁OK	-11.0138
▁mini	-11.0141
▁60%	-11.0145
▁hạm	-11.0154
▁bạch	-11.0158
▁CIA	-11.016
▁don	-11.016
▁đoan	-11.0164
▁Phù	-11.0166
▁guitar	-11.0175
▁Team	-11.0187
▁♥	-11.019
▁thự	-11.02
▁Đình	-11.0202
▁6:	-11.0219
▁Bánh	-11.0224
▁đính	-11.0229
▁VI	-11.023
Cho	-11.0231
▁PR	-11.0236
▁Noel	-11.0243
▁móng	-11.025
▁Buồn	-11.0256
▁Trợ	-11.0258
▁Donald	-11.0259
the	-11.0266
▁vỏ	-11.0267
▁thoái	-11.0268
▁Company	-11.0269
▁menu	-11.0274
▁Magic	-11.0279
▁Quang	-11.0282
▁China	-11.029
▁Khí	-11.0296
Chính	-11.0297
▁Mountain	-11.0301
▁See	-11.0304
......	-11.0305
Cảm	-11.0325
▁ngặt	-11.0335
▁Cực	-11.0337
▁Design	-11.034
▁Kate	-11.0348
▁gạt	-11.0348
▁101	-11.0348
▁Lincoln	-11.035
Được	-11.0351
Còn	-11.0356
▁Thằng	-11.0375
▁vứt	-11.0375
▁Management	-11.0377
▁Ác	-11.0387
▁Tóm	-11.0392
▁Enterprise	-11.0397
Đúng	-11.0405
▁khoan	-11.0405
▁69	-11.0413
▁mảng	-11.0418
▁Ngọc	-11.0418
▁Lục	-11.0421
▁cafe	-11.0423
▁tiệt	-11.0429
▁giọt	-11.043
▁Quận	-11.0431
▁True	-11.0431
Allah	-11.0432
▁2012,	-11.0433
▁Cử	-11.0443
▁đành	-11.0445
▁57	-11.0449
▁miêu	-11.0456
▁Xét	-11.046
▁--	-11.0466
▁Golden	-11.0469
▁đâm	-11.0471
▁Gates	-11.0486
▁Ruby	-11.0487
▁Visa	-11.0487
▁Museum	-11.0489
▁CH	-11.0494
▁Mời	-11.0505
▁logo	-11.0509
You	-11.0522
▁cuồng	-11.0525
▁but	-11.0525
▁piano	-11.0527
NET	-11.0535
▁1.3	-11.0541
▁1960	-11.0543
▁he	-11.0544
▁rồ	-11.0545
▁show	-11.0546
▁Cánh	-11.0549
▁Limited	-11.0552
▁Libya	-11.0552
▁Software	-11.0554
▁Mạnh	-11.0556
▁Trực	-11.0556
▁Nghỉ	-11.0557
um	-11.0557
▁Dung	-11.0559
▁Port	-11.0565
▁Bãi	-11.0568
▁hỡi	-11.0569
▁đáy	-11.0577
▁Chăm	-11.0582
▁Stay	-11.0587
▁xăm	-11.0592
▁Boys	-11.0599
▁van	-11.06
▁down	-11.0608
▁Beatles	-11.0608
▁Rio	-11.0612
▁Scott	-11.0617
▁Visual	-11.0623
▁SQL	-11.0625
sửa	-11.0626
▁Tóc	-11.0626
?”.	-11.0629
▁Ly	-11.0637
ên	-11.0647
▁ngọc	-11.0648
f	-11.0649
▁Chí	-11.0649
▁phe	-11.0651
▁110	-11.0657
▁Uber	-11.0664
ri	-11.0675
▁mỉm	-11.0677
▁Bush	-11.069
▁Joseph	-11.0706
▁Nguyện	-11.0706
▁Quà	-11.0708
▁!!	-11.0716
▁Mừng	-11.0719
làm	-11.0723
▁vải	-11.0735
|	-11.0737
▁85	-11.0738
▁League	-11.0741
▁tráng	-11.0747
▁Away	-11.0749
▁Mưa	-11.0749
▁gìn	-11.075
ca	-11.0755
▁Hall	-11.0756
▁Tai	-11.0759
▁Sơn	-11.0759
▁here	-11.0761
▁Justin	-11.0774
▁Ninh	-11.0775
▁Milan	-11.0783
▁2014,	-11.0791
với	-11.0793
▁bì	-11.0795
▁lưỡng	-11.0801
▁Jerusalem	-11.0801
▁1950	-11.0806
▁Space	-11.0816
▁7:	-11.0826
▁Youtube	-11.0828
▁Land	-11.0831
▁carbon	-11.0835
▁Trụ	-11.0842
▁nãy	-11.0843
▁Things	-11.0865
▁kệ	-11.0872
▁Louis	-11.0878
Nguồn	-11.0892
▁Chỗ	-11.0893
▁mờ	-11.0898
▁Services	-11.0901
▁Tránh	-11.0905
▁Thỉnh	-11.0906
▁Hè	-11.0909
▁gởi	-11.0914
▁vở	-11.0914
▁Hawaii	-11.0914
▁chợt	-11.0918
▁Studios	-11.0921
▁!!!	-11.0927
▁Nghi	-11.0932
▁Thí	-11.0945
▁Pop	-11.0949
▁Jessica	-11.0958
▁Cơn	-11.0958
▁ong	-11.0959
▁Year	-11.0973
▁Sweet	-11.0979
kg	-11.0983
▁tennis	-11.0985
▁khoá	-11.0988
▁Albert	-11.0996
11	-11.0999
sa	-11.1003
▁Vườn	-11.1004
▁Miss	-11.1014
▁Sửa	-11.1014
▁Yahoo	-11.1016
▁được	-11.1028
▁WHO	-11.1037
▁Valley	-11.1043
▁Galaxy	-11.1043
▁Ryan	-11.1045
▁Rốt	-11.1047
▁vuông	-11.1057
▁back	-11.1065
▁Đợi	-11.107
▁tẩy	-11.1072
▁Search	-11.1075
▁Asia	-11.1076
▁sanh	-11.1079
▁04	-11.1085
▁Amsterdam	-11.1086
▁Tô	-11.109
▁Sir	-11.1102
▁Ngữ	-11.1102
▁25%	-11.1104
▁mỡ	-11.1115
Tình	-11.1116
▁Anne	-11.1118
▁Our	-11.1121
▁hung	-11.113
▁Woman	-11.1132
▁Blood	-11.1135
▁Too	-11.1136
xem	-11.1141
▁sếp	-11.1145
▁MS	-11.1147
▁Collection	-11.1151
▁Wall	-11.1158
▁Nghiệp	-11.1159
▁Đĩa	-11.116
▁Lạnh	-11.116
Dân	-11.1167
▁2.0	-11.1168
▁Airlines	-11.1173
▁củng	-11.1173
▁MB	-11.1174
▁Nigeria	-11.1188
▁Jean	-11.1192
Dm	-11.1194
▁Đóng	-11.1197
cách	-11.1198
▁rỡ	-11.1202
▁Quán	-11.1207
▁Trừ	-11.1211
▁6.	-11.1217
▁Xanh	-11.1222
▁2012.	-11.1222
▁(3	-11.1223
▁Cổng	-11.1224
!”.	-11.1228
Là	-11.1232
▁HTML	-11.1236
▁Dragon	-11.1237
▁gươm	-11.1245
▁Eyes	-11.1246
▁IV	-11.1246
▁Thưởng	-11.1248
▁Cặp	-11.1249
▁KHÔNG	-11.125
▁Angel	-11.1252
▁BTC	-11.1256
là	-11.1273
▁Season	-11.1273
▁7.	-11.1276
▁Hello	-11.1279
đổi	-11.1285
▁Tower	-11.1297
▁Trông	-11.1299
▁www	-11.1304
▁ham	-11.1306
▁bốc	-11.1308
▁Nguy	-11.1312
▁Central	-11.1312
▁Language	-11.1315
công	-11.1317
▁Grace	-11.1329
▁Xa	-11.1332
▁name	-11.1344
▁tùng	-11.1346
▁2013.	-11.1346
▁Name	-11.1346
▁tặc	-11.1349
▁lân	-11.1354
▁(4)	-11.1356
▁Chứ	-11.1361
▁5%	-11.1375
▁mẻ	-11.1378
▁95	-11.1383
▁Win	-11.1399
▁Bank	-11.1404
▁61	-11.1411
▁Toán	-11.1411
▁Forever	-11.1414
▁Drive	-11.1416
▁''	-11.1424
▁Robin	-11.1425
▁Tết	-11.1428
▁điền	-11.1429
▁vất	-11.1438
▁há	-11.1446
▁hố	-11.145
▁Book	-11.1451
▁lụt	-11.1453
▁ngẩn	-11.1453
▁Đoạn	-11.1459
▁chuộc	-11.1468
▁hãnh	-11.1468
▁xưởng	-11.1468
▁Hữu	-11.1469
▁know	-11.1476
tháng	-11.148
▁Am	-11.1496
▁quãng	-11.1498
▁Georgia	-11.1499
▁MU	-11.1502
▁dê	-11.1509
Năm	-11.1511
▁cán	-11.1517
▁Chile	-11.153
bit	-11.1531
▁Vi	-11.1533
▁Mario	-11.1545
▁nhường	-11.1547
▁Brian	-11.1553
▁Swift	-11.1561
▁Kênh	-11.1563
▁Musa	-11.1563
▁Lương	-11.1563
▁Dấu	-11.1565
▁Golf	-11.1573
▁Bếp	-11.1575
▁ah	-11.1575
30	-11.1576
▁xả	-11.1577
▁axit	-11.1589
▁gật	-11.1589
▁Premium	-11.1592
▁Thỏa	-11.1596
▁tia	-11.1598
▁nhạt	-11.1604
▁bể	-11.1605
▁nhặt	-11.1605
▁Apache	-11.1605
▁59	-11.1606
▁Tận	-11.1608
▁nghiệt	-11.1619
▁va	-11.1621
Cải	-11.1624
▁Soul	-11.1624
▁LED	-11.1625
▁free	-11.1625
xin	-11.1632
li	-11.1633
–	-11.1649
▁Fort	-11.165
▁test	-11.165
▁Face	-11.1653
▁Ngành	-11.1655
▁Movie	-11.166
đã	-11.1661
▁th	-11.1666
▁Casino	-11.1668
▁Thuyền	-11.167
GB	-11.1682
▁Ltd	-11.1683
▁Tui	-11.1688
▁Emma	-11.1692
▁see	-11.1695
▁Cẩn	-11.1705
▁Eric	-11.1708
▁lũng	-11.1714
▁Andrew	-11.1719
▁8:	-11.1732
▁hèn	-11.1739
▁Su	-11.1739
▁Die	-11.1741
▁Yammer	-11.1742
▁Kelly	-11.1744
▁xám	-11.1746
▁Kiss	-11.175
▁Ibrahim	-11.1751
▁bã	-11.1755
▁2008,	-11.1755
▁Jimmy	-11.176
▁Stone	-11.1771
▁CỦA	-11.1773
▁bấy	-11.1773
▁Virginia	-11.1775
▁Plaza	-11.1789
▁2011,	-11.1793
▁nướng	-11.1803
▁Nepal	-11.1804
số	-11.1807
▁Code	-11.1811
▁People	-11.1814
▁Money	-11.1827
Đại	-11.1834
▁62	-11.1834
▁Azure	-11.1836
▁cống	-11.1837
▁Vượt	-11.1838
▁người	-11.185
▁Iceland	-11.1852
▁Tích	-11.1853
▁DJ	-11.1856
▁Made	-11.1858
▁rực	-11.1866
▁kiệt	-11.1866
▁Thẩm	-11.1869
▁Comfort	-11.1869
▁Sắp	-11.1871
▁Sai	-11.1872
▁lồng	-11.1878
▁Holmes	-11.1882
▁nhấp	-11.1882
▁giật	-11.1882
▁màng	-11.1884
▁trinh	-11.1884
▁chiên	-11.1884
▁Water	-11.1889
▁bitcoin	-11.1892
▁google	-11.1903
ở	-11.1905
▁logic	-11.1906
▁Giết	-11.191
▁2014.	-11.1916
▁Card	-11.1919
▁Giọng	-11.192
▁bưu	-11.1928
Tạm	-11.1929
▁02	-11.1934
▁MV	-11.194
▁Nạn	-11.195
▁ranh	-11.1951
Giới	-11.1961
▁đố	-11.1978
▁Easy	-11.198
J	-11.198
▁Khủng	-11.1984
▁men	-11.1986
▁Simon	-11.1987
▁Head	-11.1988
▁qu	-11.1989
▁Country	-11.2
▁Better	-11.2002
▁(“	-11.2003
▁phì	-11.2007
▁EUR	-11.2014
▁Prince	-11.2015
▁Ngồi	-11.2016
▁Nhấn	-11.2025
▁99%	-11.2025
▁1990	-11.2031
▁Player	-11.2032
▁Page	-11.2035
▁Vista	-11.2041
▁After	-11.2045
Đức	-11.2056
Thiên	-11.2056
▁Đà	-11.2063
▁hệt	-11.2066
▁Wilson	-11.2071
()	-11.2072
▁nãi	-11.2074
▁nh	-11.2085
▁nhiếp	-11.2088
▁testosterone	-11.2089
▁dưng	-11.209
▁hacker	-11.2096
w	-11.21
▁Súng	-11.2108
▁Lượt	-11.2111
▁2.000	-11.2114
▁2015.	-11.2118
▁gạo	-11.2119
Thời	-11.2121
▁đà	-11.2133
▁khỏa	-11.2134
▁Conan	-11.2148
▁2.2	-11.2152
▁Houston	-11.2153
▁Wanna	-11.2154
le	-11.2158
st	-11.2159
▁Remix	-11.2178
▁cỗ	-11.2184
▁tweet	-11.22
Để	-11.2202
▁Oracle	-11.2202
▁ASEAN	-11.2203
▁Ken	-11.2213
▁100.000	-11.2214
▁cưỡi	-11.2216
▁Line	-11.222
▁thiếp	-11.2231
▁Spotify	-11.2231
▁Dũng	-11.225
▁đỗ	-11.2262
▁Môn	-11.2262
▁Men	-11.2266
▁nuốt	-11.2266
▁quí	-11.2266
▁liêng	-11.2274
▁chốn	-11.2279
▁kiêng	-11.2284
▁Where	-11.229
▁2001	-11.2293
▁Lo	-11.2298
▁Latin	-11.2303
▁Cười	-11.2308
▁khinh	-11.231
7]	-11.2313
▁Huawei	-11.2313
▁PowerPoint	-11.2314
▁130	-11.2317
▁cm	-11.2318
nhưng	-11.2319
▁ngư	-11.2322
▁Hard	-11.2324
▁cạn	-11.2328
▁bến	-11.2331
▁Dell	-11.2339
▁1/3	-11.2342
▁Gmail	-11.2347
▁Area	-11.2368
▁Costa	-11.2374
GƯ	-11.2375
▁khao	-11.2378
▁Nâng	-11.2383
đi	-11.2384
▁Blues	-11.2389
-3	-11.2389
Q	-11.239
▁bèn	-11.2391
▁Rain	-11.2393
▁Honda	-11.2396
▁now	-11.2401
▁way	-11.2407
▁Please	-11.2407
▁Lửa	-11.2415
▁Mùi	-11.2415
▁CPU	-11.2416
▁Ray	-11.2418
▁update	-11.242
▁Sơ	-11.2431
▁Lạy	-11.2432
▁best	-11.2434
▁user	-11.2451
▁just	-11.2455
▁Lord	-11.2457
▁Séc	-11.2461
▁2007,	-11.2462
▁has	-11.2463
▁ôi	-11.247
▁Son	-11.2472
▁chốt	-11.2477
▁Link	-11.2488
▁sỉ	-11.249
▁140	-11.2494
▁Village	-11.2494
▁2018,	-11.2495
Ân	-11.2496
Như	-11.2497
▁Thập	-11.2498
▁steroid	-11.251
▁sòng	-11.251
▁Đảm	-11.2513
Thành	-11.2516
▁chặng	-11.2516
▁[[	-11.2522
▁Phone	-11.2524
▁Chu	-11.2526
▁lật	-11.2528
▁kẹo	-11.2528
▁Debian	-11.2529
▁Chelsea	-11.2531
▁63	-11.2533
▁hiền	-11.2534
▁Feel	-11.2543
cô	-11.2549
Trước	-11.2549
▁su	-11.255
▁Kính	-11.2551
▁2-3	-11.2553
▁GL	-11.2557
▁Siri	-11.2564
▁Sông	-11.2565
▁co	-11.2571
do	-11.2573
▁lầu	-11.2577
▁xích	-11.2579
▁88	-11.258
▁1.5	-11.2584
▁2.1	-11.2588
▁Madrid	-11.2594
▁bầy	-11.2594
▁nhượng	-11.2597
▁Three	-11.2606
▁lứa	-11.2611
▁dán	-11.2618
▁hổng	-11.2619
▁Beautiful	-11.2619
▁Update	-11.2622
▁Than	-11.263
▁rung	-11.2632
▁Vé	-11.264
▁côi	-11.2641
Z	-11.2644
5-05	-11.2645
▁1,5	-11.2648
▁Four	-11.2651
Nói	-11.2655
▁nảy	-11.2661
▁đứt	-11.2661
Chúa	-11.2669
▁ao	-11.2673
▁Khoản	-11.2684
hay	-11.2695
▁Tuấn	-11.2697
tên	-11.2706
▁Từng	-11.2717
▁Ngựa	-11.2717
▁Phút	-11.2732
▁Triệu	-11.2735
▁Jason	-11.2752
▁vú	-11.2761
▁Entertainment	-11.2764
▁triều	-11.2764
▁Túi	-11.2768
▁Look	-11.2773
▁Arabia	-11.2777
▁Harvard	-11.2782
▁khoái	-11.2784
▁Tỉnh	-11.2786
▁giềng	-11.2797
▁côn	-11.2797
▁trân	-11.2799
▁(5)	-11.2802
▁Thỏ	-11.2803
▁???	-11.2803
▁Deep	-11.2804
Với	-11.2805
▁Potter	-11.2807
▁oán	-11.2815
▁Nổi	-11.2818
▁Yes	-11.2828
▁Double	-11.2829
▁Bell	-11.2833
▁Off	-11.2845
▁Wild	-11.2846
▁Nằm	-11.2852
▁Union	-11.2854
▁only	-11.2858
?!	-11.2861
▁láng	-11.2865
▁Yoga	-11.2867
▁tống	-11.2869
▁Hope	-11.2872
▁96	-11.2877
▁mốc	-11.2883
▁98	-11.2889
▁check	-11.2897
▁95%	-11.2902
▁Khuyến	-11.2908
▁Máu	-11.2909
▁Lao	-11.2916
▁Alexander	-11.2921
sinh	-11.2931
▁rụng	-11.2936
▁quấy	-11.2936
Hỡi	-11.2944
▁Age	-11.2949
▁Christian	-11.295
đa	-11.2951
▁Phẩm	-11.2953
▁Nóng	-11.2961
▁68	-11.2966
▁dời	-11.297
Hai	-11.2971
▁Jerry	-11.2973
đun	-11.2975
▁Carter	-11.2981
▁Run	-11.2986
▁ĐI	-11.2989
▁Bangladesh	-11.2989
▁Model	-11.299
▁2007.	-11.299
▁Càng	-11.2997
▁never	-11.3006
▁Safari	-11.3007
▁Bed	-11.3016
▁who	-11.3019
▁hước	-11.3023
▁Chung	-11.303
▁KB	-11.3036
▁nhện	-11.304
▁lăn	-11.304
▁Kennedy	-11.3042
▁Stop	-11.3047
WEB	-11.305
cái	-11.3052
▁off	-11.3053
▁67	-11.3058
▁OneDrive	-11.3058
▁nếm	-11.3076
▁Batman	-11.3079
▁over	-11.3084
▁Cafe	-11.3085
▁[1]	-11.3088
▁Cas	-11.3092
▁3000	-11.3092
▁Tường	-11.3097
▁Audio	-11.3108
Ba	-11.3108
▁một	-11.3111
▁hãm	-11.3112
▁Chuột	-11.3113
▁Xử	-11.3116
▁Kd	-11.3116
▁Matt	-11.3119
▁Machine	-11.3121
▁Kids	-11.3125
▁Đệ	-11.3129
▁Trị	-11.313
▁USA	-11.3133
▁bám	-11.3134
▁nhá	-11.3134
▁chánh	-11.3136
▁son	-11.3136
▁Perfect	-11.3136
Mỗi	-11.3139
’.	-11.314
▁Nhi	-11.3141
▁gác	-11.3146
▁Thuế	-11.3148
▁UFO	-11.3148
▁Party	-11.315
▁PH	-11.316
▁Hết	-11.316
▁nhị	-11.3163
▁Archives	-11.3167
")	-11.3174
▁Osaka	-11.3184
▁Xóa	-11.3187
▁Binh	-11.3189
▁Tạ	-11.3189
16	-11.3198
▁Toyota	-11.32
▁General	-11.3201
▁Miller	-11.3211
▁manh	-11.3212
▁Technology	-11.3218
▁hormone	-11.322
▁Institute	-11.3229
▁Howard	-11.323
▁tọa	-11.3235
▁Gonna	-11.3237
Đi	-11.3241
Tên	-11.3248
▁Hưng	-11.3255
▁Vitamin	-11.3256
▁lăm	-11.3271
▁Einstein	-11.3271
▁Xếp	-11.3273
▁Gấu	-11.3275
▁want	-11.3281
Chiến	-11.3283
▁Need	-11.3284
da	-11.3293
▁tê	-11.33
▁Chớ	-11.3307
de	-11.331
▁bù	-11.3312
▁000	-11.3313
▁Suốt	-11.3314
%	-11.3318
Câu	-11.3319
▁160	-11.3323
▁đúc	-11.3344
▁xí	-11.3346
▁Uy	-11.3352
▁Oscar	-11.3356
▁15%	-11.3358
▁dội	-11.3361
▁1991	-11.3362
▁Đột	-11.3366
▁2010.	-11.3372
Hiện	-11.3374
▁1995	-11.3378
▁ở	-11.3382
▁81	-11.3383
▁Auto	-11.3385
▁Secret	-11.3393
▁Satan	-11.3395
▁Heaven	-11.3396
▁ào	-11.3401
.....	-11.3401
▁Rồng	-11.3402
xi	-11.3404
▁03	-11.3412
▁cuộn	-11.3416
ba	-11.3422
▁BMW	-11.3436
▁Nelson	-11.3436
▁Tín	-11.3441
▁Diana	-11.3454
is	-11.3463
à	-11.347
▁Trà	-11.347
▁OneNote	-11.3471
▁xôi	-11.3472
One	-11.3474
▁Hẹn	-11.3478
▁thạc	-11.3489
▁đống	-11.3491
▁9.	-11.35
2)	-11.3501
▁Xưa	-11.3511
▁Kịch	-11.3514
▁căm	-11.3526
▁Del	-11.3527
▁Hạng	-11.3531
▁Valentine	-11.3536
▁hack	-11.3545
▁hít	-11.3546
▁Cambridge	-11.3546
▁Si	-11.3547
▁71	-11.3547
▁Bridge	-11.3547
▁Princess	-11.3548
▁77	-11.3555
▁2011.	-11.3557
USD	-11.3562
▁Oxford	-11.3564
▁Cat	-11.3566
▁Ever	-11.3574
Bất	-11.3577
▁huỷ	-11.3581
▁1.0	-11.3582
▁Station	-11.3595
âm	-11.3599
▁lặn	-11.3599
▁đòn	-11.3606
▁Part	-11.3606
no	-11.3607
▁Huấn	-11.3609
▁Episode	-11.361
▁Pizza	-11.3612
▁soi	-11.3613
▁Her	-11.3613
bạn	-11.3615
▁Nice	-11.3618
▁Lệnh	-11.3623
▁Edge	-11.3623
ie	-11.3628
đăng	-11.3633
Tổng	-11.3634
▁dàn	-11.3636
In	-11.364
▁HTTP	-11.3641
▁Rừng	-11.3642
nhà	-11.365
Việc	-11.3652
▁chay	-11.3653
▁quỳ	-11.3674
▁run	-11.3677
▁IQ	-11.3679
)"	-11.3679
▁Giày	-11.368
org	-11.369
▁Jêsus	-11.3693
▁toà	-11.3693
▁khơi	-11.3693
Dù	-11.3707
▁tứ	-11.3714
▁Give	-11.3715
”?	-11.3729
▁Gaga	-11.3732
Ga	-11.3732
▁Khóc	-11.3736
▁5.000	-11.3738
▁Future	-11.3738
▁Was	-11.374
▁Alan	-11.374
▁lờ	-11.3748
▁Box	-11.375
▁lội	-11.375
▁there	-11.3753
▁live	-11.3754
▁họng	-11.376
Ma	-11.3771
▁Chống	-11.3773
No	-11.3775
▁điếm	-11.3789
▁Zero	-11.3789
▁Gió	-11.3791
▁Chụp	-11.381
▁Snow	-11.381
▁Brasil	-11.381
▁Keep	-11.3816
▁Nothing	-11.3819
▁đắm	-11.3826
▁Nhiên	-11.3826
»	-11.3828
theo	-11.3832
▁rùa	-11.3844
▁Samuel	-11.3847
▁Research	-11.3848
Thưa	-11.3862
▁Marketing	-11.3868
▁Captain	-11.3869
▁tông	-11.3888
▁BTS	-11.3892
▁chằm	-11.3901
▁97	-11.3901
▁bực	-11.3903
▁nhát	-11.3904
▁XP	-11.3904
▁Tunisia	-11.3904
17	-11.3909
Love	-11.391
▁76	-11.3921
▁Khuôn	-11.3923
▁Gói	-11.3924
▁Kill	-11.3924
▁Stephen	-11.3932
▁Thuyết	-11.3932
▁stress	-11.3939
▁chày	-11.394
▁Bỗng	-11.3941
▁hiếu	-11.3942
▁Phép	-11.3947
▁Lai	-11.3949
▁WhatsApp	-11.396
▁page	-11.3961
▁Emily	-11.3961
▁Lạ	-11.3962
▁rỉ	-11.3977
▁900	-11.3978
▁giếng	-11.3978
▁Side	-11.398
▁trùm	-11.398
▁CO	-11.3992
▁thẹn	-11.3997
▁Classic	-11.3998
▁please	-11.4
▁quyên	-11.4
▁Core	-11.4001
▁Jennifer	-11.4002
▁7,	-11.4014
▁1998	-11.4016
▁giơ	-11.4018
▁Triết	-11.4022
▁Hàm	-11.4029
▁Watson	-11.403
▁MySQL	-11.4037
▁Square	-11.4038
▁Trailer	-11.4039
▁Tấn	-11.4042
▁Giang	-11.405
vi	-11.4061
▁Band	-11.4064
▁Tree	-11.4065
▁Final	-11.407
▁Sỹ	-11.4075
▁Ngục	-11.4075
▁rể	-11.4075
▁Hạt	-11.4083
▁VIP	-11.4085
▁Brothers	-11.4098
▁Quality	-11.4098
▁Premier	-11.41
▁ngụ	-11.4113
▁Miami	-11.4117
▁Panama	-11.4119
▁(4	-11.4123
Cha	-11.4127
▁ngạo	-11.4133
▁Melbourne	-11.4136
▁CNN	-11.4136
▁card	-11.4138
▁Fall	-11.4149
▁yoga	-11.4154
▁lũy	-11.4156
▁Daily	-11.4156
▁MP	-11.4156
▁125	-11.416
ne	-11.4174
▁Category	-11.4175
▁CSS	-11.4181
▁Iron	-11.4185
▁Professional	-11.4186
▁09	-11.4189
All	-11.4191
▁2009,	-11.4191
▁bọc	-11.4193
Hình	-11.4193
▁Bulgaria	-11.4211
▁RAM	-11.4212
chưa	-11.4213
▁Taliban	-11.4214
▁Khối	-11.4215
▁khuya	-11.4215
j	-11.4218
▁4)	-11.422
▁Loan	-11.4226
đ	-11.4227
▁flash	-11.4231
▁Pinterest	-11.4234
▁Tiếc	-11.4235
▁SSD	-11.4238
▁PS	-11.424
▁93	-11.4244
▁1999	-11.4248
▁thoáng	-11.4252
▁Peru	-11.4261
▁ngự	-11.4268
▁Shop	-11.4272
▁Living	-11.4274
15	-11.4278
▁củ	-11.4286
▁OF	-11.4291
▁Chim	-11.4292
▁Sài	-11.4293
▁Antonio	-11.4294
▁Mĩ	-11.4294
▁Bắn	-11.4298
▁3.000	-11.4305
▁thấm	-11.4311
▁rễ	-11.4311
▁hân	-11.4312
▁Academy	-11.4313
▁Vẻ	-11.4318
▁Khai	-11.4319
▁click	-11.4328
▁Dây	-11.4334
▁Tuyển	-11.4335
▁mỏng	-11.4336
co	-11.4342
▁->	-11.4348
Phải	-11.4353
▁Education	-11.4354
▁Cook	-11.4367
Chẳng	-11.4373
ước	-11.4374
▁1980	-11.4375
▁Child	-11.4376
▁5)	-11.4376
▁Crazy	-11.4378
▁But	-11.4381
tô	-11.4385
Bây	-11.4394
▁Kevin	-11.4395
▁Hộp	-11.4397
▁home	-11.4403
est	-11.4403
▁nến	-11.4411
▁Đèn	-11.4414
▁78	-11.4415
▁Fox	-11.4415
▁hot	-11.4417
▁Phóng	-11.4417
▁Email	-11.4417
▁Amy	-11.4418
▁2.3	-11.4419
▁IT	-11.442
▁Sleep	-11.442
▁Toronto	-11.4432
▁Khắc	-11.4432
▁Mar	-11.4433
▁Tonight	-11.4434
▁Giu	-11.4436
▁20.000	-11.4441
▁Morgan	-11.4444
▁Test	-11.4446
▁VR	-11.4447
▁thiền	-11.4448
▁Dog	-11.445
▁1997	-11.4458
▁Sắc	-11.4459
▁Ronaldo	-11.4461
▁nôn	-11.4472
▁Marina	-11.4474
▁Columbia	-11.4474
▁Health	-11.4477
▁Đấu	-11.4477
▁Records	-11.448
▁91	-11.4482
▁(5	-11.4483
▁lọt	-11.4493
▁Phú	-11.4495
▁Deluxe	-11.4497
ông	-11.4498
▁iTunes	-11.4514
▁Tesla	-11.4514
▁Special	-11.4514
▁Khẩu	-11.4514
▁Sex	-11.4515
▁tụng	-11.4523
▁Ha	-11.4525
▁Cross	-11.4528
▁Chả	-11.4534
▁thê	-11.4534
▁2009.	-11.4535
2.	-11.4536
để	-11.4536
▁[2]	-11.4537
Bản	-11.4544
▁Guest	-11.4546
▁khép	-11.4553
Liên	-11.4557
▁hàn	-11.456
▁Hồn	-11.457
▁Marx	-11.4573
▁thắt	-11.4574
▁úy	-11.4575
▁Diego	-11.4575
▁us	-11.4577
▁Nghề	-11.4578
▁cúng	-11.4578
▁qui	-11.4579
▁MC	-11.4582
▁Wikimedia	-11.4588
ai	-11.459
▁Thoại	-11.4594
▁chén	-11.4595
▁key	-11.4596
▁AMD	-11.4597
Chị	-11.4597
▁Netflix	-11.4597
vì	-11.4598
Số	-11.4599
net	-11.4599
▁nhàm	-11.4601
We	-11.4604
▁Car	-11.4605
▁Bấy	-11.4609
▁2008.	-11.4609
▁Work	-11.4613
▁Casa	-11.4613
▁Marie	-11.4615
▁nhốt	-11.4616
▁Trách	-11.462
▁Mind	-11.4622
▁Advanced	-11.4627
▁Palace	-11.4628
▁Sang	-11.4632
▁Thing	-11.4632
▁bồ	-11.4633
▁vươn	-11.4635
▁Trai	-11.4638
▁Seoul	-11.4638
▁sexy	-11.4639
tự	-11.4645
▁Thơ	-11.465
▁sờ	-11.4653
▁nghiêng	-11.4655
▁IELTS	-11.4657
Bởi	-11.466
▁Tặng	-11.4663
▁baby	-11.4665
mail	-11.4666
▁Nhau	-11.4668
▁Wars	-11.4672
New	-11.4673
▁ch	-11.4676
▁bướm	-11.4676
▁lắc	-11.4677
▁Far	-11.4677
▁GI	-11.468
▁Cover	-11.4684
▁huyện	-11.4688
▁dở	-11.4696
▁dặn	-11.4697
▁lúa	-11.4698
▁Vịnh	-11.47
TM	-11.4704
▁2006,	-11.4705
▁Read	-11.4705
▁87	-11.4706
▁Taxi	-11.4709
▁Tờ	-11.4717
▁Framework	-11.4718
▁1.4	-11.4719
▁rèn	-11.4719
▁Evil	-11.4722
▁Napoleon	-11.4722
▁Serbia	-11.4725
▁đạc	-11.4738
▁right	-11.474
▁hưng	-11.4746
▁et	-11.4747
▁TI	-11.4754
▁râu	-11.476
▁vạch	-11.476
▁07	-11.476
▁Hơi	-11.4765
Muhammad	-11.4765
Lúc	-11.4765
▁blogger	-11.4772
mg	-11.4783
▁Private	-11.4784
▁Tri	-11.4788
▁Note	-11.4795
▁Hell	-11.4796
Hoa	-11.4803
thế	-11.4807
▁kh	-11.4809
▁rock	-11.4813
Ngài	-11.4828
▁>>>	-11.4829
▁2%	-11.4835
tan	-11.4836
▁Ngọn	-11.4836
▁Talk	-11.4836
▁was	-11.4837
▁data	-11.4837
ân	-11.4838
▁Ice	-11.4843
▁Messenger	-11.4844
ảnh	-11.4849
▁Lion	-11.4856
▁lít	-11.4857
▁đẽ	-11.4863
▁chiêm	-11.4864
▁Tấm	-11.4869
▁MA	-11.487
▁cấy	-11.4886
▁Halloween	-11.4887
lô	-11.4889
Album	-11.4892
Nhật	-11.4892
▁06	-11.4894
▁chiết	-11.4907
▁Mệnh	-11.4909
My	-11.4914
Theo	-11.4921
▁Ung	-11.4924
▁sương	-11.493
ẫu	-11.4937
▁Tell	-11.4938
▁Walk	-11.4942
▁đậm	-11.495
▁Perry	-11.4952
▁little	-11.4952
▁Eva	-11.4953
▁Trao	-11.4953
▁SP	-11.4953
▁2005,	-11.4956
▁Restaurant	-11.497
▁Phỏng	-11.4974
▁Beyond	-11.4975
▁Ain	-11.498
▁Battle	-11.4984
▁việt	-11.4993
Bà	-11.4996
Lần	-11.4999
▁Vai	-11.501
▁chùa	-11.5013
▁laser	-11.5014
▁350	-11.5017
Về	-11.502
Chuyện	-11.5021
▁Tam	-11.5021
▁Hamilton	-11.5027
▁ốc	-11.5032
“.	-11.5035
▁HLV	-11.5035
▁Marvel	-11.5037
▁Mount	-11.5039
▁lăng	-11.5039
Tớ	-11.504
▁Body	-11.5042
▁Law	-11.5043
▁Khải	-11.5044
▁rổ	-11.5053
▁Development	-11.5071
▁Ex	-11.5075
▁Theme	-11.5076
▁(2013)	-11.5078
▁Single	-11.5079
▁Đằng	-11.5084
▁FDA	-11.5095
▁Diện	-11.51
24	-11.51
▁token	-11.5105
▁Cry	-11.5106
▁Five	-11.511
▁đệm	-11.511
▁xé	-11.5114
▁people	-11.5117
▁chuộng	-11.512
▁chuyền	-11.512
▁đới	-11.512
▁Yemen	-11.5121
▁Source	-11.5122
▁ho	-11.5125
▁Dẫn	-11.5128
▁Mars	-11.513
▁2020.	-11.5131
▁Sport	-11.5133
by	-11.5144
▁Hút	-11.5146
▁Nature	-11.5147
▁Newton	-11.5147
▁Luận	-11.5148
▁Block	-11.5149
50	-11.5151
▁Les	-11.5152
▁Nhu	-11.5159
▁mổ	-11.5161
▁Dylan	-11.5166
▁Canon	-11.5167
13	-11.5173
▁chê	-11.5175
▁Ferrari	-11.5179
▁concert	-11.518
▁về	-11.5185
▁3.1	-11.5186
▁Jose	-11.5202
▁Morning	-11.5205
ni	-11.5206
▁Kenya	-11.5211
ơ	-11.5212
▁khoe	-11.5212
▁Dạo	-11.5215
▁1994	-11.5216
▁khoai	-11.5225
Thực	-11.5238
▁Jersey	-11.5243
▁Driver	-11.5246
▁xíu	-11.5251
▁Croatia	-11.5272
▁9:	-11.5273
▁phơi	-11.5273
▁Latinh	-11.5276
Chào	-11.5283
▁Mông	-11.5288
▁1996	-11.5293
▁muỗi	-11.5294
▁gục	-11.5295
▁DNS	-11.53
▁trọ	-11.5304
▁Ocean	-11.5306
21	-11.5312
▁Diamond	-11.5313
▁Philadelphia	-11.5319
▁Istanbul	-11.5319
▁Set	-11.532
▁GPS	-11.5322
▁lau	-11.5323
▁hái	-11.5324
▁Friends	-11.5327
▁McDonald	-11.5332
▁Roger	-11.5334
▁ti	-11.5336
▁Human	-11.5337
▁thầu	-11.5339
▁Pack	-11.534
▁Vienna	-11.5341
bản	-11.5345
Kẻ	-11.535
▁Wonder	-11.5354
▁08	-11.5355
▁xông	-11.5363
./.	-11.5366
▁Thank	-11.5366
International	-11.537
ru	-11.538
▁thét	-11.5383
▁vùi	-11.5383
▁túng	-11.5385
▁Sound	-11.5396
▁Phil	-11.5398
To	-11.54
It	-11.5409
▁Ghế	-11.5409
▁Under	-11.5413
▁lam	-11.5414
▁ago	-11.5416
▁Before	-11.5417
▁Science	-11.5425
▁Market	-11.5426
▁xỉ	-11.5428
▁JavaScript	-11.5429
▁Dụng	-11.543
▁Sudan	-11.543
▁Nhẫn	-11.5432
▁Phá	-11.5446
▁niêm	-11.545
▁nhậu	-11.545
▁Li	-11.5452
▁Hillary	-11.5454
▁Gòn	-11.5461
▁nhì	-11.5468
▁thể	-11.5472
▁sưởi	-11.5472
▁85%	-11.5476
▁Thoát	-11.5476
▁Pháo	-11.5478
▁Leo	-11.5479
▁Quyển	-11.5482
▁Thịt	-11.5489
▁(2014)	-11.5496
▁tạng	-11.5497
▁Dược	-11.5497
▁92	-11.5501
▁Ed	-11.5506
cm	-11.551
▁Philip	-11.5512
▁<3	-11.5514
▁khuất	-11.5518
▁phẳng	-11.5518
▁how	-11.5518
▁need	-11.5521
▁Hills	-11.5521
25	-11.5521
▁Ron	-11.5523
▁NBA	-11.5526
▁chat	-11.5527
▁Sri	-11.5529
▁Image	-11.5533
▁got	-11.5535
▁Spring	-11.5537
▁Jamaica	-11.5538
▁nâu	-11.554
▁6,	-11.5541
14	-11.5546
▁khe	-11.5558
▁bách	-11.5559
Cách	-11.5561
▁Nguyệt	-11.5564
▁75%	-11.5565
▁NGƯ	-11.5565
▁Thách	-11.5568
▁Or	-11.5568
▁Seven	-11.5571
▁single	-11.558
▁Lu	-11.5581
▁khốc	-11.5585
▁lười	-11.5586
phần	-11.5597
▁Everything	-11.5598
ô	-11.5609
▁(2015)	-11.561
▁điếu	-11.561
▁Born	-11.561
▁marketing	-11.5611
▁Giêng	-11.5617
▁Tủ	-11.562
▁Comment	-11.5628
▁ngủi	-11.5628
▁lót	-11.5631
▁Jeff	-11.5636
▁Shadow	-11.564
▁Type	-11.5648
▁nhộn	-11.5652
▁khéo	-11.5654
▁chọc	-11.5655
▁England	-11.5656
▁Rằng	-11.5656
▁82	-11.5658
▁Billy	-11.5662
▁Stars	-11.5666
▁Tú	-11.5669
▁1989	-11.567
▁Ultimate	-11.5677
▁work	-11.5677
▁nản	-11.5678
▁Xung	-11.5681
▁Active	-11.5682
▁73	-11.5683
▁take	-11.5686
Đối	-11.5689
Rất	-11.5689
▁nhược	-11.5698
▁kề	-11.5703
▁(2011)	-11.5704
▁Ðấ	-11.5705
▁UK	-11.5707
▁driver	-11.5715
▁Apollo	-11.5723
▁1992	-11.5725
▁Creative	-11.5725
▁Mail	-11.5726
▁Thám	-11.5728
▁Nhảy	-11.5732
Bộ	-11.5734
▁Smile	-11.5735
Vâng	-11.5735
▁Falls	-11.5736
▁big	-11.5736
MB	-11.5742
▁Kid	-11.5746
▁Hoài	-11.5749
▁Lãng	-11.5752
▁France	-11.5756
▁Adventure	-11.5761
▁mụ	-11.5761
▁đực	-11.5768
▁Corporation	-11.5768
▁Hat	-11.5768
.(	-11.577
▁(2012)	-11.577
▁Parker	-11.5771
Do	-11.5773
▁Children	-11.5778
▁SSL	-11.578
▁Were	-11.578
▁105	-11.578
vẫn	-11.5782
▁AC	-11.5783
▁Hộ	-11.579
▁Gun	-11.579
▁Food	-11.5794
▁thảy	-11.5795
▁Nô	-11.5803
Tháng	-11.5805
▁sẹo	-11.5813
▁when	-11.5818
▁Im	-11.5818
▁nhịn	-11.5819
▁Voice	-11.5828
Chương	-11.5828
▁Silver	-11.5839
▁our	-11.5842
▁Lối	-11.5842
▁des	-11.5842
▁84	-11.5845
▁Andy	-11.5851
về	-11.5853
▁thẳm	-11.586
▁Franklin	-11.5861
▁suối	-11.5862
▁Sexy	-11.5864
▁Surface	-11.5864
▁BI	-11.5867
▁83	-11.5868
▁Universal	-11.5869
tất	-11.5876
▁Tha	-11.5877
▁Save	-11.5878
▁nốt	-11.5884
▁Yếu	-11.5886
▁Th	-11.5888
▁Awards	-11.5889
▁cúm	-11.589
▁chè	-11.5893
▁86	-11.5894
▁WTO	-11.5895
▁1993	-11.5896
▁le	-11.5901
▁Viễn	-11.5908
▁AIDS	-11.5915
▁too	-11.5922
▁bệ	-11.5924
▁trội	-11.593
▁phô	-11.5931
▁Brussels	-11.5932
▁89	-11.5937
▁Gã	-11.5938
▁Today	-11.594
▁Điệp	-11.594
▁Maya	-11.5948
!)	-11.5949
▁nhủ	-11.5951
▁Laura	-11.5952
▁Sara	-11.5953
▁ngớ	-11.5953
▁2.4	-11.5961
▁XRP	-11.5964
]]	-11.5968
▁container	-11.597
▁Apartment	-11.5971
▁Converter	-11.5975
▁NO	-11.5977
▁Aurora	-11.5978
▁win	-11.5979
▁Kho	-11.5979
▁Lisa	-11.5981
▁hao	-11.5981
▁1972	-11.5986
▁w	-11.5993
▁74	-11.5993
điều	-11.5993
phải	-11.5993
▁Social	-11.5996
▁Mau	-11.5998
▁loa	-11.6
▁rớt	-11.6
ton	-11.6001
▁Alexis	-11.6002
▁nhúng	-11.6003
▁Patrick	-11.6003
sê	-11.6009
▁05	-11.6009
▁10:	-11.6014
▁Eye	-11.6016
▁plugin	-11.6017
▁Tái	-11.6019
▁nhã	-11.6022
▁Tỉ	-11.6024
▁truồng	-11.6024
▁VÀ	-11.6031
▁Carl	-11.604
trước	-11.6041
▁Action	-11.6045
▁book	-11.6049
▁luồng	-11.6049
ko	-11.6055
▁Arts	-11.6058
▁Ty	-11.606
▁2-	-11.6062
Trên	-11.6065
▁Grande	-11.6069
▁come	-11.6071
▁hở	-11.6071
▁vọt	-11.6072
▁dập	-11.6072
▁sập	-11.6072
▁Gà	-11.6073
▁massage	-11.6074
hợ	-11.6078
▁2016.	-11.6081
▁Beat	-11.6081
▁tab	-11.6083
''	-11.6091
▁Monster	-11.6094
▁dải	-11.6096
▁team	-11.6096
up	-11.6098
▁Xbox	-11.6099
▁Hey	-11.61
▁Bá	-11.61
▁Without	-11.6102
▁Nabi	-11.6103
▁Mộc	-11.6105
▁Kingdom	-11.6115
▁Ghost	-11.6115
▁Women	-11.6118
▁nấy	-11.612
▁cay	-11.6122
▁Cảng	-11.6122
▁Cắt	-11.6124
▁bổn	-11.6136
▁Án	-11.6137
La	-11.6139
▁Simple	-11.6143
▁Matthew	-11.6144
▁ibis	-11.6145
▁Paradise	-11.6147
còn	-11.6147
▁Capital	-11.6147
▁94	-11.6148
▁set	-11.6148
▁bìa	-11.615
Ý	-11.6159
▁má	-11.6162
▁TM	-11.6163
▁Junior	-11.6163
▁1970	-11.6167
▁Porsche	-11.6169
▁115	-11.6174
▁Fly	-11.6177
▁Săn	-11.6177
▁chước	-11.6193
▁Act	-11.6195
▁CBD	-11.6195
▁Most	-11.6197
▁Thang	-11.6198
▁phụng	-11.6201
▁Beauty	-11.6202
▁tà	-11.6203
trên	-11.621
▁Bird	-11.621
Bài	-11.6212
▁Style	-11.6214
▁Nike	-11.6214
▁vầy	-11.6215
▁Motor	-11.6217
▁Low	-11.6225
▁mãnh	-11.6226
chính	-11.623
▁Cash	-11.6234
▁2/3	-11.6238
▁Hero	-11.624
▁Cameron	-11.6241
▁HTC	-11.6242
▁Hòn	-11.6242
▁Benjamin	-11.6243
▁#1	-11.6244
▁Small	-11.6245
▁11.	-11.6252
▁LG	-11.6254
▁79	-11.6259
▁Pacific	-11.6265
▁Bi	-11.6268
▁Virtual	-11.6269
▁gào	-11.6271
▁Cấm	-11.6274
thành	-11.6278
▁Start	-11.6279
▁ATM	-11.6281
▁ngẫm	-11.6288
▁BlackBerry	-11.6288
▁Arab	-11.6289
▁na	-11.6289
▁lánh	-11.6292
▁Anthony	-11.6292
▁123	-11.6294
▁Julia	-11.6295
▁Cân	-11.6295
▁11,	-11.6295
▁India	-11.63
▁nhậm	-11.6312
▁huệ	-11.6313
▁Bluetooth	-11.6313
▁Seattle	-11.6314
▁Claire	-11.6316
▁Basic	-11.6321
or	-11.6326
▁Force	-11.6328
World	-11.633
▁IMF	-11.633
▁studio	-11.6331
▁model	-11.6333
32	-11.6335
▁Puerto	-11.6338
▁Han	-11.6339
▁1-	-11.6343
▁shop	-11.6343
▁heart	-11.6345
ha	-11.6355
▁miện	-11.636
▁xướng	-11.6361
▁Solomon	-11.6362
▁gai	-11.6362
▁Vọng	-11.6363
▁Ann	-11.6369
▁Vinh	-11.6371
▁Un	-11.6371
▁Hạn	-11.6374
▁xoá	-11.6383
▁ruồi	-11.6386
▁Lanka	-11.639
▁Khánh	-11.639
▁Class	-11.6398
câu	-11.6406
▁Susan	-11.6409
▁năn	-11.6411
▁Somalia	-11.6412
▁Phiêu	-11.6414
▁Other	-11.6415
▁Micro	-11.6421
▁Click	-11.6421
▁3.0	-11.6422
it	-11.6423
▁Press	-11.6425
▁1-2	-11.6425
▁Hài	-11.6427
ham	-11.6433
▁kiềm	-11.6436
▁1968	-11.6443
▁Vietnam	-11.6444
▁Đủ	-11.6446
100	-11.6447
▁(0)	-11.6455
bài	-11.6457
▁Dan	-11.6459
▁Sạn	-11.646
▁mồi	-11.6469
▁Lái	-11.647
▁Planet	-11.6472
Giờ	-11.6478
Thông	-11.6481
thời	-11.6481
▁Charlotte	-11.6486
▁They	-11.6497
▁Ball	-11.6497
▁Always	-11.6498
sau	-11.6498
▁Return	-11.6508
▁Lonely	-11.6508
▁User	-11.6508
▁Dục	-11.6513
▁lề	-11.652
▁dơ	-11.6531
▁Luke	-11.6533
▁bẩm	-11.6534
40	-11.6534
▁Alzheimer	-11.6534
▁Society	-11.6534
▁Coffee	-11.6534
▁Atlanta	-11.6536
▁Alibaba	-11.6537
▁thà	-11.6541
▁dỡ	-11.6555
▁Qatar	-11.6556
▁chóc	-11.6558
▁đắp	-11.656
▁Peace	-11.6562
▁nga	-11.6564
di	-11.6564
▁girl	-11.6568
▁xà	-11.6569
▁11:	-11.6569
▁2017.	-11.657
1)	-11.6571
00	-11.6576
▁104	-11.6582
Nước	-11.6582
▁đến	-11.6584
▁Zuckerberg	-11.6584
▁tể	-11.6584
▁gi	-11.6585
▁2018.	-11.6585
▁Nhắc	-11.6585
▁Ubuntu	-11.6586
▁Manhattan	-11.6586
▁nhạo	-11.6586
▁TPP	-11.6592
▁class	-11.6593
▁ả	-11.6597
▁Coi	-11.6598
▁calo	-11.6605
trái	-11.6606
▁z	-11.6607
▁thung	-11.6609
▁Jake	-11.6612
▁TT	-11.6612
▁Thiện	-11.6614
▁Rick	-11.6621
▁first	-11.6623
▁view	-11.6623
▁night	-11.6634
▁Avenue	-11.6635
▁Tượng	-11.6638
▁wiki	-11.6644
▁Gone	-11.6647
▁toa	-11.6653
▁lướt	-11.6659
▁450	-11.6666
▁128	-11.6675
▁Systems	-11.6683
▁Around	-11.6685
▁His	-11.6685
▁Lệ	-11.6692
▁Đền	-11.67
me	-11.6705
vn	-11.6709
▁Ad	-11.671
▁Friend	-11.6711
▁??	-11.6713
▁TO	-11.6713
▁Pass	-11.6717
▁Tra	-11.6722
▁Ya	-11.6725
▁tú	-11.6726
▁Fan	-11.6726
▁Hand	-11.6726
▁2.5	-11.6733
cũng	-11.6735
▁size	-11.6744
▁Virus	-11.6745
▁Still	-11.6746
▁Cam	-11.676
▁Oliver	-11.6766
khi	-11.6767
▁Has	-11.6769
▁(10	-11.677
▁Mad	-11.6772
▁Russell	-11.6788
▁Ultra	-11.6793
▁êm	-11.6794
▁Sữa	-11.6794
▁Guitar	-11.6808
▁triệt	-11.6812
▁IN	-11.6812
▁Mercure	-11.6814
▁Total	-11.6821
▁block	-11.6825
▁TED	-11.6832
▁Think	-11.6838
▁ADHD	-11.6838
▁Liverpool	-11.6839
▁Giô	-11.6849
▁EC	-11.6856
▁MT	-11.6857
▁Lào	-11.6863
▁Anderson	-11.6864
▁Wolf	-11.6868
▁OEM	-11.6868
chi	-11.6869
▁Hán	-11.6882
▁Association	-11.6882
▁Ali	-11.6885
giờ	-11.6885
▁vớ	-11.6886
What	-11.6888
▁đậy	-11.6888
▁nhũng	-11.6889
▁UNESCO	-11.6892
un	-11.6894
▁Bo	-11.6896
▁Journal	-11.6897
▁Hạm	-11.6902
▁Trích	-11.691
hùc	-11.6912
đặc	-11.6914
Bảo	-11.6914
▁Okinawa	-11.6916
rơ	-11.6916
▁bồn	-11.6918
▁Michelle	-11.6919
▁Fair	-11.6934
▁Steam	-11.6935
▁khử	-11.6938
▁Jon	-11.6938
▁Phoenix	-11.6943
▁Mộng	-11.6944
▁Every	-11.6949
▁beta	-11.695
▁4.0	-11.695
▁Pay	-11.6957
Tập	-11.6966
++	-11.6967
▁Jacob	-11.6976
▁Jay	-11.6977
▁quầy	-11.6993
▁Khiêu	-11.6997
▁Wish	-11.6998
ic	-11.7001
▁ấu	-11.7003
▁đinh	-11.7006
▁Reuters	-11.7021
▁hard	-11.7032
▁Mother	-11.7038
▁article	-11.7042
▁PV	-11.7044
▁clip	-11.7044
▁giùm	-11.7044
▁Thù	-11.7044
▁Vĩ	-11.7046
▁cholesterol	-11.7047
▁Bạc	-11.7047
▁Boeing	-11.7049
▁Truth	-11.7049
▁Lũ	-11.7051
If	-11.7052
▁5000	-11.7061
▁vịt	-11.7071
▁thâu	-11.7071
▁Cưới	-11.7073
▁Sói	-11.7074
▁Đạt	-11.7074
▁sầu	-11.7076
18	-11.7078
▁Yuri	-11.7083
▁Escape	-11.7092
▁Ibis	-11.7098
▁Jazz	-11.7103
▁Cole	-11.7113
▁Train	-11.7116
▁Knight	-11.7118
▁Alexa	-11.7121
▁Wales	-11.7121
▁Wind	-11.7128
▁Ni	-11.7134
▁solo	-11.7135
]:	-11.7141
▁Fast	-11.7145
▁max	-11.7146
▁version	-11.7151
▁Rachel	-11.7152
▁108	-11.7154
▁pop	-11.7161
hiện	-11.7161
son	-11.7162
▁Devil	-11.7162
▁Lane	-11.7168
▁1990,	-11.717
▁thắn	-11.7175
▁AT	-11.7176
▁lìa	-11.7177
▁Barbie	-11.7177
▁Break	-11.7181
▁Tầng	-11.7184
thi	-11.7193
ã	-11.7204
▁Turn	-11.7204
▁thính	-11.7207
▁Speed	-11.7215
▁4.000	-11.7218
lần	-11.7232
▁Gương	-11.7234
▁Color	-11.7236
ya	-11.7241
▁club	-11.7254
Tự	-11.7258
▁Tạng	-11.7259
▁đắng	-11.726
▁Lăng	-11.726
▁Information	-11.7263
▁Pierre	-11.7267
▁Allen	-11.7268
▁ếch	-11.7271
▁Armenia	-11.7282
▁better	-11.7286
▁Pha	-11.7287
▁Net	-11.7302
▁khiên	-11.7302
▁Bia	-11.7303
▁Guy	-11.7311
▁trơn	-11.7311
sai	-11.7316
▁Chấp	-11.7316
▁cúi	-11.7317
▁Pink	-11.7322
si	-11.7323
▁2004,	-11.7325
xu	-11.7331
TI	-11.7331
▁lén	-11.7337
▁bát	-11.7337
[1]	-11.7345
▁Nữa	-11.7346
▁ni	-11.735
▁Bond	-11.7357
▁Tomorrow	-11.7361
able	-11.7362
▁ráp	-11.7364
▁chửi	-11.7364
▁texas	-11.7365
▁Kindle	-11.7365
Cháu	-11.7367
▁Ch	-11.7367
▁tuỳ	-11.7368
▁gram	-11.7372
▁240	-11.7372
▁her	-11.7373
▁Thảm	-11.7374
▁9,	-11.7376
chủ	-11.7379
▁hoạ	-11.738
▁Review	-11.7389
▁quạ	-11.739
▁sụt	-11.7391
▁Travel	-11.7392
▁Stalin	-11.7392
▁ruộng	-11.7392
Chủ	-11.7393
▁vỗ	-11.7393
▁Congo	-11.7396
▁1984	-11.7397
▁Dạy	-11.7397
▁cún	-11.7399
▁Tech	-11.7399
▁Làng	-11.74
5-02	-11.7402
▁Case	-11.7404
▁Helen	-11.7408
▁Guide	-11.7417
▁thạo	-11.7418
▁xuôi	-11.7418
▁Photoshop	-11.742
▁Posted	-11.7421
▁Mozilla	-11.7422
▁Won	-11.7427
▁Lewis	-11.7427
▁Boss	-11.7429
▁Dear	-11.743
▁Tan	-11.7436
▁bú	-11.7439
John	-11.744
▁đấm	-11.7446
▁Bổ	-11.7449
▁Sớm	-11.7451
▁19,	-11.7454
▁Springs	-11.7455
▁chải	-11.7455
▁Giăng	-11.7456
▁CA	-11.7464
▁nón	-11.7466
▁Dean	-11.7468
▁SD	-11.7468
▁County	-11.7473
▁chiêu	-11.7476
Nhân	-11.7477
À	-11.748
▁Khung	-11.7488
▁dệt	-11.75
▁iPod	-11.7501
▁phẫn	-11.7501
▁Dreams	-11.7502
▁bơm	-11.7503
▁Another	-11.7506
▁going	-11.7506
▁Adams	-11.751
▁50.000	-11.7518
▁chocolate	-11.7522
▁help	-11.7525
▁thắp	-11.7529
▁Kiện	-11.7529
▁Moskva	-11.753
▁XML	-11.7535
be	-11.7535
▁170	-11.7536
▁gay	-11.7543
▁2000,	-11.7544
exe	-11.7556
▁Kaspersky	-11.7556
▁lều	-11.7556
▁Elsa	-11.756
thông	-11.7561
▁Giảng	-11.7565
TV	-11.7577
▁pro	-11.7579
▁Chuùa	-11.7582
▁đặng	-11.7583
▁Norton	-11.7583
▁ngửi	-11.7584
▁mụn	-11.7586
Kinh	-11.7588
▁Tiệc	-11.7588
▁History	-11.7589
▁Dư	-11.759
▁Photo	-11.759
▁Non	-11.7596
tr	-11.76
▁Ninja	-11.7607
▁3.2	-11.7609
Cả	-11.7612
▁bàng	-11.7615
▁much	-11.7615
▁112	-11.7616
▁last	-11.7616
▁Lily	-11.7617
▁Dì	-11.7618
▁ad	-11.7629
am	-11.7634
▁chốc	-11.7638
▁CAD	-11.7639
▁Change	-11.764
▁Plan	-11.764
Đọc	-11.7643
tức	-11.7644
▁Thuộc	-11.7648
▁buồng	-11.7653
▁rao	-11.7655
▁Wood	-11.7661
▁suýt	-11.7667
▁Pennsylvania	-11.7668
▁Góc	-11.767
▁Xấu	-11.7671
Sửa	-11.7673
▁TP	-11.7675
▁Inter	-11.7678
▁Bon	-11.7679
mi	-11.7683
▁Legend	-11.7686
▁cong	-11.7687
▁Rủ	-11.7689
▁Cooper	-11.769
▁Film	-11.769
▁thoả	-11.769
▁1988	-11.7693
▁102	-11.7695
▁phanh	-11.7696
▁thệ	-11.7696
▁bôi	-11.7696
▁Hosting	-11.7697
▁Cận	-11.7697
▁Hủy	-11.7699
▁Warren	-11.7699
▁Phu	-11.7699
of	-11.7701
▁1977	-11.7702
▁then	-11.7705
▁Ái	-11.771
▁LLC	-11.7724
▁Alliance	-11.7724
cuộc	-11.7728
▁khoáng	-11.7729
▁khải	-11.773
▁Ted	-11.7733
ậc	-11.7748
▁Graham	-11.775
▁2,5	-11.7751
▁sét	-11.7753
▁Glass	-11.7754
▁Ok	-11.7755
▁MAC	-11.7755
▁li	-11.7762
▁chì	-11.7772
▁Mẹo	-11.7773
▁đè	-11.7775
▁Lenovo	-11.7779
▁Rửa	-11.7783
<	-11.7785
▁3%	-11.7787
land	-11.779
▁Empire	-11.7802
2,	-11.7805
▁Juan	-11.7805
▁Starbucks	-11.7807
▁again	-11.7807
▁gán	-11.7808
▁Help	-11.781
22	-11.7812
▁Họa	-11.7813
đối	-11.7813
▁tết	-11.7822
▁system	-11.7835
time	-11.7836
▁thuỷ	-11.7837
▁Lính	-11.7838
▁(6)	-11.7839
▁things	-11.7843
▁Hampton	-11.7856
▁box	-11.7856
▁Logo	-11.7863
▁cạo	-11.7863
▁Francis	-11.7865
▁Convention	-11.7865
▁luân	-11.7866
▁Austin	-11.7867
▁Sorry	-11.7873
▁1500	-11.7874
br	-11.7875
▁4.1	-11.7882
▁Muhammad	-11.7883
▁dốc	-11.7892
▁ngần	-11.7893
▁Hiroshima	-11.7894
▁TÔI	-11.7895
Man	-11.7895
▁Brad	-11.7896
48	-11.7899
thường	-11.7899
▁Hẳn	-11.7904
▁tỉa	-11.7906
▁106	-11.7907
▁Ramada	-11.7918
▁ôn	-11.7921
▁nguyệt	-11.7924
▁Marshall	-11.7925
▁chua	-11.7927
at	-11.7935
▁vấp	-11.7948
style	-11.7949
▁Lennon	-11.795
▁gieo	-11.795
Chắc	-11.7957
▁2003,	-11.7962
tin	-11.7968
▁Già	-11.7973
▁rệt	-11.7977
▁sofa	-11.7978
▁thối	-11.7978
19	-11.7979
▁Christopher	-11.798
▁Cờ	-11.7983
▁any	-11.7983
▁Hổ	-11.7987
▁30.000	-11.7987
▁BIOS	-11.799
▁oan	-11.7994
▁add	-11.7996
▁zombie	-11.7999
fan	-11.8002
▁độn	-11.8004
▁Barbara	-11.8006
▁nguội	-11.8007
▁gạch	-11.8007
▁them	-11.801
▁Broken	-11.8011
▁Giường	-11.8012
Nhiều	-11.8015
▁::	-11.802
▁Vả	-11.8026
▁Walker	-11.803
▁list	-11.8033
▁sáp	-11.8035
▁vắc	-11.8035
▁rò	-11.8035
▁thoughts	-11.8038
▁Samurai	-11.8038
▁Tiffany	-11.8039
▁Wireless	-11.8041
el	-11.8049
▁Winter	-11.8053
▁project	-11.806
▁Alcatraz	-11.8064
▁Emirates	-11.8064
▁Leave	-11.8064
▁Executive	-11.8067
▁Cool	-11.8068
▁Sports	-11.8069
▁Danny	-11.8071
▁Babylon	-11.8073
▁ABC	-11.8075
▁Kiev	-11.8076
3.	-11.8077
▁Piano	-11.8079
How	-11.8082
▁thanks	-11.8084
▁YOU	-11.8085
▁Program	-11.8086
▁trắc	-11.8094
▁Darwin	-11.8094
▁Museo	-11.8096
▁before	-11.8097
▁GNU	-11.8097
▁Bruce	-11.8102
▁Khảo	-11.8102
▁photo	-11.8121
▁LGBT	-11.8122
▁Number	-11.8122
▁casino	-11.8123
▁tam	-11.8126
▁they	-11.8141
▁Rich	-11.8142
▁Tứ	-11.8142
▁full	-11.8149
▁Into	-11.8153
▁(2008)	-11.8154
▁Chừng	-11.8156
▁Trust	-11.816
▁Sẵn	-11.816
thực	-11.8161
▁Sing	-11.8162
▁Six	-11.8166
▁feel	-11.8173
ê	-11.8174
▁Vampire	-11.8177
▁võ	-11.8181
▁Michigan	-11.8181
▁Alive	-11.8184
▁Diệu	-11.8184
▁room	-11.8185
sơ	-11.8187
▁1.500	-11.8188
▁Tuyến	-11.8188
23	-11.8188
▁old	-11.82
▁Xu	-11.8204
An	-11.8207
▁Pin	-11.8209
Giá	-11.821
nay	-11.821
▁Cortana	-11.8211
Đ	-11.8212
▁Sắt	-11.8213
▁Trương	-11.8215
-5	-11.8218
rất	-11.8221
▁Điên	-11.8232
▁Tools	-11.8235
▁vặt	-11.8239
▁TOEFL	-11.8241
▁Ho	-11.8241
▁Hannah	-11.8245
Đến	-11.8251
▁Pretty	-11.8252
chị	-11.8267
▁Sierra	-11.8269
▁Kazakhstan	-11.8271
▁cước	-11.8271
▁part	-11.8271
▁ĐƯ	-11.8272
▁Kiều	-11.8272
▁Pan	-11.8275
▁British	-11.8278
▁Cold	-11.828
▁Karl	-11.828
▁Walt	-11.8289
▁Chip	-11.8296
▁với	-11.8298
▁Dối	-11.83
▁Lebanon	-11.8301
▁Fantasy	-11.8301
▁911	-11.8308
▁Sol	-11.8314
▁Menu	-11.8314
”).	-11.8314
▁Care	-11.8327
as	-11.8329
▁Bão	-11.8335
▁đôla	-11.8335
▁Vết	-11.8336
bất	-11.834
sẽ	-11.8341
▁Sean	-11.8342
▁Cát	-11.8346
▁Dừng	-11.8348
▁Database	-11.8353
▁Hiểm	-11.8359
▁Dallas	-11.8359
▁ngất	-11.8359
▁PM	-11.836
▁Ethiopia	-11.836
▁3-4	-11.8363
dân	-11.8371
Hành	-11.8371
▁khoang	-11.838
▁Tiger	-11.8384
▁other	-11.8387
▁Apps	-11.8387
▁Ti	-11.8388
▁ngâm	-11.8393
▁Jr	-11.8394
▁Tours	-11.8396
háo	-11.8397
45	-11.8399
▁Zombie	-11.8399
US	-11.84
Mục	-11.84
Tuy	-11.8401
▁Canh	-11.8409
▁xì	-11.8414
▁bế	-11.842
▁Bobby	-11.8421
▁Miles	-11.8425
▁FC	-11.8426
▁Index	-11.8428
nghĩa	-11.8431
Vào	-11.8435
▁Could	-11.8436
▁1987	-11.8441
▁Hunter	-11.8444
▁Ebola	-11.8449
▁Thăm	-11.8449
▁Ngực	-11.8451
and	-11.8458
▁Extended	-11.8466
▁dồn	-11.8468
▁Gi	-11.8472
▁116	-11.8472
▁gầm	-11.8478
▁ngắt	-11.8479
ka	-11.8479
▁Budapest	-11.8479
▁Vladimir	-11.8482
▁lê	-11.8482
▁Cháy	-11.8484
▁2005.	-11.8487
▁Phê	-11.8487
▁Public	-11.8488
▁hoành	-11.8488
▁Alpha	-11.849
phiên	-11.8491
▁Jan	-11.8492
64	-11.8493
▁lơ	-11.8499
▁Experience	-11.8501
ấy	-11.8504
▁ngoạn	-11.8509
▁vựng	-11.8509
▁Analytics	-11.8509
▁(2009)	-11.8511
▁Yến	-11.8511
▁cụt	-11.8513
▁Alone	-11.8515
▁ONE	-11.8516
▁made	-11.8518
▁Size	-11.8519
Phụ	-11.8519
▁1945	-11.852
▁mồm	-11.8522
Sẽ	-11.8522
▁=))	-11.8528
▁chèn	-11.8535
▁Festival	-11.854
▁Protection	-11.8542
▁Midnight	-11.8545
▁Client	-11.8546
▁Bạo	-11.8546
▁bong	-11.8546
▁Lắng	-11.8548
▁thản	-11.8552
▁Lucy	-11.8553
▁3-	-11.8553
▁Grant	-11.8561
▁(8)	-11.8561
▁always	-11.8571
▁MacBook	-11.8572
▁hức	-11.8572
▁spam	-11.8575
▁tím	-11.858
trừ	-11.8581
tại	-11.8584
▁(*)	-11.8585
▁Edit	-11.8586
▁Palm	-11.8586
▁Mall	-11.8588
▁Rica	-11.859
ml	-11.859
▁Douglas	-11.8593
Mặc	-11.8594
▁1985	-11.8594
▁Bella	-11.8595
▁Comes	-11.8598
▁hé	-11.8599
▁Reader	-11.8599
▁Buffett	-11.8601
▁rã	-11.8601
▁Venice	-11.8604
▁8.1	-11.8605
▁happy	-11.8605
▁Haiti	-11.8605
Isa	-11.8606
▁750	-11.8606
▁Avengers	-11.8609
▁en	-11.8609
▁Dave	-11.861
▁Roy	-11.8612
▁Connect	-11.8613
▁cối	-11.8616
▁118	-11.862
▁Bus	-11.8625
▁dùm	-11.8628
1,	-11.8629
▁tởm	-11.8631
▁Luyện	-11.8635
▁Prime	-11.864
▁nạt	-11.864
os	-11.866
▁giêng	-11.8661
▁lậu	-11.8661
▁đẫm	-11.8662
▁gớm	-11.8662
▁WiFi	-11.8665
▁Kiên	-11.8668
Chú	-11.8668
▁Lucky	-11.867
▁Assad	-11.8673
▁comment	-11.8673
viết	-11.8676
▁mail	-11.8689
▁Rooms	-11.869
ờ	-11.8693
▁chém	-11.8694
▁wifi	-11.8694
▁đê	-11.8699
Giải	-11.8708
Kết	-11.8708
▁vịnh	-11.8714
▁Mao	-11.8715
▁rồi	-11.8723
▁Bear	-11.8725
▁Kingston	-11.8726
▁Energy	-11.8732
▁Hearts	-11.8734
▁Đều	-11.8735
▁IoT	-11.8738
Nhìn	-11.8738
-4	-11.8749
▁rành	-11.8754
▁sừng	-11.8755
▁Tần	-11.8755
▁Thiệu	-11.8756
▁Niệm	-11.8756
▁ôtô	-11.8756
▁lột	-11.876
▁Court	-11.8761
▁Đàng	-11.8763
▁years	-11.8764
?”“	-11.8766
▁Comments	-11.8767
đồng	-11.877
▁xui	-11.8778
▁MI	-11.8778
▁think	-11.878
▁movie	-11.8781
▁bad	-11.8782
▁Engine	-11.8782
▁câm	-11.8788
▁Nghiêm	-11.8789
▁Via	-11.879
▁Orange	-11.8791
▁Mine	-11.8798
▁:))	-11.8802
▁1/4	-11.8812
▁CS	-11.8812
▁san	-11.8817
▁gậy	-11.8818
▁Vision	-11.8819
▁Fukushima	-11.8819
▁Chịu	-11.8828
Gia	-11.8829
▁Fight	-11.8841
▁Level	-11.8846
▁Tụ	-11.8848
▁mầm	-11.885
▁Jakarta	-11.8852
▁into	-11.8862
▁103	-11.8879
▁trèo	-11.888
▁găng	-11.888
▁Geneva	-11.8881
▁Picasso	-11.8881
▁ròng	-11.8881
▁Recovery	-11.8882
▁Prague	-11.8883
▁Thuận	-11.8884
▁35%	-11.8886
▁12:	-11.8887
86	-11.8889
▁Cụm	-11.8893
▁Meet	-11.8894
Thứ	-11.8895
Single	-11.8896
Tiểu	-11.8896
28	-11.8905
01	-11.8908
▁Lync	-11.8908
▁1978	-11.891
▁8)	-11.8912
▁Manila	-11.8912
▁gas	-11.8916
▁Linda	-11.892
▁oh	-11.892
▁4-	-11.8924
▁2006.	-11.8929
▁blue	-11.893
▁Dị	-11.8936
nói	-11.8938
Bố	-11.894
▁nhuộm	-11.8942
▁rập	-11.8942
▁Cruz	-11.8943
▁Creek	-11.8943
▁súp	-11.8944
▁eBay	-11.8944
io	-11.8946
one	-11.8947
▁(6	-11.8948
▁5.1	-11.895
▁Mây	-11.8954
▁play	-11.8956
te	-11.8962
▁2003.	-11.8963
▁Bing	-11.8964
▁biếng	-11.8966
▁5-	-11.8969
▁răn	-11.8975
▁Lĩnh	-11.8978
▁Vạn	-11.8979
▁DN	-11.898
so	-11.8986
▁»»	-11.8997
▁Order	-11.9004
▁Nixon	-11.9007
▁nhức	-11.9007
▁12,	-11.9008
▁cúp	-11.9008
▁Rối	-11.9008
▁level	-11.9011
▁Thúc	-11.9011
▁ùn	-11.9014
▁Maps	-11.9014
▁Ross	-11.9016
▁Hắc	-11.9018
▁Joy	-11.9022
yêu	-11.9024
▁AM	-11.9025
▁Ng	-11.9026
▁Kìa	-11.9027
▁lạy	-11.9028
This	-11.9031
▁si	-11.9035
▁trêu	-11.9038
▁Nexus	-11.9039
▁chênh	-11.904
▁bẻ	-11.904
▁ngai	-11.9043
▁Arms	-11.9046
▁Gate	-11.9046
Video	-11.9047
▁3.5	-11.9049
▁Hê	-11.905
vô	-11.9057
▁Doctor	-11.9057
▁Jin	-11.9057
▁Norman	-11.9059
▁ss	-11.9059
Don	-11.9064
▁phế	-11.9069
▁chuồng	-11.907
▁Liều	-11.9073
▁[3]	-11.9075
▁Moses	-11.908
▁Fish	-11.9081
▁Europe	-11.9084
Học	-11.9093
Tin	-11.9096
▁8%	-11.9098
▁Chợ	-11.9099
▁root	-11.9099
▁Victor	-11.91
▁sút	-11.9102
▁Directory	-11.9104
▁Davis	-11.9104
▁Jonathan	-11.9104
▁Tĩnh	-11.9107
▁Must	-11.9108
▁something	-11.9108
▁2019,	-11.911
▁mùng	-11.9112
▁Freedom	-11.9114
q	-11.912
▁Thanks	-11.9121
▁1980,	-11.9122
▁khăng	-11.9124
▁Ð	-11.9133
▁sấy	-11.9135
▁(2010)	-11.9139
▁Beta	-11.9141
▁Library	-11.9143
▁Check	-11.9144
▁4000	-11.9145
biết	-11.9154
▁Moore	-11.9166
▁sủng	-11.9167
▁Phổ	-11.9169
▁Heroes	-11.9169
▁107	-11.9171
▁Naruto	-11.9173
▁Carlos	-11.9174
▁2020,	-11.9174
▁two	-11.9176
▁Memory	-11.9177
thiên	-11.9185
ít	-11.9191
▁Cư	-11.9192
▁sô	-11.9195
▁look	-11.9196
▁thốt	-11.9199
▁Thề	-11.92
▁Dublin	-11.9202
ến	-11.9204
▁Trại	-11.9204
▁vu	-11.9205
▁Mũi	-11.9205
▁ON	-11.922
gia	-11.9223
▁Carolina	-11.9223
▁1,2	-11.9227
▁Fun	-11.9228
▁1943	-11.9228
▁ngỡ	-11.9232
▁khùng	-11.9233
▁icon	-11.9234
▁app	-11.9236
▁Forest	-11.9241
▁Chì	-11.9242
▁ETH	-11.9247
▁1951	-11.925
ặp	-11.9255
fr	-11.9258
▁BB	-11.926
▁Cookie	-11.9262
▁220	-11.9264
▁Xiaomi	-11.9265
▁must	-11.9265
▁Bosch	-11.9266
▁Fred	-11.9267
▁Thừa	-11.9268
▁KH	-11.9269
▁khoát	-11.927
▁ml	-11.9271
▁dc	-11.9272
▁mộc	-11.9272
▁vợt	-11.928
▁ắt	-11.9283
”)	-11.9284
▁true	-11.9284
▁Titan	-11.9287
EU	-11.9293
▁Romania	-11.9295
▁Field	-11.9296
▁Pedro	-11.9298
▁Own	-11.9299
▁Near	-11.9302
▁case	-11.9303
▁away	-11.9307
▁Labs	-11.9309
Thôi	-11.9318
Trang	-11.9318
tương	-11.9319
▁Cut	-11.932
▁1970,	-11.9321
▁house	-11.9329
▁NêPhi	-11.933
▁Kobe	-11.9331
CH	-11.9332
▁Tùng	-11.9334
▁Tù	-11.9337
▁(2007)	-11.9338
▁his	-11.9338
▁Something	-11.9344
▁Madonna	-11.9345
▁Zen	-11.9348
▁Years	-11.9351
▁xô	-11.9354
▁Macedonia	-11.9358
▁Boutique	-11.9363
▁Modern	-11.9364
▁Khuyết	-11.9365
▁Gateway	-11.9365
▁Jefferson	-11.9365
▁Porto	-11.937
▁vành	-11.9376
▁ve	-11.9379
Tìm	-11.9384
1.	-11.9385
▁Metro	-11.9388
▁Close	-11.9389
▁Ngô	-11.9392
▁Castle	-11.9395
▁nhọc	-11.9396
▁Goes	-11.9398
▁uế	-11.9398
▁Together	-11.9399
▁Tắm	-11.9399
▁nang	-11.9401
▁Luxury	-11.9401
▁chui	-11.9407
▁mìn	-11.9408
▁black	-11.9413
Nghe	-11.9418
nhân	-11.9418
cc	-11.9419
▁Thà	-11.9422
▁give	-11.9423
▁Harris	-11.9427
▁Price	-11.9429
▁nhiễu	-11.943
▁Grey	-11.9432
▁end	-11.9432
▁Bin	-11.9436
▁1990.	-11.9441
▁Wiki	-11.9443
▁Enter	-11.9444
▁gets	-11.9451
chẳng	-11.9451
▁EOS	-11.9466
hấp	-11.9467
▁Tears	-11.9469
▁Phán	-11.9473
▁Nobody	-11.9478
▁256	-11.9479
▁would	-11.9489
▁mí	-11.9491
▁film	-11.9492
▁Cũ	-11.9493
▁Generation	-11.9496
Cơ	-11.9497
▁Larry	-11.9498
▁q	-11.9498
▁Dài	-11.95
▁3.3	-11.9503
▁SMS	-11.9506
▁vv	-11.9508
ro	-11.9509
▁Camp	-11.9517
90	-11.9518
Chưa	-11.9519
▁1986	-11.9521
▁nan	-11.9523
▁youtube	-11.9527
less	-11.9529
▁trỗi	-11.9531
ers	-11.9532
▁yết	-11.9533
▁Athens	-11.9534
▁Left	-11.9534
▁been	-11.9535
▁BS	-11.9539
▁Clark	-11.9542
▁Coast	-11.9543
Windows	-11.9553
▁(8	-11.9558
▁2002,	-11.9559
▁bơ	-11.9562
▁Step	-11.9562
▁bừng	-11.9563
▁Kansas	-11.9565
▁!”	-11.9567
▁Dạng	-11.9571
▁Vốn	-11.9571
▁Julie	-11.9572
▁Well	-11.9592
▁Storm	-11.9593
▁lốp	-11.9598
▁Disneyland	-11.9598
▁ME	-11.9599
▁Cairo	-11.9599
▁Zone	-11.9599
▁Võ	-11.9602
▁Bấm	-11.9603
60	-11.9603
▁Ver	-11.9606
▁Learning	-11.9608
▁Eve	-11.961
▁Blogger	-11.9623
▁call	-11.9623
▁season	-11.9627
▁Virgin	-11.9628
▁1975	-11.963
3)	-11.9632
▁Monroe	-11.9632
▁́	-11.9633
▁Gallery	-11.9635
▁2000.	-11.9637
▁Nuôi	-11.9637
▁GO	-11.9639
-35	-11.9639
▁Ảo	-11.9645
▁ngó	-11.9647
▁Welcome	-11.965
When	-11.9655
-20	-11.9655
▁tản	-11.9658
▁007	-11.9661
▁nứt	-11.9665
▁Collins	-11.9666
▁Interactive	-11.9667
▁Tyler	-11.9668
▁CT	-11.9671
▁Huyết	-11.9671
▁nano	-11.9672
▁Ring	-11.9675
hai	-11.9683
▁**	-11.9689
▁vote	-11.9689
Cũng	-11.9689
Pháp	-11.9689
▁CC	-11.9691
go	-11.9693
▁Shell	-11.9694
▁Bom	-11.9696
▁ĐỨC	-11.9704
▁2019.	-11.9706
▁Xuống	-11.9709
Mt	-11.9728
▁vẩn	-11.9733
▁caffeine	-11.9733
▁Orleans	-11.9734
▁Yourself	-11.9734
▁phớt	-11.9734
▁Hiền	-11.9735
▁-“	-11.9735
▁GPU	-11.9735
▁Niên	-11.9735
▁Church	-11.9735
▁Walking	-11.9739
▁“...	-11.9742
▁Gran	-11.9742
▁pho	-11.9744
▁Hands	-11.9748
▁16:	-11.9752
▁GT	-11.9753
▁USS	-11.9753
▁media	-11.9755
▁hope	-11.9756
▁States	-11.9757
Đồng	-11.9759
▁module	-11.9763
▁Channel	-11.9766
▁dog	-11.9768
▁Arizona	-11.9768
▁she	-11.9769
▁Lawrence	-11.977
▁Through	-11.9771
▁SDK	-11.9772
▁Unix	-11.9773
▁Rush	-11.9774
▁Downtown	-11.9775
▁Short	-11.9777
▁Chap	-11.9782
▁LEGO	-11.9785
display	-11.9794
▁Hudson	-11.9803
▁Mercedes	-11.9805
▁chớp	-11.9806
▁Mouse	-11.9806
35	-11.9811
▁chót	-11.9817
▁let	-11.9821
▁111	-11.9827
Instrumental	-11.9827
▁Protocol	-11.9828
▁Desktop	-11.983
▁Circle	-11.9837
▁nghiền	-11.9837
▁Kit	-11.9839
▁Copenhagen	-11.9839
▁Quest	-11.9844
▁many	-11.9848
▁art	-11.9851
▁Did	-11.9852
▁2004.	-11.9856
Khách	-11.9863
▁Bit	-11.9863
Ngay	-11.9864
▁Challenge	-11.9866
▁khuynh	-11.9871
▁Elvis	-11.9873
▁smartphone	-11.9874
▁6)	-11.9877
▁í	-11.988
▁(10)	-11.9881
▁Very	-11.9885
▁Marc	-11.9886
▁Ngàn	-11.9888
▁could	-11.9891
").	-11.9892
▁#2	-11.9894
▁6.000	-11.9895
▁Ian	-11.9898
▁Solo	-11.99
▁2/	-11.9902
▁number	-11.9905
▁Algeria	-11.9906
▁Find	-11.9907
▁Estonia	-11.9907
▁nắp	-11.9907
▁chổi	-11.9907
▁Backup	-11.9909
▁Twin	-11.9909
▁Phẫu	-11.991
▁Cạnh	-11.991
▁khống	-11.991
▁Shakespeare	-11.991
▁Honey	-11.9911
▁Cướp	-11.9911
▁nick	-11.9911
ăn	-11.9913
▁UAE	-11.9913
-10	-11.9916
▁Neil	-11.9916
▁TS	-11.9917
▁:3	-11.9919
▁1.6	-11.9933
Let	-11.9933
▁Article	-11.9933
▁yeah	-11.9936
▁Host	-11.9938
▁macOS	-11.9943
▁error	-11.9943
▁Isaac	-11.9947
▁Chanel	-11.995
▁LAN	-11.9952
▁Philips	-11.9955
▁Min	-11.9967
Lạy	-11.9968
Bác	-11.9969
▁Cú	-11.997
▁Korea	-11.9973
▁dừa	-11.9976
▁mầy	-11.9976
▁Farm	-11.9977
▁ngơ	-11.9978
▁Nancy	-11.9979
▁(7)	-11.998
▁Main	-11.9981
▁Justice	-11.9982
▁Ph	-11.9983
▁LÀ	-11.9984
▁trán	-11.9985
▁April	-11.9985
▁Add	-11.9985
07	-11.9987
▁Mộ	-11.9988
▁113	-11.9991
hình	-11.9992
▁hông	-11.9996
-1)	-12.0002
Nghệ	-12.0004
Yêu	-12.0004
▁Honor	-12.0008
▁Trade	-12.001
▁Base	-12.0012
▁Marriott	-12.0013
▁Monte	-12.0013
▁98%	-12.0014
▁Phao	-12.0014
▁Tệ	-12.0014
▁đấng	-12.0014
▁("	-12.0016
▁ĐH	-12.0018
▁Rico	-12.0018
▁Cầm	-12.0022
▁Tông	-12.0024
▁Mission	-12.0027
▁lay	-12.0031
▁que	-12.004
ti	-12.004
▁Coin	-12.0043
▁Margaret	-12.0046
▁liễu	-12.0047
▁background	-12.0049
▁Madison	-12.0052
▁LA	-12.0053
▁LLM	-12.0055
55	-12.0055
▁AB	-12.0056
▁1976	-12.0057
▁Round	-12.0058
▁Wake	-12.0058
▁Had	-12.0067
mà	-12.0072
▁un	-12.0072
Thêm	-12.0075
Mày	-12.0075
▁Lab	-12.0076
ion	-12.0077
▁CHƯ	-12.0081
▁Ace	-12.0081
▁Teresa	-12.0083
▁Memorial	-12.0084
▁Testosterone	-12.0085
▁Leonardo	-12.0086
▁Nắm	-12.0087
▁Hân	-12.0089
▁Quê	-12.0089
▁Support	-12.0093
▁Rabb	-12.0106
▁MD	-12.0107
nguồn	-12.0111
chiến	-12.0111
▁trader	-12.0113
▁Nẵng	-12.0117
▁Duke	-12.0118
▁Maroc	-12.0119
▁nít	-12.0119
▁5.0	-12.012
▁Terminal	-12.0121
▁nài	-12.0121
▁doạ	-12.013
▁1967	-12.013
▁Saul	-12.0135
▁Marco	-12.0136
▁175	-12.0139
▁Profile	-12.0147
▁Thó	-12.0148
▁Salvador	-12.0153
▁Phủ	-12.0156
▁quăng	-12.0157
▁Wine	-12.0164
▁Editor	-12.0166
▁point	-12.017
▁change	-12.0172
▁money	-12.0174
▁Fine	-12.0179
san	-12.0185
▁Walter	-12.0185
▁để	-12.0189
▁vác	-12.0189
▁SE	-12.019
▁Nhiếp	-12.0193
▁Noah	-12.0194
▁Breakfast	-12.0194
▁Lam	-12.0196
▁Thiệt	-12.0197
▁Điệu	-12.0198
▁Chữa	-12.0202
▁Styles	-12.0206
▁Nat	-12.0216
▁Robinson	-12.0217
▁port	-12.0223
▁Giác	-12.0225
▁đầm	-12.0226
▁Marilyn	-12.0226
▁Door	-12.0226
▁Missouri	-12.0227
▁cọ	-12.0227
▁Karen	-12.0227
▁Cường	-12.0227
▁Sahara	-12.0228
▁Ohio	-12.0228
▁Phước	-12.0229
▁Rời	-12.0231
ợc	-12.0238
▁2001,	-12.0238
▁some	-12.024
▁1955	-12.0241
▁Thọ	-12.0243
▁4%	-12.0246
Merak	-12.0254
▁Residences	-12.0254
Chiếc	-12.0255
▁Award	-12.0256
▁UTC	-12.0256
▁Mo	-12.0256
▁Fortune	-12.0258
▁Sunday	-12.0258
▁Site	-12.0258
▁giục	-12.0261
▁Hyatt	-12.0262
ánh	-12.0263
▁Kings	-12.0263
▁hit	-12.0264
▁him	-12.0264
▁Contact	-12.0266
▁Republic	-12.0266
▁Sổ	-12.0267
▁Il	-12.0272
Ôi	-12.0274
line	-12.0284
▁1961	-12.0285
▁Spirit	-12.0291
Cuối	-12.0292
▁chà	-12.0294
▁Journey	-12.0294
▁1930	-12.0295
▁lùn	-12.0296
▁ngây	-12.0298
▁sủa	-12.0298
▁190	-12.0298
▁Stanford	-12.03
▁Bưu	-12.03
▁Some	-12.0306
▁Clear	-12.0308
▁ớt	-12.0327
cả	-12.0329
▁gỉ	-12.0333
▁fucked	-12.0335
▁Trốn	-12.0339
▁Mode	-12.034
▁Josh	-12.0343
▁Cruise	-12.0362
Thái	-12.0365
▁Fear	-12.0366
▁Hamburg	-12.0367
▁từ	-12.037
▁mod	-12.037
▁phông	-12.0372
▁Remember	-12.0372
▁Dawn	-12.0373
▁someone	-12.0374
▁Huyện	-12.0375
▁Miệng	-12.0376
▁Chuỗi	-12.0376
▁Kia	-12.0378
▁Abu	-12.0378
▁114	-12.0379
▁very	-12.038
▁profile	-12.038
Thi	-12.0395
▁Natural	-12.0399
99	-12.04
▁Coming	-12.04
▁place	-12.0404
▁nhí	-12.0406
▁1900	-12.0406
▁mài	-12.0407
▁Nova	-12.0408
▁109	-12.0409
▁Urban	-12.041
▁(30	-12.041
▁Nắng	-12.0411
▁RSS	-12.0413
▁Tắt	-12.0415
▁Khoan	-12.0419
▁friend	-12.042
▁ủ	-12.0423
▁Once	-12.0423
▁Thuê	-12.0424
ôn	-12.0429
nó	-12.0431
▁Multi	-12.0432
▁127	-12.0433
▁2030	-12.0436
▁Audi	-12.0437
▁[4]	-12.0439
Trái	-12.0439
tình	-12.0439
▁Chocolate	-12.0441
bên	-12.0441
▁die	-12.0443
▁Spider	-12.0444
▁Katy	-12.0445
▁Pocket	-12.0445
▁CÁC	-12.0445
▁ván	-12.0447
▁2001.	-12.0447
▁Poker	-12.0448
▁Coca	-12.0452
▁next	-12.0455
▁views	-12.0458
▁Birds	-12.0459
3,	-12.0459
▁pH	-12.047
Sáng	-12.0477
▁1981	-12.0478
▁Lover	-12.0479
▁Goodbye	-12.0481
▁ngõ	-12.0481
▁boy	-12.0481
▁anime	-12.0483
▁Bieber	-12.0484
▁Major	-12.0485
▁Pete	-12.0485
▁Lang	-12.0485
▁Community	-12.0487
▁(12	-12.0491
▁Financial	-12.0493
ki	-12.051
▁Brand	-12.0511
bảo	-12.0513
Dịch	-12.0513
tính	-12.0514
▁Roll	-12.0515
▁dép	-12.0517
▁chuối	-12.0517
▁Barack	-12.0519
▁ADN	-12.0521
▁Winston	-12.0521
▁Răng	-12.0521
▁search	-12.0522
▁Bến	-12.0525
▁SAP	-12.0526
▁Quick	-12.0526
▁Ten	-12.0531
▁ever	-12.0533
▁Bolivia	-12.0539
▁19.	-12.054
▁AS	-12.0542
▁Blind	-12.0548
Bắt	-12.0551
▁Turbo	-12.0551
▁Steel	-12.0552
tối	-12.0552
nd	-12.0554
▁Sàn	-12.0558
▁Text	-12.0558
▁4.2	-12.0559
▁Tuân	-12.0559
▁Chánh	-12.0559
▁Nhị	-12.0563
▁bón	-12.0564
▁Ready	-12.0566
▁radar	-12.0566
▁List	-12.0567
!!:	-12.0575
▁Ngă	-12.0579
▁Original	-12.0585
▁Pixel	-12.0587
Bọn	-12.0588
kẻ	-12.0591
▁Hold	-12.0592
▁Alaska	-12.0593
▁Hub	-12.0594
▁Nợ	-12.0596
▁service	-12.0596
▁Trạng	-12.0596
▁xức	-12.0603
▁119	-12.0608
▁7)	-12.0617
▁opera	-12.062
▁Sant	-12.0624
▁language	-12.0625
▁re	-12.0628
▁Believe	-12.0628
▁dồi	-12.0629
▁Azerbaijan	-12.0631
▁Nhiễm	-12.0631
▁(20	-12.0631
▁Metal	-12.0632
▁bóc	-12.0632
▁gót	-12.0633
▁Dinh	-12.0634
▁feet	-12.0634
▁Khúc	-12.0635
▁ECTS	-12.0636
▁Bach	-12.064
▁left	-12.0642
▁HI	-12.0646
▁Amber	-12.0648
▁Plugin	-12.0662
▁bộc	-12.0663
▁Brooklyn	-12.0668
▁Huế	-12.067
▁Pokemon	-12.067
▁1971	-12.067
▁story	-12.0671
▁Annie	-12.0672
▁von	-12.0674
▁Ngũ	-12.0674
▁THI	-12.0676
▁Vẽ	-12.0677
▁Pi	-12.068
▁Stand	-12.0686
▁3,5	-12.0688
▁Direction	-12.069
ate	-12.0692
▁thank	-12.0692
▁mẹo	-12.0694
▁ven	-12.0694
▁AR	-12.0695
▁Mickey	-12.0698
▁Visio	-12.0701
▁Mega	-12.0702
▁ổng	-12.0703
▁dốt	-12.0705
▁Chloe	-12.0707
▁Sherlock	-12.0708
▁Ethernet	-12.0708
▁vớt	-12.0708
▁Ah	-12.0729
▁Dã	-12.0729
bà	-12.0736
▁should	-12.0738
▁00	-12.0741
Giáo	-12.0741
đang	-12.0743
▁Bloomberg	-12.0744
▁Cương	-12.0745
▁Echo	-12.0746
▁Messi	-12.0752
▁Cape	-12.0755
▁thuở	-12.0757
▁text	-12.076
▁TOP	-12.0769
▁ft	-12.0769
▁vãi	-12.0772
▁Father	-12.0777
Vấn	-12.0778
▁Archive	-12.0779
Tân	-12.078
▁kiêm	-12.078
▁LinkedIn	-12.0781
▁đéo	-12.0781
▁Delhi	-12.0781
.“	-12.0786
rd	-12.0786
▁Oregon	-12.0786
▁Lành	-12.0791
▁GS	-12.0797
▁Hu	-12.08
▁Châm	-12.0801
▁tro	-12.0808
▁lẽo	-12.0809
Tối	-12.0817
▁rải	-12.0818
▁xuẩn	-12.0819
▁TOEIC	-12.0821
▁Orlando	-12.0822
▁lynn	-12.0825
▁Bò	-12.0827
▁UEFA	-12.0828
▁thing	-12.0829
▁135	-12.0832
▁Thung	-12.0834
▁eo	-12.0836
▁red	-12.0837
▁bùn	-12.0837
▁ass	-12.0846
▁126	-12.0852
▁Forbes	-12.0858
▁Montreal	-12.0858
▁Docker	-12.0858
▁fax	-12.0858
▁(2004)	-12.0859
▁Guatemala	-12.086
▁Sugar	-12.0862
▁Brexit	-12.0862
▁Talking	-12.0863
▁Bơi	-12.0863
▁Clip	-12.0864
▁Angela	-12.0869
ley	-12.0875
▁DO	-12.0877
▁Rosa	-12.0879
▁ray	-12.0879
giá	-12.0884
▁Hang	-12.0885
Hắn	-12.0894
Đêm	-12.0894
▁1/	-12.0895
▁Instant	-12.0895
giải	-12.0895
▁without	-12.0897
▁Much	-12.0898
▁SUV	-12.0898
▁nháy	-12.0899
▁Angelina	-12.0899
▁Xuyên	-12.09
▁(2006)	-12.0901
▁Hiếu	-12.0904
▁line	-12.0907
rút	-12.0915
5.	-12.0928
▁great	-12.0929
American	-12.0932
Google	-12.0933
▁quặc	-12.0933
▁Guinea	-12.0934
▁Binance	-12.0935
▁Lỗ	-12.0936
▁Gary	-12.0937
▁Hảo	-12.0939
▁Somebody	-12.0939
▁(11)	-12.0941
▁chư	-12.0949
▁tràng	-12.0949
▁1948	-12.0953
▁find	-12.0956
▁Lite	-12.0957
ian	-12.0968
▁——	-12.0969
▁Tweet	-12.0971
▁kép	-12.0972
đến	-12.0972
phát	-12.0973
▁Khỏe	-12.0975
▁LCD	-12.0978
▁Trứng	-12.0979
▁miss	-12.098
▁13%	-12.0984
▁start	-12.0997
▁Shield	-12.1004
▁Sister	-12.1008
▁light	-12.1009
▁SIM	-12.1011
Điểm	-12.1011
▁alexis	-12.1012
▁vuốt	-12.1013
▁gầy	-12.1013
▁vòi	-12.1014
▁nồi	-12.1014
▁Indiana	-12.1017
▁Joker	-12.1018
hành	-12.1018
▁Mc	-12.1024
▁Nhé	-12.1025
et	-12.1027
▁1979	-12.1034
▁121	-12.1036
▁1939	-12.104
▁Hoang	-12.1041
▁Wave	-12.1042
▁21,	-12.1043
Buenos	-12.1045
▁Luther	-12.1048
bộ	-12.1051
▁Broadway	-12.1051
▁Edinburgh	-12.1051
▁Colorado	-12.1051
▁Token	-12.1052
▁Beast	-12.1053
▁sushi	-12.1053
▁Gabriel	-12.1054
Máy	-12.1055
▁Lạt	-12.1055
▁tơ	-12.106
Nga	-12.1062
▁Bờ	-12.1063
▁Everybody	-12.1066
▁Forum	-12.1069
▁?"	-12.1073
▁Horse	-12.1086
▁Roosevelt	-12.1089
Phiên	-12.109
Thụy	-12.109
▁Teen	-12.109
Dĩ	-12.109
phục	-12.109
▁vướng	-12.1091
▁Florence	-12.1091
▁Stewart	-12.1092
▁Aires	-12.1092
Big	-12.1093
▁Application	-12.1094
▁bóp	-12.1094
▁Ro	-12.1095
▁khoăn	-12.1106
▁Dale	-12.1107
▁Tool	-12.1108
▁won	-12.1108
min	-12.1121
▁return	-12.1124
▁dạn	-12.1126
▁open	-12.1128
▁Gordon	-12.1131
▁enzyme	-12.1132
Thay	-12.1132
▁Rắn	-12.1134
▁table	-12.1139
ó	-12.1139
▁cover	-12.1141
1:	-12.1154
▁Gets	-12.1157
▁March	-12.1164
▁per	-12.1166
▁nuối	-12.1168
▁kẻo	-12.1168
▁rạng	-12.1168
▁byte	-12.1169
▁Huệ	-12.1169
▁trâu	-12.1169
▁RAID	-12.1174
▁Dậy	-12.1179
▁sườn	-12.1189
▁xoa	-12.1206
▁nhõm	-12.1208
▁biết	-12.1208
▁Morocco	-12.1209
▁gặt	-12.1209
Rồi	-12.1209
▁Rùa	-12.121
▁Portland	-12.1212
cảm	-12.1212
▁Bùi	-12.1212
▁year	-12.1213
▁Wayne	-12.1214
▁15.000	-12.1214
▁Đinh	-12.1215
For	-12.1218
▁Lyrics	-12.1219
▁tụt	-12.1223
▁ph	-12.1226
▁Lộ	-12.124
▁khẽ	-12.1248
▁Yokohama	-12.1249
▁Stanley	-12.1249
▁chướng	-12.1249
Tiền	-12.1249
▁Kitty	-12.125
▁khờ	-12.1253
▁choàng	-12.1256
▁AND	-12.1261
▁PVC	-12.1266
▁++	-12.1271
▁.....	-12.1277
▁Mt	-12.1278
▁answer	-12.1282
▁thỉu	-12.1287
▁Catalyst	-12.1288
▁Map	-12.1288
▁Tennis	-12.1289
▁Vatican	-12.1289
nhiều	-12.129
▁lóc	-12.129
▁1998,	-12.129
▁NVIDIA	-12.1292
▁Solutions	-12.1297
▁Thai	-12.1301
▁1969	-12.1304
▁mobile	-12.1306
bị	-12.1312
▁Parkinson	-12.1328
▁Mafia	-12.1329
▁Dàn	-12.1329
▁Edison	-12.133
▁tẻ	-12.133
đây	-12.133
▁Giận	-12.133
▁Luffy	-12.133
▁Tennessee	-12.133
Bình	-12.133
▁điềm	-12.1331
▁Katie	-12.1333
▁Ghét	-12.1333
▁Lưỡi	-12.1334
môn	-12.1335
▁Diệp	-12.1336
cha	-12.1338
▁quỉ	-12.1339
▁Steven	-12.1347
▁sim	-12.1348
▁Seasons	-12.1352
▁Bernard	-12.1364
▁tre	-12.1365
▁Thờ	-12.1367
Lc	-12.1369
▁đít	-12.1369
▁reading	-12.137
tuần	-12.1371
thứ	-12.1371
Hà	-12.1371
▁Inside	-12.1371
▁Kem	-12.1372
▁xỉn	-12.1372
▁Lí	-12.1374
▁Medical	-12.1375
▁Going	-12.1379
cơ	-12.1379
▁xơ	-12.1382
▁GM	-12.1384
▁OST	-12.1389
!".	-12.1405
ác	-12.1405
02	-12.1405
▁RT	-12.1406
▁hăng	-12.1408
▁Gốc	-12.141
▁street	-12.141
▁Guesthouse	-12.141
▁Lisbon	-12.141
▁Mái	-12.1412
▁Thép	-12.1413
▁nothing	-12.1414
▁Xứ	-12.1414
▁days	-12.1415
▁today	-12.1416
ý	-12.1417
▁TLS	-12.1424
▁VPS	-12.1431
?".	-12.1432
òng	-12.1441
▁Ôm	-12.1443
▁1982	-12.1444
▁Idol	-12.1444
▁banner	-12.1447
▁lấn	-12.1449
▁thốn	-12.145
▁read	-12.1452
Hoàng	-12.1453
▁Sub	-12.1453
kết	-12.1453
▁Greenland	-12.1453
▁BMI	-12.1456
▁Đỗ	-12.1456
▁Lin	-12.1457
▁Follow	-12.1458
▁Motion	-12.1461
▁stop	-12.1462
â	-12.1475
▁RFC	-12.1476
▁Date	-12.1479
▁Animal	-12.1479
▁trailer	-12.1484
học	-12.1486
▁Hit	-12.1488
▁phượng	-12.1489
▁băn	-12.1489
▁tẩu	-12.149
jpg	-12.149
▁Carbon	-12.149
▁Mason	-12.1493
hãy	-12.1494
Phim	-12.1495
▁style	-12.1495
▁Đua	-12.1495
▁Unlimited	-12.1495
▁Sunshine	-12.1495
▁Safety	-12.1498
▁Rút	-12.1498
▁order	-12.1498
▁IU	-12.1499
▁SS	-12.1515
▁1800	-12.1515
▁vạt	-12.1523
▁Eagle	-12.1526
▁Friday	-12.1528
ii	-12.153
▁ngoãn	-12.153
▁Stadium	-12.1531
▁nhôm	-12.1531
▁Sakura	-12.1532
Chấm	-12.1532
▁admin	-12.1532
▁Detroit	-12.1532
▁Southern	-12.1535
▁Second	-12.1535
đầu	-12.1535
Microsoft	-12.1535
▁rủ	-12.1536
▁Khổ	-12.1539
▁vá	-12.1548
▁European	-12.1552
▁Flight	-12.1563
▁Rainbow	-12.1568
▁well	-12.157
▁Uganda	-12.1573
▁Vancouver	-12.1573
▁Terry	-12.1574
▁Browser	-12.1575
▁Quinta	-12.1575
▁Shift	-12.1576
▁(2016)	-12.1576
▁Muối	-12.1577
▁copy	-12.1578
▁French	-12.1579
▁Address	-12.158
▁Value	-12.158
▁1973	-12.158
▁Object	-12.1581
▁Căng	-12.1582
▁sảnh	-12.1588
▁124	-12.1594
▁1999,	-12.1604
▁Gardens	-12.1605
▁filter	-12.1608
▁Crimea	-12.1612
▁Sebastian	-12.1614
▁nhảm	-12.1615
▁Cohen	-12.1617
▁watch	-12.1617
▁woman	-12.1618
70	-12.1618
▁hắc	-12.1618
mặc	-12.1619
▁Destiny	-12.1619
▁Xong	-12.162
▁mind	-12.162
▁6%	-12.1623
▁Selena	-12.1624
▁Buông	-12.1625
?’	-12.1629
▁EXO	-12.1629
▁4.5	-12.1631
▁Mama	-12.1634
▁lọ	-12.1643
▁teen	-12.1649
Tao	-12.1652
▁Angels	-12.1652
▁AD	-12.1653
▁chạp	-12.1654
▁Thompson	-12.1655
▁thế	-12.1655
▁Monaco	-12.1655
▁Barry	-12.1656
▁Uruguay	-12.1656
▁500.000	-12.1657
▁Bayern	-12.1658
▁CE	-12.1659
▁Kì	-12.1659
ngoại	-12.166
▁Baker	-12.166
▁Giàu	-12.1661
▁Nấu	-12.1662
▁Front	-12.1665
▁Khán	-12.1666
▁Fe	-12.1673
Gây	-12.1674
dĩ	-12.1676
▁TIN	-12.1678
▁Vol	-12.1684
▁Mê	-12.1685
▁Ep	-12.1688
▁Đổ	-12.1691
▁đu	-12.1695
▁Juventus	-12.1697
▁Novotel	-12.1698
▁Koh	-12.1702
From	-12.1702
Sức	-12.1702
▁Sunny	-12.1702
▁Bận	-12.1705
▁EN	-12.171
ì	-12.1713
▁100%.	-12.1715
33	-12.1723
▁Tea	-12.1728
▁ấp	-12.1732
▁bỉ	-12.1737
▁Columbus	-12.1738
▁Dần	-12.1739
é	-12.1741
Black	-12.1744
Hội	-12.1744
Nơi	-12.1744
▁Electric	-12.1744
▁1959	-12.1745
▁1974	-12.1747
▁Britney	-12.1748
▁Pearl	-12.1748
▁under	-12.1748
▁404	-12.1753
▁điêu	-12.1754
2:	-12.1755
▁spa	-12.1755
thì	-12.1759
▁117	-12.1763
ất	-12.1766
▁Jet	-12.1773
▁Bring	-12.1777
▁Crystal	-12.1777
▁beautiful	-12.1777
▁sâm	-12.1778
▁Computer	-12.1778
▁đặn	-12.1779
▁mầu	-12.178
▁Lotus	-12.178
▁trỏ	-12.1781
Quả	-12.1781
▁Miley	-12.1784
▁xoắn	-12.1784
▁Thâm	-12.1784
▁Trân	-12.1785
▁Daisy	-12.1785
▁Hour	-12.1785
▁Campus	-12.1787
▁40.000	-12.1788
ới	-12.1791
▁Flickr	-12.1792
hợp	-12.1796
▁HDD	-12.1797
On	-12.1799
▁Tab	-12.1799
▁bin	-12.1802
▁Job	-12.1803
▁Gen	-12.1805
▁Self	-12.1809
▁mạ	-12.1811
▁Dominica	-12.1818
▁sọ	-12.1819
▁Harvey	-12.1823
▁Mumbai	-12.1823
▁né	-12.1824
▁twitter	-12.1825
▁Arsenal	-12.1826
▁CÔNG	-12.1826
▁(9	-12.1828
Đầu	-12.1829
▁Chan	-12.1829
tiền	-12.1829
Văn	-12.1829
”!	-12.1842
▁Rise	-12.1844
▁Ka	-12.1844
▁1946	-12.1848
-7	-12.1848
▁Pool	-12.185
▁Anti	-12.1853
▁1965	-12.1854
▁wish	-12.1857
ah	-12.1865
▁District	-12.1867
mu	-12.187
▁Taiwan	-12.187
▁Cửu	-12.1871
Nguyên	-12.1871
Mùa	-12.1872
▁Huynh	-12.1875
▁320	-12.188
▁rom	-12.188
▁Rogers	-12.188
off	-12.188
▁type	-12.1886
ban	-12.1887
▁1920	-12.189
Free	-12.1892
▁Pre	-12.1892
▁FM	-12.1897
▁Thousand	-12.1901
hi	-12.1902
▁Beckham	-12.1907
▁Murphy	-12.1907
ganh	-12.1908
▁DirectX	-12.1908
▁Trạch	-12.1908
▁Cừu	-12.1909
▁CHÚ	-12.1909
▁PayPal	-12.191
▁Nổ	-12.191
▁xấp	-12.1911
▁té	-12.1912
▁Many	-12.1913
▁Woods	-12.1914
▁Khôi	-12.1915
▁3/	-12.1919
▁Gray	-12.1923
▁body	-12.1928
▁Cu	-12.1934
▁xen	-12.1938
▁Hack	-12.1939
▁ĐT	-12.1942
thay	-12.1945
▁cồn	-12.1949
▁Ivan	-12.1949
▁had	-12.195
▁Lầm	-12.195
▁Santiago	-12.195
▁Huân	-12.1951
▁Catherine	-12.1952
▁Tommy	-12.1954
▁Chain	-12.1955
Life	-12.1956
▁Lego	-12.1957
▁Carey	-12.1958
▁Pictures	-12.1958
27	-12.196
▁(0	-12.1962
▁[5]	-12.1966
▁1964	-12.1966
▁16%	-12.1966
▁khánh	-12.1966
▁Event	-12.1972
▁1997,	-12.1972
▁map	-12.1973
▁MHz	-12.1982
▁tánh	-12.1985
▁own	-12.1988
▁Africa	-12.1989
▁Mạc	-12.1993
▁vẫy	-12.1993
▁Monica	-12.1993
▁Motorola	-12.1993
▁Phiếu	-12.1994
▁45%	-12.1997
▁Stark	-12.2006
▁Bông	-12.2007
▁Report	-12.2022
▁Lie	-12.2023
ine	-12.2023
▁bạ	-12.2026
▁Horizon	-12.2026
▁Chút	-12.2027
▁Conference	-12.2027
▁CON	-12.2031
▁Tr	-12.2033
▁giỡn	-12.2035
▁diễu	-12.2035
▁Technologies	-12.2036
▁PlayStation	-12.2039
▁while	-12.2039
▁Crown	-12.204
▁Champions	-12.204
▁Angry	-12.2041
▁129	-12.2042
▁Command	-12.2044
▁Said	-12.2045
▁moon	-12.2045
▁Kind	-12.2047
▁đan	-12.2049
▁UNICEF	-12.2051
nước	-12.2053
▁Ngu	-12.2055
▁Put	-12.2059
▁1.200	-12.2059
26	-12.206
▁15:	-12.2065
▁IE	-12.2074
▁Castro	-12.2078
▁Faith	-12.2081
▁Turner	-12.2082
▁Yeah	-12.2082
▁Nhược	-12.2084
▁omega	-12.2085
▁Sâu	-12.2086
▁Bật	-12.2087
Tài	-12.2088
Vua	-12.2088
▁Ana	-12.209
ING	-12.2094
▁tell	-12.2098
05	-12.2099
▁Centro	-12.2114
mô	-12.2119
▁Belle	-12.2122
▁(2018)	-12.2123
▁đũa	-12.2123
▁rùi	-12.2124
▁Duyên	-12.2127
▁Fool	-12.2131
▁use	-12.2132
▁LHQ	-12.2132
▁Indian	-12.2135
lời	-12.2136
▁Chủng	-12.2136
▁Thiền	-12.2137
▁13:	-12.2137
▁(15	-12.2138
▁12%	-12.214
▁11%	-12.214
▁Jong	-12.2142
▁7%	-12.2142
Game	-12.2144
Cứ	-12.2144
▁Spark	-12.2144
im	-12.2145
ness	-12.215
▁Thả	-12.215
▁Transfer	-12.2161
▁Extreme	-12.2161
▁xắn	-12.2166
▁(2017)	-12.2166
▁Luis	-12.2166
▁Japanese	-12.2166
▁Jenny	-12.2168
▁Leon	-12.2169
▁Mrs	-12.2169
▁Saw	-12.217
▁Hans	-12.2171
▁Bali	-12.2171
04	-12.2172
▁Adele	-12.2173
cần	-12.2176
▁Beijing	-12.2177
▁Ngừng	-12.2178
08	-12.2179
▁Cáo	-12.2181
▁TB	-12.2183
▁host	-12.2187
▁đò	-12.2199
▁Tố	-12.2202
▁[8]	-12.2203
▁Creator	-12.2204
▁Words	-12.2205
▁Share	-12.2208
▁lượm	-12.2209
▁Frankfurt	-12.2211
▁Duty	-12.2211
ina	-12.2212
▁head	-12.2212
▁ninja	-12.2214
▁Mệt	-12.2215
▁Harrison	-12.2217
Is	-12.2219
▁Bee	-12.2219
mình	-12.222
ar	-12.222
▁1999.	-12.2221
▁1/2	-12.2223
▁Loves	-12.223
▁Content	-12.2234
trung	-12.2235
▁EM	-12.2239
▁Rights	-12.224
▁Rô	-12.2246
▁550	-12.2248
▁Arena	-12.2249
▁computer	-12.225
▁út	-12.225
▁léo	-12.2253
girl	-12.2254
▁Gods	-12.2254
▁điếc	-12.2254
▁Lừa	-12.2255
▁Wifi	-12.2257
▁Diệt	-12.2258
▁OPEC	-12.2259
II	-12.226
Thì	-12.226
▁Council	-12.2261
▁talk	-12.2262
laughing	-12.2263
Luật	-12.2264
bắt	-12.2264
Đang	-12.2265
▁nao	-12.2267
▁share	-12.2269
▁$100	-12.227
lem	-12.2271
▁2002.	-12.2273
▁Nights	-12.2278
▁car	-12.2278
▁lạp	-12.2281
-6	-12.2287
▁Floor	-12.229
▁(7	-12.2293
▁FOR	-12.23
▁Storage	-12.23
▁iphone	-12.23
▁21.	-12.2301
▁Chẩn	-12.2301
▁Half	-12.231
▁Met	-12.2311
▁mắng	-12.2315
36	-12.2318
bi	-12.232
▁1918	-12.2325
▁200.000	-12.2329
▁coin	-12.2337
▁ngô	-12.2339
▁dance	-12.2342
▁Vy	-12.2342
▁Jamie	-12.2344
▁Spencer	-12.2344
▁Tịch	-12.2344
▁#3	-12.2346
▁Superior	-12.2347
▁network	-12.2352
▁high	-12.2355
▁images	-12.2357
▁Direct	-12.2363
▁Salt	-12.2365
họ	-12.2367
88	-12.2369
80	-12.2373
▁1995,	-12.238
▁bọ	-12.2381
▁Panda	-12.2381
amp	-12.2382
▁Cinema	-12.2384
▁1940	-12.2384
▁Certificate	-12.2385
▁Michel	-12.2386
▁chật	-12.2387
▁vơi	-12.2388
▁phàm	-12.239
▁phiến	-12.239
▁Nút	-12.2395
▁Really	-12.2396
▁FA	-12.2397
National	-12.2398
Tốt	-12.2399
Chúc	-12.24
▁XX	-12.2401
▁mốt	-12.2405
bát	-12.2407
▁1200	-12.2414
men	-12.2416
▁water	-12.2417
▁1953	-12.2417
ể	-12.2418
▁En	-12.2425
▁café	-12.2431
▁sỏi	-12.2432
▁face	-12.2432
▁Books	-12.2432
▁đày	-12.2434
▁iCloud	-12.2435
▁NY	-12.2435
▁client	-12.2437
▁SEC	-12.2439
▁Shot	-12.2439
▁power	-12.244
Cười	-12.2444
Thể	-12.2444
Lại	-12.2444
▁Trì	-12.2444
▁Wide	-12.2445
▁Strike	-12.2446
▁dãi	-12.2453
▁der	-12.2457
ty	-12.2458
▁Him	-12.2461
▁144	-12.2461
▁ưng	-12.2465
▁Chase	-12.2467
▁1980.	-12.2468
▁Grove	-12.2468
▁!"	-12.2474
▁Monkey	-12.2479
▁why	-12.2479
▁Minecraft	-12.2479
▁Upon	-12.248
▁Silicon	-12.2481
▁Ngọt	-12.2481
▁Would	-12.2482
▁every	-12.2482
▁used	-12.2483
▁Lôi	-12.2484
▁Roman	-12.2488
Lịch	-12.2489
Trời	-12.2489
Time	-12.2489
▁jack	-12.2489
▁cat	-12.249
▁most	-12.2493
át	-12.2496
▁Jun	-12.2497
▁Ngắ	-12.25
▁650	-12.2512
▁friends	-12.2512
▁7.000	-12.2516
▁Wings	-12.2517
▁Trouble	-12.2517
▁hoi	-12.252
▁lượn	-12.2521
▁aspirin	-12.2521
▁dấy	-12.2522
▁Lounge	-12.2523
▁Australian	-12.2524
▁apple	-12.2525
▁Fashion	-12.2526
▁Study	-12.2526
▁hạch	-12.2527
bơ	-12.2528
▁Liberty	-12.2529
▁270	-12.253
▁Romeo	-12.2531
▁Sisters	-12.2533
Hỏi	-12.2534
Chờ	-12.2535
▁Lenin	-12.2536
▁Adventures	-12.254
▁Ám	-12.255
▁SM	-12.255
▁Nhã	-12.2556
▁đun	-12.2562
▁Pattaya	-12.2567
▁Loạn	-12.2569
▁RFID	-12.2569
▁CNTT	-12.2569
▁Sophia	-12.257
▁JSON	-12.257
▁Europa	-12.2574
▁Infinity	-12.2574
Best	-12.2582
▁131	-12.2586
▁mớ	-12.2588
▁Rob	-12.2589
▁Zoo	-12.259
ol	-12.2591
▁Per	-12.2591
▁......	-12.2593
▁Juliet	-12.2596
▁Table	-12.2606
▁Masters	-12.2606
▁Cherry	-12.2608
▁Continue	-12.2609
▁Guardian	-12.261
▁Bedroom	-12.2612
▁Week	-12.2612
▁sùng	-12.2613
▁nhổ	-12.2613
▁Aaron	-12.2614
▁FBS	-12.2617
▁khiếm	-12.2618
▁acid	-12.2618
▁Spanish	-12.2619
▁Búp	-12.262
▁Dancing	-12.2622
▁(2005)	-12.2622
▁Daddy	-12.2622
▁Behind	-12.2624
▁Sô	-12.2626
đạo	-12.2626
mỗi	-12.2626
-2)	-12.2629
...!	-12.263
▁Chai	-12.2644
▁lot	-12.2644
▁báng	-12.2649
▁hotel	-12.2652
▁300.000	-12.2655
▁Mu	-12.2657
▁ngoặt	-12.2658
▁náu	-12.2659
▁Warsaw	-12.2659
▁Manuel	-12.2659
▁Massachusetts	-12.2659
▁Alt	-12.266
▁APEC	-12.266
▁Killer	-12.266
▁toilet	-12.2661
áp	-12.2661
▁Nano	-12.2661
▁Shin	-12.2662
▁dẫu	-12.2663
▁Remote	-12.2663
▁Desert	-12.2663
▁Uyên	-12.2663
▁Khổng	-12.2663
▁Nicholas	-12.2664
▁Clock	-12.2664
▁poster	-12.2665
úng	-12.2665
▁Belarus	-12.2669
Thần	-12.2673
Mặt	-12.2673
tùy	-12.2673
▁(9)	-12.2674
phê	-12.2675
Âm	-12.2675
29	-12.2686
▁Hunt	-12.2687
▁Reed	-12.2697
▁Premiere	-12.2701
▁Hoà	-12.2702
▁Sand	-12.2703
▁vần	-12.2704
▁Bột	-12.2704
▁Họp	-12.2704
▁nới	-12.2705
▁Harbor	-12.2705
▁ngượng	-12.2705
▁poker	-12.2709
▁Cyber	-12.271
▁2.500	-12.2711
▁Yellow	-12.2715
▁vãng	-12.2715
▁Posts	-12.2719
Hơn	-12.2719
Sinh	-12.2719
▁Knights	-12.2721
[2]	-12.2725
▁tem	-12.2726
09	-12.2726
▁eyes	-12.2731
▁wa	-12.2739
▁Chance	-12.2743
box	-12.2748
▁pixel	-12.2749
▁playlist	-12.2751
▁SkyTeam	-12.2751
▁nhấc	-12.2752
▁jQuery	-12.2752
▁Sally	-12.2755
▁ASP	-12.2756
▁Romance	-12.2758
▁Spy	-12.2758
▁Cẩm	-12.2758
▁Đỉnh	-12.2759
▁audio	-12.2761
▁Sale	-12.2766
Việt	-12.2766
▁cas	-12.2766
▁Being	-12.2768
▁8.000	-12.277
xa	-12.2773
▁Bách	-12.2778
-8	-12.279
▁value	-12.2792
▁liếc	-12.2799
▁Đuổi	-12.28
▁Marcus	-12.2801
▁ms	-12.2801
▁everything	-12.2801
▁Khỏi	-12.2802
▁Caroline	-12.2802
▁Chiếu	-12.2803
▁đỗi	-12.2804
il	-12.2805
▁LOVE	-12.2807
▁Đàm	-12.2812
▁OECD	-12.2812
▁TCP	-12.2816
▁chổ	-12.2816
▁lộc	-12.282
3]	-12.2823
▁Evolution	-12.2824
ga	-12.2831
Xe	-12.2831
▁Phan	-12.2834
????	-12.284
rs	-12.284
▁7-	-12.284
▁ngỏ	-12.2842
▁Dao	-12.2843
▁Ghen	-12.2844
▁Chat	-12.2845
▁AirPods	-12.2846
▁Blair	-12.2846
▁Enough	-12.2849
▁Tiệm	-12.285
▁after	-12.2852
▁Culture	-12.2855
▁Sofia	-12.2858
thật	-12.286
▁Fate	-12.2865
▁ST	-12.2867
▁Carol	-12.2872
▁145	-12.2872
way	-12.2875
▁AG	-12.2891
▁Bolton	-12.2891
▁Rơi	-12.2892
▁Hawking	-12.2892
▁Assistant	-12.2893
▁Jungle	-12.2893
▁Não	-12.2894
▁Nikon	-12.2894
▁Rita	-12.2895
▁HTTPS	-12.2896
▁Trinh	-12.2897
▁Factory	-12.2898
▁Candy	-12.2901
đó	-12.2904
▁132	-12.2905
▁Solar	-12.2905
Hệ	-12.291
▁Gaza	-12.2916
▁Khan	-12.2919
▁Official	-12.2926
▁Bê	-12.2932
▁Bề	-12.2933
▁Mate	-12.2933
▁Volume	-12.2933
▁4.3	-12.2938
▁Evernote	-12.294
▁***	-12.2941
▁Phượng	-12.2941
▁where	-12.2943
▁Pride	-12.2943
▁Against	-12.2947
▁Reading	-12.295
▁MSI	-12.2951
▁group	-12.2951
▁1936	-12.2952
▁phone	-12.2952
WHO	-12.2955
5)	-12.2958
▁micro	-12.2961
▁banh	-12.2965
▁NSA	-12.2965
▁Bồi	-12.2968
▁Dirty	-12.2973
▁lộng	-12.2973
▁mode	-12.2973
▁Acrobat	-12.2977
▁Albania	-12.2981
▁manga	-12.2981
▁nghếch	-12.2985
▁Airways	-12.2985
▁Knew	-12.2986
▁Vinci	-12.2987
▁Luxembourg	-12.2987
▁vách	-12.2987
▁Tango	-12.299
▁Iris	-12.2991
▁quạt	-12.2991
▁Sophie	-12.2992
▁Neymar	-12.2995
▁hand	-12.2996
▁SA	-12.3002
bình	-12.3002
cùng	-12.3003
▁Oil	-12.3003
▁hì	-12.3006
▁Track	-12.3008
...”.	-12.3009
Good	-12.3011
gọi	-12.3024
▁Qu	-12.3025
▁22:	-12.3027
▁Julian	-12.3027
▁Laser	-12.3028
▁Attack	-12.3031
▁xộn	-12.3033
▁tuýp	-12.3033
▁Alexandria	-12.3034
▁Petersburg	-12.3034
▁México	-12.3035
▁Build	-12.3035
▁Ontario	-12.3036
▁Board	-12.3036
▁Sandy	-12.3038
▁Elton	-12.3038
▁Temple	-12.3039
▁Twilight	-12.304
▁Đợt	-12.304
▁Strange	-12.3041
▁Kick	-12.3042
▁Swiss	-12.3042
Be	-12.3044
▁tát	-12.3047
▁Legends	-12.3052
Hàng	-12.3053
▁Lose	-12.3054
▁Chỉnh	-12.3055
▁Rey	-12.3056
▁Xinh	-12.3068
▁Lô	-12.307
▁Ridge	-12.3074
▁Au	-12.3074
▁EX	-12.3075
▁301	-12.3075
▁Poster	-12.3077
▁Asian	-12.3078
nơi	-12.3081
▁TNHH	-12.3081
▁Caribbean	-12.3081
▁Semalt	-12.3081
▁Shopping	-12.3082
▁hiên	-12.3082
▁Sanders	-12.3082
▁ĐÂY	-12.3082
▁Musk	-12.3083
▁Lặng	-12.3083
▁Slovakia	-12.3083
Net	-12.3083
▁Nevada	-12.3083
star	-12.3084
▁Toà	-12.3084
▁Ngốc	-12.3086
▁Bean	-12.3086
Sản	-12.3089
▁Ngắn	-12.3089
▁Vincent	-12.3089
34	-12.309
▁Sim	-12.309
▁Common	-12.3094
▁gom	-12.3096
▁net	-12.3097
Phát	-12.3099
▁scan	-12.3103
▁Skin	-12.3105
▁Qur	-12.3106
▁Ngon	-12.3111
▁Knows	-12.3122
▁1942	-12.3123
▁AMP	-12.3125
▁word	-12.3128
▁Duterte	-12.3128
▁đầu	-12.3129
ville	-12.3129
▁Illinois	-12.313
▁Khứ	-12.313
▁uốn	-12.3131
▁Đoạt	-12.3131
▁Jonas	-12.3131
▁HDMI	-12.3133
▁Venus	-12.3133
▁JYJ	-12.3133
▁Writing	-12.3134
▁Trầm	-12.3136
▁Xương	-12.3136
▁phác	-12.3142
▁Eco	-12.3144
”(	-12.3147
Ngôi	-12.3147
▁IPO	-12.3148
Quan	-12.3151
▁Wants	-12.3164
▁230	-12.3166
▁Networks	-12.3168
out	-12.3169
▁gắt	-12.3177
▁Czech	-12.3177
▁:(	-12.3178
▁Lỡ	-12.3181
▁Chinh	-12.3183
▁Request	-12.3185
▁Race	-12.3187
▁Zoom	-12.3188
▁vãn	-12.3191
Muốn	-12.3196
Đất	-12.3196
Bằng	-12.3196
cập	-12.3196
▁Grab	-12.3201
▁Đón	-12.3203
▁Tồn	-12.3213
▁kìm	-12.3217
▁Designer	-12.3218
▁Concept	-12.3221
id	-12.3221
▁Picture	-12.3222
▁does	-12.3224
▁nấp	-12.3226
▁Spears	-12.3226
▁Váy	-12.3227
▁Fukuoka	-12.3229
▁BBQ	-12.3229
▁Cleveland	-12.3231
Go	-12.3234
▁real	-12.3234
TR	-12.3236
▁Clean	-12.3238
▁Paulo	-12.3241
▁14:	-12.3243
ão	-12.3245
Thầy	-12.3245
Tính	-12.3245
Đôi	-12.3246
tốt	-12.3246
sống	-12.3251
▁Pitt	-12.3251
▁Pa	-12.3252
▁quáng	-12.3259
▁5/	-12.3265
▁1937	-12.327
▁CP	-12.3271
▁giỏ	-12.3272
▁nã	-12.3273
▁nếp	-12.3274
▁xiếc	-12.3274
▁Spot	-12.3274
▁sự	-12.3274
▁topic	-12.3275
▁tuế	-12.3275
▁phà	-12.3275
name	-12.3276
▁Bìa	-12.3277
▁Jeremy	-12.3277
▁Churchill	-12.3277
▁Foster	-12.3278
▁Discovery	-12.3278
▁Superman	-12.328
▁/>	-12.3281
▁Điền	-12.3281
▁Trọn	-12.3282
▁tụy	-12.3282
▁Commons	-12.3282
▁Trăm	-12.3284
▁music	-12.3287
St	-12.3288
Jacob	-12.3294
Tương	-12.3295
4)	-12.3309
♥	-12.3312
▁Lives	-12.3312
ke	-12.3317
▁Ride	-12.3317
▁1998.	-12.3319
▁Building	-12.3319
▁ROM	-12.3323
▁Heights	-12.3323
▁insulin	-12.3324
▁iMac	-12.3325
▁Alfred	-12.3326
▁bọt	-12.3326
▁Maker	-12.3327
▁nóc	-12.3328
▁Safe	-12.3329
▁Ellen	-12.333
▁Dãy	-12.333
▁tưới	-12.333
▁1966	-12.333
ce	-12.3332
▁thui	-12.3332
▁GDPR	-12.3334
▁210	-12.3334
▁KI	-12.3335
▁Đầy	-12.3338
gần	-12.3339
▁Hear	-12.3339
Abraham	-12.3343
Kể	-12.3344
máy	-12.3344
Cám	-12.3346
▁Secure	-12.3347
Vũ	-12.3348
▁Thao	-12.335
▁Blade	-12.3351
▁4-5	-12.3352
?""	-12.3363
hàng	-12.3363
▁nhét	-12.337
▁Rocket	-12.3372
▁sấu	-12.3372
▁Window	-12.3372
▁Christina	-12.3373
▁Gruzia	-12.3374
▁Coinbase	-12.3375
▁might	-12.3375
▁Địch	-12.3375
▁Saigon	-12.3376
▁Route	-12.3376
▁Kéo	-12.3378
▁Jolie	-12.3383
▁Gotta	-12.3384
200	-12.3385
▁nice	-12.3386
49	-12.3386
▁18:	-12.3386
▁Found	-12.3387
▁chích	-12.3388
▁white	-12.3393
Tây	-12.3394
▁trút	-12.3399
vào	-12.3402
▁(12)	-12.3402
^	-12.3404
▁Sen	-12.3413
ft	-12.3414
▁Try	-12.3414
▁nhẽ	-12.342
▁far	-12.3421
▁Morris	-12.3421
▁Twain	-12.3422
▁estrogen	-12.3422
▁THÍCH	-12.3422
▁đọng	-12.3422
▁1958	-12.3422
▁Glacier	-12.3423
▁múi	-12.3424
ếch	-12.3424
▁Taipei	-12.3426
▁PSG	-12.3426
▁APK	-12.3427
▁Whole	-12.3428
▁access	-12.3429
▁were	-12.3429
▁Bruno	-12.3429
▁Dash	-12.343
▁đốm	-12.343
js	-12.3431
ải	-12.3432
▁sorry	-12.3433
▁Password	-12.3435
▁UPS	-12.344
95	-12.344
ồng	-12.3442
Thượng	-12.3443
Thiết	-12.3443
▁Disk	-12.3452
▁Bối	-12.3453
▁3.4	-12.346
▁Focus	-12.3461
▁Brother	-12.3465
▁form	-12.3466
▁nà	-12.3469
▁Nicole	-12.3471
▁Filter	-12.3471
▁Gandhi	-12.3471
▁dẻo	-12.3472
▁nhăn	-12.3472
▁góa	-12.3472
▁ngậm	-12.3474
▁Century	-12.3474
▁mặn	-12.3474
▁Dollar	-12.3474
▁Stories	-12.3474
▁vặn	-12.3476
▁Ðó	-12.3478
▁Tel	-12.3478
▁Eat	-12.3482
▁Viewer	-12.3482
▁Lân	-12.349
▁Cốt	-12.3495
▁IEC	-12.3496
▁tv	-12.3499
á	-12.3505
▁Switch	-12.3506
▁king	-12.3516
▁17:	-12.3517
▁Hotels	-12.3518
▁Hacker	-12.3518
▁Siberia	-12.3519
▁Title	-12.352
▁nhích	-12.3522
▁Rider	-12.3522
▁samurai	-12.3523
▁Imperial	-12.3523
au	-12.3525
ời	-12.3525
▁Khỉ	-12.3525
▁Phantom	-12.3525
▁its	-12.3528
▁Electronics	-12.3529
▁ngóng	-12.3532
▁Khốn	-12.3538
▁Unit	-12.3539
day	-12.3544
chết	-12.3546
4.	-12.3546
phim	-12.3549
▁1994,	-12.3562
▁Ram	-12.3567
▁rain	-12.3567
▁picnic	-12.3571
▁DB	-12.3572
▁another	-12.3573
▁jazz	-12.3573
▁Lọc	-12.3573
▁khâu	-12.3574
▁NEW	-12.3574
▁Nghèo	-12.3574
▁Eddie	-12.3575
▁Mậu	-12.3575
▁Ecuador	-12.3576
▁Rebecca	-12.3577
▁Essentials	-12.3578
▁Acer	-12.358
ấn	-12.3581
▁nhẹn	-12.3584
▁BC	-12.3584
ry	-12.3585
▁(11	-12.3586
▁Anime	-12.3587
▁Ella	-12.3589
▁xua	-12.359
▁Aqua	-12.3594
Đường	-12.3594
▁Giáp	-12.3597
▁Catch	-12.3605
bo	-12.3611
▁18%	-12.3616
▁Ass	-12.362
▁lẫy	-12.3622
▁reo	-12.3622
▁Atlantic	-12.3622
▁THƯ	-12.3622
▁Ferguson	-12.3623
▁Olivia	-12.3623
▁6000	-12.3624
▁Trip	-12.3624
▁Khắp	-12.3626
▁Birthday	-12.3627
▁Pie	-12.3627
▁Eiffel	-12.3628
KB	-12.3631
▁Phàm	-12.3632
▁HS	-12.3632
▁words	-12.3637
▁Joan	-12.3643
Nàng	-12.3646
▁1962	-12.3646
▁ESL	-12.3651
▁4,5	-12.3651
▁AN	-12.3652
▁Lies	-12.3663
▁AP	-12.3663
[9]	-12.3663
quá	-12.367
▁Nation	-12.3671
▁Songs	-12.3672
▁rầy	-12.3673
▁loãng	-12.3673
▁trù	-12.3673
▁Campbell	-12.3674
▁Mile	-12.3674
▁Newcastle	-12.3675
za	-12.3675
▁password	-12.3675
▁Tanzania	-12.3676
▁Racing	-12.3676
▁Suzuki	-12.3676
▁Tivi	-12.3676
▁96%	-12.3676
▁Loving	-12.3676
▁PA	-12.3677
▁Jul	-12.3679
▁Canyon	-12.3684
▁Settings	-12.3684
97	-12.3685
rô	-12.3689
sao	-12.3692
▁VietSub	-12.37
▁1963	-12.3701
mới	-12.3705
▁EMA	-12.3705
▁Mon	-12.3709
▁Bull	-12.3711
▁Been	-12.3714
▁lữ	-12.3722
▁rầu	-12.3723
▁tý	-12.3724
▁NPK	-12.3725
▁Logan	-12.3726
▁Nagoya	-12.3729
▁Unity	-12.373
▁Thăng	-12.373
▁cành	-12.3731
▁Chà	-12.3731
Re	-12.3732
▁cua	-12.374
▁bo	-12.3743
▁se	-12.3744
Phòng	-12.3748
Địa	-12.3748
Ấn	-12.3748
▁FX	-12.3752
▁dai	-12.3754
▁Form	-12.3756
▁Then	-12.3761
wood	-12.3764
▁Lloyd	-12.3768
▁náo	-12.3775
▁Auckland	-12.3775
▁dào	-12.3776
í	-12.3777
▁Madagascar	-12.3777
▁Orchestra	-12.3778
▁chùm	-12.3778
▁xảo	-12.3779
▁Irish	-12.3779
▁These	-12.378
▁fucking	-12.3783
▁Che	-12.3783
▁Titanic	-12.3784
Lu	-12.3784
▁lung	-12.3785
▁GP	-12.3787
▁Cốc	-12.379
▁Chinese	-12.3791
for	-12.3796
ist	-12.3797
▁xửa	-12.38
▁POP	-12.38
▁Sway	-12.3809
▁Copyright	-12.382
▁design	-12.3823
▁Paper	-12.3826
▁Hoạch	-12.3826
▁Quyến	-12.3828
▁vaccine	-12.3828
▁Waterfront	-12.3828
▁Quỳnh	-12.3829
les	-12.3829
▁LÀM	-12.3831
▁1993,	-12.3831
▁Hidden	-12.3831
▁Shanghai	-12.3835
▁Eminem	-12.3835
▁AFP	-12.384
PM	-12.384
▁Does	-12.384
hơn	-12.3842
▁Upper	-12.3847
▁Ne	-12.385
ron	-12.3852
▁Buy	-12.3852
▁Neo	-12.3865
77	-12.3867
▁Cáp	-12.3868
So	-12.3869
▁Islands	-12.3871
▁Bass	-12.3874
▁Controller	-12.3876
▁Kurd	-12.3877
▁Ghé	-12.3877
▁giặc	-12.3879
▁PHÍ	-12.3879
▁mẩu	-12.3879
▁Khăn	-12.388
▁Kuwait	-12.388
▁said	-12.388
▁Twice	-12.3882
▁AL	-12.3882
▁Malta	-12.3882
▁Gaming	-12.3882
▁Dying	-12.3883
▁Anniversary	-12.3883
▁Aston	-12.3883
▁drone	-12.3884
▁Merry	-12.3889
▁CRM	-12.3891
PC	-12.3893
▁Delta	-12.3893
dù	-12.3894
▁Artist	-12.3902
dịch	-12.3904
mất	-12.3905
▁natri	-12.3906
▁Dựng	-12.3908
▁1949	-12.3908
▁Branch	-12.3916
▁XM	-12.3917
Can	-12.392
▁Corp	-12.3921
▁Views	-12.3923
▁Mia	-12.3925
▁NG	-12.3925
▁Revolution	-12.3926
▁Course	-12.3926
▁Print	-12.3929
▁Nicaragua	-12.3929
▁Gieâ	-12.393
▁giầy	-12.393
▁Reagan	-12.393
▁chéo	-12.393
▁tầu	-12.393
03	-12.393
▁Samantha	-12.3931
▁1.8	-12.3932
▁Airbnb	-12.3932
▁đạm	-12.3932
ur	-12.3932
▁đần	-12.3932
▁Shine	-12.3933
▁Heritage	-12.3934
▁Elite	-12.3934
▁dơi	-12.3935
▁1970.	-12.3936
▁NGC	-12.3937
▁Adults	-12.3937
ary	-12.394
▁Lucas	-12.3942
▁MY	-12.3946
▁#4	-12.395
back	-12.3956
▁IPv	-12.3958
▁Youth	-12.396
▁city	-12.397
▁Coco	-12.3977
▁fuck	-12.3978
▁Moment	-12.3979
▁Developer	-12.398
Chi	-12.3982
▁thấy	-12.3982
▁Mitchell	-12.3983
▁GeForce	-12.3983
▁Acronis	-12.3984
▁2050	-12.3985
▁đục	-12.3985
▁Lợn	-12.3988
▁Đích	-12.3988
▁Đùa	-12.3989
▁999	-12.3994
65	-12.3998
▁Ky	-12.3998
▁153	-12.4004
▁Giản	-12.4006
Source	-12.4009
mọi	-12.401
ts	-12.4014
▁Soft	-12.4015
▁Count	-12.4019
▁Ham	-12.402
98	-12.4021
lo	-12.4021
▁1932	-12.4024
▁Credit	-12.4028
▁Interface	-12.403
chan	-12.4031
▁Maduro	-12.4035
▁dột	-12.4035
▁Laden	-12.4036
▁luyến	-12.4036
▁Vời	-12.4037
▁Đắc	-12.4038
▁Pandora	-12.4038
▁Wendy	-12.4038
▁Omega	-12.4039
quan	-12.404
▁phôi	-12.404
▁Dick	-12.404
▁ISIS	-12.4041
▁Rocky	-12.4047
▁Whitney	-12.405
▁Late	-12.4051
▁Thor	-12.4063
Hiệp	-12.4063
kể	-12.4063
ey	-12.4065
▁Device	-12.4068
▁Record	-12.4073
▁theme	-12.4076
Rắc	-12.4077
▁air	-12.4078
▁Banner	-12.4081
nm	-12.4083
▁64-	-12.4087
▁Dropbox	-12.4088
▁nhồi	-12.4088
▁Enemy	-12.4088
▁mịn	-12.4089
▁Cameroon	-12.4089
▁nhìu	-12.4089
▁lẩn	-12.4089
▁forum	-12.4091
▁Cream	-12.4092
▁1983	-12.4092
▁amin	-12.4092
▁Panel	-12.4093
▁Tàn	-12.4094
▁Admin	-12.4096
▁bịt	-12.4097
▁Lay	-12.4098
▁African	-12.4106
▁comes	-12.4106
▁phai	-12.4107
you	-12.4113
▁Alien	-12.4116
▁Đồi	-12.4119
That	-12.4119
▁pass	-12.4122
▁Fat	-12.4123
ơng	-12.4126
▁Pat	-12.4131
▁Loa	-12.4132
▁podcast	-12.4134
▁stay	-12.4135
▁Stranger	-12.4137
▁review	-12.4138
▁Display	-12.4138
▁idol	-12.4138
▁Concert	-12.4142
▁really	-12.4142
ter	-12.4143
▁Budget	-12.4143
▁ASUS	-12.4144
hói	-12.4144
▁TWICE	-12.4144
▁Liền	-12.4144
▁ngứa	-12.4144
▁Worth	-12.4145
▁Đặng	-12.4146
▁Bryan	-12.4147
▁Sin	-12.4147
▁Napoli	-12.4147
▁Hugh	-12.4147
▁bén	-12.4149
lin	-12.4155
▁Xả	-12.4155
▁Jo	-12.4158
nt	-12.4158
Tổ	-12.4165
.[1]	-12.4166
▁green	-12.4168
Đạo	-12.417
31	-12.4173
▁1996,	-12.4175
▁Select	-12.4175
▁Any	-12.4181
▁9%	-12.4192
▁Nguyền	-12.4195
▁Chromebook	-12.4195
▁bậy	-12.4195
▁McAfee	-12.4196
▁Giây	-12.4197
▁Armstrong	-12.4197
▁Mozart	-12.4197
▁280	-12.4198
▁Travelodge	-12.4198
▁báp	-12.4198
▁Gift	-12.4199
▁Doraemon	-12.42
▁Rihanna	-12.42
▁Hanoi	-12.42
▁Bích	-12.4201
THAY	-12.4202
▁Nations	-12.4204
etc	-12.4208
▁double	-12.4214
Đồ	-12.422
▁201	-12.4223
giây	-12.4224
Hầu	-12.4224
miễn	-12.4224
▁3/4	-12.4224
51	-12.4227
▁their	-12.423
▁Oz	-12.4231
ong	-12.4232
42	-12.4235
▁BD	-12.424
▁Performance	-12.4242
▁NGH	-12.4242
▁Murder	-12.4245
▁short	-12.4246
▁Feeling	-12.4247
▁GmbH	-12.4248
▁Bezos	-12.4248
▁thừng	-12.4248
▁Files	-12.4248
▁Merkel	-12.4249
▁Ralph	-12.425
head	-12.425
▁Drake	-12.4251
▁Medicine	-12.4252
▁Joshua	-12.4254
▁Greg	-12.4264
06	-12.4265
sen	-12.4272
▁Nina	-12.4273
▁QU	-12.4273
▁ALL	-12.4274
▁Lock	-12.4275
▁Quanh	-12.4275
nhất	-12.428
▁1919	-12.4284
▁134	-12.429
▁Tale	-12.4292
▁1,4	-12.4294
▁len	-12.4295
▁Ground	-12.43
▁suôn	-12.4301
▁vậy	-12.4302
▁Roof	-12.4302
▁kẹp	-12.4302
▁Elastic	-12.4303
▁Mississippi	-12.4303
▁Massage	-12.4303
▁Shareware	-12.4303
▁kèo	-12.4304
500	-12.4304
▁Groove	-12.4305
▁Blake	-12.4306
▁lu	-12.4306
▁CentOS	-12.4308
▁rét	-12.4309
▁Thịnh	-12.4309
▁Nicolas	-12.4309
▁1941	-12.431
▁141	-12.431
▁yến	-12.4311
And	-12.4312
▁Expo	-12.4314
▁boss	-12.4316
▁break	-12.4324
ỷ	-12.4324
▁Tales	-12.4328
•	-12.4329
việc	-12.4333
▁Woo	-12.4333
Gần	-12.4333
▁Pen	-12.4333
▁nư	-12.4335
▁Đo	-12.4337
[1].	-12.4338
▁Ji	-12.4339
Danh	-12.4339
▁ập	-12.4344
▁Kent	-12.4344
▁---	-12.4346
▁hoán	-12.4346
▁cộ	-12.4346
▁Luna	-12.4347
▁choáng	-12.4347
▁cocktail	-12.4348
▁Hz	-12.4348
▁Caesar	-12.4349
▁ă	-12.4353
▁McCain	-12.4356
▁hiện	-12.4356
▁Ngư	-12.4356
▁Brunei	-12.4357
▁Denver	-12.4357
▁Munich	-12.4358
▁xoáy	-12.4358
▁Platform	-12.4359
▁RC	-12.4362
▁Táo	-12.4364
▁MIT	-12.4365
▁Kháng	-12.4369
ity	-12.4371
▁false	-12.4372
▁Silent	-12.4373
▁Megan	-12.4374
44	-12.4377
▁+1	-12.4378
▁times	-12.4382
▁Phối	-12.4383
▁365,	-12.4384
▁xít	-12.4386
Vẫn	-12.4388
Cola	-12.4389
▁Calvin	-12.4394
▁super	-12.4396
▁165	-12.4402
▁rap	-12.4404
▁3-5	-12.4407
▁Marine	-12.4408
qub	-12.441
▁việc	-12.4411
▁Natalie	-12.4411
▁Verizon	-12.4412
▁wanna	-12.4413
▁MPEG	-12.4413
-15	-12.4413
▁Mụ	-12.4414
▁Islam	-12.4415
▁Mũ	-12.4415
▁HPV	-12.4417
▁IC	-12.4418
▁bự	-12.4419
▁party	-12.4422
▁1944	-12.4424
▁xay	-12.4425
▁chanh	-12.4426
hieân	-12.4436
Isaac	-12.4443
Radio	-12.4443
▁512	-12.4445
▁Electronic	-12.4445
Bên	-12.4446
▁Roberts	-12.4451
▁Ren	-12.4463
▁Million	-12.4465
▁Insider	-12.4465
▁Brain	-12.4465
▁Napoléon	-12.4468
▁Uzbekistan	-12.4468
▁laptop	-12.4468
▁Glory	-12.4468
▁Same	-12.4469
▁Timothy	-12.447
600	-12.447
▁Chiêu	-12.447
▁Viêm	-12.4471
hoàn	-12.4475
▁18,	-12.4478
▁comments	-12.448
▁CBS	-12.4486
▁mu	-12.4493
ji	-12.4495
▁ship	-12.4496
Liệu	-12.4498
nguyên	-12.4498
▁1.7	-12.4498
Cần	-12.4499
▁8000	-12.4499
▁1995.	-12.4501
Dạ	-12.4501
▁Chen	-12.4503
▁Kane	-12.4511
▁sun	-12.4515
▁giã	-12.4516
▁Ashley	-12.4522
▁Tuất	-12.4522
▁sp	-12.4522
▁Chiêm	-12.4523
▁React	-12.4523
▁9000	-12.4524
▁Angola	-12.4524
▁ầm	-12.4526
▁Xảy	-12.4527
▁Chậm	-12.4528
▁RS	-12.4529
▁CNC	-12.4534
êu	-12.4538
91	-12.4538
▁font	-12.4551
đại	-12.4554
quyền	-12.4554
trang	-12.4556
▁Dual	-12.456
cố	-12.4562
▁SC	-12.4564
▁Monday	-12.4572
▁side	-12.4575
▁330	-12.4575
▁pound	-12.4576
▁Lyon	-12.4576
▁Agent	-12.4576
▁luo	-12.4576
▁Cap	-12.4577
▁Richmond	-12.4577
‘	-12.4577
▁Console	-12.4578
▁karaoke	-12.4578
▁Gỡ	-12.4578
Star	-12.4579
▁Greatest	-12.4579
▁rợ	-12.458
▁band	-12.458
▁Nghìn	-12.4581
▁Nhịp	-12.4582
▁[9]	-12.4583
▁Kiếp	-12.4584
▁Should	-12.4584
▁Learn	-12.4587
▁support	-12.4588
▁TC	-12.4591
▁Santos	-12.4591
▁Dogs	-12.4595
▁Tục	-12.4598
ER	-12.4598
hìa	-12.46
▁Abe	-12.4608
▁PRO	-12.4614
▁gene	-12.4617
▁Claus	-12.462
▁Gay	-12.4624
sus	-12.463
▁Nghiệm	-12.4632
▁lụa	-12.4632
▁IBS	-12.4634
▁Flower	-12.4634
▁Nhắn	-12.4635
▁phường	-12.4637
▁Wonderful	-12.4639
▁97%	-12.4639
▁WORLD	-12.4639
▁10,000	-12.4639
▁(2003)	-12.464
▁33%	-12.4644
▁Bose	-12.4645
-9	-12.4649
▁nhọn	-12.4651
▁0,	-12.4656
ứt	-12.4659
▁min	-12.4662
Giăng	-12.4666
Trường	-12.4666
Cầu	-12.4667
Never	-12.4668
3].	-12.4669
▁192	-12.467
-16	-12.4679
▁Ward	-12.4682
▁same	-12.4682
▁truth	-12.4684
▁Kinesis	-12.4688
▁lình	-12.4688
▁địt	-12.4689
▁Đầm	-12.469
▁Myself	-12.4691
▁Rescue	-12.4691
▁Hugo	-12.4691
▁diesel	-12.4691
▁Snowden	-12.4692
▁nhĩ	-12.4692
▁Sword	-12.4693
not	-12.4694
▁ERP	-12.4698
▁1,3	-12.47
▁Early	-12.4702
▁cút	-12.4702
▁Se	-12.4708
▁185	-12.4712
▁Row	-12.4713
▁Ku	-12.4715
▁1997.	-12.4715
▁String	-12.4716
rinh	-12.4716
max	-12.4719
▁ion	-12.4719
cậu	-12.472
dưới	-12.4723
Bắc	-12.4724
▁makes	-12.4726
▁Rác	-12.4727
Ban	-12.4727
▁189	-12.4729
▁122	-12.4729
There	-12.4729
▁sả	-12.4736
▁joy	-12.4743
▁August	-12.4744
▁đươc	-12.4744
▁Relais	-12.4744
▁quật	-12.4744
▁Clara	-12.4745
▁ĐÂU	-12.4745
▁xẻo	-12.4745
▁Macbook	-12.4746
▁cọc	-12.4746
▁Wright	-12.4748
▁Wife	-12.4748
▁Goldman	-12.4749
▁Native	-12.4749
▁Cambodia	-12.475
▁Serviced	-12.4751
▁Evans	-12.4751
▁23%	-12.4752
▁Mystery	-12.4752
▁bùa	-12.4753
▁FTP	-12.4753
▁VS	-12.4754
▁found	-12.4754
▁Legacy	-12.4755
▁Dám	-12.4755
▁5.2	-12.4755
▁đĩ	-12.4756
▁Privacy	-12.4758
="	-12.4759
▁Rice	-12.4762
▁Hart	-12.4763
▁17%	-12.4764
▁Ủa	-12.4767
he	-12.4773
▁Resorts	-12.4779
Nhóm	-12.478
vùng	-12.478
▁thun	-12.4781
Chết	-12.4783
▁1,000	-12.4787
▁Ask	-12.4789
▁Hurt	-12.479
▁Joel	-12.4791
▁Val	-12.4791
Me	-12.4794
▁Extra	-12.4797
▁Highway	-12.4799
▁Walmart	-12.4801
-2999-	-12.4801
▁Ibiza	-12.4803
▁Autodesk	-12.4803
ho	-12.4803
▁Ronald	-12.4804
▁kiss	-12.4804
▁Pablo	-12.4807
ara	-12.4807
▁Defense	-12.4807
▁Lou	-12.4808
▁Blu	-12.4808
▁price	-12.4809
▁NEO	-12.4809
▁152	-12.4809
▁machine	-12.481
▁MTV	-12.4811
▁Slow	-12.4811
▁Timor	-12.4814
▁DHL	-12.4819
▁182	-12.4828
khu	-12.483
▁Eden	-12.483
MP	-12.4833
▁Links	-12.4833
▁sưng	-12.4834
▁Petit	-12.4837
▁188	-12.4837
Thanh	-12.4838
▁Op	-12.4844
▁vụn	-12.4845
Si	-12.4846
▁Mirror	-12.4847
kia	-12.4849
▁question	-12.4852
Just	-12.4856
▁sững	-12.4858
▁Studies	-12.4859
▁sáo	-12.4859
▁toái	-12.486
▁Gởi	-12.4861
▁Harmony	-12.4861
▁Kĩ	-12.4861
▁canxi	-12.4862
▁switch	-12.4862
▁Lightning	-12.4863
▁Murray	-12.4863
▁Harley	-12.4863
▁android	-12.4864
▁Response	-12.4864
▁Mod	-12.4865
▁Hermione	-12.4865
▁ê	-12.4865
▁Effects	-12.4866
▁Môsê	-12.4867
▁Complete	-12.4868
▁Kyle	-12.487
▁Send	-12.4875
▁pm	-12.4877
▁Fairy	-12.4879
▁war	-12.488
OK	-12.4895
Biết	-12.4895
Lưu	-12.4895
ard	-12.4898
▁star	-12.4904
▁6.0	-12.4905
NE	-12.4907
▁Bát	-12.4911
▁Dhabi	-12.4916
▁Ishaq	-12.4916
▁xẩy	-12.4917
▁mỳ	-12.4917
/1	-12.4918
▁Memphis	-12.4918
▁Nero	-12.4918
▁school	-12.4919
▁Mill	-12.4919
▁Toshiba	-12.4919
▁Fury	-12.4919
▁dark	-12.4921
▁Boot	-12.4922
▁(2000)	-12.4924
▁thinh	-12.4929
▁Banks	-12.4929
▁Detective	-12.4933
52	-12.4934
▁139	-12.4936
▁loan	-12.4937
▁Keys	-12.4937
▁Feb	-12.4937
▁sen	-12.4939
▁Images	-12.494
▁dell	-12.4944
▁Tank	-12.495
·	-12.495
đường	-12.4953
Bệnh	-12.4953
▁Bio	-12.4954
love	-12.4955
▁SBS	-12.4968
▁Đói	-12.4969
▁Origin	-12.4971
▁Module	-12.4972
▁Polo	-12.4975
▁Chuck	-12.4975
▁Dortmund	-12.4976
▁Dâu	-12.4976
▁Tộc	-12.4977
▁Depp	-12.4977
▁SARS	-12.4977
▁Muộn	-12.4977
▁Sóc	-12.4979
▁Sleeping	-12.4979
▁content	-12.4983
▁Jesse	-12.4983
▁Hair	-12.4985
▁Lược	-12.4988
▁Flying	-12.4989
▁4.4	-12.4989
▁Logic	-12.499
▁Condo	-12.4997
▁cào	-12.5005
AIDS	-12.5006
▁401	-12.5007
Hello	-12.5011
địa	-12.5012
▁cool	-12.5013
xã	-12.5014
ler	-12.5015
▁Tá	-12.5016
▁láo	-12.5018
▁Screen	-12.5023
▁job	-12.5024
▁Wizard	-12.5027
▁account	-12.5028
▁Tulip	-12.5029
▁Hadoop	-12.5031
▁vóc	-12.5033
▁Trúc	-12.5034
▁young	-12.5034
▁Alabama	-12.5034
▁Princeton	-12.5034
▁FF	-12.5034
▁Frost	-12.5034
▁Ship	-12.5034
▁UFC	-12.5036
▁sky	-12.5036
▁Warner	-12.5037
▁Jessie	-12.5038
▁Gồm	-12.5039
▁bênh	-12.5041
▁Mượn	-12.5041
▁159	-12.5043
▁TN	-12.5044
▁Ave	-12.5045
▁DÂN	-12.5046
hệ	-12.5053
▁plus	-12.5057
-12	-12.5063
▁1600	-12.5063
ation	-12.5063
▁HCM	-12.5064
▁?!	-12.5065
Dự	-12.5067
DVD	-12.5067
▁Pet	-12.507
tiếp	-12.507
Open	-12.5072
▁1957	-12.5073
▁BA	-12.5073
Oh	-12.508
▁han	-12.5087
▁Snapchat	-12.509
▁thớt	-12.509
▁Granada	-12.5091
▁Nana	-12.5091
▁Catalonia	-12.5092
▁Magazine	-12.5092
▁Tarot	-12.5094
▁Stockholm	-12.5094
▁9)	-12.5094
96	-12.5096
▁Kệ	-12.5097
▁Wanted	-12.5098
▁Use	-12.51
▁Holy	-12.5101
▁Rolling	-12.5101
▁RPG	-12.5101
▁55%	-12.5102
▁Dynamic	-12.5103
▁2015)	-12.5103
▁6.1	-12.5104
▁#5	-12.5107
ment	-12.5109
▁138	-12.5109
▁2.6	-12.511
▁14%	-12.5112
cao	-12.5112
[...]	-12.5117
▁Abel	-12.5119
Web	-12.5123
▁Move	-12.5123
▁CU	-12.5123
ray	-12.5125
▁did	-12.5126
Trả	-12.5127
điểm	-12.513
thuộc	-12.513
đánh	-12.513
phút	-12.513
▁Kris	-12.5133
ee	-12.5136
▁nhai	-12.5139
▁1989.	-12.514
▁Container	-12.5143
▁MH	-12.5146
▁AdSense	-12.5149
▁Nine	-12.5149
▁nín	-12.5149
▁đoái	-12.5149
▁Lưới	-12.515
▁Ôn	-12.5151
▁kiều	-12.5151
▁wallpaper	-12.5151
▁Arnold	-12.5152
▁Craig	-12.5153
▁Miranda	-12.5153
▁September	-12.5153
▁DIY	-12.5153
▁Loạt	-12.5154
▁Nathan	-12.5155
▁HDR	-12.5157
▁boot	-12.5159
38	-12.5161
Khoa	-12.5165
▁365.	-12.5176
▁Luca	-12.5177
▁these	-12.5177
▁Wrong	-12.5185
Red	-12.5189
Lý	-12.519
kinh	-12.519
Ký	-12.5191
▁1,8	-12.5194
▁cent	-12.5195
Bao	-12.5197
▁158	-12.5198
▁Bailey	-12.52
▁Wedding	-12.5205
▁PowerShell	-12.5208
InterContinental	-12.5208
▁đùi	-12.5208
▁yourself	-12.5209
▁Gomez	-12.5209
▁hờn	-12.5209
▁Nấm	-12.521
▁Valencia	-12.521
▁Khẩn	-12.521
▁Melissa	-12.521
▁kẽm	-12.521
▁Fluke	-12.521
▁Melody	-12.5211
▁Keith	-12.5211
▁Champagne	-12.5212
▁NGHI	-12.5215
hu	-12.5219
▁Lồng	-12.5222
▁Came	-12.5223
▁write	-12.5225
▁small	-12.5227
bar	-12.5229
▁Sciences	-12.523
▁yen	-12.5232
▁Epic	-12.5232
book	-12.5239
ột	-12.5244
▁Ngã	-12.5245
▁(13)	-12.5247
▁Villas	-12.5248
▁51%	-12.5249
▁169	-12.525
màu	-12.5251
mp	-12.5251
▁Apr	-12.5253
▁1945,	-12.5253
▁1996.	-12.5253
▁Đếm	-12.5255
soft	-12.5256
▁Barca	-12.5258
▁Baron	-12.5261
▁Fisher	-12.5264
▁buồm	-12.5267
▁Presley	-12.5267
▁muốn	-12.5267
▁Lambda	-12.5268
▁Amanda	-12.5269
▁tử	-12.5269
▁soáng	-12.527
đề	-12.527
▁Rising	-12.527
▁Above	-12.5271
▁Ivy	-12.5272
Hay	-12.5272
▁Serena	-12.5273
Super	-12.5276
▁Spain	-12.5276
▁mú	-12.5277
▁Thùng	-12.5277
▁155	-12.5278
▁windows	-12.5279
▁Mighty	-12.5279
▁DS	-12.5281
Get	-12.5284
▁Path	-12.5285
ú	-12.5292
▁hu	-12.53
▁Gas	-12.5302
Châu	-12.5309
Hướng	-12.5309
Cộng	-12.5309
▁CN	-12.531
PDF	-12.5314
▁put	-12.5314
▁Playlist	-12.5319
▁133	-12.532
▁lở	-12.5323
▁1911	-12.5325
▁Latvia	-12.5326
du	-12.5327
▁7.1	-12.5327
▁Sinatra	-12.5327
▁Garmin	-12.5327
▁Bristol	-12.5328
▁bới	-12.533
PL	-12.533
▁salad	-12.5331
▁Police	-12.5331
▁(1993)	-12.5332
▁Todd	-12.5334
▁Bút	-12.5334
▁Thở	-12.5334
▁Partners	-12.5335
▁Chạm	-12.5335
▁Khanh	-12.5338
▁chói	-12.5338
▁142	-12.5339
300	-12.534
▁MAX	-12.5343
▁Cain	-12.5346
▁soon	-12.5349
▁office	-12.5353
Studio	-12.5354
▁EA	-12.5354
▁fork	-12.5357
▁Sign	-12.5358
nhạc	-12.537
Toàn	-12.537
Đội	-12.537
▁Andre	-12.537
▁MK	-12.5377
▁Treasure	-12.5382
▁tỏi	-12.5382
▁Harbour	-12.5384
▁7000	-12.5384
▁Effect	-12.5386
▁rụi	-12.5387
▁Minnesota	-12.5388
▁gân	-12.5388
▁Carnegie	-12.5389
▁Fucking	-12.5389
▁hót	-12.539
▁Hận	-12.539
▁Havana	-12.539
▁Sushi	-12.5393
▁Dọn	-12.5395
▁sub	-12.5395
▁Đoán	-12.5395
▁Bradley	-12.5396
▁Courtyard	-12.5397
▁Rest	-12.5398
▁learning	-12.5399
▁13,	-12.5399
▁Shaw	-12.5403
▁1947	-12.5404
▁Wells	-12.5406
▁hốt	-12.541
▁kB	-12.5412
adj	-12.5417
▁est	-12.5417
123	-12.5418
▁Nov	-12.5422
▁ED	-12.5424
Quá	-12.5424
▁Photos	-12.5426
▁kill	-12.5427
▁Pick	-12.5427
Qaeda	-12.543
loại	-12.543
đúng	-12.543
▁Sons	-12.5433
xe	-12.5439
▁10000	-12.544
▁Works	-12.5441
▁Viking	-12.5441
▁1994.	-12.5442
▁request	-12.5445
▁Triple	-12.5447
▁control	-12.5448
▁Tehran	-12.5448
▁nappi	-12.5449
▁Cyrus	-12.5449
▁mafia	-12.5449
▁Miguel	-12.545
▁Maggie	-12.545
▁Product	-12.5451
▁Hâm	-12.5451
▁Protein	-12.5453
▁Fever	-12.5454
▁Elena	-12.5454
▁Tiềm	-12.5455
▁Funny	-12.5456
▁Ngón	-12.5457
▁business	-12.5458
▁1992,	-12.5462
▁Hyper	-12.5463
▁UP	-12.5465
▁Hung	-12.5468
ner	-12.5468
▁PP	-12.5472
▁Create	-12.5475
▁137	-12.5477
▁thình	-12.5478
!’	-12.5484
Full	-12.5487
Báo	-12.5492
▁iu	-12.5494
hặng	-12.5495
▁UV	-12.5497
▁151	-12.55
▁done	-12.55
▁Ash	-12.5501
▁Pub	-12.5503
Chia	-12.5504
▁Kai	-12.5506
Up	-12.5507
▁Wellington	-12.5508
▁Simulator	-12.5508
▁sấm	-12.5508
▁miệt	-12.5509
▁VLAN	-12.5509
▁Choice	-12.5509
▁Flynn	-12.5512
▁Montana	-12.5513
▁Nandrolone	-12.5513
▁Chấn	-12.5514
▁Policy	-12.5514
▁Witch	-12.5514
▁Jovi	-12.5515
▁MFA	-12.5516
▁số	-12.5516
▁Ngạc	-12.5516
▁because	-12.5518
▁Sóng	-12.5519
▁Lights	-12.552
▁Cỏ	-12.552
▁diên	-12.5522
Sử	-12.5531
▁dream	-12.5538
▁GHz	-12.5544
▁Sue	-12.5546
▁XXI	-12.5547
▁Dress	-12.5547
With	-12.5553
Trò	-12.5553
Vương	-12.5554
chuyện	-12.5554
haùnh	-12.5557
▁FB	-12.5557
Sống	-12.5558
▁TƯ	-12.5558
▁Moto	-12.5564
▁(*	-12.5567
▁(13	-12.5568
▁Bosco	-12.557
▁marathon	-12.5571
▁vầng	-12.5572
▁Kanye	-12.5572
May	-12.5573
▁Harold	-12.5573
54	-12.5574
41	-12.5574
1000	-12.5576
ung	-12.5578
▁Piazza	-12.5578
▁build	-12.5578
▁Personal	-12.5582
▁két	-12.5585
▁install	-12.5587
▁136	-12.5589
▁Lovers	-12.559
▁Qui	-12.5596
▁1954	-12.56
úc	-12.56
▁mr	-12.5601
lôn	-12.5603
▁WP	-12.5607
▁VND	-12.5608
▁Nầy	-12.5611
▁UI	-12.5614
Điện	-12.5615
nhóm	-12.5616
Quốc	-12.5616
Mới	-12.5616
Hồi	-12.5617
ạm	-12.5618
▁Rex	-12.5621
▁Sales	-12.5622
▁850	-12.5628
▁Fighter	-12.5628
▁Sachs	-12.5628
▁Branson	-12.5631
▁nghẽn	-12.5631
▁Tagged	-12.5633
▁CHÍNH	-12.5633
▁Atlas	-12.5634
▁Chernobyl	-12.5634
ế	-12.5634
▁sale	-12.5635
MA	-12.5636
▁Amazing	-12.5636
▁Rumani	-12.5636
▁Travis	-12.5639
▁seo	-12.564
▁rót	-12.564
▁QR	-12.5641
He	-12.5644
▁Ngờ	-12.5645
▁Worlds	-12.5647
▁mẫn	-12.5647
▁Royale	-12.5652
2000	-12.5653
▁Vu	-12.5655
▁Error	-12.5657
bin	-12.5658
▁Colin	-12.5662
ja	-12.5664
tel	-12.5664
áng	-12.5665
▁Des	-12.5666
53	-12.5667
▁Lynn	-12.5672
vị	-12.5675
Thủ	-12.5677
▁HO	-12.5677
Vợ	-12.5678
▁xi	-12.5678
khách	-12.5679
▁157	-12.568
▁Lauren	-12.5681
4]	-12.5684
400	-12.5685
▁still	-12.5688
▁Ruth	-12.5689
▁spot	-12.569
▁Shark	-12.5692
▁dioxide	-12.5693
▁Honduras	-12.5694
▁Javascript	-12.5695
▁àh	-12.5695
▁Colombo	-12.5695
▁Tanaka	-12.5696
ck	-12.5696
▁Coach	-12.5697
▁VMware	-12.5697
▁Vanessa	-12.5697
nl	-12.5698
▁Macau	-12.5699
▁DJI	-12.57
▁LL	-12.5701
▁Hối	-12.5702
▁260	-12.5705
▁Rap	-12.5706
▁buy	-12.5707
link	-12.571
▁22%	-12.5711
▁Yours	-12.5712
▁hihi	-12.5719
Tom	-12.5721
▁giang	-12.5723
▁65%	-12.5726
▁Mom	-12.573
ies	-12.573
house	-12.5734
ting	-12.5735
quốc	-12.574
Nhanh	-12.5741
▁1934	-12.5746
▁Nord	-12.575
▁Homo	-12.5751
▁Sharon	-12.5754
▁đả	-12.5755
▁keep	-12.5755
▁Essential	-12.5755
▁thắm	-12.5756
▁Revenge	-12.5756
▁Antivirus	-12.5756
▁rẩy	-12.5756
▁Nhện	-12.5757
▁Maryland	-12.5757
▁Fucked	-12.5757
▁Nagasaki	-12.5758
▁‘’	-12.5758
▁Fusion	-12.5759
▁Pokémon	-12.5759
▁Nỗ	-12.5759
▁cup	-12.5759
▁Otto	-12.576
▁which	-12.576
▁Economic	-12.5761
▁AOL	-12.5761
▁1992.	-12.5761
▁28:	-12.5762
▁Ladies	-12.5763
▁Khôn	-12.5763
▁Thúy	-12.5764
▁Brooks	-12.5765
▁Tre	-12.5766
▁Tống	-12.5766
▁Communications	-12.5768
▁đốn	-12.5768
▁Lucia	-12.577
▁videos	-12.5772
▁thủng	-12.578
▁posts	-12.578
▁Mão	-12.5784
Day	-12.5786
▁cày	-12.5787
▁EP	-12.5789
▁Hoan	-12.5791
▁Towers	-12.5791
Ca	-12.5796
▁hán	-12.58
Bóng	-12.5804
Michael	-12.5804
tổng	-12.5805
▁image	-12.5809
▁Local	-12.5809
▁Kardashian	-12.581
▁(18	-12.5813
▁Andrea	-12.5816
ớc	-12.5816
▁rậm	-12.5819
side	-12.582
▁Mạn	-12.582
▁Dakota	-12.582
▁Đẳng	-12.582
▁xịt	-12.582
▁Yu	-12.5821
▁MediaWiki	-12.5822
[3]	-12.5822
▁giaãi	-12.5823
▁Trộm	-12.5824
▁Student	-12.5824
▁búa	-12.5824
▁ZIP	-12.5829
▁digital	-12.5829
▁44%	-12.5829
Mà	-12.5829
▁154	-12.5831
▁Joey	-12.5833
▁Thạch	-12.5835
▁Looking	-12.5836
▁LTE	-12.5839
que	-12.584
▁auto	-12.5841
▁fly	-12.5848
ten	-12.5848
▁miên	-12.5851
▁Crypto	-12.5852
▁ồ	-12.5856
sô	-12.5858
▁IDE	-12.5858
56	-12.5867
Internet	-12.5867
thể	-12.5868
Hey	-12.5868
▁Yo	-12.5874
▁Nile	-12.5876
▁1956	-12.5877
▁Simpson	-12.5877
▁Nh	-12.588
▁Task	-12.5881
▁close	-12.5881
▁Monsanto	-12.5882
▁gội	-12.5882
▁hủ	-12.5883
▁Lopez	-12.5883
▁bừa	-12.5883
▁Trưa	-12.5883
▁lựu	-12.5883
▁Terrace	-12.5884
▁GitHub	-12.5885
▁Sương	-12.5886
▁Chester	-12.5886
▁Gấp	-12.5887
▁Vỏ	-12.5887
▁else	-12.5888
▁Thread	-12.589
▁Isle	-12.5891
▁bả	-12.5893
▁149	-12.5894
life	-12.5897
▁rách	-12.5898
▁Porter	-12.59
▁Ariana	-12.59
▁Hood	-12.5901
▁ECB	-12.5901
6.	-12.5906
ram	-12.5907
▁photos	-12.5907
▁try	-12.591
▁PCI	-12.591
▁BP	-12.592
▁17,	-12.5921
more	-12.5923
ẩy	-12.5927
▁Wheel	-12.5929
▁hydro	-12.5929
Mười	-12.5931
United	-12.5931
▁upload	-12.5934
view	-12.5939
▁chẵn	-12.5942
▁Formula	-12.5943
▁Kyrgyzstan	-12.5945
▁nhận	-12.5945
▁trước	-12.5945
▁Parade	-12.5946
▁Agency	-12.5946
▁Reason	-12.5947
▁Louisiana	-12.5948
▁THÀNH	-12.5948
▁Alicia	-12.5948
▁gonna	-12.5949
▁Genius	-12.5949
▁uổng	-12.5949
▁SPF	-12.595
1]	-12.595
▁Graphics	-12.5951
▁Preview	-12.5951
▁Đậu	-12.5951
▁Jacques	-12.5954
▁Between	-12.5955
▁yù	-12.5958
▁1993.	-12.5959
▁khâm	-12.5961
▁Cable	-12.5963
TH	-12.5965
▁Cứng	-12.597
▁Loved	-12.5971
▁chap	-12.5972
red	-12.5974
▁SO	-12.5975
89	-12.5984
▁168	-12.5986
▁Torre	-12.5986
2]	-12.5986
Thị	-12.5993
Jack	-12.5995
▁ATP	-12.5996
Where	-12.5996
chương	-12.5996
▁SMA	-12.5996
Cùng	-12.5997
Khải	-12.5997
▁HR	-12.5997
pop	-12.5998
▁hill	-12.5998
my	-12.5998
▁Mansion	-12.6001
all	-12.6004
▁Trail	-12.6004
▁DE	-12.6006
▁Demi	-12.6006
▁Russia	-12.6008
▁getting	-12.601
▁147	-12.601
▁WITH	-12.6011
▁Hongkong	-12.6012
▁diêm	-12.6012
▁Jung	-12.6012
▁Hiếm	-12.6012
▁Libra	-12.6013
▁Betty	-12.6013
▁Trống	-12.6013
▁Dictionary	-12.6014
▁Dải	-12.6014
▁2;	-12.6017
▁Dangerous	-12.6017
▁Lil	-12.6019
▁184	-12.602
▁Chè	-12.602
▁MRI	-12.6022
▁Waiting	-12.6022
ED	-12.6022
▁60.000	-12.6025
▁Giant	-12.6027
▁Khói	-12.6028
gi	-12.6028
if	-12.6031
▁ETC	-12.6033
▁Bye	-12.6033
Your	-12.6034
▁Haven	-12.6037
▁Sonic	-12.6039
ôi	-12.6041
▁Má	-12.6041
▁NT	-12.6049
giả	-12.6051
▁1910	-12.6056
▁lồn	-12.6056
bệnh	-12.606
▁fire	-12.6064
▁believe	-12.6066
Cảnh	-12.6066
▁Frontier	-12.6066
▁count	-12.6069
▁Stuart	-12.6074
▁Chán	-12.6074
▁pay	-12.6074
▁huỳnh	-12.6075
▁Mandela	-12.6075
▁Airbus	-12.6075
▁Account	-12.6075
▁Ấm	-12.6076
▁Universe	-12.6076
▁chèo	-12.6077
▁Yamaha	-12.6078
▁Drop	-12.6078
▁Quiet	-12.6081
▁Ms	-12.6083
▁Tang	-12.6083
▁1-3	-12.6084
▁Oak	-12.6091
▁Lề	-12.6091
▁Reach	-12.6097
muốn	-12.6103
▁CB	-12.6105
hậu	-12.6107
▁Lò	-12.6112
chú	-12.6121
Music	-12.6122
▁Souls	-12.6122
▁Fresh	-12.6125
▁Bồn	-12.6125
Tuần	-12.6126
Loại	-12.6126
Trở	-12.6126
thiết	-12.6126
hội	-12.6131
▁Stage	-12.6135
▁tag	-12.6136
▁ngả	-12.6136
▁[17]	-12.6137
▁rưởi	-12.6139
▁ráo	-12.6139
▁Squad	-12.6139
▁Guam	-12.6139
▁siết	-12.614
▁Battlefield	-12.6141
▁public	-12.6141
▁Truman	-12.6141
▁Nghịch	-12.6142
▁Cotton	-12.6142
▁Wait	-12.6142
▁nhơn	-12.6143
▁(20)	-12.6143
▁Naked	-12.6145
▁Battery	-12.6147
▁Monitor	-12.6147
▁lách	-12.6147
▁Martha	-12.6148
▁Third	-12.6151
fi	-12.6152
▁Solid	-12.6152
▁index	-12.6154
▁Te	-12.6155
▁Há	-12.6156
Al	-12.6157
!...	-12.6159
▁161	-12.6159
▁Liu	-12.6159
▁225	-12.6163
▁url	-12.6168
▁Rate	-12.6173
▁Glen	-12.6182
▁dei	-12.6184
▁color	-12.6189
▁2014)	-12.6189
sử	-12.6189
ang	-12.619
▁2013)	-12.619
Take	-12.619
▁GE	-12.6191
▁Po	-12.6192
chất	-12.6192
▁20:	-12.6193
Khu	-12.6194
▁GIF	-12.6194
Le	-12.62
▁lừng	-12.6204
Nhắm	-12.6205
▁Helsinki	-12.6205
▁Quyên	-12.6206
▁Arkansas	-12.6207
▁Trễ	-12.6207
▁Sunset	-12.6208
▁Jump	-12.621
▁information	-12.621
▁khuấy	-12.6212
▁dead	-12.6214
▁0%	-12.6215
▁Chaos	-12.6216
▁Fu	-12.6216
▁dè	-12.6217
▁Dynamics	-12.6217
▁shock	-12.6218
▁lẹ	-12.6219
▁lost	-12.6219
▁While	-12.622
▁21%	-12.6221
▁XL	-12.6222
▁gold	-12.6231
▁(16	-12.6236
▁shot	-12.6237
set	-12.6238
BTC	-12.624
▁ngời	-12.6244
▁Stock	-12.6245
▁Chôn	-12.6252
▁touch	-12.6253
AL	-12.6255
thị	-12.6256
mẹ	-12.6257
Ngoài	-12.6258
Mở	-12.6261
Vụ	-12.6261
▁Miracle	-12.6267
▁valentina	-12.6269
▁PUBG	-12.627
▁dẫy	-12.627
▁quấn	-12.627
▁nỉ	-12.627
▁Qualcomm	-12.6271
▁Zimbabwe	-12.6271
▁Westminster	-12.6271
lên	-12.6271
ad	-12.6271
▁Gilbert	-12.6271
▁Nhựa	-12.6272
▁Pullman	-12.6272
▁Consumer	-12.6273
▁database	-12.6273
▁Gregory	-12.6273
▁ball	-12.6273
▁chậu	-12.6273
▁Thắc	-12.6274
▁Rails	-12.6275
▁Chiết	-12.6275
▁Quen	-12.6275
▁PTSD	-12.6276
▁Bennett	-12.6276
▁1925	-12.6276
▁around	-12.6277
▁Tanks	-12.6279
▁Falling	-12.6279
▁bớ	-12.6281
▁AKB	-12.6281
▁alone	-12.6283
▁alpha	-12.6284
▁rộ	-12.6285
▁xao	-12.6285
▁bái	-12.6285
▁195	-12.6286
▁Beats	-12.6288
▁Wilde	-12.6288
▁720	-12.629
▁Damon	-12.6291
OS	-12.6293
▁trừu	-12.6294
▁Heat	-12.6295
▁AAA	-12.63
▁Canal	-12.6304
▁Phillips	-12.6308
▁tree	-12.6315
▁Mariah	-12.632
▁1,7	-12.6321
Link	-12.6323
▁dĩa	-12.6324
Truyện	-12.6324
đọc	-12.6324
Apple	-12.6325
ngay	-12.6325
▁Tiny	-12.6325
▁Booking	-12.633
▁Ru	-12.6331
▁ETF	-12.6335
▁Vimeo	-12.6336
▁nhất	-12.6336
▁FAQ	-12.6336
Quy	-12.6336
▁duệ	-12.6336
▁Xúc	-12.6337
▁Wonderland	-12.6337
92	-12.6337
động	-12.6337
▁Sense	-12.6337
▁Everest	-12.6337
▁Evening	-12.6338
▁follow	-12.6339
▁Dĩnh	-12.6339
▁Boat	-12.634
▁Penguin	-12.634
▁welcome	-12.634
▁1908	-12.6342
▁Trịnh	-12.6344
▁Everyday	-12.6345
▁Pilot	-12.6345
▁líu	-12.6346
▁Stress	-12.6347
▁420	-12.6349
VN	-12.6349
▁Someone	-12.635
▁Theory	-12.635
▁Cruises	-12.6351
▁Missing	-12.6351
57	-12.636
72	-12.6361
▁Doll	-12.6365
Bị	-12.637
▁edit	-12.6374
sky	-12.6383
▁(18)	-12.6383
▁NBC	-12.6385
▁event	-12.6389
▁Evan	-12.6391
▁Bel	-12.6392
xúc	-12.6392
▁Bọ	-12.6395
mong	-12.6397
▁[19]	-12.6397
▁Horror	-12.6398
6].	-12.6398
DD	-12.64
▁Resident	-12.6401
▁GoDaddy	-12.6402
▁giếm	-12.6402
▁trặc	-12.6402
▁khắt	-12.6402
▁dể	-12.6403
▁[7]	-12.6404
▁Vội	-12.6404
▁Birmingham	-12.6404
▁Nintendo	-12.6404
▁Prayer	-12.6404
▁Bosnia	-12.6405
▁Sanchez	-12.6405
▁Dennis	-12.6405
▁future	-12.6407
▁Rooney	-12.6407
▁(1998)	-12.6407
▁Authority	-12.6407
▁Yuki	-12.6408
▁THÔNG	-12.6408
▁Germany	-12.6409
▁ỏi	-12.641
▁Ném	-12.641
▁Vải	-12.6411
▁RDS	-12.6412
▁Platinum	-12.6417
▁Đe	-12.6422
4,	-12.6423
ễ	-12.6424
▁Wing	-12.6424
Se	-12.6427
Hotel	-12.643
▁Icon	-12.643
▁HN	-12.6432
▁Kí	-12.6433
▁phả	-12.6436
▁Hits	-12.6438
Tâm	-12.6443
▁EPA	-12.6444
▁Fund	-12.6444
Kim	-12.6446
Master	-12.645
▁Dong	-12.6456
phụ	-12.6456
White	-12.6458
Global	-12.6458
▁Championship	-12.6461
▁Letter	-12.6464
▁Owen	-12.6465
▁Làn	-12.6465
▁lanh	-12.6467
▁Peak	-12.6468
▁Chang	-12.6469
▁Kentucky	-12.6469
▁gập	-12.6469
▁lửng	-12.6469
▁sôcôla	-12.647
▁chọi	-12.647
▁Zurich	-12.6471
▁Animation	-12.6471
▁vắt	-12.6471
▁Adelaide	-12.6471
▁rãnh	-12.6472
▁yes	-12.6473
▁Macintosh	-12.6474
▁CV	-12.6475
▁Cell	-12.6475
Hy	-12.6477
▁Mù	-12.6477
▁Slim	-12.6481
hôm	-12.6482
▁memory	-12.6483
▁CDC	-12.6486
▁162	-12.649
▁Higher	-12.649
▁gàng	-12.6492
▁ver	-12.6492
▁12.000	-12.6492
▁Pier	-12.6494
▁EV	-12.6495
▁EURO	-12.6496
▁1960.	-12.6497
▁Nest	-12.6499
▁SG	-12.6503
▁dB	-12.6508
▁thềm	-12.651
▁Wear	-12.6512
▁hòm	-12.6516
▁Dock	-12.6516
▁Halo	-12.6517
▁370	-12.6519
▁Stan	-12.6522
Tiếp	-12.6526
▁;)	-12.6527
▁199	-12.6528
▁Jackie	-12.6528
▁Vacation	-12.6531
▁Apart	-12.6531
Mua	-12.6532
▁Assassin	-12.6535
▁Nhưỡng	-12.6537
▁nhiều	-12.6537
▁troll	-12.6537
▁soul	-12.6538
▁viền	-12.6539
▁Ajax	-12.6539
▁Regional	-12.654
▁Busan	-12.654
ous	-12.654
▁Tucker	-12.654
▁93%	-12.6541
▁Pittsburgh	-12.6541
▁Maroon	-12.6543
▁41%	-12.6544
▁Buffalo	-12.6544
▁node	-12.6546
▁mac	-12.6546
▁CHO	-12.6546
don	-12.6546
▁9.000	-12.6547
▁ABS	-12.6547
▁28%	-12.6548
▁Powell	-12.6548
vít	-12.6549
▁TQ	-12.655
▁Mont	-12.655
▁Breaking	-12.6551
▁2025	-12.6552
▁JD	-12.6563
▁Pure	-12.6564
▁Calle	-12.6565
danh	-12.6565
▁Sharp	-12.6567
▁Chặn	-12.657
▁Node	-12.6577
▁Santo	-12.6579
▁person	-12.6582
▁[12]	-12.6584
▁turn	-12.6586
▁Toy	-12.6587
Ô	-12.6589
▁Tor	-12.6589
▁GV	-12.659
800	-12.6592
▁Janet	-12.6593
▁ARM	-12.6593
▁DAY	-12.6594
nbsp	-12.6595
Miễn	-12.6595
Quyền	-12.6595
Trẻ	-12.6595
Khoảng	-12.6595
cầu	-12.6595
Tiêu	-12.6595
Chất	-12.6596
▁Vietsub	-12.6596
▁Freddy	-12.6599
Môi	-12.66
▁Dome	-12.6603
▁Joomla	-12.6605
▁gộp	-12.6605
▁Eclipse	-12.6605
▁vồng	-12.6606
▁train	-12.6606
▁QUY	-12.6606
▁2011)	-12.6606
▁MacOS	-12.6607
▁Harper	-12.6608
▁Hiên	-12.6608
▁Leonard	-12.6608
▁1/5	-12.6608
▁chưng	-12.6609
▁Giấu	-12.661
▁Biện	-12.6611
▁CẢ	-12.6611
▁143	-12.6611
having	-12.6612
uk	-12.6613
▁Cultural	-12.6613
▁Running	-12.6614
▁Flat	-12.6615
▁Sims	-12.6616
▁(24	-12.6617
▁Alto	-12.6619
▁xổ	-12.6624
▁mean	-12.663
▁(28	-12.6634
▁Andrews	-12.6642
Ví	-12.6643
▁Swan	-12.6645
▁Papa	-12.6647
▁Jam	-12.6654
101	-12.6655
nữ	-12.6662
Nghiên	-12.6663
Đánh	-12.6664
▁1969,	-12.6664
85	-12.6665
▁Corner	-12.6666
▁Bet	-12.6666
▁park	-12.6669
âi	-12.6671
▁2,3	-12.6671
Qur	-12.6671
▁Baghdad	-12.6672
▁nần	-12.6673
▁License	-12.6673
▁lầy	-12.6675
▁mấu	-12.6675
▁Liberia	-12.6676
▁Gõ	-12.6677
▁Diễm	-12.6677
▁José	-12.6677
▁CFD	-12.6678
▁Bẫy	-12.6678
...............	-12.6678
▁Labels	-12.6679
▁Teddy	-12.6679
▁Nhung	-12.668
ism	-12.668
▁25.000	-12.668
▁Landing	-12.6681
39	-12.6683
▁70.000	-12.6684
▁163	-12.6688
▁480	-12.6699
▁girls	-12.6706
▁toả	-12.6711
▁trệ	-12.6713
▁Mác	-12.672
▁1,6	-12.6725
▁toan	-12.6727
▁(17	-12.6729
Phương	-12.6733
Ít	-12.6733
ngoài	-12.6733
▁Lot	-12.6733
▁Rockefeller	-12.6734
▁lả	-12.6735
Hoàn	-12.6735
▁Pirate	-12.6737
phân	-12.6738
▁Acid	-12.6739
▁Saturday	-12.674
▁Yang	-12.6741
▁sài	-12.6743
▁Bloom	-12.6743
▁Rộng	-12.6743
▁Fallout	-12.6743
▁nấc	-12.6743
▁Creed	-12.6744
▁Customer	-12.6744
▁Raymond	-12.6744
▁HSBC	-12.6744
▁vòm	-12.6744
▁Adolf	-12.6745
▁(1999)	-12.6747
▁Lầu	-12.6747
▁Surf	-12.6749
▁(2001)	-12.675
▁củi	-12.675
▁easy	-12.6751
▁Rapunzel	-12.6752
▁Asus	-12.6757
▁Luck	-12.6757
▁1989,	-12.6758
▁nành	-12.6759
▁Push	-12.6759
▁193	-12.6764
tech	-12.6767
▁Hana	-12.6768
▁250.000	-12.677
▁dưa	-12.6771
ana	-12.6773
▁4/	-12.6776
key	-12.6779
▁meet	-12.678
▁Strong	-12.678
▁news	-12.678
-11	-12.6782
94	-12.6782
▁Domain	-12.6785
▁[10]	-12.6786
▁666	-12.6788
▁tôm	-12.6796
▁Mills	-12.6798
▁Đố	-12.6802
Kỳ	-12.6803
▁Rover	-12.6803
▁kẽ	-12.6809
▁wrong	-12.6811
▁khuỷu	-12.6811
▁Arduino	-12.6811
▁quẩn	-12.6812
▁Cove	-12.6813
▁java	-12.6813
▁Adidas	-12.6814
▁tomorrow	-12.6814
▁guys	-12.6818
▁Carlo	-12.682
▁38%	-12.682
▁Duo	-12.6821
▁gả	-12.6821
▁Eastern	-12.6823
▁Wise	-12.6824
▁Rue	-12.6825
sản	-12.6827
world	-12.6827
▁Gioan	-12.6832
▁Fame	-12.6832
▁164	-12.6836
▁Milano	-12.6836
▁GIÁ	-12.6837
▁Côn	-12.6843
Bí	-12.6844
GL	-12.6845
▁Lima	-12.6845
▁catch	-12.6846
▁eat	-12.6846
▁Thua	-12.6856
rar	-12.6857
▁Mbps	-12.686
▁Cast	-12.6863
▁Gián	-12.6867
▁Wang	-12.6868
▁Wu	-12.6869
▁Swing	-12.687
▁Jeffrey	-12.6872
Canada	-12.6873
Đương	-12.6873
Viết	-12.6873
▁Hôtel	-12.6875
▁Burn	-12.6876
▁ngán	-12.6877
bỏ	-12.688
▁death	-12.688
▁Canaan	-12.6881
▁enough	-12.6881
▁CHÚNG	-12.6882
▁Trading	-12.6882
▁Loki	-12.6883
▁Diane	-12.6883
▁Hokkaido	-12.6883
▁IEEE	-12.6883
▁Eurostars	-12.6884
▁perfect	-12.6886
▁Berkeley	-12.6886
▁Gatsby	-12.6886
▁nể	-12.6887
▁Glasgow	-12.6887
▁Lộc	-12.6887
▁Ctrl	-12.689
▁Guess	-12.6891
▁human	-12.6892
ful	-12.6892
58	-12.6895
▁Bath	-12.69
▁id	-12.6901
▁ae	-12.6902
▁Load	-12.6906
▁Tina	-12.6909
Blue	-12.6913
370	-12.6916
Home	-12.6919
mo	-12.6921
▁bill	-12.6922
ương	-12.6926
▁thoa	-12.6929
hết	-12.6929
▁bít	-12.693
▁giời	-12.6935
▁Arc	-12.6936
▁heaven	-12.6943
First	-12.6944
đừng	-12.6944
▁Starter	-12.6944
Thiếu	-12.6944
▁27%	-12.6944
tìm	-12.6944
tăng	-12.6947
den	-12.6948
▁Westin	-12.6948
ồi	-12.6949
▁eye	-12.695
▁mửa	-12.6951
▁nức	-12.6951
▁ngợm	-12.6951
▁Pascal	-12.6952
▁Publishing	-12.6952
▁lúng	-12.6952
▁Riad	-12.6953
▁Paraguay	-12.6953
▁Leica	-12.6953
▁Rouge	-12.6954
▁ISP	-12.6955
▁Cõi	-12.6956
▁Malcolm	-12.6956
▁(2019)	-12.6956
▁Cube	-12.6956
▁software	-12.6957
▁Army	-12.6957
▁48%	-12.6958
▁Franz	-12.6959
▁GUI	-12.6959
[8]	-12.6959
▁earth	-12.696
ID	-12.6961
▁JIS	-12.6962
▁Sếp	-12.6965
▁dollar	-12.6969
▁môt	-12.6969
▁forever	-12.6971
37	-12.6971
▁(17)	-12.6971
▁1929	-12.6976
▁COP	-12.6982
▁Guns	-12.6986
▁ANH	-12.6991
▁3.6	-12.6995
Girl	-12.6999
▁Ye	-12.7002
▁Sum	-12.7003
▁Meta	-12.7006
English	-12.7015
Giống	-12.7015
Xuân	-12.7015
định	-12.7015
Tùy	-12.7015
xấu	-12.7016
▁NAT	-12.7016
▁Soldier	-12.7018
▁(15)	-12.7018
▁ngùng	-12.7022
▁nhỡ	-12.7022
▁cần	-12.7022
age	-12.7022
▁Dậu	-12.7023
▁Pho	-12.7023
▁Automation	-12.7023
▁rước	-12.7023
She	-12.7024
▁rên	-12.7025
▁Sheraton	-12.7025
▁Tý	-12.7025
▁Kiệt	-12.7025
▁Summit	-12.7026
▁Jedi	-12.7026
▁Tuệ	-12.7026
▁Heavy	-12.7027
HD	-12.7028
▁Kay	-12.7029
▁Khỏa	-12.7029
▁Billboard	-12.703
▁Status	-12.703
▁Judy	-12.703
▁Treo	-12.703
▁message	-12.7031
▁Penn	-12.7032
▁pain	-12.7037
▁156	-12.7037
ling	-12.7038
▁sửng	-12.7039
▁Dior	-12.7043
▁Copy	-12.7044
boy	-12.7046
▁24%	-12.7047
▁Middle	-12.7053
▁Sep	-12.7054
wa	-12.7056
www	-12.7057
Mobile	-12.7059
83	-12.7063
66	-12.7064
▁action	-12.7066
▁nhung	-12.7067
▁166	-12.7069
▁mo	-12.707
▁Font	-12.7072
▁master	-12.7078
▁XD	-12.708
field	-12.7081
▁Ran	-12.7086
merciful	-12.7087
chắc	-12.7087
▁đái	-12.7087
CA	-12.7087
Sách	-12.7088
▁Nightmare	-12.7088
▁vò	-12.7089
▁Riley	-12.7091
▁care	-12.7092
▁leave	-12.7092
▁Damascus	-12.7093
▁rượt	-12.7093
▁whisky	-12.7095
▁looking	-12.7095
▁Supply	-12.7096
▁Hopkins	-12.7096
▁Theatre	-12.7096
▁Poor	-12.7097
▁Viagra	-12.7097
ny	-12.7098
▁morning	-12.7099
inch	-12.7099
▁LDL	-12.7099
▁Gỗ	-12.7099
▁Scarlett	-12.71
▁Liban	-12.71
▁COPD	-12.71
▁Ngoan	-12.7101
▁Oasis	-12.7101
▁Liam	-12.7104
▁Thấp	-12.7106
▁Cristiano	-12.7107
▁Making	-12.7108
▁Hole	-12.711
▁26%	-12.7112
▁VC	-12.7114
▁Mean	-12.7115
▁Jae	-12.7116
▁UN	-12.7116
mã	-12.7116
ria	-12.7118
sư	-12.7121
▁316	-12.7121
-17	-12.7124
▁Popular	-12.7133
CD	-12.7135
▁nhe	-12.714
lê	-12.714
▁Takes	-12.714
▁law	-12.7146
▁1973,	-12.7148
▁neo	-12.7148
▁Alba	-12.7149
**	-12.7149
▁Roberto	-12.715
▁2500	-12.7153
▁NOT	-12.7154
▁Custom	-12.7155
chia	-12.7157
EC	-12.7157
GMT	-12.7158
Linux	-12.7158
Tiến	-12.7158
▁Cún	-12.7159
Little	-12.7159
Diễn	-12.7159
Why	-12.7159
▁Erik	-12.716
▁chừ	-12.7161
▁EMBA	-12.7162
▁Invisible	-12.7163
▁Mueller	-12.7165
▁Phnom	-12.7165
▁contain	-12.7165
▁NHẤT	-12.7165
▁hăm	-12.7167
▁Forget	-12.7167
▁Kenny	-12.7168
75	-12.7168
▁Tinder	-12.7168
▁Đạn	-12.7169
Flag	-12.7171
▁Historic	-12.7172
▁Chợt	-12.7172
▁Within	-12.7173
▁Muội	-12.7175
▁space	-12.7175
▁NGÀY	-12.7176
▁Stream	-12.7178
▁Message	-12.7179
▁lòa	-12.718
:“	-12.7182
mon	-12.7182
▁CES	-12.7185
▁GA	-12.7186
▁1,1	-12.7186
▁Ri	-12.7188
▁BE	-12.719
▁tru	-12.7198
▁June	-12.7203
hose	-12.7204
▁ICT	-12.7204
▁ICE	-12.7205
▁Shake	-12.7206
▁Dar	-12.721
▁SR	-12.7211
▁Hoá	-12.7213
▁mix	-12.7215
Key	-12.7216
ầm	-12.7231
èo	-12.7231
▁DV	-12.7232
thần	-12.7233
mặt	-12.7233
▁Jaguar	-12.7233
Mấy	-12.7234
▁5-6	-12.7234
ngôn	-12.7235
▁walk	-12.7235
▁sleep	-12.7236
Dragon	-12.7237
▁Velvet	-12.7237
▁AutoCAD	-12.7237
▁nực	-12.7238
▁bẩy	-12.7238
▁PCT	-12.7239
▁Boulevard	-12.7239
▁còi	-12.724
▁NHÂN	-12.724
▁Feet	-12.724
▁167	-12.724
▁vampire	-12.7241
▁Ar	-12.7241
▁Generator	-12.7242
▁Football	-12.7242
▁ngụy	-12.7243
▁Reality	-12.7245
Đàn	-12.7245
▁DHA	-12.7246
▁Bright	-12.7248
▁Philippe	-12.7252
▁Rules	-12.7253
▁echo	-12.7255
▁ru	-12.7255
▁146	-12.7257
▁Troy	-12.7257
God	-12.7258
▁380	-12.7258
’’	-12.7259
cat	-12.7265
▁MVP	-12.7266
▁ách	-12.7269
▁thục	-12.7269
▁Sparta	-12.7274
▁load	-12.7278
▁xxx	-12.7281
▁com	-12.7284
▁Lines	-12.7293
Vui	-12.7295
ISO	-12.7296
▁LU	-12.7298
▁Rod	-12.7298
▁ak	-12.73
Màu	-12.7307
▁Hate	-12.7307
non	-12.7307
▁Visitor	-12.7307
tập	-12.7307
▁Pine	-12.7308
▁Demon	-12.731
▁Dresden	-12.731
▁mượt	-12.731
▁Xót	-12.731
Quản	-12.7311
▁Gogh	-12.7311
▁khước	-12.7311
▁CHUY	-12.7311
▁nỡ	-12.7311
▁Sandra	-12.7311
▁Peterson	-12.7312
▁Volkswagen	-12.7312
▁Kanji	-12.7313
▁player	-12.7316
▁Killing	-12.7316
▁Flags	-12.7318
▁Stellar	-12.7318
lover	-12.7318
▁Cliff	-12.7318
▁46%	-12.7319
▁Cleaner	-12.732
▁hehe	-12.7323
Tư	-12.7323
lơ	-12.7325
▁Penh	-12.7326
▁Aug	-12.7326
▁Snake	-12.733
▁Brave	-12.733
rin	-12.7333
▁once	-12.7334
▁foot	-12.7338
▁function	-12.7341
▁Along	-12.7344
▁IOS	-12.7344
▁(100)	-12.735
67	-12.7351
▁1922	-12.7354
▁demo	-12.7356
▁CM	-12.7358
▁148	-12.7361
▁Wow	-12.7363
▁1080	-12.7365
▁LI	-12.7373
▁Burger	-12.7375
2;	-12.7376
▁21:	-12.7377
▁problem	-12.7378
can	-12.7378
biến	-12.738
bởi	-12.738
Iran	-12.7381
▁1986,	-12.7382
▁Lens	-12.7382
▁Kitchen	-12.7383
▁giăng	-12.7384
▁Blackmagic	-12.7384
ak	-12.7384
▁Mại	-12.7384
▁440	-12.7385
▁heroin	-12.7385
▁TRƯ	-12.7385
▁Nairobi	-12.7385
▁scandal	-12.7385
▁Passport	-12.7385
▁Ức	-12.7386
▁Berry	-12.7386
▁protected	-12.7386
free	-12.7386
▁Format	-12.7386
▁mother	-12.7388
▁somebody	-12.7388
vũ	-12.7388
▁Henderson	-12.7388
▁Nhẹ	-12.7388
▁chapter	-12.7388
▁phở	-12.7389
▁JPEG	-12.7389
▁Wallet	-12.7389
▁ASTM	-12.739
▁][	-12.739
▁Phấn	-12.7391
▁Ngụy	-12.7391
▁42%	-12.7392
▁Holdings	-12.7392
xx	-12.7392
▁peace	-12.7392
▁plan	-12.7393
▁ten	-12.7393
▁Manor	-12.7393
▁Query	-12.7393
▁Đốt	-12.7394
▁80.000	-12.7398
▁sành	-12.7401
▁Fidel	-12.7405
ik	-12.7405
/2	-12.7406
▁Sửu	-12.7411
▁2021	-12.7412
▁AK	-12.7413
Fan	-12.7414
84	-12.7414
▁186	-12.7414
▁176	-12.7415
▁Gil	-12.7419
▁#6	-12.742
▁hell	-12.742
▁Manga	-12.7424
▁PE	-12.7427
▁Jê	-12.7431
▁ask	-12.7434
▁Playa	-12.7436
▁2016)	-12.7445
▁171	-12.7446
ov	-12.7446
độ	-12.7447
▁Marseille	-12.7449
)(	-12.7452
xuất	-12.7454
Xuất	-12.7454
vật	-12.7454
Power	-12.7456
dùng	-12.7457
▁Marvin	-12.7458
▁Fedora	-12.7458
▁xiềng	-12.7458
▁Randy	-12.7458
▁cryptocurrency	-12.7459
▁Regina	-12.7459
▁Sapiens	-12.7459
▁Migration	-12.746
▁Freeware	-12.746
▁tuông	-12.746
▁Penny	-12.7461
▁Cuồng	-12.7462
▁FPT	-12.7462
▁Clash	-12.7462
▁Thunder	-12.7462
▁Ke	-12.7463
▁living	-12.7463
▁Carmen	-12.7463
▁Economy	-12.7463
▁Falcon	-12.7464
▁Liễu	-12.7464
▁DDoS	-12.7464
▁Fruit	-12.7465
▁Write	-12.7469
▁Sync	-12.7472
▁Drama	-12.7472
▁cáu	-12.7474
▁Animals	-12.7476
▁Seo	-12.7479
ủa	-12.7482
▁Frozen	-12.7485
▁bịa	-12.7488
Men	-12.7488
▁Rôma	-12.7489
▁int	-12.7489
Mac	-12.7492
5,	-12.7492
▁Bội	-12.7499
"!	-12.7504
▁hen	-12.7509
▁Xê	-12.7511
ối	-12.7511
per	-12.7515
▁hashtag	-12.7523
▁Chemical	-12.7526
▁Desire	-12.7527
9)	-12.7527
Japan	-12.7529
Rõ	-12.7529
▁save	-12.753
▁TU	-12.753
▁Abdul	-12.753
▁Diablo	-12.7531
▁cross	-12.7532
▁Litecoin	-12.7532
▁Queensland	-12.7532
▁together	-12.7532
▁cocaine	-12.7532
▁Sheep	-12.7533
▁dấn	-12.7533
▁soái	-12.7534
▁1923	-12.7534
txt	-12.7534
▁Symantec	-12.7534
▁cannot	-12.7535
▁Infinite	-12.7536
▁600.000	-12.7536
6)	-12.7536
▁43%	-12.7536
▁Iphone	-12.7536
áo	-12.7538
▁Civil	-12.7538
▁Becky	-12.7539
47	-12.754
▁1915	-12.7546
▁304	-12.7553
▁1880	-12.7554
che	-12.7556
▁Tablet	-12.756
▁Vũng	-12.756
▁6.2	-12.756
▁Holly	-12.756
▁PCB	-12.7562
▁Heo	-12.7565
qua	-12.7569
▁36%	-12.7571
▁Ariel	-12.7571
giới	-12.7573
▁Jimin	-12.7577
▁Ủ	-12.7577
▁Mask	-12.7583
▁Hào	-12.7585
▁181	-12.7586
▁Cán	-12.7587
▁Points	-12.7591
▁Dame	-12.7593
79	-12.7596
Hiển	-12.7605
Hạnh	-12.7605
trở	-12.7605
▁mướn	-12.7607
▁giờ	-12.7607
▁đuợc	-12.7607
▁Phaolô	-12.7607
▁Ngộ	-12.7609
▁Quạ	-12.7609
▁Thác	-12.7609
▁cẩu	-12.7609
▁Brisbane	-12.7609
▁Wyndham	-12.7609
▁barbie	-12.7611
▁AUD	-12.7611
▁Sasha	-12.7611
▁Trek	-12.7612
▁shopping	-12.7612
▁Goin	-12.7612
▁Diary	-12.7612
▁Burning	-12.7613
▁Dinner	-12.7613
▁Tracy	-12.7613
▁FedEx	-12.7614
▁đao	-12.7616
[4]	-12.7617
▁Matrix	-12.7618
▁Greater	-12.7618
rê	-12.7624
▁Portal	-12.7626
TT	-12.7626
▁Sưu	-12.7627
▁Rabbit	-12.7629
▁â	-12.7632
▁QUẢ	-12.7635
đê	-12.7636
EUR	-12.7637
▁Monsters	-12.7638
▁Nara	-12.7638
▁games	-12.764
▁Autumn	-12.7641
▁bành	-12.7644
▁TRA	-12.7647
Pro	-12.7647
▁vâ	-12.765
▁183	-12.7651
▁Samari	-12.7652
▁mom	-12.7656
Bốn	-12.7659
▁poll	-12.7662
▁328	-12.7667
MS	-12.7667
▁Đam	-12.7668
▁fish	-12.7672
▁777	-12.7673
▁Speak	-12.7675
▁interface	-12.7679
▁Saints	-12.7679
vợ	-12.7681
Cửa	-12.7682
▁1979,	-12.7682
▁Mavic	-12.7683
▁trướng	-12.7683
▁Bentley	-12.7683
▁mới	-12.7683
▁0,5	-12.7683
▁Tặc	-12.7684
▁Apartamentos	-12.7685
▁lốc	-12.7686
▁Mễ	-12.7687
▁Frederick	-12.7687
▁Scanner	-12.7687
▁Mercy	-12.7689
▁Builder	-12.7689
▁shall	-12.769
▁Tháo	-12.769
▁Rạp	-12.769
▁Organization	-12.7691
▁Cớ	-12.7691
▁Serial	-12.7691
▁34%	-12.7692
▁Mid	-12.7693
▁SHINee	-12.7694
▁hoả	-12.7694
▁Hawk	-12.7694
▁sweet	-12.7694
cá	-12.7695
▁172	-12.7698
▁1;	-12.7698
▁Cỗ	-12.77
▁Sands	-12.7703
▁(19	-12.7703
▁(14	-12.7708
▁Soon	-12.7716
ONE	-12.7717
▁CMS	-12.7723
▁táng	-12.7725
▁Ðề	-12.7725
tu	-12.7726
▁1912	-12.7726
▁RE	-12.7727
pa	-12.7728
6]	-12.773
▁les	-12.7732
▁macro	-12.7734
▁37%	-12.7734
▁tã	-12.7734
▁Led	-12.7737
album	-12.7739
▁German	-12.7741
▁Stick	-12.7742
▁VII	-12.7746
▁Root	-12.7747
-13	-12.7748
▁TCN	-12.7748
▁Lovin	-12.7752
ÂU	-12.7752
mua	-12.7754
Sư	-12.7755
▁Viva	-12.7755
▁Oriental	-12.7757
▁Puzzle	-12.7757
Israel	-12.7758
▁NC	-12.7758
kỳ	-12.7758
đơn	-12.7758
▁1933	-12.7758
Động	-12.7758
tài	-12.7758
Đông	-12.7759
Vô	-12.7759
▁nhứt	-12.7759
sức	-12.776
▁Cindy	-12.776
OH	-12.776
▁Biden	-12.7761
▁Utility	-12.7761
▁Trinity	-12.7761
▁Kuala	-12.7761
City	-12.7761
siêu	-12.7761
▁Garcia	-12.7762
email	-12.7762
▁kèn	-12.7762
▁Anything	-12.7763
▁SegWit	-12.7764
tri	-12.7764
ền	-12.7764
▁Cars	-12.7766
▁Bonnie	-12.7766
▁CR	-12.7767
▁Samba	-12.7767
▁Trồng	-12.7767
▁OYO	-12.7769
▁Capitol	-12.777
▁tom	-12.7771
▁Ski	-12.7772
sh	-12.7777
▁ngà	-12.7777
▁bot	-12.7779
▁1921	-12.7782
▁Beer	-12.7783
▁Gene	-12.7785
Ra	-12.7795
▁LINE	-12.7796
▁1300	-12.78
▁cry	-12.7803
▁nom	-12.7806
▁văng	-12.7806
▁1984,	-12.7811
▁Foot	-12.7815
▁5.5	-12.7816
ứng	-12.7821
get	-12.7826
▁Louise	-12.7829
▁JW	-12.7831
▁CAN	-12.7832
▁Pain	-12.7832
-22	-12.7834
Green	-12.7834
Japanese	-12.7835
nhìn	-12.7835
Mất	-12.7836
▁PostgreSQL	-12.7836
đôi	-12.7836
▁debut	-12.7836
▁trẫm	-12.7837
▁Oculus	-12.7837
▁Forex	-12.7838
▁ngòi	-12.7838
▁Darkness	-12.7838
▁Ðể	-12.7838
▁Lexus	-12.7838
▁400.000	-12.7838
▁Might	-12.7838
▁framework	-12.7839
▁(24)	-12.784
▁Bahrain	-12.784
▁174	-12.7842
▁520	-12.7842
▁tạc	-12.7842
▁Unknown	-12.7844
▁92%	-12.7844
▁Which	-12.7845
ÂL	-12.7847
▁Products	-12.7848
▁Flowers	-12.7851
▁lens	-12.7851
▁RED	-12.7851
▁1971,	-12.7852
▁Đoan	-12.7854
▁Aero	-12.7855
log	-12.7857
Will	-12.7858
pplied	-12.7862
▁Gap	-12.7862
▁needs	-12.7864
▁0,1	-12.7867
Data	-12.7867
▁Boris	-12.787
▁Ventures	-12.7871
▁(1995)	-12.7873
▁Ðiề	-12.7873
^^	-12.7876
▁1965,	-12.7876
▁Fran	-12.7883
mar	-12.7885
▁Saga	-12.7887
▁QC	-12.7888
▁send	-12.7888
▁ex	-12.789
▁IMAP	-12.7892
tic	-12.7893
▁Sud	-12.7895
thê	-12.7895
▁sam	-12.7898
▁HK	-12.7901
▁Hebrew	-12.7904
▁Flow	-12.7904
▁Bệ	-12.7904
▁310	-12.7906
▁196	-12.7906
▁Comic	-12.7906
▁Finger	-12.7907
▁titan	-12.7908
ge	-12.7909
video	-12.7909
rập	-12.791
▁ThinkPad	-12.7913
▁lịnh	-12.7913
▁Abbott	-12.7913
▁Clarkson	-12.7913
tội	-12.7914
▁Carnival	-12.7914
Nghĩa	-12.7915
▁Epson	-12.7915
▁Dee	-12.7915
▁nhút	-12.7915
▁Beyonce	-12.7915
▁HUAWEI	-12.7915
▁Minnie	-12.7915
▁Macron	-12.7916
▁Cúp	-12.7917
▁Miêu	-12.7917
";	-12.7918
▁Reserve	-12.7918
▁Nét	-12.7921
ex	-12.7921
▁und	-12.7923
▁AVI	-12.7926
▁Holland	-12.7928
▁SK	-12.793
▁Mayer	-12.793
Bàn	-12.793
▁32%	-12.7931
▁Till	-12.7932
.......	-12.7933
▁Russian	-12.7937
▁Hostal	-12.7938
▁tịnh	-12.7939
Who	-12.794
▁1988,	-12.7942
▁Rom	-12.7943
93	-12.7945
▁(14)	-12.7946
▁Korean	-12.7952
▁Minor	-12.7956
▁AF	-12.7959
▁Process	-12.796
▁1952	-12.7962
▁4.6	-12.7967
▁Pep	-12.7976
▁Gore	-12.798
▁learn	-12.7981
▁Promise	-12.7983
▁Tyson	-12.7983
▁Voi	-12.7986
▁ri	-12.7986
▁domain	-12.7987
▁Atom	-12.7988
▁wait	-12.799
▁rúp	-12.7991
▁dăm	-12.7991
phương	-12.7992
Only	-12.7992
▁Iowa	-12.7992
Ngôn	-12.7992
▁Wolverine	-12.7993
▁nhể	-12.7993
▁Wisconsin	-12.7993
▁xỉu	-12.7994
▁Trấn	-12.7994
▁Khuyên	-12.7994
▁Exclusive	-12.7994
▁Dante	-12.7995
▁Duck	-12.7995
Hàn	-12.7996
▁Telegram	-12.7998
▁Productions	-12.7998
▁SMTP	-12.7999
▁MX	-12.8
▁LTD	-12.8
▁Happiness	-12.8002
tâm	-12.8003
(1)	-12.8006
năng	-12.8006
▁Tube	-12.8008
▁255	-12.8012
NO	-12.8012
▁1914	-12.8013
▁title	-12.8016
end	-12.8021
trả	-12.8022
.[3]	-12.8022
▁1983,	-12.8024
▁Tara	-12.8025
▁Stones	-12.8034
-18	-12.8034
▁Markets	-12.8036
▁vế	-12.8038
Sai	-12.8049
▁ABBA	-12.8049
▁Dion	-12.805
Rô	-12.8053
Out	-12.8058
▁202	-12.8063
Back	-12.8064
▁hormon	-12.8068
▁drama	-12.8069
▁8-	-12.8069
▁Mềm	-12.807
▁Raspberry	-12.807
▁Xperia	-12.8071
▁Galileo	-12.8071
▁Joyce	-12.8071
Buổi	-12.8071
Mối	-12.8072
▁Prix	-12.8072
Lễ	-12.8072
▁thoi	-12.8072
▁everyone	-12.8073
▁Fighting	-12.8073
▁Programming	-12.8073
▁Giành	-12.8073
trường	-12.8074
▁Aleppo	-12.8074
▁Raise	-12.8076
▁proxy	-12.8076
▁Trùng	-12.8077
▁Nissan	-12.8078
▁Medium	-12.808
▁Dry	-12.808
▁5.3	-12.8082
▁says	-12.8084
.=	-12.8088
▁Parco	-12.8089
▁Boo	-12.8099
pro	-12.81
▁Lc	-12.8102
▁vít	-12.8104
▁Cost	-12.8104
▁Weed	-12.8105
▁etc	-12.8108
ds	-12.8109
▁date	-12.8112
''.	-12.8114
▁Sur	-12.8118
▁[14]	-12.8118
ek	-12.8123
▁KBS	-12.8125
▁RA	-12.8127
▁rose	-12.8128
▁JR	-12.813
▁Pisa	-12.8131
▁lằn	-12.8135
ou	-12.8138
▁EQ	-12.8139
▁RGB	-12.8141
▁Crime	-12.8142
▁algorithm	-12.8142
▁Architecture	-12.8143
▁^^!	-12.8143
ger	-12.8143
▁thought	-12.8145
▁el	-12.8147
▁Estate	-12.8147
High	-12.8147
▁Lữ	-12.8148
▁ryan	-12.8148
▁Dumbledore	-12.8149
▁Fiesta	-12.8149
▁Hogwarts	-12.8149
▁Nu	-12.8149
▁Braun	-12.815
Đưa	-12.8151
Đứa	-12.8151
▁Leader	-12.8151
Đăng	-12.8151
Thằng	-12.8151
▁Saddam	-12.8151
▁codec	-12.8152
▁Rẻ	-12.8153
▁Dolly	-12.8153
▁Anonymous	-12.8153
▁Tiêm	-12.8154
Tác	-12.8154
▁Sad	-12.8155
phi	-12.8155
▁Percy	-12.8156
▁Jill	-12.8157
▁(1997)	-12.8157
▁children	-12.8157
▁(2002)	-12.8157
▁Mazda	-12.8157
Mã	-12.8158
▁3.500	-12.8158
▁Franco	-12.816
code	-12.8161
▁food	-12.8162
▁Ways	-12.8165
ber	-12.8171
hiệu	-12.8174
▁1903	-12.8175
▁STAR	-12.8177
▁Ao	-12.8178
▁2.7	-12.8181
▁ISS	-12.8189
▁Apk	-12.8192
▁trổ	-12.8198
▁Xi	-12.8199
▁takes	-12.8201
▁Breath	-12.8211
360	-12.8211
▁moment	-12.8222
▁application	-12.8224
▁Hammer	-12.8224
▁Sniper	-12.8225
▁Package	-12.8225
▁Cottage	-12.8225
▁Trader	-12.8226
▁Tả	-12.8228
▁NÀO	-12.8229
▁thật	-12.8229
▁huyệt	-12.8229
▁tấu	-12.8229
▁Razer	-12.823
▁fix	-12.823
62	-12.8231
London	-12.8231
▁Nạp	-12.8232
lại	-12.8232
▁PHẢI	-12.8232
▁credit	-12.8233
▁Nặng	-12.8233
▁Gloria	-12.8233
▁Cebu	-12.8234
▁Junsu	-12.8235
▁Arcade	-12.8235
eu	-12.8237
IP	-12.8237
▁206	-12.8241
bu	-12.8243
nam	-12.8243
▁Imagine	-12.8244
ok	-12.8246
▁215	-12.8247
▁Fuji	-12.825
▁lì	-12.825
As	-12.8251
▁yet	-12.8257
▁[11]	-12.8258
▁ngàng	-12.8264
▁QUAN	-12.8274
cy	-12.8288
▁Soi	-12.829
7)	-12.8292
▁giàn	-12.8292
▁php	-12.8294
▁Della	-12.8296
lan	-12.8299
▁Podcast	-12.83
▁Avatar	-12.8308
▁Raffles	-12.8308
▁Communication	-12.8309
▁Lumia	-12.8309
▁Normandy	-12.8309
▁điều	-12.8309
▁Punta	-12.831
SP	-12.831
▁Ucraina	-12.831
▁Phận	-12.831
▁sảy	-12.8311
▁GNOME	-12.8311
▁86%	-12.8311
▁McCartney	-12.8312
▁tonight	-12.8312
▁Sukhumvit	-12.8312
Giấc	-12.8312
lớn	-12.8312
▁week	-12.8312
▁Café	-12.8313
▁Cincinnati	-12.8313
▁Finder	-12.8313
▁Aviation	-12.8314
mùa	-12.8315
▁Minsk	-12.8315
▁pretty	-12.8315
▁Ellie	-12.8315
▁session	-12.8316
▁Jules	-12.8318
Mr	-12.8318
▁source	-12.832
.”“	-12.8321
▁Tv	-12.8322
▁keo	-12.8324
▁Rin	-12.8325
tham	-12.8327
▁Past	-12.8331
▁Đành	-12.8333
▁UL	-12.8333
▁CPI	-12.8334
▁Newman	-12.8335
▁note	-12.8337
▁Scan	-12.8339
▁187	-12.8339
5-070	-12.834
Not	-12.8342
▁USP	-12.8344
ắp	-12.8351
▁Ending	-12.8351
▁Industrial	-12.8353
8)	-12.8355
▁Pages	-12.8357
▁cưa	-12.8358
▁Large	-12.8367
▁Karma	-12.8369
▁Fed	-12.837
▁MJ	-12.8371
▁6.5	-12.8375
▁users	-12.838
Maria	-12.8381
▁Philippine	-12.8384
▁Solution	-12.8385
▁Target	-12.8388
aun	-12.8389
▁sandwich	-12.839
▁liếm	-12.839
▁Milton	-12.839
▁Radeon	-12.8391
▁Meat	-12.8392
▁Dickinson	-12.8392
▁chần	-12.8392
User	-12.8392
▁Buôn	-12.8393
81	-12.8393
▁Soros	-12.8393
▁Dora	-12.8394
▁Renault	-12.8394
Quân	-12.8394
diễn	-12.8394
phản	-12.8394
▁BÀI	-12.8394
Baby	-12.8394
▁Continental	-12.8395
Lòng	-12.8395
▁Engineering	-12.8395
▁Hanks	-12.8395
▁Rangers	-12.8396
▁HGH	-12.8396
▁Intelligence	-12.8396
▁Cooking	-12.8396
▁Irene	-12.8397
thích	-12.8397
▁nôi	-12.8397
▁Purple	-12.8397
▁Đeo	-12.8399
▁Used	-12.84
ư	-12.8401
▁Deal	-12.8403
▁coffee	-12.8403
▁Pod	-12.8404
mở	-12.8406
▁Shut	-12.8408
▁Mồ	-12.8409
▁Grow	-12.841
▁205	-12.841
▁hê	-12.8414
▁Steps	-12.8415
71	-12.8421
▁active	-12.8423
▁Kh	-12.8424
▁????	-12.8426
▁vụng	-12.8426
▁Cent	-12.8426
UK	-12.8426
ROM	-12.8429
7.	-12.843
▁Secrets	-12.8433
nên	-12.8437
▁beauty	-12.8438
CAS	-12.8438
▁Flex	-12.844
▁Videos	-12.8446
well	-12.8453
▁Tourist	-12.8459
▁sea	-12.846
▁Organic	-12.8461
▁ki	-12.8461
▁Hindu	-12.8467
▁GMO	-12.8468
DC	-12.847
▁Eternal	-12.8471
▁Cabin	-12.8471
▁KHÁC	-12.8472
▁Industries	-12.8472
<<	-12.8472
▁Versailles	-12.8473
▁khét	-12.8473
▁cọp	-12.8473
suê	-12.8474
▁Perth	-12.8474
▁tagged	-12.8474
▁Xóm	-12.8475
Kế	-12.8475
▁Thận	-12.8475
▁VĐV	-12.8475
▁Beverly	-12.8475
▁mải	-12.8476
▁cội	-12.8476
▁Celine	-12.8476
▁Liệt	-12.8476
▁Mourinho	-12.8477
▁Match	-12.8477
▁NFL	-12.8477
Ánh	-12.8477
▁thán	-12.8477
Thảo	-12.8477
▁Elliott	-12.8477
▁Miếng	-12.8478
▁Speaking	-12.8478
▁GBP	-12.8479
▁December	-12.8479
▁EMS	-12.8483
▁Stack	-12.8484
▁Tát	-12.8484
▁minutes	-12.8486
tinh	-12.8488
▁Dom	-12.8488
▁through	-12.8489
▁coming	-12.8489
▁au	-12.849
▁"(	-12.849
▁Béo	-12.8491
▁late	-12.8494
▁dang	-12.8497
▁FL	-12.8504
Max	-12.8505
▁Spice	-12.8508
▁Aid	-12.851
▁Gear	-12.8512
▁Giọ	-12.8514
▁YG	-12.8518
▁302	-12.8518
▁1924	-12.852
▁Feed	-12.8521
▁nhú	-12.8523
hoạt	-12.8528
▁Vote	-12.8533
▁32-	-12.8534
▁Noble	-12.8537
▁VD	-12.8537
▁[16]	-12.854
▁[6]	-12.8543
pm	-12.8548
__	-12.855
▁Dow	-12.855
▁Cocktail	-12.855
▁Dụ	-12.8551
▁Its	-12.8553
▁violin	-12.8555
▁Phuket	-12.8555
▁Sofitel	-12.8555
▁Shoes	-12.8555
▁Trans	-12.8555
▁DrDeramus	-12.8556
▁doctor	-12.8556
-50	-12.8557
▁Marley	-12.8557
▁Dorothy	-12.8557
Vị	-12.8557
▁Ích	-12.8557
▁Adler	-12.8557
▁Twisted	-12.8559
Chọn	-12.856
dành	-12.856
nhận	-12.856
▁giư	-12.856
▁150.000	-12.8561
▁Xoay	-12.8561
Trật	-12.8561
▁Memories	-12.8562
▁Marry	-12.8564
▁GMT	-12.8564
▁Binary	-12.8565
▁mĩ	-12.8566
▁Tước	-12.8566
▁NHÀ	-12.8569
▁Gucci	-12.8571
▁Strangers	-12.8571
▁cúc	-12.8575
)[	-12.8578
▁Rong	-12.8578
▁Wire	-12.8579
▁Lara	-12.8581
▁19:	-12.8582
▁books	-12.8583
▁fall	-12.8585
-47	-12.86
▁SV	-12.8602
▁drive	-12.8622
▁Cage	-12.8625
▁Guard	-12.8626
▁Portrait	-12.8637
▁Naples	-12.8638
▁Norfolk	-12.8638
▁Regency	-12.8638
▁holloway	-12.8638
▁núp	-12.8638
▁gym	-12.8638
▁Camino	-12.8638
▁(1988)	-12.8639
▁Bordeaux	-12.864
▁Lắm	-12.864
▁THU	-12.864
▁Phạt	-12.8641
▁(1996)	-12.8642
▁Freeman	-12.8642
▁Thomson	-12.8642
▁uẩn	-12.8643
▁KGB	-12.8643
▁Vault	-12.8643
Đợi	-12.8644
giống	-12.8644
▁Nhầm	-12.8644
Linh	-12.8644
cứu	-12.8644
tạo	-12.8644
▁meeting	-12.8646
Căn	-12.8647
▁Comics	-12.8647
▁úp	-12.8647
▁FPS	-12.8649
▁kali	-12.8649
▁Sâm	-12.8649
▁Wheels	-12.8651
▁Animated	-12.8651
▁lố	-12.8651
▁Carry	-12.8653
▁(25	-12.8653
▁family	-12.8654
ever	-12.8655
▁Theft	-12.8656
▁Northern	-12.8658
▁1940,	-12.8658
▁Motors	-12.8659
win	-12.8659
▁nhan	-12.8661
▁bring	-12.8661
▁Flag	-12.8662
▁Pot	-12.8663
▁Fields	-12.8663
▁self	-12.8667
▁zero	-12.867
▁Because	-12.8671
▁Phe	-12.8674
▁bed	-12.8677
▁Glenn	-12.8677
▁main	-12.868
lý	-12.868
eel	-12.8682
▁EEA	-12.8682
61	-12.8682
▁Environment	-12.8687
▁1985,	-12.8692
▁mp	-12.8697
▁Bowl	-12.8697
▁6-	-12.8698
▁(26	-12.8702
▁1400	-12.8704
9]	-12.8706
▁tì	-12.8707
▁Gettin	-12.8707
hotel	-12.8708
ze	-12.8708
▁pc	-12.8709
▁Even	-12.8709
mIndex	-12.871
▁Truck	-12.8712
▁thím	-12.8714
▁Publisher	-12.8716
▁Extension	-12.8718
▁Lesson	-12.8719
▁field	-12.872
▁Gaddafi	-12.8722
▁gốm	-12.8722
▁melatonin	-12.8722
▁Terme	-12.8722
▁device	-12.8722
▁thạnh	-12.8722
▁Hospitality	-12.8723
▁cotton	-12.8723
▁Leslie	-12.8723
▁Guinness	-12.8724
▁Kerry	-12.8724
▁DDR	-12.8725
▁Mẫn	-12.8725
▁jessica	-12.8725
▁Út	-12.8726
▁Yoona	-12.8726
▁road	-12.8726
▁Lưng	-12.8727
▁Julius	-12.8727
▁Weekly	-12.8727
▁Survival	-12.8727
▁Siam	-12.8728
Chuyển	-12.8728
Truyền	-12.8728
Vừa	-12.8728
▁JAPAN	-12.8729
ant	-12.8729
Phía	-12.8729
▁Vine	-12.8729
▁Cosmos	-12.8729
▁Cột	-12.8729
▁Woody	-12.8729
Original	-12.8729
▁71%	-12.8729
town	-12.873
▁Tổn	-12.873
▁Norah	-12.8732
▁each	-12.8732
▁0.5	-12.8734
▁Nhóc	-12.8735
▁PoE	-12.8743
▁being	-12.8744
▁Forms	-12.8744
▁mark	-12.8745
▁lon	-12.8746
▁Italian	-12.8748
▁Backstreet	-12.8751
▁IDC	-12.8752
▁Bè	-12.8755
▁Andreas	-12.8757
▁nhớt	-12.8761
▁Connor	-12.8762
▁Trend	-12.8763
ến	-12.8769
▁THC	-12.877
▁Cr	-12.877
46	-12.8772
aya	-12.8774
▁Hip	-12.8776
▁Bride	-12.878
▁mả	-12.8784
▁FREE	-12.8784
▁Tia	-12.8794
▁Volvo	-12.8795
▁Answer	-12.88
▁voice	-12.8803
Like	-12.8804
▁Crush	-12.8805
▁Hussein	-12.8806
▁[113,1	-12.8806
▁become	-12.8806
▁quở	-12.8807
▁cricket	-12.8807
▁Brighton	-12.8808
▁Audrey	-12.8808
▁Document	-12.8808
▁Finance	-12.8809
▁Austria	-12.8809
▁Sốc	-12.8809
▁Bible	-12.8809
▁command	-12.8809
69	-12.881
▁Beyoncé	-12.881
▁Heard	-12.881
▁Billie	-12.881
▁Thiệp	-12.8811
▁Moss	-12.8811
trò	-12.8811
▁bộ	-12.8812
▁log	-12.8812
▁Lãi	-12.8812
▁Method	-12.8812
tha	-12.8813
David	-12.8813
Trận	-12.8813
Ngoại	-12.8813
Khởi	-12.8813
chồng	-12.8813
Chân	-12.8814
chiếc	-12.8814
Bỏ	-12.8814
Thánh	-12.8814
▁SQS	-12.8814
▁Countdown	-12.8814
▁Thailand	-12.8814
▁Linkin	-12.8814
▁1901	-12.8815
▁Judas	-12.8815
▁Hừ	-12.8815
▁Moonlight	-12.8815
▁SB	-12.8816
▁Seeds	-12.8816
▁Sạch	-12.8817
giảm	-12.8817
▁tủy	-12.8818
▁private	-12.8819
▁Hybrid	-12.8819
var	-12.8821
▁FCC	-12.8822
ac	-12.8825
▁Ðây	-12.8825
berg	-12.8828
▁...............	-12.8829
ọa	-12.8833
▁null	-12.8837
!!”	-12.8839
▁board	-12.8842
▁Done	-12.8847
▁(50	-12.8848
▁(16)	-12.8851
[2].	-12.8857
mai	-12.8857
▁fans	-12.8859
ụi	-12.8861
▁(=	-12.8863
▁Mass	-12.8869
hòm	-12.8871
(0)	-12.8872
VI	-12.8879
▁29:	-12.888
▁Carrie	-12.8885
▁Hormone	-12.8885
-30	-12.8887
▁Grammy	-12.8888
▁RI	-12.8889
▁LIVE	-12.8889
▁Ads	-12.8889
▁vơ	-12.889
▁Thy	-12.8891
▁Keller	-12.8891
▁giễu	-12.8892
▁tuôn	-12.8892
▁lần	-12.8892
Cố	-12.8892
▁chồn	-12.8892
▁Jenner	-12.8892
▁sục	-12.8892
▁Morrison	-12.8892
▁Mohammed	-12.8892
▁Chapman	-12.8892
▁BitTorrent	-12.8893
▁Herbert	-12.8893
▁501	-12.8893
▁Jeremiah	-12.8893
▁lụy	-12.8893
▁Roland	-12.8894
▁Thunderbolt	-12.8894
▁Kepler	-12.8894
▁Nối	-12.8895
▁Ducati	-12.8895
▁Congress	-12.8895
▁yếm	-12.8895
▁between	-12.8895
▁Fernando	-12.8895
▁Vắng	-12.8895
▁Khang	-12.8896
▁Đạp	-12.8896
150	-12.8897
▁Palazzo	-12.8897
▁Activity	-12.8897
▁Khiếu	-12.8898
▁Cược	-12.8898
▁1975.	-12.8899
Chuyến	-12.8899
▁31%	-12.89
Lão	-12.89
vấn	-12.89
▁Current	-12.8901
▁Coral	-12.8901
▁Edgar	-12.8902
Yes	-12.8903
▁Helena	-12.8903
▁Lông	-12.8903
▁OR	-12.8903
▁=]]]]	-12.8903
án	-12.8905
▁Dot	-12.8907
▁Their	-12.8908
Or	-12.8908
▁PIN	-12.8909
Sân	-12.8911
▁Independent	-12.8912
ver	-12.8915
▁SATA	-12.8916
▁Xà	-12.892
▁NHI	-12.8921
▁smile	-12.8922
▁Stella	-12.8925
▁Donna	-12.8926
▁còng	-12.8926
▁Anton	-12.8926
▁beat	-12.8931
▁Mare	-12.8935
▁Pig	-12.8936
Sa	-12.8937
hướng	-12.8938
▁Orient	-12.8938
▁[22]	-12.8942
zip	-12.8943
ska	-12.8944
▁178	-12.8951
▁object	-12.8954
▁1982,	-12.8957
▁610	-12.8957
Facebook	-12.896
▁Bend	-12.8964
▁Baltic	-12.8971
▁Alphabet	-12.8971
Ha	-12.8973
▁cò	-12.8974
▁Demo	-12.8975
▁Session	-12.8978
▁Ottoman	-12.8978
▁Partner	-12.8979
▁muỗng	-12.8979
▁QuickTime	-12.8979
ốc	-12.8979
▁Oct	-12.8979
▁AVG	-12.898
▁nẻo	-12.898
▁chừa	-12.898
▁Renaissance	-12.8981
▁Northwest	-12.8981
▁Tươi	-12.8981
▁Một	-12.8981
▁IX	-12.8981
▁Easter	-12.8981
▁49%	-12.8981
▁Oslo	-12.8981
▁Contest	-12.8981
▁Zidane	-12.8982
▁Lambert	-12.8982
▁oxit	-12.8983
▁rợn	-12.8983
đồ	-12.8983
▁Ledger	-12.8983
▁Zeus	-12.8984
▁Quinn	-12.8984
▁Victory	-12.8984
▁Uni	-12.8984
▁84%	-12.8985
▁TRON	-12.8985
▁NTFS	-12.8985
▁Nê	-12.8985
Digital	-12.8986
▁months	-12.8987
▁penny	-12.8987
tiêu	-12.8988
▁Genesis	-12.8988
▁Reasons	-12.8989
cánh	-12.8989
▁Gr	-12.899
▁Shi	-12.8991
▁Boxing	-12.8992
▁LIFE	-12.8994
▁Quiz	-12.8997
▁Fi	-12.8997
▁using	-12.8997
▁TIME	-12.8997
Nay	-12.8999
▁gone	-12.9002
▁Gang	-12.9003
PD	-12.9003
Grand	-12.9003
▁179	-12.9004
▁Babe	-12.9005
IEC	-12.9005
▁doing	-12.9006
ghi	-12.9007
▁DI	-12.9007
3:	-12.9008
▁Foods	-12.9009
ren	-12.9014
oc	-12.9019
ởi	-12.9019
-25	-12.902
▁Dutch	-12.9025
▁Rapid	-12.9033
000	-12.9034
▁Bag	-12.9035
▁Manual	-12.904
▁Adrian	-12.9043
82	-12.905
▁chơn	-12.9054
ưỡng	-12.9055
▁2007)	-12.9055
▁Info	-12.9055
▁Cai	-12.9057
▁||	-12.9057
▁Nico	-12.9058
▁sin	-12.9058
▁BẢN	-12.9062
▁Lithuania	-12.9063
▁Reddit	-12.9064
▁Observatory	-12.9064
▁Chandler	-12.9064
▁tới	-12.9065
▁nguời	-12.9065
▁Mỏ	-12.9066
▁Everton	-12.9066
▁Henri	-12.9066
▁Strasbourg	-12.9066
▁Pivot	-12.9066
▁Resource	-12.9067
▁snow	-12.9068
▁Valentina	-12.9069
▁(1994)	-12.9069
▁(1985)	-12.9069
▁Panasonic	-12.907
▁Naomi	-12.9071
▁212	-12.9071
▁major	-12.9071
▁Statistics	-12.9071
▁Lắp	-12.9071
▁PLC	-12.9071
SBS	-12.9071
▁RAW	-12.9072
▁Millennium	-12.9073
▁Cúc	-12.9073
Thử	-12.9074
đêm	-12.9077
▁Nhằ	-12.9078
▁rate	-12.908
87	-12.9081
▁Sợi	-12.9084
út	-12.9088
▁Entry	-12.9088
▁fb	-12.9088
▁1945.	-12.9089
▁1987.	-12.9089
▁Less	-12.909
▁BCH	-12.909
▁Diet	-12.9092
▁dạt	-12.9094
▁1981,	-12.9094
▁SSH	-12.9096
▁Lát	-12.9099
disson	-12.9105
THE	-12.9106
▁Deck	-12.9107
Thư	-12.9107
▁Kurt	-12.9108
▁28,	-12.911
▁Aviv	-12.9113
▁Tone	-12.9113
ium	-12.9115
▁IF	-12.9115
▁PT	-12.9116
gate	-12.9124
▁2,000	-12.9125
▁Muslim	-12.9125
▁Leone	-12.9125
▁pick	-12.913
▁SF	-12.9139
▁1986.	-12.9142
▁Deer	-12.9143
▁Bullet	-12.9146
▁startup	-12.9146
▁Willie	-12.9146
▁Interview	-12.9148
▁Bachelor	-12.9149
▁Mina	-12.9152
▁ghiếc	-12.9152
▁vector	-12.9152
▁ngợp	-12.9152
▁Erdogan	-12.9152
▁Intl	-12.9152
▁TRONG	-12.9153
▁Bethlehem	-12.9153
▁Ferry	-12.9153
▁Connecticut	-12.9154
▁(21	-12.9155
▁Tàng	-12.9155
▁Underground	-12.9155
▁Voldemort	-12.9156
▁Dưỡng	-12.9156
▁Cắm	-12.9156
▁Portugal	-12.9156
▁Ðến	-12.9157
lu	-12.9158
▁fanpop	-12.9158
▁Training	-12.9159
▁Myers	-12.916
Show	-12.9161
▁Người	-12.9161
▁hear	-12.9161
▁19%	-12.9162
Gửi	-12.9162
Phân	-12.9162
phòng	-12.9162
điện	-12.9162
▁Mắn	-12.9164
▁Trừng	-12.9164
▁Sung	-12.9165
▁Lynch	-12.9169
▁Bổn	-12.9169
▁JP	-12.917
▁Foreign	-12.9171
len	-12.9171
ble	-12.9173
▁(60	-12.9173
▁APP	-12.9177
▁Empires	-12.9178
▁smart	-12.9181
TED	-12.9182
▁fun	-12.9183
▁(23	-12.9189
?!”	-12.9192
▁Shepherd	-12.9193
▁Hua	-12.9193
▁Pol	-12.9195
della	-12.9196
▁Arch	-12.9196
▁LP	-12.9196
▁4;	-12.9197
po	-12.9199
ker	-12.9202
▁1001	-12.9203
▁1962,	-12.9206
▁vip	-12.9208
▁sởi	-12.921
▁Poly	-12.9212
▁Cave	-12.9213
!!!!	-12.9214
IN	-12.9217
▁1987,	-12.9219
DS	-12.9223
▁1969.	-12.9224
▁Makes	-12.9225
▁Ponte	-12.9225
▁Mona	-12.9226
▁Que	-12.9229
▁Toni	-12.9229
▁208	-12.923
▁Homestay	-12.9233
ói	-12.9233
user	-12.9238
▁Jade	-12.924
▁173	-12.924
▁ngửa	-12.924
▁CloudFront	-12.924
▁hễ	-12.924
▁Floyd	-12.9241
▁Nvidia	-12.9241
▁lổi	-12.9241
▁méo	-12.9241
▁Kizuna	-12.9241
▁Hưởng	-12.9241
▁Tắc	-12.9241
▁Schmidt	-12.9241
▁Bowie	-12.9242
▁Symphony	-12.9242
▁mỉa	-12.9242
▁cacbon	-12.9242
Ve	-12.9243
▁Oklahoma	-12.9243
▁Ballad	-12.9243
▁WeChat	-12.9243
▁Mâu	-12.9244
▁LÝ	-12.9245
▁above	-12.9245
TB	-12.9245
▁tits	-12.9245
▁Liberal	-12.9246
▁Kristen	-12.9246
▁ERC	-12.9246
▁11.000	-12.9247
▁Comey	-12.9249
▁Range	-12.925
▁56%	-12.925
▁Fa	-12.925
Vietsub	-12.9251
▁Graph	-12.9251
truyền	-12.9251
Luôn	-12.9251
▁1/10	-12.9253
Next	-12.9255
▁Eight	-12.9256
▁guy	-12.9258
▁lady	-12.9259
▁disk	-12.9259
▁upon	-12.926
▁Divine	-12.9261
▁child	-12.9263
▁Hook	-12.9264
▁Federal	-12.9266
▁1890	-12.9269
▁Ark	-12.9272
Old	-12.9272
▁-->	-12.9274
▁(19)	-12.9276
▁2.8	-12.9281
▁Paula	-12.9281
▁Teams	-12.9288
▁1967,	-12.929
der	-12.9298
Top	-12.9299
El	-12.9303
▁Dec	-12.9305
▁1907	-12.9309
▁Inner	-12.9311
▁YOUR	-12.9312
FF	-12.9314
▁Sha	-12.932
▁Normal	-12.9324
▁Circuit	-12.9325
ran	-12.9327
▁xẻ	-12.9327
ớ	-12.9328
▁Wholesale	-12.9329
▁Aquarium	-12.9329
▁Janeiro	-12.9329
▁Cardano	-12.9329
▁khấn	-12.9329
▁Freud	-12.933
▁Kremlin	-12.933
▁DOM	-12.933
▁TAGS	-12.933
▁Odyssey	-12.933
▁Metropolitan	-12.9331
▁Cannes	-12.9331
▁Melania	-12.9331
▁Lisboa	-12.9332
▁Analysis	-12.9332
▁Division	-12.9332
▁cháo	-12.9332
▁mủ	-12.9333
▁address	-12.9334
▁ướp	-12.9334
▁Mắc	-12.9334
▁FxPro	-12.9335
▁Greta	-12.9335
▁Nowhere	-12.9335
▁290	-12.9335
</	-12.9336
▁Petro	-12.9337
▁Rapids	-12.9338
▁Hardy	-12.9338
▁PLUS	-12.9339
▁Independence	-12.934
▁Sheet	-12.934
multi	-12.934
Đấng	-12.9341
chạy	-12.9341
Thân	-12.9341
Bức	-12.9341
Tội	-12.9341
Siêu	-12.9342
Tạo	-12.9342
toàn	-12.9342
▁RSI	-12.9342
Đáng	-12.9342
dễ	-12.9344
▁Everyone	-12.9344
▁Working	-12.9344
▁NOW	-12.9345
▁RUB	-12.9345
▁UC	-12.9347
▁Rule	-12.9348
ùa	-12.9351
▁VB	-12.9351
▁HBO	-12.9351
▁Seen	-12.9353
▁sử	-12.9354
▁wind	-12.9354
6,	-12.9356
▁CHI	-12.9359
▁Drone	-12.936
ping	-12.936
▁RX	-12.9361
▁24/7	-12.9362
▁1931	-12.9364
▁trề	-12.9365
▁Hide	-12.9366
lia	-12.9367
▁7.0	-12.9368
▁1930,	-12.937
▁ACE	-12.9371
▁pre	-12.9372
doc	-12.9374
▁1905	-12.9378
▁Mel	-12.9382
▁(32	-12.9383
▁216	-12.9387
bus	-12.9389
iii	-12.9389
AI	-12.939
▁Ong	-12.9393
▁430	-12.9394
▁23:	-12.9395
▁Olympics	-12.9396
▁Threat	-12.9397
▁age	-12.9398
band	-12.9398
mer	-12.9399
quy	-12.9406
▁Shadows	-12.9407
▁HE	-12.9411
▁bịch	-12.9418
▁phồn	-12.9418
▁Paypal	-12.9419
▁ANKO	-12.9419
▁thực	-12.9419
▁oil	-12.9419
▁OnePlus	-12.942
▁Bernie	-12.942
▁Utah	-12.9421
Di	-12.9421
Â	-12.9421
▁DynamoDB	-12.9421
▁Emerson	-12.9422
▁Unified	-12.9422
▁gặm	-12.9423
▁Levi	-12.9423
-400	-12.9423
▁Runtime	-12.9424
▁Tencent	-12.9424
▁Watts	-12.9426
▁Operation	-12.9426
▁Cãi	-12.9428
▁KHI	-12.9428
dự	-12.9428
5-060	-12.9428
▁53%	-12.9428
▁country	-12.9428
▁Silence	-12.9429
Thổ	-12.9429
▁1935	-12.943
▁entry	-12.9431
▁process	-12.9431
▁hero	-12.9431
▁skin	-12.9432
Dance	-12.9433
▁console	-12.9433
▁Standing	-12.9433
▁nhào	-12.9433
▁cold	-12.9433
rồi	-12.9434
▁#7	-12.9435
▁Mãn	-12.9437
▁URI	-12.9437
▁step	-12.9443
▁Jude	-12.9445
▁Sapa	-12.9446
ph	-12.9446
▁Zombies	-12.9446
Tv	-12.9448
▁Dev	-12.945
.[2]	-12.9454
▁Chiang	-12.9458
▁Them	-12.9459
▁GH	-12.9461
▁Draco	-12.9465
▁Crack	-12.9465
▁1100	-12.9465
▁MSN	-12.9468
▁LOL	-12.947
▁KM	-12.9471
▁Basel	-12.9473
-19	-12.9475
▁26:	-12.9477
ski	-12.9479
▁bug	-12.948
▁Disco	-12.9481
▁.......	-12.9481
▁1991.	-12.9482
▁Ping	-12.9484
Du	-12.9485
coin	-12.9485
ấp	-12.9485
▁sưa	-12.9489
Add	-12.9492
▁Git	-12.9492
▁lie	-12.9496
▁Person	-12.9496
▁Khoai	-12.9496
».	-12.9499
▁none	-12.9499
▁Econo	-12.9502
▁Dolphin	-12.9503
▁Johann	-12.9504
▁Ngọ	-12.9506
-14	-12.9506
▁Defender	-12.9508
▁BÁO	-12.951
▁cặn	-12.951
▁Meghan	-12.951
▁dẫm	-12.951
▁Alexandra	-12.951
▁mynx	-12.951
▁Firewall	-12.951
▁râm	-12.9511
▁Doo	-12.9511
▁Kẹo	-12.9511
▁vodka	-12.9512
▁trau	-12.9512
▁Thieves	-12.9512
▁Unicode	-12.9512
ếu	-12.9512
▁Sprint	-12.9513
sép	-12.9513
▁silicon	-12.9513
▁Gossip	-12.9514
▁Vintage	-12.9514
▁Connection	-12.9514
▁Tropical	-12.9514
▁Weather	-12.9515
▁Axit	-12.9516
▁market	-12.9516
▁cabin	-12.9516
▁Webster	-12.9516
▁Campanile	-12.9517
ây	-12.9519
▁57%	-12.9519
▁Complex	-12.9519
▁Reply	-12.952
▁Corona	-12.952
Hòa	-12.9523
▁blood	-12.9525
▁ODM	-12.9526
▁VNĐ	-12.9527
250	-12.9527
▁Erica	-12.9529
▁HA	-12.953
▁1938	-12.9533
▁Sốt	-12.9533
duy	-12.9537
▁Gbps	-12.9538
▁Nash	-12.9543
FDA	-12.9544
UTC	-12.955
▁Kha	-12.9551
tv	-12.9557
▁hello	-12.9558
View	-12.956
▁211	-12.9562
▁HT	-12.9562
▁hon	-12.9564
▁Counter	-12.9565
▁st	-12.9566
sin	-12.9566
▁1904	-12.9567
▁3;	-12.9568
▁Chad	-12.9573
down	-12.9573
▁24:	-12.9575
▁Perl	-12.9581
like	-12.9585
▁247	-12.9588
▁Maybe	-12.9588
▁Phillip	-12.9589
âu	-12.9589
▁Monument	-12.9592
▁ANA	-12.9593
▁2008)	-12.9595
▁picture	-12.9596
▁concept	-12.9598
▁Spin	-12.9599
Make	-12.96
▁Mosul	-12.9601
▁thây	-12.9602
▁Riyadh	-12.9602
▁thứ	-12.9602
Phi	-12.9602
▁ráng	-12.9602
▁Snape	-12.9602
▁Felix	-12.9603
▁Praha	-12.9603
▁Jasmine	-12.9603
▁mịt	-12.9603
▁Siemens	-12.9604
▁Sạc	-12.9604
▁selfie	-12.9604
▁băm	-12.9605
▁Phêrô	-12.9605
▁Terrier	-12.9605
▁nhún	-12.9606
▁Olympus	-12.9606
▁RoHS	-12.9606
▁Slovenia	-12.9606
▁Nashville	-12.9607
Give	-12.9607
▁Brandon	-12.9608
▁191	-12.9609
▁72%	-12.9609
▁BEST	-12.9609
▁even	-12.9609
▁Automatic	-12.9611
▁docker	-12.9612
▁bích	-12.9613
▁18.000	-12.9614
têm	-12.9614
▁rapper	-12.9614
Bán	-12.9615
Amazon	-12.9616
Trích	-12.9616
lúc	-12.9617
bước	-12.9618
▁Mp	-12.9618
▁Cox	-12.9619
▁AA	-12.962
▁speed	-12.9622
▁Cause	-12.9622
uỳ	-12.9623
bán	-12.9623
▁NYC	-12.9625
Nên	-12.9626
▁Vay	-12.9626
▁((	-12.9627
fish	-12.9628
▁1916	-12.9631
▁Elf	-12.9632
▁SAT	-12.9636
▁Cal	-12.9643
▁tuý	-12.9643
▁Den	-12.9643
▁Vila	-12.9649
▁gel	-12.9653
▁Languages	-12.9653
▁PG	-12.9655
▁Hư	-12.9671
Chớ	-12.9674
▁effect	-12.9676
▁Gin	-12.9679
▁209	-12.9686
▁gò	-12.9688
▁President	-12.969
▁shell	-12.9693
▁Barnes	-12.9694
▁WeWork	-12.9694
▁biếu	-12.9694
▁nicotine	-12.9694
▁BlueStacks	-12.9694
▁tâu	-12.9695
▁Beth	-12.9695
▁Bologna	-12.9695
▁birthday	-12.9695
▁Butterfly	-12.9696
▁Beginning	-12.9696
▁Herald	-12.9696
ois	-12.9697
▁Maxwell	-12.9697
▁TL	-12.9697
▁rơm	-12.9697
▁Mập	-12.9697
▁Impact	-12.9697
▁McLaren	-12.9697
▁remember	-12.9697
▁TẤT	-12.9698
▁Prestige	-12.9698
▁ẩn	-12.9699
▁Bại	-12.9699
▁dật	-12.97
▁khay	-12.97
▁local	-12.9701
▁tỳ	-12.9701
▁Dáng	-12.9701
Come	-12.9701
▁Region	-12.9702
▁SNS	-12.9703
▁1985.	-12.9704
▁Uncategorized	-12.9704
▁Paint	-12.9704
▁Kêu	-12.9705
hạnh	-12.9705
▁Winchester	-12.9706
▁Orion	-12.9706
63	-12.9706
Lê	-12.9706
▁GSM	-12.9707
Taylor	-12.9709
Nhiệm	-12.9709
độc	-12.971
IT	-12.9711
MAN	-12.9711
giáo	-12.9712
▁Ink	-12.9712
▁BY	-12.9716
▁Wii	-12.9717
khả	-12.9719
▁Gióp	-12.972
▁252	-12.9722
ns	-12.9729
ino	-12.9729
▁Booth	-12.973
▁TX	-12.9733
▁boys	-12.9737
▁Rama	-12.9747
▁Lana	-12.9747
we	-12.9749
rong	-12.9751
▁VA	-12.9755
▁Phô	-12.9758
Ah	-12.9759
fa	-12.9761
King	-12.9761
▁1930.	-12.9762
ization	-12.9763
oi	-12.9768
▁246	-12.977
San	-12.9772
▁SHA	-12.9776
▁950	-12.9781
▁Testament	-12.9782
▁Marion	-12.9783
?(	-12.9783
De	-12.9787
▁Lumpur	-12.9787
▁nghẹt	-12.9787
▁giũ	-12.9787
▁virut	-12.9787
▁Ghana	-12.9787
▁Ngào	-12.9788
▁loét	-12.9788
▁Sharapova	-12.9788
▁trăn	-12.9789
▁Kosovo	-12.9789
▁Kensington	-12.979
▁Testing	-12.979
▁Dặm	-12.9792
▁three	-12.9792
▁UNIX	-12.9792
▁Kiêu	-12.9792
▁Sounds	-12.9792
▁Basque	-12.9793
kin	-12.9794
▁Bhutan	-12.9796
▁340	-12.9796
▁also	-12.9797
▁66%	-12.9797
Steve	-12.9799
ish	-12.98
▁Boots	-12.9801
▁Chiếm	-12.9802
▁(21)	-12.9803
Harry	-12.9803
Đặc	-12.9803
University	-12.9803
▁Options	-12.9806
▁Yesterday	-12.9808
▁cau	-12.9808
▁Waters	-12.9815
▁gãi	-12.9816
▁xó	-12.9817
tar	-12.9817
▁create	-12.9818
Im	-12.9829
▁Lead	-12.9836
▁Wien	-12.9837
ul	-12.9839
▁Noise	-12.984
▁saw	-12.9847
▁Pr	-12.9852
▁Quad	-12.9852
▁Ends	-12.9854
▁Boom	-12.9856
▁1966,	-12.9859
▁Craft	-12.986
ua	-12.9866
Long	-12.987
ƯU	-12.987
▁1975,	-12.9871
▁report	-12.9872
▁;))	-12.9874
▁hamburger	-12.9875
▁Calendar	-12.9876
▁cute	-12.9877
▁2017)	-12.9878
▁Layer	-12.988
▁Rwanda	-12.9881
▁MariaDB	-12.9881
▁Warrior	-12.9881
▁Pence	-12.9882
▁Embassy	-12.9882
▁Friedrich	-12.9882
▁Subaru	-12.9882
▁Globe	-12.9883
▁Extract	-12.9883
▁Nhiêu	-12.9883
▁Lamborghini	-12.9884
▁Sergio	-12.9884
▁Eugene	-12.9884
▁offline	-12.9884
▁Cities	-12.9884
▁ngạn	-12.9884
▁Launcher	-12.9885
▁Angkor	-12.9885
▁Haley	-12.9885
▁Lancaster	-12.9885
▁Savage	-12.9885
▁Noãn	-12.9886
▁Thoạt	-12.9887
▁Capture	-12.9887
▁Thuỷ	-12.9887
▁Built	-12.9888
▁Griffin	-12.9888
bay	-12.9888
▁Supernatural	-12.9888
▁Suối	-12.9889
▁Kylie	-12.9889
George	-12.9889
▁Hospital	-12.989
▁Worldwide	-12.989
▁Newport	-12.989
▁Downloader	-12.989
▁second	-12.9891
▁management	-12.9891
▁phết	-12.9892
▁EBS	-12.9895
▁honor	-12.9895
▁Yet	-12.9896
▁Oman	-12.9896
James	-12.9898
lớp	-12.9898
Đảng	-12.9898
Kiểm	-12.9898
trực	-12.9898
Giết	-12.9898
gồm	-12.9898
▁ppm	-12.9899
thân	-12.99
▁mph	-12.99
ngôi	-12.99
▁soda	-12.99
Giao	-12.9902
▁OH	-12.9902
ms	-12.9904
Type	-12.9905
▁PET	-12.9905
▁rô	-12.9906
Dùng	-12.9906
▁hours	-12.9909
ớt	-12.991
lt	-12.9912
▁Cor	-12.9913
▁Events	-12.9914
▁DVB	-12.992
▁Aria	-12.9922
EN	-12.9925
▁Viet	-12.9928
▁[]	-12.9928
▁ố	-12.993
▁Phụng	-12.9931
▁10%.	-12.9935
▁Isabella	-12.9936
tte	-12.9936
tion	-12.9937
▁SOS	-12.994
▁ARE	-12.9944
▁222	-12.9945
▁tảo	-12.9946
▁Kat	-12.9946
▁5;	-12.9949
▁Parc	-12.9951
▁trip	-12.9953
▁1902	-12.9954
▁GD	-12.9955
5]	-12.9956
▁hd	-12.9956
▁Banana	-12.9962
▁Element	-12.9963
▁hop	-12.9964
▁Kang	-12.9964
▁Thunderbird	-12.9968
▁grow	-12.9971
▁Cowboy	-12.9971
▁RM	-12.9972
▁Hazel	-12.9973
ín	-12.9974
▁tool	-12.9974
▁Gắn	-12.9975
▁nai	-12.9976
▁Silhouette	-12.9976
▁rằm	-12.9976
▁Burton	-12.9976
▁nách	-12.9977
▁Thiêu	-12.9977
▁rèm	-12.9977
▁button	-12.9977
▁WWDC	-12.9977
▁phiện	-12.9978
▁Mermaid	-12.9978
▁Rochester	-12.9978
▁Stuff	-12.9979
▁Samaria	-12.9979
▁58%	-12.998
▁Hanna	-12.998
▁Gerald	-12.9981
▁Portable	-12.9982
▁door	-12.9982
▁Fiji	-12.9982
▁Egypt	-12.9982
▁MCU	-12.9982
Cá	-12.9983
▁Túc	-12.9983
▁NFC	-12.9984
♥♥♥♥♥♥♥♥♥♥♥♥♥♥♥♥	-12.9984
▁Bingo	-12.9985
▁Option	-12.9985
▁Bike	-12.9985
▁Amman	-12.9987
▁Minutes	-12.9988
charts	-12.9991
Hoặc	-12.9994
Tokyo	-12.9994
Happy	-12.9994
Nào	-12.9994
Tháp	-12.9995
▁(+	-12.9995
Miss	-12.9995
vui	-12.9996
▁deep	-12.9996
▁XXX	-12.9999
ano	-13
bàn	-13
ci	-13.0001
▁cỏi	-13.0005
▁cd	-13.0008
▁center	-13.001
▁Sid	-13.0011
▁loves	-13.0015
▁Kara	-13.0017
▁cỡi	-13.0018
▁cằn	-13.0019
▁Cự	-13.0019
▁Scream	-13.0022
▁hòng	-13.0022
▁Dana	-13.0031
dale	-13.0032
▁CL	-13.0034
7,	-13.0037
▁Drink	-13.0039
▁LƯ	-13.0043
▁Blanc	-13.0044
▁14]	-13.0046
▁bag	-13.0048
▁Doc	-13.0064
▁Intermediate	-13.0066
▁ACM	-13.0067
▁Classe	-13.0069
▁Goblin	-13.007
▁RF	-13.0071
▁Jenkins	-13.0072
▁lời	-13.0072
▁thời	-13.0072
▁files	-13.0072
▁ngườI	-13.0072
▁GoPro	-13.0073
▁Production	-13.0073
▁tuột	-13.0073
▁chò	-13.0074
▁editor	-13.0074
▁Kenneth	-13.0074
▁Adult	-13.0074
▁Springfield	-13.0074
▁Dodge	-13.0074
▁Hannibal	-13.0075
▁Katherine	-13.0075
▁68%	-13.0075
▁Vực	-13.0076
▁Mực	-13.0076
▁Atlantis	-13.0077
▁TOUR	-13.0077
▁Dolby	-13.0077
▁Proxy	-13.0078
▁Matter	-13.0079
”;	-13.008
▁Soạn	-13.0081
▁lv	-13.0082
▁CĐV	-13.0083
▁NEM	-13.0085
▁1024	-13.0085
▁doping	-13.0086
▁Ranch	-13.0087
▁Integrated	-13.0088
▁Omni	-13.0088
▁sound	-13.0089
hữu	-13.009
▁half	-13.0091
Nguyễn	-13.0091
Paris	-13.0091
Quyết	-13.0091
Hợp	-13.0091
Nhớ	-13.0091
vậy	-13.0091
▁1927	-13.0091
Thương	-13.0091
thiền	-13.0092
▁hem	-13.0092
▁Trio	-13.0094
▁Kỉ	-13.0097
aka	-13.0098
▁bói	-13.0098
▁Len	-13.0102
▁2,7	-13.0103
▁DLC	-13.0104
▁Films	-13.0104
▁EMC	-13.0105
▁VAT	-13.0106
▁Tể	-13.0109
▁Christie	-13.0111
▁hip	-13.0114
▁ice	-13.012
png	-13.0127
▁Limit	-13.0128
▁Gan	-13.0129
.»	-13.0133
▁Lama	-13.0134
tư	-13.0139
▁Màng	-13.0145
▁push	-13.0147
▁Tí	-13.0153
ờng	-13.0154
ám	-13.0161
▁Graduate	-13.0165
▁Notes	-13.0166
▁2,4	-13.0166
▁Scene	-13.0167
▁cloud	-13.0169
▁Cop	-13.0169
▁tiffany	-13.0169
▁Greenwich	-13.0169
▁Redshift	-13.0169
▁nấng	-13.0169
▁Bruxelles	-13.0169
▁Clenbuterol	-13.0169
▁Cricket	-13.0169
▁Listening	-13.0169
▁Freelancer	-13.017
▁thòi	-13.017
▁737	-13.0171
▁zậy	-13.0171
▁champagne	-13.0171
-90	-13.0171
▁Sunrise	-13.0171
▁Fibonacci	-13.0172
▁Papua	-13.0172
▁Roulette	-13.0172
▁serotonin	-13.0172
▁Nielsen	-13.0172
▁MRT	-13.0172
▁Aristotle	-13.0172
▁router	-13.0173
▁Whisky	-13.0173
▁[13;	-13.0173
▁1885	-13.0174
▁Suýt	-13.0174
▁Lotte	-13.0174
▁Forbidden	-13.0175
▁Huobi	-13.0175
▁Drew	-13.0176
▁001	-13.0176
▁Tệp	-13.0176
▁Derek	-13.0176
▁67%	-13.0177
▁boxing	-13.0177
Play	-13.0178
isch	-13.0179
▁Tenerife	-13.0179
▁Cala	-13.018
▁Đẩy	-13.018
▁sudo	-13.018
Mô	-13.018
(2)	-13.0181
aw	-13.0184
▁Hạo	-13.0188
Đời	-13.0189
chơi	-13.0189
Cây	-13.019
Ước	-13.0191
▁Chiên	-13.0194
op	-13.0194
▁hosting	-13.0195
giai	-13.0196
▁Wa	-13.0199
▁AE	-13.0199
▁đề	-13.02
-21	-13.0202
▁Tròn	-13.0205
▁ip	-13.0207
▁Zion	-13.0212
▁rà	-13.0213
▁47%	-13.0213
▁zip	-13.0214
CDC	-13.0215
▁Finn	-13.0216
▁Bonus	-13.0217
▁1700	-13.0219
port	-13.022
900	-13.0221
▁te	-13.0225
Book	-13.0229
▁IL	-13.0235
▁Edwards	-13.0236
▁1/6	-13.0238
▁WE	-13.0247
▁Beck	-13.0259
▁410	-13.026
▁đú	-13.0261
▁Holding	-13.0264
▁method	-13.0264
Vi	-13.0265
▁Browse	-13.0266
2015	-13.0266
▁hẻm	-13.0267
▁rạn	-13.0267
▁(1989)	-13.0267
▁Samoa	-13.0267
▁Cagan	-13.0267
▁chuyện	-13.0267
▁myself	-13.0267
▁Sừng	-13.0267
▁Prairie	-13.0267
▁Rebel	-13.0267
▁nguôi	-13.0268
▁Cedar	-13.0268
▁hour	-13.0268
▁BWV	-13.0268
díp	-13.0268
▁Duncan	-13.0269
▁Assange	-13.0269
▁Marketplace	-13.0269
▁Nhơn	-13.0269
▁Related	-13.0269
▁Ngạn	-13.0269
▁Bradford	-13.027
▁MOQ	-13.027
▁Reynolds	-13.027
▁Alright	-13.027
▁ipad	-13.0271
▁Bamboo	-13.0271
▁Belong	-13.0271
▁Wong	-13.0272
▁Industry	-13.0272
▁Fallen	-13.0272
▁Molly	-13.0272
▁Bụng	-13.0272
▁Thục	-13.0272
▁reset	-13.0273
▁chance	-13.0273
▁tea	-13.0273
▁Tiếu	-13.0274
▁Cancer	-13.0275
▁Lẻ	-13.0275
▁Fifth	-13.0276
▁Bính	-13.0276
▁Xích	-13.0277
▁kernel	-13.0277
▁Nhỡ	-13.0279
Mc	-13.028
▁197	-13.0283
▁Didn	-13.0283
light	-13.0284
▁Ranh	-13.0285
▁Eleven	-13.0285
khác	-13.0286
ù	-13.0287
Business	-13.0287
Double	-13.0287
chuyển	-13.0287
Niềm	-13.0287
cuối	-13.0288
Vùng	-13.0288
▁Ư	-13.0288
Dữ	-13.0288
bóng	-13.0288
php	-13.0288
thức	-13.029
]]>	-13.029
▁dỗi	-13.0291
Hết	-13.0293
▁1944,	-13.0294
▁315	-13.0294
▁Plant	-13.0296
▁Khát	-13.0296
▁ELS	-13.03
▁Hours	-13.0301
▁Eli	-13.0301
GO	-13.0301
▁mine	-13.0308
Paul	-13.031
▁bịnh	-13.031
▁moi	-13.0312
▁275	-13.0315
▁7.2	-13.032
78	-13.0325
Há	-13.0325
▁Shape	-13.0327
ite	-13.0328
Real	-13.0331
▁NGO	-13.0332
▁Lakes	-13.0333
▁JS	-13.0339
▁hí	-13.034
▁214	-13.0341
px	-13.0341
▁low	-13.0342
▁Vin	-13.0344
▁chain	-13.0345
▁gam	-13.0351
▁Straight	-13.0354
▁ep	-13.036
▁Ibra	-13.036
▁Wan	-13.0361
▁Maison	-13.0363
▁Investment	-13.0364
▁Registry	-13.0365
▁Gibson	-13.0365
▁Patricia	-13.0365
▁Combat	-13.0366
▁Síp	-13.0366
▁chùi	-13.0366
▁khoâng	-13.0366
▁Subject	-13.0366
▁Cornell	-13.0366
▁Morata	-13.0367
▁Osmo	-13.0367
▁Holocaust	-13.0368
▁thuyên	-13.0368
▁Trượt	-13.0368
▁Moody	-13.0369
73	-13.0369
▁trơ	-13.0369
▁Jupiter	-13.037
▁license	-13.037
▁Pogba	-13.0371
▁Wallace	-13.0371
▁59%	-13.0371
▁Nhục	-13.0371
▁window	-13.0371
▁Django	-13.0371
▁crazy	-13.0371
▁Blythe	-13.0372
▁Description	-13.0372
▁mênh	-13.0372
▁THIS	-13.0372
▁nhím	-13.0372
▁Solaris	-13.0372
▁HÀNG	-13.0373
▁haha	-13.0373
▁Thẳng	-13.0373
▁Chùa	-13.0374
▁207	-13.0374
▁Indigo	-13.0374
▁went	-13.0375
▁Trap	-13.0376
▁Growth	-13.0378
▁Phái	-13.0378
▁Klein	-13.0378
▁kcal	-13.0379
▁manager	-13.0379
▁Empty	-13.038
▁info	-13.0383
’”	-13.0384
▁Khao	-13.0385
▁Thụ	-13.0385
▁Eagles	-13.0386
▁mợ	-13.0386
▁nhoi	-13.0387
chuyên	-13.0387
Đứng	-13.0387
đời	-13.0387
này	-13.0388
0]	-13.0389
Smart	-13.039
▁235	-13.0391
Now	-13.0391
đen	-13.0391
▁Dad	-13.0394
▁Lồ	-13.0395
▁Chén	-13.04
▁bridge	-13.0401
▁Risk	-13.0404
▁1979.	-13.0405
▁MINI	-13.0405
▁CG	-13.0412
USA	-13.0415
▁Cơm	-13.0417
▁Tê	-13.0422
▁Dei	-13.0422
▁Simone	-13.0423
Box	-13.0426
▁Karaoke	-13.0426
777	-13.0427
▁Bless	-13.0427
▁888	-13.0435
▁NGUY	-13.0435
▁1982.	-13.0437
▁Terra	-13.0437
▁3.7	-13.0441
▁Else	-13.0442
▁33:	-13.0446
[...]
