<unk>	0
<s>	0
</s>	0
▁	-2.79779
、	-3.06194
。	-3.07463
は	-4.19136
の	-4.28966
)	-4.62164
が	-4.7533
」	-5.0153
と	-5.01892
(	-5.03458
:	-5.19023
に	-5.21362
を	-5.22157
・	-5.22489
?	-5.24739
▁「	-5.36502
で	-5.39137
,	-5.59354
「	-5.70746
▁(	-5.76097
です	-5.82927
!	-5.95038
も	-5.96697
s	-6.00365
.	-6.05792
1	-6.09984
から	-6.10166
2	-6.20925
年	-6.21013
...	-6.26004
か	-6.33593
や	-6.38512
▁-	-6.46172
3	-6.47764
し	-6.52031
-	-6.66498
/	-6.74413
月	-6.75595
だ	-6.77672
には	-6.79402
する	-6.80367
である	-6.80564
この	-6.82105
日	-6.82548
な	-6.8565
4	-6.87487
』	-6.89231
その	-6.91204
▁1	-6.91464
人	-6.92232
▁この	-6.93449
'	-6.93968
た	-6.95604
5	-6.96035
した	-6.99328
よ	-7.00831
ます	-7.03467
る	-7.10163
10	-7.14135
▁the	-7.15806
▁しかし	-7.17461
▁2	-7.18177
▁of	-7.18897
では	-7.25041
て	-7.25307
▁/	-7.25937
について	-7.27224
って	-7.30709
という	-7.31165
こと	-7.31174
▁The	-7.3188
▁A	-7.33441
▁そして	-7.33962
、「	-7.34115
】	-7.34509
・・・	-7.34649
6	-7.34903
S	-7.36171
▁『	-7.36452
?」	-7.3933
7	-7.39745
のか	-7.4097
ました	-7.4195
とは	-7.42266
または	-7.43845
私は	-7.44747
”	-7.45165
"	-7.45844
して	-7.46465
および	-7.46655
▁>	-7.46938
として	-7.48431
]	-7.49086
▁I	-7.49389
▁|	-7.50394
▁3	-7.50421
A	-7.52602
▁・	-7.53284
▁【	-7.56739
話	-7.58585
▁a	-7.58975
▁第	-7.59803
8	-7.60893
『	-7.60931
t	-7.6193
より	-7.63781
へ	-7.64619
▁その	-7.651
します	-7.65173
によって	-7.66494
ね	-7.66884
9	-7.67792
している	-7.6858
▁to	-7.70724
ない	-7.71542
年に	-7.71804
時間	-7.723
であり	-7.73348
もの	-7.73459
だった	-7.73547
なら	-7.73683
▁4	-7.73946
そして	-7.74555
▁and	-7.74603
つの	-7.75397
D	-7.75453
さん	-7.75505
▁これは	-7.78736
い	-7.80462
▁5	-7.81712
あなたの	-7.81847
ている	-7.82122
▁私は	-7.82928
まで	-7.83027
ら	-7.83399
～	-7.83795
C	-7.83811
でも	-7.84885
▁また	-7.85849
B	-7.86173
回	-7.87188
▁[	-7.87868
▁in	-7.87962
人は	-7.89915
り	-7.90201
▁ホテル	-7.90231
ing	-7.91409
a	-7.91585
された	-7.9176
のは	-7.92044
人の	-7.93669
しました	-7.9447
すべての	-7.94565
20	-7.955
それは	-7.95865
12	-7.96173
▁10	-7.963
’	-7.96464
お	-7.96806
▁それは	-7.97027
がある	-7.97473
e	-7.97893
▁7	-7.98442
のために	-7.98471
!」	-7.98798
The	-8.00403
時	-8.00802
への	-8.01251
新しい	-8.0133
しています	-8.0154
▁for	-8.02001
でした	-8.03693
また	-8.04198
あなたは	-8.04288
30	-8.0497
er	-8.05304
I	-8.06445
ある	-8.06507
m	-8.06534
ー	-8.06538
ています	-8.07245
など	-8.0766
T	-8.09605
ように	-8.09766
ので	-8.0993
▁でも	-8.10661
んだ	-8.11125
▁"	-8.1132
▁B	-8.1151
11	-8.116
ために	-8.1161
▁6	-8.11771
人が	-8.12308
私の	-8.12373
つ	-8.12381
があります	-8.1249
さ	-8.12602
〜	-8.12779
▁S	-8.13447
分	-8.13582
ed	-8.13958
y	-8.14405
になる	-8.14809
o	-8.15195
▁:	-8.15539
者	-8.15636
▁8	-8.1621
でしょう	-8.16444
15	-8.16626
_	-8.16747
名	-8.16985
にも	-8.17241
のです	-8.17465
d	-8.17655
だろう	-8.1779
位	-8.17925
▁&	-8.18044
▁You	-8.18795
多くの	-8.19115
ゲーム	-8.19179
ス	-8.19294
M	-8.19481
自分の	-8.21535
第	-8.21577
▁なぜ	-8.22635
&	-8.22853
による	-8.23677
▁...	-8.25305
約	-8.25639
ではない	-8.25666
彼は	-8.2635
わ	-8.26822
▁あなたは	-8.27205
される	-8.27593
ことを	-8.28301
G	-8.28626
とき	-8.28762
それ	-8.28951
▁C	-8.30276
世界	-8.30445
私	-8.31136
だけ	-8.31508
今	-8.32171
私たちは	-8.32485
できる	-8.33724
他の	-8.34239
あなたが	-8.34949
i	-8.35162
大	-8.35682
のための	-8.35814
す	-8.36081
P	-8.37094
F	-8.37141
方法	-8.37285
▁“	-8.37478
100	-8.37763
これは	-8.38049
中	-8.38063
もう	-8.38158
本	-8.38729
され	-8.3953
よりも	-8.39538
き	-8.39788
情報	-8.39935
▁9	-8.40318
▁タイトル	-8.40412
ですか	-8.40726
そう	-8.40964
いた	-8.41622
▁THE	-8.42065
;	-8.4278
ことができます	-8.42898
ため	-8.42939
年の	-8.43074
よう	-8.43101
ズ	-8.43164
万	-8.43173
に関する	-8.43711
に対する	-8.43858
K	-8.44034
における	-8.44457
▁»	-8.4451
歳	-8.44522
私たちの	-8.45502
なぜ	-8.45933
神	-8.46247
数	-8.46583
ことは	-8.46707
n	-8.46844
場合	-8.47871
年以上前	-8.47968
E	-8.48331
私が	-8.4855
サービス	-8.49132
にある	-8.49371
!!	-8.49486
▁you	-8.49755
年間	-8.50045
アメリカ	-8.50663
▁–	-8.51267
R	-8.51501
▁彼は	-8.51506
いる	-8.51612
のように	-8.52333
▁P	-8.52655
▁«	-8.52898
まだ	-8.53584
L	-8.537
あなた	-8.53798
何	-8.53822
13	-8.54496
事	-8.54631
く	-8.5474
w	-8.55006
彼らは	-8.55354
これらの	-8.55448
14	-8.55465
▁M	-8.55601
性	-8.55757
一	-8.5585
った	-8.56464
x	-8.5685
▁Hotel	-8.57432
▁■	-8.57465
▁is	-8.57646
愛	-8.57921
前に	-8.58081
in	-8.58505
▁D	-8.59036
[	-8.59102
24	-8.59327
▁もし	-8.59522
み	-8.5983
25	-8.59887
16	-8.60102
17	-8.60236
本当に	-8.60312
▁12	-8.60515
▁Me	-8.60571
後	-8.60775
▁私たちは	-8.60815
に対して	-8.61013
場所	-8.61456
18	-8.6152
▁の発音を	-8.61524
>	-8.61724
けど	-8.61873
されている	-8.62194
大きな	-8.62356
ア	-8.6271
▁ホーム	-8.62752
のだ	-8.63044
彼の	-8.63047
日に	-8.63115
」(	-8.63151
なんて	-8.63461
により	-8.63756
国	-8.63778
▁だから	-8.63905
▁あなたの	-8.63925
50	-8.64284
研究	-8.64578
それを	-8.65065
女性	-8.65263
)」	-8.65483
システム	-8.65766
なかった	-8.66156
ではなく	-8.66293
N	-8.66302
において	-8.66608
のレビュー	-8.6671
水	-8.67718
▁on	-8.67771
問題	-8.68049
最初の	-8.68137
製品	-8.68354
▁>>	-8.68714
良い	-8.68815
▁11	-8.68987
とか	-8.69053
の中で	-8.69148
力	-8.6918
最も	-8.69685
ドル	-8.698
大学	-8.70027
方	-8.70093
H	-8.7023
でしょうか	-8.70283
“	-8.70538
映画	-8.70899
それが	-8.70954
▁彼らは	-8.7105
環境	-8.71271
▁G	-8.71623
周辺のレストラン	-8.71922
▁F	-8.72268
ド	-8.72646
r	-8.72866
同じ	-8.7301
▁シングル	-8.73017
何か	-8.73112
人間	-8.73129
▁あなた	-8.73182
我々は	-8.7319
▁あなたが	-8.73376
的	-8.73775
=	-8.73971
仕事	-8.7401
なのか	-8.74137
のでしょうか	-8.7429
のような	-8.74354
のロケーション	-8.75002
していた	-8.7503
たい	-8.75618
かな	-8.75671
かもしれない	-8.75729
データ	-8.75778
ですね	-8.7592
▁Google	-8.75981
すべて	-8.76105
になります	-8.76108
ません	-8.76283
▁K	-8.76453
O	-8.76644
▁My	-8.76715
▁<	-8.76842
います	-8.76911
ていた	-8.7714
う	-8.77374
によると	-8.77424
▁T	-8.77786
ではありません	-8.77894
40	-8.78041
のみ	-8.78052
+	-8.78262
プログラム	-8.78609
からの	-8.78763
▁それが	-8.78986
......	-8.79009
物	-8.7903
家	-8.79254
▁Inn	-8.7972
ための	-8.79727
▁※	-8.79872
上	-8.80144
的な	-8.80517
en	-8.80521
にとって	-8.80593
▁15	-8.80662
子	-8.80754
ですが	-8.80945
これ	-8.81005
彼らの	-8.81067
b	-8.81221
章	-8.81295
しない	-8.81339
前	-8.81519
X	-8.81747
になった	-8.82104
Google	-8.82729
21	-8.82913
現在	-8.83151
機能	-8.83679
となる	-8.83734
▁E	-8.83951
ことができる	-8.83958
ん	-8.84183
かもしれません	-8.84229
▁今	-8.84455
技術	-8.84588
されます	-8.84822
っ	-8.84921
▁0	-8.85303
ビジネス	-8.85562
いつも	-8.8575
日本	-8.85871
V	-8.85988
氏は	-8.86349
▁20	-8.86354
されています	-8.86509
ラ	-8.86806
特に	-8.87075
ト	-8.87185
米国	-8.87291
al	-8.87531
▁In	-8.87544
法	-8.87747
中国	-8.87941
手	-8.88455
道	-8.88621
▁これらの	-8.88746
日間	-8.88877
できます	-8.89004
h	-8.89133
c	-8.89274
管理	-8.89534
Y	-8.89635
▁さらに	-8.89745
g	-8.89921
19	-8.89978
▁例えば	-8.90249
もっと	-8.90339
▁L	-8.90734
彼	-8.90871
ほど	-8.91041
▁de	-8.91137
車	-8.91375
点	-8.91696
であった	-8.91835
教育	-8.92413
▁発言しました	-8.92465
▁私の	-8.92591
【	-8.92624
わたしは	-8.93158
計画	-8.93494
W	-8.93571
k	-8.93607
▁*	-8.93759
▁R	-8.93777
ホテル	-8.93783
非常に	-8.93937
見	-8.94019
▁Love	-8.94098
することができます	-8.94225
どんな	-8.94354
戦争	-8.94437
時に	-8.94451
自分	-8.94453
ず	-8.94568
ナ	-8.95089
▁18	-8.95148
度	-8.95254
▁もちろん	-8.95362
を持つ	-8.95428
む	-8.95638
▁●	-8.95715
小さな	-8.95972
▁今日	-8.96256
マン	-8.96386
者は	-8.96465
目	-8.96788
▁No	-8.96827
▁To	-8.96875
ク	-8.96915
re	-8.97406
心	-8.97572
活動	-8.97614
用	-8.97861
ことが	-8.97908
ノ	-8.97974
▁現在	-8.98051
もし	-8.98064
th	-8.98083
いい	-8.98251
があり	-8.98363
ください	-8.98545
なさい	-8.98794
ly	-8.99112
僕は	-8.99173
▁16	-8.99399
を含む	-8.99411
毎日	-8.99497
es	-8.99809
▁H	-8.99924
月に	-9.00249
会社	-9.00426
男	-9.00541
みんな	-9.00572
開発	-9.00577
グループ	-9.0075
だから	-9.0084
ことです	-9.00904
ぞ	-9.0103
さんは	-9.01237
J	-9.01305
場合は	-9.01481
別の	-9.01527
ザ	-9.01549
んです	-9.01602
▁これが	-9.01612
行動	-9.01621
p	-9.01771
カ	-9.01779
22	-9.01963
あの	-9.0197
されました	-9.02113
がない	-9.0245
今日	-9.02547
金	-9.02956
理由	-9.0309
▁Windows	-9.03143
英語	-9.03205
よく	-9.03932
あるいは	-9.0394
フランス	-9.03979
及び	-9.04048
こ	-9.04061
▁Q	-9.04103
のですか	-9.04216
いくつかの	-9.04269
経済	-9.04314
生活	-9.04331
リ	-9.04343
▁タグ	-9.04409
ものです	-9.04936
以上の	-9.0518
色	-9.05215
▁アメリカ	-9.05551
▁アーティスト	-9.05716
わたし	-9.05799
60	-9.05809
▁1.	-9.05819
ま	-9.05863
企業	-9.06032
とても	-9.06064
ましょう	-9.06093
▁N	-9.06242
じゃない	-9.0642
いて	-9.06421
l	-9.06535
あ	-9.06546
投稿されました	-9.0663
しか	-9.06682
音楽	-9.0677
チーム	-9.0687
ような	-9.06939
サイト	-9.07097
下	-9.07155
写真	-9.07169
▁もう	-9.07392
▁13	-9.07406
ページ	-9.07623
私たちが	-9.07777
▁by	-9.07999
国際	-9.08104
コ	-9.08158
と思う	-9.08281
家族	-9.08461
社会	-9.08551
すぐに	-9.08608
語	-9.0862
いない	-9.08758
言語	-9.08911
そうです	-9.08998
ご	-9.09143
笑	-9.09176
27	-9.0923
できない	-9.09291
での	-9.0931
プロジェクト	-9.09408
▁→	-9.09434
▁Re	-9.09452
on	-9.09596
え	-9.0974
と思います	-9.09825
たち	-9.09839
▁14	-9.09843
▁It	-9.09881
28	-9.09929
あり	-9.1017
少なくとも	-9.10249
マ	-9.10313
人々	-9.10548
▁V	-9.10637
死	-9.10669
タ	-9.10878
彼女は	-9.10963
女	-9.11034
はない	-9.1121
▁Office	-9.11256
ル	-9.11991
だよ	-9.12181
自由	-9.12487
経験	-9.12594
23	-9.12639
ば	-9.12775
▁だが	-9.12801
素晴らしい	-9.13158
▁では	-9.13364
人に	-9.13451
▁すべての	-9.13455
新	-9.13586
常に	-9.14047
世界の	-9.14198
関係	-9.14292
さらに	-9.14417
▁ただ	-9.14473
島	-9.14484
必要があります	-9.14559
などの	-9.14562
▁J	-9.14609
us	-9.14623
com	-9.14702
過去	-9.15047
▁17	-9.15301
私たち	-9.15318
生	-9.15459
だけでなく	-9.15557
ム	-9.15672
▁WEB	-9.15699
いました	-9.15716
▁今日は	-9.15723
曲	-9.15982
レベル	-9.16147
26	-9.16205
▁La	-9.16236
▁with	-9.16238
山	-9.16243
以上	-9.16481
出	-9.16654
ならば	-9.16693
ダ	-9.16765
市場	-9.16841
使用	-9.16904
ちゃん	-9.16924
▁2.	-9.17218
全ての	-9.17294
させる	-9.17698
ユーザ	-9.17714
君	-9.17741
なし	-9.17792
▁me	-9.18052
▁X	-9.18132
件	-9.18239
番	-9.18627
▁OF	-9.1864
▁Of	-9.18674
▁私が	-9.1886
があった	-9.18892
れば	-9.18976
▁O	-9.1941
こんな	-9.19494
エネルギー	-9.19499
すること	-9.19557
▁+	-9.19689
▁30	-9.19887
ジ	-9.19952
のに	-9.20033
▁my	-9.20068
年から	-9.201
だと	-9.20139
を見る	-9.20143
デ	-9.20144
夢	-9.20201
どうして	-9.2021
▁ファン	-9.20211
or	-9.20344
治療	-9.20676
状態	-9.21218
節	-9.21317
二	-9.21325
200	-9.21395
あらゆる	-9.22058
せ	-9.22318
お金	-9.22426
め	-9.2246
man	-9.22646
ロシア	-9.22689
ドイツ	-9.22695
してください	-9.22762
考え	-9.22771
最後の	-9.2282
のこと	-9.22859
ながら	-9.22892
ろ	-9.2297
f	-9.23118
▁そんな	-9.23135
ソフトウェア	-9.23432
をする	-9.23539
▁私たちの	-9.23556
地域	-9.23579
人生	-9.23694
はありません	-9.2384
ところ	-9.23963
▁特に	-9.23969
全	-9.24039
化	-9.24098
モデル	-9.24165
氏	-9.24208
アメリカの	-9.24234
所	-9.24259
会	-9.24301
地	-9.24368
光	-9.24478
そんな	-9.24524
重要な	-9.24536
▁your	-9.24625
カード	-9.24712
サポート	-9.24773
次の	-9.24897
なので	-9.24938
したい	-9.25026
▁New	-9.2503
の意味	-9.25039
ており	-9.25343
投資	-9.25389
犬	-9.25462
れ	-9.25529
攻撃	-9.25582
▁新しい	-9.25918
イ	-9.25932
億	-9.25993
なのです	-9.26066
レ	-9.26111
最高の	-9.26191
ファイル	-9.26229
▁be	-9.26477
新たな	-9.26594
0	-9.26742
となった	-9.2675
▁W	-9.26877
インターネット	-9.27003
サ	-9.27173
コメントしました	-9.27283
はまだ	-9.27423
彼が	-9.27589
変更	-9.27789
元	-9.27831
動物	-9.27851
能力	-9.27858
ネットワーク	-9.2788
主	-9.28005
ときに	-9.28041
していない	-9.28184
ン	-9.28401
内	-9.28505
夜	-9.28544
一番	-9.28627
体	-9.28722
られる	-9.28728
29	-9.28759
シ	-9.2914
▁て	-9.29257
Windows	-9.29385
ジョン	-9.29644
しかし	-9.29652
▁その後	-9.29936
型	-9.30051
自分が	-9.30077
旅行	-9.30106
テスト	-9.30219
フ	-9.30224
結果	-9.30373
▁3.	-9.30513
てきた	-9.30532
わたしの	-9.30555
上の	-9.30807
Z	-9.30846
なければならない	-9.30855
先	-9.30858
子供	-9.30904
のうち	-9.31118
都市	-9.31287
▁#	-9.31295
z	-9.31333
センター	-9.31617
オ	-9.31737
ポイント	-9.31747
リー	-9.31849
ますか	-9.31887
を持っている	-9.32116
海	-9.3228
バ	-9.3231
▁All	-9.32361
▁そこで	-9.32422
35	-9.32447
組織	-9.32624
政治	-9.32689
▁僕は	-9.32865
90	-9.32947
未来	-9.32993
美しい	-9.33001
▁World	-9.33005
を持っています	-9.33114
取引	-9.33158
▁Microsoft	-9.33207
オンライン	-9.33565
と言う	-9.33599
▁トップ	-9.33611
国家	-9.3373
誰も	-9.33735
クラブ	-9.33792
調査	-9.33802
▁これ	-9.33918
ニュース	-9.3398
言葉	-9.3399
▁Be	-9.34171
エ	-9.34194
三	-9.34292
彼らが	-9.34487
個	-9.3454
バー	-9.34574
イベント	-9.34578
こう	-9.34592
動画	-9.34752
週間	-9.34789
最大の	-9.34791
▁=	-9.34826
v	-9.34844
デザイン	-9.3486
▁彼女は	-9.35074
THE	-9.35502
のだろうか	-9.35548
決して	-9.35676
▁2013	-9.35711
▁Your	-9.35778
後に	-9.35949
評価	-9.35958
▁it	-9.3613
コード	-9.36192
あります	-9.36378
▁2015	-9.36503
70	-9.36662
号	-9.36725
敵	-9.36903
罪	-9.37051
特定の	-9.37296
中に	-9.37318
▁たとえば	-9.37352
ディ	-9.37765
質問	-9.37786
学校	-9.37908
成功	-9.37927
▁英語	-9.38013
天	-9.38017
というのは	-9.38028
・・・。	-9.38105
300	-9.38393
すると	-9.38525
小	-9.38526
▁<<	-9.3861
のある	-9.38612
行	-9.38617
だろうか	-9.3863
販売	-9.38891
▁19	-9.39038
の中に	-9.39074
たら	-9.39134
唯一の	-9.3927
▁た	-9.39347
▁One	-9.39369
さまざまな	-9.39372
男性	-9.39386
言う	-9.39402
の選択	-9.39449
なんだ	-9.39564
ち	-9.39635
書	-9.39691
♪	-9.39695
高	-9.39711
ヶ月	-9.39731
気	-9.39737
状況	-9.3991
▁ある	-9.40052
なんか	-9.40079
になりました	-9.40196
▁昨日	-9.40281
ずっと	-9.40374
らしい	-9.40533
選択	-9.40615
薬	-9.40829
ちょっと	-9.40844
31	-9.40955
少し	-9.41056
結婚	-9.41067
設定	-9.41121
ブ	-9.41169
初めて	-9.41238
広告	-9.41385
彼女の	-9.41556
▁なんで	-9.41565
これが	-9.41651
▁によって	-9.41669
リスト	-9.41764
▁お	-9.41872
我々の	-9.41873
▁つまり	-9.4191
銀行	-9.41921
頭	-9.41958
変化	-9.4196
社	-9.41974
とも	-9.42034
を使って	-9.42059
町	-9.42109
であろう	-9.42253
台	-9.42513
トン	-9.42536
宇宙	-9.42642
言った	-9.42659
だが	-9.42694
ツール	-9.42713
どう	-9.42748
学生	-9.42781
希望	-9.42843
だって	-9.42844
彼ら	-9.42898
Facebook	-9.42941
健康	-9.43136
時代	-9.43139
倍	-9.43178
彼女	-9.43222
平和	-9.43281
だろ	-9.43286
中国の	-9.43376
代	-9.43392
80	-9.4342
ロ	-9.4346
となります	-9.43533
le	-9.43585
支援	-9.43588
ll	-9.4375
大統領	-9.43757
命	-9.43805
戦略	-9.43817
▁アメリカ合衆国	-9.43875
米国の	-9.43926
同	-9.43958
機会	-9.44006
っている	-9.44093
間	-9.44261
け	-9.44302
▁[...]	-9.444
▁Home	-9.44467
しており	-9.4456
▁わたしは	-9.44575
木	-9.44636
▁我々は	-9.44693
からです	-9.4473
ガ	-9.44732
▁City	-9.4474
45	-9.4481
ミ	-9.44819
するために	-9.44826
保護	-9.44904
と同じ	-9.44994
ネ	-9.45075
▁ゲーム	-9.45086
だけで	-9.45173
▁at	-9.45284
幸せ	-9.45286
一緒に	-9.45317
じ	-9.45403
花	-9.45421
版	-9.45461
再び	-9.45574
知識	-9.45735
科学	-9.45776
Apple	-9.45951
のため	-9.46006
電話	-9.46092
ですよ	-9.46095
ヤ	-9.46136
▁We	-9.46139
になり	-9.46164
アプリ	-9.4626
▁2010	-9.46285
王	-9.46516
条件	-9.46522
▁On	-9.46649
政府	-9.46721
▁ダウンロード	-9.46766
!?	-9.46816
好き	-9.46867
長	-9.4692
▁女性	-9.47062
▁発音した	-9.47189
▁ただし	-9.47195
部	-9.47239
と一緒に	-9.4727
500	-9.47283
高い	-9.47298
なり	-9.47469
られた	-9.47499
を見て	-9.47696
日本の	-9.48086
リスク	-9.48106
▁And	-9.48135
文化	-9.48279
病気	-9.48649
州	-9.48653
完全に	-9.48657
▁本当に	-9.48772
何も	-9.49063
その後	-9.49163
は何	-9.49207
顔	-9.49322
強い	-9.49377
等	-9.49494
火	-9.49518
▁Pro	-9.49544
ていない	-9.49555
スポーツ	-9.49564
なの	-9.49584
ニ	-9.49597
▁2016	-9.49638
川	-9.49643
各	-9.49771
んだよ	-9.49905
賞	-9.50023
誰が	-9.50234
作業	-9.50266
ほとんど	-9.5031
ただ	-9.50318
▁さて	-9.50348
僕の	-9.50412
画像	-9.50473
:「	-9.50546
ヨーロッパ	-9.50567
産業	-9.50656
不	-9.5068
▁男性	-9.50696
真実	-9.50711
どの	-9.50856
▁4.	-9.5099
条	-9.51066
の場合	-9.51166
生産	-9.51196
クラス	-9.51452
行く	-9.51462
すでに	-9.51489
▁24	-9.51495
▁2017	-9.51545
ve	-9.51699
上で	-9.51742
特別な	-9.51785
▁ザ	-9.51811
ことに	-9.5186
$	-9.5199
U	-9.5205
▁他の	-9.5206
ブログ	-9.5208
▁Man	-9.52135
1000	-9.52236
口	-9.52275
と呼ばれる	-9.52309
よね	-9.52335
すれば	-9.52338
悪	-9.52418
年には	-9.52431
軍	-9.52526
ティ	-9.52587
全て	-9.52591
テレビ	-9.52612
外	-9.52633
人々は	-9.52662
ビデオ	-9.52694
戦	-9.52782
分の	-9.52786
現在の	-9.52889
無	-9.52969
安全	-9.53029
きた	-9.53178
存在	-9.53216
インド	-9.53384
▁まず	-9.53415
になって	-9.53418
▁U	-9.53423
分析	-9.53441
となり	-9.53444
まず	-9.53469
悪い	-9.53516
年前	-9.53614
▁愛	-9.53627
食	-9.53654
成長	-9.53677
▁De	-9.5369
秒	-9.53719
▁Is	-9.53739
必要	-9.53799
風	-9.54042
an	-9.54107
コース	-9.5412
自然	-9.5417
▁私	-9.54271
目的	-9.54329
正しい	-9.54338
▁100	-9.54366
を通して	-9.54559
法律	-9.54602
機	-9.54839
様	-9.55021
▁25	-9.55046
歴史	-9.55109
運動	-9.55189
.(	-9.55428
例	-9.55449
人間の	-9.55477
▁\	-9.55491
友達	-9.55534
▁私も	-9.55589
▁Time	-9.55646
私に	-9.55659
to	-9.55669
ツ	-9.55702
週	-9.55852
▁For	-9.5586
▁•	-9.55879
食品	-9.56037
ようです	-9.56127
古い	-9.56151
価格	-9.56222
ここで	-9.56235
効果	-9.56533
キ	-9.56573
歳の	-9.56637
については	-9.56709
グ	-9.56726
料理	-9.56728
神の	-9.5674
試験	-9.56791
に行く	-9.56797
ものだ	-9.56823
たり	-9.56854
非	-9.56906
知っている	-9.57072
を使用して	-9.57075
▁それ	-9.57077
系	-9.57084
たちは	-9.57109
ものは	-9.57126
てください	-9.57162
▁Can	-9.5722
おり	-9.57383
僕	-9.57417
通り	-9.57427
▁from	-9.57535
ベトナム	-9.57538
世界中の	-9.57557
シリーズ	-9.5764
あなたに	-9.57667
Web	-9.57728
意味	-9.5778
最大	-9.57802
目標	-9.57872
なる	-9.57874
なく	-9.58339
▁ちなみに	-9.58529
空	-9.58568
タイプ	-9.58574
▁Life	-9.58715
ia	-9.58723
▁あの	-9.58787
*	-9.58842
馬	-9.58869
32	-9.58916
このような	-9.58998
Microsoft	-9.59009
どのように	-9.59222
▁Do	-9.5933
なんで	-9.59456
is	-9.59474
異なる	-9.5949
作品	-9.59674
可能性があります	-9.597
契約	-9.59703
・・・・	-9.59709
イン	-9.5987
▁Day	-9.59918
文	-9.6016
理解	-9.60166
▁50	-9.6017
▁ドイツ	-9.60172
ことだ	-9.6019
石	-9.6021
ハ	-9.60288
事業	-9.60326
チ	-9.6042
na	-9.6061
メール	-9.60624
食事	-9.60917
形	-9.60985
なのだ	-9.61005
見て	-9.61142
万人	-9.61314
教会	-9.61342
そ	-9.61437
▁実は	-9.61446
しましょう	-9.61479
▁日本	-9.61506
病院	-9.61531
プロセス	-9.61553
価値	-9.61644
ということ	-9.61675
▁House	-9.61698
st	-9.6173
利用	-9.61794
ユーザー	-9.61846
足	-9.61922
って何	-9.62049
様々な	-9.62078
ほとんどの	-9.62136
病	-9.6222
船	-9.62259
着	-9.62302
アルバム	-9.6235
これを	-9.62357
音	-9.6248
▁バージョン	-9.62481
▁Park	-9.62496
そのような	-9.62611
2000	-9.62661
▁それで	-9.62683
通常	-9.62695
個人	-9.62771
にて	-9.62789
早く	-9.62834
枚	-9.62858
??	-9.62885
反応	-9.63005
したり	-9.63059
▁2014	-9.63061
今日は	-9.63196
EU	-9.63251
▁21	-9.63325
48	-9.63376
▁Apple	-9.63486
答え	-9.6349
じゃ	-9.63541
プ	-9.63553
▁今回は	-9.63607
簡単に	-9.63621
を通じて	-9.63643
メッセージ	-9.63662
と言った	-9.63678
テ	-9.63684
明日	-9.63684
面	-9.63789
だけど	-9.63825
地球	-9.63849
ビ	-9.63899
スター	-9.63956
検索	-9.64026
中の	-9.64193
何を	-9.64267
▁2012	-9.6431
メートル	-9.64342
会議	-9.64385
と述べた	-9.6441
歌	-9.64495
俺は	-9.64502
ゴ	-9.64538
学習	-9.64606
とともに	-9.64717
市	-9.64728
▁YOU	-9.64747
が必要です	-9.64751
名前	-9.64771
アプリケーション	-9.649
死ぬ	-9.65005
米	-9.65129
無料	-9.65352
見る	-9.65372
の方が	-9.65385
からだ	-9.65585
橋	-9.6563
さんの	-9.65638
と共に	-9.65667
前の	-9.65832
こそ	-9.65843
にあります	-9.65865
くらい	-9.65891
▁i	-9.65986
の日	-9.66004
のである	-9.66086
▁Go	-9.66099
式	-9.66124
権利	-9.66315
先生	-9.66338
400	-9.66378
Q	-9.66459
|	-9.66478
んですか	-9.66538
のですが	-9.66632
!!!	-9.66874
かも	-9.66994
〕	-9.67221
場	-9.67223
タイトル	-9.67346
→	-9.67359
▁TO	-9.67396
報告	-9.67448
de	-9.67457
友人	-9.67465
誰か	-9.6747
▁こんな	-9.67558
ルール	-9.67671
33	-9.6772
ことで	-9.67751
取り	-9.67773
かつ	-9.67788
提出されました	-9.67945
白	-9.68017
コンピュータ	-9.68034
猫	-9.68055
ファン	-9.68057
量	-9.6826
セキュリティ	-9.68375
そこに	-9.6839
▁Web	-9.68401
宗教	-9.6841
星	-9.68537
▁または	-9.68588
予定	-9.68704
ここに	-9.6887
▁can	-9.68874
物語	-9.69041
購入	-9.69121
責任	-9.69151
番号	-9.69209
対応	-9.69332
カメラ	-9.69375
試合	-9.69415
▁2007	-9.69416
▁映画	-9.69507
する必要があります	-9.69629
トップ	-9.69776
あと	-9.69788
▁Amazon	-9.69788
体験	-9.69881
ie	-9.69913
、『	-9.69927
よい	-9.701
思い	-9.70136
政策	-9.70178
事実	-9.70194
を見	-9.70242
神は	-9.70254
決定	-9.70269
あまり	-9.7028
▁365	-9.70344
▁40	-9.70361
―	-9.70402
円	-9.70437
パ	-9.7048
▁Le	-9.70496
発見	-9.70528
――	-9.70561
準備	-9.70594
についての	-9.70668
▁(1)	-9.70721
▁—	-9.70761
記憶	-9.70908
意識	-9.70981
ということです	-9.70991
服	-9.71001
がいる	-9.71021
店	-9.71061
私も	-9.71068
▁5.	-9.71101
なぁ	-9.71127
値	-9.71268
説明	-9.71316
したら	-9.71521
▁Don	-9.71609
▁★	-9.71643
ers	-9.71651
の一部	-9.71683
モ	-9.71696
アカウント	-9.71698
▁22	-9.71713
楽しい	-9.71727
メ	-9.71731
▁IN	-9.71747
ton	-9.71749
もある	-9.71786
欲しい	-9.71852
ion	-9.71854
メディア	-9.71858
コミュニティ	-9.71893
開始	-9.71933
登録	-9.72031
朝	-9.72047
顧客	-9.72143
ここ	-9.72155
PC	-9.72341
36	-9.72387
▁今日の	-9.72442
多く	-9.72549
かなり	-9.72596
美	-9.72613
部分	-9.72622
によれば	-9.72653
たくさんの	-9.72687
期間	-9.72736
くる	-9.72754
カナダ	-9.72866
紙	-9.72933
処理	-9.72942
ta	-9.72949
▁2011	-9.73044
アクセス	-9.73067
▁彼の	-9.731
かどうか	-9.73102
▁中国	-9.73115
喜び	-9.7321
km	-9.7324
人々が	-9.73566
▁Mac	-9.73606
危険	-9.73666
ボ	-9.73671
オーストラリア	-9.73674
▁メーカー	-9.73689
達	-9.7371
世	-9.73714
的に	-9.73861
ていました	-9.73908
ひ	-9.73942
俺	-9.73981
あった	-9.74066
戦い	-9.74147
はすべて	-9.74165
アーティスト	-9.74188
▁多くの	-9.74196
▁or	-9.74204
▁そう	-9.74231
てしまう	-9.74245
内の	-9.74258
▁2018	-9.74391
にいる	-9.74392
▁それから	-9.74405
を使う	-9.74416
御	-9.74422
長い	-9.74474
肉	-9.74504
ことがあります	-9.74552
事件	-9.74606
OK	-9.74621
来る	-9.7464
▁まだ	-9.74649
el	-9.7477
人を	-9.74798
武器	-9.74812
を行う	-9.74923
▁一方	-9.74927
▁それでも	-9.75062
村	-9.75108
te	-9.75114
太陽	-9.75133
iPhone	-9.75153
してる	-9.75211
世紀	-9.75216
それら	-9.75231
必要がある	-9.75246
失敗	-9.7536
犯罪	-9.75421
検査	-9.75591
オブ	-9.75659
▁are	-9.75666
革命	-9.75707
してきた	-9.75738
の間に	-9.75856
レストラン	-9.75986
同時に	-9.75996
医療	-9.76081
に関して	-9.76259
万ドル	-9.76352
そうだ	-9.76379
感	-9.76389
キー	-9.76405
韓国	-9.76546
▁したがって	-9.76724
son	-9.7673
アン	-9.76761
練習	-9.76778
信仰	-9.76804
▁どうして	-9.76823
▁St	-9.7686
毎年	-9.7686
ど	-9.76894
商品	-9.76901
バス	-9.76991
co	-9.76996
▁で発音	-9.77011
現実	-9.77154
リン	-9.77211
べき	-9.77244
品	-9.77245
自分で	-9.77345
▁not	-9.77425
セ	-9.77446
時計	-9.77559
種類の	-9.77647
一人	-9.77708
だったら	-9.77766
▁実際	-9.77775
▁University	-9.77785
ソン	-9.77796
-1	-9.77799
イスラエル	-9.77801
▁San	-9.77818
アメリカ合衆国	-9.7787
▁自分の	-9.77935
アル	-9.77993
No	-9.78011
実際に	-9.78031
リンク	-9.78036
チャンス	-9.78109
カー	-9.78187
田	-9.78198
▁彼女の	-9.7821
母	-9.78218
感情	-9.78237
私を	-9.78397
実験	-9.78592
選手	-9.78605
作	-9.78682
行為	-9.78825
▁◆	-9.78837
さんが	-9.78894
▁いつも	-9.78905
血	-9.78934
熱	-9.78953
参加	-9.79037
イギリス	-9.79044
▁International	-9.79063
の使用	-9.79094
へと	-9.79109
種	-9.79122
深い	-9.79142
レース	-9.79177
原因	-9.79206
子ども	-9.79253
ビル	-9.79344
ッ	-9.79346
偉大な	-9.7951
シュ	-9.79715
▁最初の	-9.7976
事故	-9.79906
ic	-9.79932
監督	-9.79977
et	-9.80103
コメント	-9.80165
サイズ	-9.80165
させ	-9.80211
なければなりません	-9.80244
いま	-9.80285
利益	-9.80426
ウ	-9.80482
国民	-9.80484
になっている	-9.8051
他	-9.80544
記事	-9.80635
▁ここで	-9.80657
お前	-9.80673
世代	-9.80742
▁that	-9.80796
▁すると	-9.8086
もちろん	-9.80954
▁まずは	-9.81029
設計	-9.81061
見た	-9.8108
▁の発音	-9.81126
▁Business	-9.81167
最近	-9.81177
全部	-9.81222
改善	-9.81333
若い	-9.81383
声	-9.81407
ふ	-9.81411
のない	-9.81428
感じ	-9.81455
スキル	-9.81527
夫	-9.81534
▁do	-9.81596
以下	-9.81712
記録	-9.81716
平均	-9.81725
実は	-9.81765
▁Server	-9.81767
ぜ	-9.81859
努力	-9.81862
を提供します	-9.81872
34	-9.81953
でしょ	-9.82106
▁2008	-9.82144
生きる	-9.82248
の問題	-9.82277
バージョン	-9.82298
リング	-9.82515
パートナー	-9.82519
アジア	-9.82537
▁しかも	-9.82552
ne	-9.82584
は常に	-9.82609
をもって	-9.82616
部屋	-9.82626
ことになる	-9.82652
より多くの	-9.82713
#	-9.82732
▁$	-9.82802
いつ	-9.82837
今日の	-9.82939
▁have	-9.82994
ro	-9.83043
線	-9.83079
しなければならない	-9.83088
j	-9.83134
きっと	-9.83161
共有する	-9.83226
の歴史	-9.83249
工場	-9.8325
は非常に	-9.83284
通信	-9.83295
u	-9.8332
ですよね	-9.83421
必要な	-9.83455
接続	-9.83499
ものである	-9.83596
下さい	-9.83677
ときは	-9.83842
恐怖	-9.8394
▁Facebook	-9.84022
んで	-9.84084
できません	-9.8409
発	-9.84176
の間	-9.84184
um	-9.84254
機械	-9.84352
の後	-9.84383
·	-9.84399
ING	-9.84459
▁l	-9.84467
▁p	-9.84549
親	-9.84582
▁no	-9.84582
必ず	-9.8491
▁Center	-9.85022
ありません	-9.85092
イメージ	-9.85226
一日	-9.85293
▁何	-9.85313
彼に	-9.85327
脳	-9.85409
直接	-9.85418
▁like	-9.85466
もない	-9.85502
ロンドン	-9.85523
▁俺は	-9.85532
▁そのため	-9.8554
種類	-9.8578
重	-9.85843
▁Z	-9.85891
▁フランス	-9.85927
みたい	-9.85939
おそらく	-9.85978
やる	-9.86007
』(	-9.86069
とその	-9.86074
黒	-9.862
日の	-9.86262
誰もが	-9.86325
それぞれ	-9.86355
骨	-9.86404
生きている	-9.86594
を持って	-9.86641
やっぱり	-9.86673
大学の	-9.86687
それとも	-9.8676
ation	-9.86768
▁23	-9.8677
シーズン	-9.86804
▁28	-9.8687
イタリア	-9.8689
コンテンツ	-9.86931
ぶ	-9.87033
原	-9.87122
業界	-9.87131
ケ	-9.87224
文字	-9.87265
の違い	-9.87301
▁〜	-9.8732
けれど	-9.87337
規制	-9.87381
国の	-9.87384
▁AWS	-9.87427
年齢	-9.87444
幸福	-9.87449
ありがとう	-9.87457
ことはできません	-9.87502
び	-9.87551
欧州	-9.87643
約束	-9.87646
を超える	-9.87651
可能性がある	-9.87701
ばかり	-9.87727
信頼	-9.87736
心配	-9.87737
ボール	-9.87811
訳	-9.87906
に対し	-9.87915
▁分	-9.87939
人物	-9.87974
2015	-9.88201
席	-9.88245
▁Best	-9.88285
あなたを	-9.88389
しよう	-9.88403
▁～	-9.88411
はその	-9.8842
室	-9.88427
アップ	-9.88433
▁this	-9.88435
▁みんな	-9.88455
▁Up	-9.88526
複数の	-9.88624
ベ	-9.88631
違う	-9.88672
メンバー	-9.88724
相手	-9.88731
もあります	-9.88771
に戻る	-9.888
▁その他	-9.88814
皆	-9.8885
ch	-9.88874
だな	-9.88897
いや	-9.88918
女性の	-9.88989
ニューヨーク	-9.8899
シー	-9.89007
芸術	-9.89074
将来	-9.89254
障害	-9.89394
友	-9.89455
人間は	-9.89503
が必要	-9.89503
議論	-9.89512
▁2009	-9.89623
パリ	-9.89657
しばしば	-9.89666
兄弟	-9.89681
▁2019	-9.89685
期待	-9.89768
を作る	-9.89769
ようだ	-9.89844
クリスマス	-9.8986
父	-9.89898
教師	-9.8995
ことも	-9.89993
<	-9.90009
機関	-9.90053
デバイス	-9.90079
▁c	-9.90114
箱	-9.90305
を提供しています	-9.90501
ほぼ	-9.90633
it	-9.9066
要素	-9.90662
月の	-9.90676
の名前	-9.90701
さま	-9.90723
俺の	-9.90736
はこの	-9.90783
国際的な	-9.90819
▁前	-9.90836
▁それとも	-9.90874
ぎ	-9.90921
超	-9.90954
我々	-9.90956
だけが	-9.91126
表	-9.91174
てる	-9.91312
優れた	-9.91398
49	-9.9142
コーヒー	-9.91501
最初に	-9.91522
空港	-9.91532
ry	-9.91543
▁·	-9.91562
番組	-9.91569
たくない	-9.91593
land	-9.91627
全体	-9.91683
なければ	-9.91725
交換	-9.91785
可能	-9.91804
君は	-9.91805
用の	-9.91857
街	-9.9187
終了	-9.91911
基準	-9.91989
▁フランス語	-9.91998
ソ	-9.92006
はず	-9.92023
小さい	-9.92065
特別	-9.92084
てしまった	-9.92211
▁26	-9.92257
感染	-9.92289
主に	-9.92437
勝利	-9.92457
不安	-9.92504
事を	-9.92519
US	-9.92541
食べ物	-9.92545
メーカー	-9.92548
習慣	-9.92561
を提供する	-9.92567
mm	-9.92584
適切な	-9.92605
々	-9.92611
民	-9.92658
テクノロジー	-9.92686
ine	-9.92696
チャンネル	-9.92725
魚	-9.92832
内容	-9.92886
サン	-9.92898
以来	-9.9294
妻	-9.92952
▁あと	-9.93016
800	-9.93021
警察	-9.93073
の最初の	-9.9313
のホテル	-9.93149
▁(2)	-9.93219
数字	-9.93256
ねぇ	-9.93264
▁What	-9.93299
城	-9.93309
no	-9.93344
私たちに	-9.93403
プロ	-9.93422
どのような	-9.93461
対	-9.93525
恋	-9.93567
今は	-9.9357
▁どんな	-9.93589
千	-9.93602
知らない	-9.9361
のかな	-9.93629
ワ	-9.9373
公開	-9.93743
しなかった	-9.93844
死んだ	-9.93846
惑星	-9.93861
▁d	-9.93891
時間は	-9.93994
ビタミン	-9.94115
ストレス	-9.94129
あなたがたは	-9.94186
▁So	-9.94276
食べる	-9.94425
を見た	-9.9446
製造	-9.9448
するための	-9.9454
嘘	-9.94627
生命	-9.94645
多	-9.94648
らない	-9.94658
時には	-9.9471
鳥	-9.94766
本当の	-9.94801
ブロックチェーン	-9.94819
年後	-9.94841
人たち	-9.9487
投票	-9.94891
自己	-9.9497
イエス	-9.95001
娘	-9.95043
ヒ	-9.95066
されていない	-9.95087
の世界	-9.95091
ことはない	-9.95121
影響	-9.95138
▁Resort	-9.95228
▁最近	-9.9524
施設	-9.9529
すべき	-9.95305
に基づいて	-9.95342
age	-9.95374
マー	-9.9551
長く	-9.95541
がありました	-9.95557
37	-9.95569
紹介	-9.95575
▁ジョン	-9.95591
味	-9.95606
来た	-9.95623
▁なぜなら	-9.95645
▁all	-9.95675
かい	-9.95686
有名な	-9.95722
ネット	-9.95737
患者	-9.9577
はまた	-9.95775
続ける	-9.95787
博物館	-9.95823
時は	-9.95834
150	-9.9588
油	-9.95881
市民	-9.95883
学	-9.95902
」「	-9.95996
旅	-9.96066
提供	-9.96393
あれ	-9.96418
制度	-9.96426
たくさん	-9.96431
だし	-9.96468
ブランド	-9.96469
野	-9.96488
追加	-9.96537
▁b	-9.96541
共有	-9.96571
傷	-9.96657
IT	-9.96801
は現在	-9.96835
You	-9.96857
自動車	-9.96863
銃	-9.96908
証拠	-9.96928
▁ア	-9.96967
ブロック	-9.97015
者が	-9.97106
だけです	-9.97108
訓練	-9.97115
来	-9.97122
誰	-9.97132
セット	-9.97184
博士	-9.97204
確認	-9.97251
ぬ	-9.9726
▁ところが	-9.97273
再	-9.97324
を与える	-9.97381
▁27	-9.97384
日々	-9.97437
In	-9.9746
としても	-9.97477
警告	-9.97517
期	-9.97548
ロボット	-9.97611
移動	-9.97633
・・	-9.97675
▁やっぱり	-9.97724
一つの	-9.97735
助け	-9.97766
me	-9.97817
てきました	-9.97825
といった	-9.97845
しません	-9.97883
彼を	-9.9795
痛み	-9.97954
ひと	-9.97963
公園	-9.9801
が多い	-9.98013
38	-9.98026
▁神は	-9.98042
金融	-9.98091
思い出	-9.98104
▁インド	-9.98111
春	-9.9816
100%	-9.98189
ませんでした	-9.98214
をしている	-9.9824
であること	-9.98284
ママ	-9.98356
以外の	-9.98385
▁Al	-9.98412
ぐ	-9.98438
いません	-9.98445
いく	-9.98448
にする	-9.98463
向け	-9.9868
ローマ	-9.98688
を選ぶ	-9.98711
人と	-9.98733
,「	-9.98745
▁すべて	-9.98767
▁スペイン	-9.98833
行った	-9.98843
オープン	-9.98875
タイム	-9.98919
ベッド	-9.98925
手術	-9.98931
可能な	-9.98963
赤	-9.98978
パン	-9.98997
門	-9.99022
わかる	-9.99026
▁ME	-9.99098
の中	-9.99148
2014	-9.9917
通	-9.99196
▁もっと	-9.99277
思考	-9.99278
その他の	-9.99296
人で	-9.99385
ことができ	-9.99419
されて	-9.99491
なんです	-9.99531
▁コメント	-9.99544
発展	-9.99581
独自の	-9.99622
症状	-9.99629
制限	-9.99668
すぐ	-9.99716
西	-9.99763
ウイルス	-9.99765
▁ロシア	-9.9984
44	-9.99893
にして	-9.9992
ar	-9.99923
ra	-10.0005
手段	-10.0012
英国	-10.0012
勉強	-10.0012
表示	-10.0016
ことがある	-10.0017
になりたい	-10.0026
解決	-10.0029
▁Like	-10.003
貿易	-10.003
誰かが	-10.0039
▁LOVE	-10.0044
ター	-10.0049
少年	-10.005
the	-10.0052
土地	-10.0053
であれば	-10.0053
▁At	-10.0056
▁This	-10.0062
ウェブサイト	-10.0066
表現	-10.0067
ること	-10.0069
身体	-10.0071
関連	-10.0077
75	-10.0078
スペイン	-10.0083
されていた	-10.0093
次	-10.0094
プラン	-10.0096
彼らを	-10.0103
be	-10.0104
▁29	-10.0105
雨	-10.0107
を持ち	-10.0117
地獄	-10.0117
編集	-10.0121
▁will	-10.0129
リーダー	-10.0134
CD	-10.0142
公	-10.0142
初の	-10.0142
▁あ	-10.0142
est	-10.0148
精神	-10.0151
ものを	-10.0152
ER	-10.0155
のすべての	-10.0162
サーバー	-10.0165
首相	-10.0166
安全な	-10.0168
▁毎日	-10.0168
64	-10.0171
55	-10.0175
それらの	-10.0177
課題	-10.0183
入り	-10.0183
きました	-10.0199
42	-10.0203
国境	-10.0206
のなら	-10.0211
コントロール	-10.0217
はいつも	-10.0221
聖書	-10.0231
▁カテゴリー	-10.0233
回復	-10.0236
ガン	-10.0237
北	-10.0243
コミュニケーション	-10.0247
全く	-10.0248
自分自身	-10.0258
ラン	-10.026
キャリア	-10.0273
入	-10.0276
39	-10.0279
どうやって	-10.0279
ダンス	-10.0292
自殺	-10.0293
理論	-10.0295
家庭	-10.0297
▁Little	-10.0297
突然	-10.0303
ラー	-10.0308
航空	-10.0309
発表	-10.0314
選挙	-10.0321
▁]	-10.0321
をした	-10.0325
万人の	-10.0339
▁まし	-10.0339
暴力	-10.0343
魂	-10.0359
は本当に	-10.0362
▁私たちが	-10.0363
雪	-10.037
南	-10.0371
ゼ	-10.0379
全員	-10.0385
秘密	-10.0389
勇気	-10.0391
女の子	-10.0393
ロン	-10.0393
番目の	-10.0396
酒	-10.0396
▁○	-10.0401
恐れ	-10.0403
▁上	-10.0408
▁II	-10.0413
コン	-10.0414
そこで	-10.0417
霊	-10.042
▁He	-10.0424
協会	-10.0425
強力な	-10.0435
直	-10.0441
何が	-10.0441
することができる	-10.0443
・・・」	-10.0448
を受ける	-10.045
▁本	-10.0451
昨日	-10.0455
はもう	-10.0455
▁one	-10.0461
壁	-10.0464
例えば	-10.0469
認識	-10.0471
ED	-10.0471
▁神	-10.0472
を見つける	-10.0477
強く	-10.0479
業	-10.0483
▁最後に	-10.0485
みな	-10.0486
ライン	-10.0487
方法で	-10.0489
ことはできない	-10.0491
構造	-10.0495
CEO	-10.0495
役	-10.0495
危機	-10.0495
奴隷	-10.0496
年間で	-10.0497
品質	-10.0497
核	-10.0498
土	-10.0502
600	-10.0508
訪問	-10.0509
別	-10.051
ロシアの	-10.0516
難しい	-10.052
我々が	-10.052
年代	-10.052
初	-10.0526
ことができない	-10.0528
ソフト	-10.0532
▁That	-10.0533
TV	-10.0544
空間	-10.0546
▁Good	-10.0551
真理	-10.0557
身	-10.0563
僕が	-10.0564
ロー	-10.0566
二人	-10.0569
脅威	-10.0574
なん	-10.0575
要求	-10.0576
セックス	-10.0579
la	-10.058
委員会	-10.0589
駅	-10.0589
白い	-10.0593
大きい	-10.0601
又は	-10.0617
方が	-10.0618
協力	-10.062
代表	-10.0623
に向かって	-10.0627
さえ	-10.0645
東	-10.0648
ID	-10.0652
わたしが	-10.0654
の前に	-10.0655
▁音楽	-10.0657
今まで	-10.0657
を守る	-10.0659
もっとも	-10.0659
機器	-10.0663
▁日本の	-10.0672
▁ベトナム	-10.0677
専門家	-10.0678
夏	-10.0684
はとても	-10.0686
かれ	-10.0691
チェック	-10.0693
ダー	-10.0701
▁Red	-10.0702
自	-10.0708
歳で	-10.0708
▁60	-10.0709
兵	-10.071
▁Power	-10.0712
Amazon	-10.0718
和	-10.0722
とする	-10.0723
更新	-10.0724
となっている	-10.0726
者の	-10.0727
もしくは	-10.0733
▁レーベル	-10.0734
以下の	-10.0734
年間の	-10.0736
使う	-10.0742
ツアー	-10.0748
限り	-10.0749
軍事	-10.0756
の話	-10.0756
65	-10.0757
妊娠	-10.0759
のだろう	-10.0765
ガス	-10.0767
トレーニング	-10.0768
▁彼らの	-10.0769
東京	-10.0772
2012	-10.0781
を受けた	-10.0781
睡眠	-10.0782
Office	-10.0782
を使用する	-10.0784
ていく	-10.0786
オプション	-10.0794
億ドル	-10.0794
いつでも	-10.0795
▁大	-10.0798
mo	-10.0799
able	-10.0801
▁より	-10.0812
》	-10.0814
四	-10.0815
▁How	-10.082
わけではない	-10.0826
の中の	-10.0831
os	-10.0836
座	-10.0836
可能性	-10.0838
▁Night	-10.0838
後の	-10.0838
わが	-10.0839
▁米国	-10.0843
▁過去	-10.0845
人も	-10.0845
スタイル	-10.0849
面白い	-10.0854
女性は	-10.086
君の	-10.0862
命令	-10.0862
ジョージ	-10.0864
▁一	-10.0871
▁Y	-10.0876
としたら	-10.0879
ると	-10.0882
の写真	-10.0882
テーマ	-10.0887
波	-10.0895
方は	-10.0898
▁Suites	-10.0898
▁誰が	-10.0898
Mac	-10.0899
近く	-10.0901
彼女が	-10.0907
げ	-10.0913
医師	-10.0922
▁次の	-10.0923
▁次	-10.0923
われわれは	-10.0928
権	-10.0931
教授	-10.0935
の結果	-10.0936
at	-10.0937
が一番	-10.0946
競争	-10.0952
キス	-10.0959
▁世界	-10.0964
▁32	-10.0969
有	-10.0969
皆さん	-10.0973
▁ID	-10.0976
▁その他の	-10.0976
▁km	-10.0976
ギ	-10.098
していました	-10.0985
話す	-10.099
になると	-10.0995
のことを	-10.0996
はこちら	-10.1001
局	-10.1007
サッカー	-10.1009
il	-10.1013
なあ	-10.1013
最高	-10.102
寝	-10.103
そういう	-10.103
団体	-10.1031
グローバル	-10.1032
???	-10.1032
ことはありません	-10.1035
▁El	-10.1037
となりました	-10.1038
スペース	-10.1041
▁今は	-10.1042
一度	-10.1043
の家	-10.1044
怖い	-10.1046
時期	-10.1058
回答	-10.1058
-2	-10.1062
来て	-10.1062
爆発	-10.1065
行って	-10.1068
▁いや	-10.1069
お母さん	-10.1072
▁アメリカの	-10.1072
れる	-10.1073
お店	-10.1078
短い	-10.108
多い	-10.1084
は決して	-10.1088
一覧	-10.1101
たちが	-10.111
エリア	-10.1112
禁止	-10.1113
生き	-10.1117
つは	-10.1117
動き	-10.1128
−	-10.1131
▁an	-10.1133
王国	-10.1137
▁映画を	-10.1141
実	-10.1143
があれば	-10.1146
▁現在の	-10.1153
プログラムは	-10.1153
撮影	-10.1156
死亡	-10.1161
危険な	-10.1164
わずか	-10.1164
のよ	-10.1165
▁なお	-10.1172
ラジオ	-10.1177
を受け	-10.1178
▁これで	-10.1183
完全な	-10.1184
ても	-10.1188
01	-10.1188
▁最後の	-10.1188
怒り	-10.1188
▁6.	-10.1196
▁8.	-10.1196
タイ	-10.1199
方法は	-10.1201
ケース	-10.1205
▁このような	-10.1207
弁護士	-10.1207
年前に	-10.1208
生まれ	-10.1209
を知っている	-10.121
ヌ	-10.1213
運転	-10.1216
好きな	-10.1218
▁Heart	-10.1219
投稿	-10.122
プラットフォーム	-10.1231
くん	-10.1233
作家	-10.1234
社会的	-10.1234
と思った	-10.1239
電気	-10.124
50%	-10.1252
苦しみ	-10.1254
▁f	-10.127
ジャック	-10.127
が好き	-10.1273
ピ	-10.1282
となっています	-10.1284
半分	-10.1284
▁we	-10.1289
▁今回の	-10.1292
2013	-10.1294
流	-10.1297
るのか	-10.1298
神様	-10.1302
職業	-10.1302
as	-10.1304
言	-10.131
My	-10.131
最後に	-10.131
始めた	-10.1311
家の	-10.1315
診断	-10.1338
スタッフ	-10.1343
マイケル	-10.1345
選択肢	-10.1346
いかなる	-10.1347
AI	-10.136
シリア	-10.1361
▁x	-10.1367
悪魔	-10.137
立ち	-10.1373
どこ	-10.1377
んですよ	-10.1378
段階	-10.1383
▁写真	-10.1392
テーブル	-10.1394
ment	-10.1396
んだろう	-10.1397
ナー	-10.1406
がありません	-10.1406
..	-10.1419
▁自分	-10.142
保証	-10.1421
2010	-10.1421
▁Online	-10.1427
イラン	-10.1434
仲間	-10.144
▁With	-10.1441
わからない	-10.1442
▁Co	-10.145
植物	-10.145
▁up	-10.1452
レイ	-10.1453
ner	-10.1457
図	-10.1463
ロック	-10.1464
気持ち	-10.1466
▁Bar	-10.147
料金	-10.1472
▁di	-10.1474
▁スイス	-10.1479
はずです	-10.1481
ぐらい	-10.1483
建設	-10.149
深く	-10.1493
▁次に	-10.1496
▁Out	-10.1497
認定	-10.1507
ストーリー	-10.1509
間の	-10.1519
もう一度	-10.152
成	-10.1522
go	-10.1526
▁新	-10.153
を変える	-10.1531
▁オーストラリア	-10.1536
単語	-10.1537
ちゃんと	-10.1539
付き	-10.1543
道路	-10.1544
みたいな	-10.1545
今後	-10.1549
終わり	-10.155
▁サービス	-10.1551
調整	-10.1551
遊び	-10.1561
▁約	-10.157
▁Way	-10.1571
もはや	-10.1575
巻	-10.1579
考える	-10.1581
政治的	-10.1582
マスター	-10.1582
これまで	-10.1587
違い	-10.1595
耳	-10.1598
▁キーワード	-10.1599
ソリューション	-10.1602
つまり	-10.1603
▁Inc	-10.1604
人々の	-10.1605
ポート	-10.1608
最新の	-10.1611
▁原題	-10.1612
アイデア	-10.1613
連邦	-10.1614
Fi	-10.1615
られ	-10.1617
靴	-10.1618
シャ	-10.1625
▁JA	-10.1626
条約	-10.1627
食べ	-10.1631
対象	-10.1631
瞬間	-10.1633
左	-10.1635
認証	-10.1636
一つ	-10.1646
日目	-10.1651
▁明日	-10.1652
▁love	-10.1653
ありがとうございます	-10.1665
によって提出されました	-10.1666
の上に	-10.1667
ウクライナ	-10.167
より良い	-10.1672
の研究	-10.1673
率	-10.1673
教え	-10.1674
オフィス	-10.1679
移民	-10.1681
始める	-10.1682
主要な	-10.1683
▁一番	-10.1687
ポ	-10.1688
翻訳	-10.1693
こうした	-10.1693
は何ですか	-10.1694
ベル	-10.1699
新聞	-10.1703
速度	-10.1703
▁Street	-10.1704
▁so	-10.1706
させた	-10.1714
Twitter	-10.1715
注意	-10.1727
無い	-10.1735
事は	-10.1737
マーク	-10.1738
ty	-10.1742
便	-10.1745
五	-10.1746
義	-10.1746
ma	-10.175
年までに	-10.1755
コンピューター	-10.176
文書	-10.1762
世紀の	-10.1763
@	-10.1775
エラー	-10.1778
交渉	-10.1778
図書館	-10.179
監視	-10.1795
エル	-10.1796
一人で	-10.1803
でもある	-10.1804
ろう	-10.1812
41	-10.1819
細胞	-10.1822
を得る	-10.1826
だと思う	-10.1827
息子	-10.1828
パソコン	-10.183
▁イギリス	-10.1832
ce	-10.1836
自転車	-10.1842
店舗	-10.1842
▁Airport	-10.1842
▁同	-10.1844
5000	-10.1847
石油	-10.1852
をもたらす	-10.1854
部門	-10.1857
プレイ	-10.1857
シティ	-10.1858
実行	-10.1864
はずだ	-10.1868
論	-10.1875
2011	-10.1879
アフリカ	-10.188
んだけど	-10.1881
WEB	-10.1881
二つの	-10.1895
ヘ	-10.19
体重	-10.1904
剣	-10.1908
年まで	-10.1916
2017	-10.192
てくれる	-10.1924
低	-10.1924
弾	-10.1926
▁ほとんどの	-10.1933
20%	-10.1934
やはり	-10.1934
真の	-10.1936
ショー	-10.1937
出演	-10.1939
ca	-10.1941
▁Black	-10.1941
およそ	-10.1943
人生の	-10.1951
ねえ	-10.1953
天国	-10.1954
46	-10.1956
なのに	-10.1962
ブラジル	-10.1962
大人	-10.1963
アドバイス	-10.1964
id	-10.1974
▁どの	-10.1975
~	-10.1976
▁各	-10.1982
の種類	-10.1992
日本語	-10.1994
読み	-10.1997
キング	-10.2001
▁MY	-10.2004
感謝	-10.2015
働き	-10.2018
ley	-10.202
べ	-10.2027
▁い	-10.2029
世界で	-10.2034
OS	-10.2044
の方	-10.2044
▁2:	-10.2047
を知る	-10.2049
ライセンス	-10.2062
読む	-10.2064
日から	-10.2066
せる	-10.2072
装置	-10.2075
一部の	-10.2075
互いに	-10.2076
人類	-10.208
▁View	-10.2082
データベース	-10.2085
冬	-10.2086
逆	-10.2088
▁2006	-10.2089
操作	-10.2089
自分を	-10.2095
挑戦	-10.2097
今の	-10.2099
▁31	-10.2102
票	-10.2102
湖	-10.2103
それぞれの	-10.2103
が欲しい	-10.2103
かった	-10.2107
階	-10.2113
離婚	-10.2117
してくれる	-10.2117
探し	-10.212
髪	-10.2125
あたり	-10.2127
ホ	-10.2127
レポート	-10.2128
にもかかわらず	-10.2129
は約	-10.213
右	-10.2131
と言います	-10.2131
の数	-10.2133
政府は	-10.2134
生物	-10.2135
と語った	-10.2144
に入る	-10.2148
モノ	-10.2151
になっています	-10.2157
師	-10.2159
しかない	-10.216
書き	-10.2162
プレゼント	-10.2163
バンド	-10.2163
反対	-10.217
フィールド	-10.2176
思う	-10.2178
空気	-10.2182
判断	-10.2184
less	-10.2187
鍵	-10.219
デジタル	-10.2191
海軍	-10.2198
牛	-10.2198
忙しい	-10.2198
既に	-10.2201
2018	-10.2206
のメンバー	-10.2208
制御	-10.2215
働く	-10.2216
▁la	-10.2225
程度	-10.2228
根	-10.2229
規則	-10.2233
▁まるで	-10.2235
▁カナダ	-10.2242
原則	-10.2244
▁ニュース	-10.2245
地図	-10.2245
▁確かに	-10.2249
ハウス	-10.2249
通貨	-10.225
am	-10.2252
ゲ	-10.2256
科学者	-10.2262
ol	-10.2264
▁out	-10.2264
ana	-10.2266
携帯電話	-10.2266
ity	-10.227
航空機	-10.2272
の仕方	-10.2273
▁テーマ	-10.2274
時の	-10.2274
の力	-10.2276
の間で	-10.2278
天使	-10.2282
世界は	-10.2292
▁―	-10.2292
内で	-10.2294
個の	-10.2295
立	-10.2304
祈り	-10.2304
草	-10.2313
義務	-10.2317
ter	-10.2318
au	-10.2319
▁10.	-10.232
▁Live	-10.2323
テロ	-10.2325
自ら	-10.2326
メキシコ	-10.2326
ニー	-10.2329
2008	-10.2329
集団	-10.2336
未	-10.2337
▁わたし	-10.2353
▁John	-10.2354
ドン	-10.2354
簡単な	-10.2356
赤い	-10.2356
10%	-10.2356
▁as	-10.2361
買い	-10.2365
間違い	-10.2369
されており	-10.2371
▁きっと	-10.2371
何故	-10.2373
労働	-10.2377
はありますか	-10.238
ようになる	-10.2385
▁IS	-10.2387
We	-10.2388
すぎる	-10.2388
ha	-10.2398
職	-10.2404
シンガポール	-10.2412
51	-10.2413
外国人	-10.2413
▁同じ	-10.2413
スト	-10.2418
一般的な	-10.2419
今回の	-10.2419
母親	-10.2428
大会	-10.2429
の検索結果	-10.243
▁USD	-10.243
やすい	-10.243
トラック	-10.2431
ワシントン	-10.2442
少女	-10.2442
分野	-10.2443
をして	-10.2444
絵	-10.2447
会話	-10.2457
▁ですから	-10.2458
鉄	-10.2459
の開発	-10.2462
持っている	-10.2463
合意	-10.2466
▁Will	-10.2467
を選択	-10.2468
校	-10.2472
もまた	-10.2474
住宅	-10.2477
43	-10.2479
合	-10.2479
自信	-10.2481
予測	-10.2481
わけ	-10.2481
ミス	-10.2482
▁Club	-10.2483
スイス	-10.2489
ひとつ	-10.249
できた	-10.2491
飛行	-10.2494
▁Girl	-10.2497
確かに	-10.2501
ian	-10.2502
していません	-10.2503
▁iPhone	-10.2504
▁ファイル	-10.2507
毛	-10.2507
URL	-10.2509
Android	-10.2511
キリスト	-10.2513
▁聖書	-10.2514
up	-10.2521
回目	-10.2522
国内	-10.2524
ライト	-10.2529
問	-10.2529
▁ヽ	-10.2529
だけだ	-10.253
わたしたち	-10.2531
®	-10.2531
理由は	-10.2538
標準	-10.2541
を求める	-10.2541
だと思います	-10.2544
に行って	-10.2544
▁Outlook	-10.2546
安定	-10.255
とのこと	-10.2552
▁中国の	-10.2552
ヴィ	-10.2553
ダウンロード	-10.2553
彼らに	-10.2554
やった	-10.2556
47	-10.2557
▁AND	-10.2558
▁Blue	-10.2558
の変化	-10.2559
ビール	-10.2563
日は	-10.2567
呼吸	-10.2569
▁Android	-10.2574
行き	-10.2575
対策	-10.2581
マーケティング	-10.2583
良く	-10.2585
お客様	-10.2586
上に	-10.2586
何度も	-10.2587
▁Studio	-10.2588
がん	-10.2588
でき	-10.2588
\	-10.2592
恐ろしい	-10.2592
作成	-10.2593
モード	-10.2593
フォード	-10.2594
自身の	-10.2596
▁ヨーロッパ	-10.2599
権力	-10.2601
家に	-10.2614
▁Service	-10.2617
io	-10.2618
▁全	-10.2618
群	-10.262
知	-10.2627
私達の	-10.2629
真	-10.263
の多くは	-10.263
運命	-10.2633
の一つ	-10.2635
を取り	-10.2636
▁Road	-10.2639
120	-10.2643
運	-10.2644
ほしい	-10.2644
はい	-10.2644
領域	-10.2645
字	-10.265
憲法	-10.2653
のでしょう	-10.2655
アドレス	-10.2659
▁PC	-10.2664
始め	-10.2667
全体の	-10.2668
大変	-10.2671
▁m	-10.2671
農業	-10.2676
港	-10.2681
伝統	-10.2683
▁If	-10.2684
lo	-10.2685
ユーロ	-10.2686
☆	-10.269
▁Free	-10.2691
携帯	-10.2695
単に	-10.2699
仮想通貨	-10.2703
人間が	-10.2714
気分	-10.2717
IP	-10.2718
厳しい	-10.2718
La	-10.2718
っています	-10.272
▁初めて	-10.2722
富	-10.2722
巨大な	-10.2723
▁TOP	-10.2725
放送	-10.2726
パワー	-10.2728
感覚	-10.273
将来の	-10.2734
ir	-10.2735
▁2005	-10.2736
▁re	-10.2739
ri	-10.2739
神が	-10.2739
▁clips	-10.2741
緊急	-10.2744
女性が	-10.2744
数は	-10.2749
ヨ	-10.2752
赤ちゃん	-10.2754
聞く	-10.2755
誌	-10.2764
穴	-10.2765
時間を	-10.2765
▁アルバム	-10.2767
名の	-10.2767
ポール	-10.277
海外	-10.2771
雲	-10.2772
▁こんにちは	-10.2772
の仕事	-10.2775
▁7.	-10.2777
楽	-10.2779
ことになります	-10.278
を探す	-10.2782
▁あるいは	-10.2783
電子	-10.2786
é	-10.2788
と同じように	-10.2789
IN	-10.2793
しまった	-10.2793
見える	-10.2795
出す	-10.2795
材料	-10.2797
ビザ	-10.2797
パッケージ	-10.28
からの料金	-10.2802
に関連する	-10.2804
わたしたちは	-10.2818
独立	-10.2819
複雑な	-10.2823
姿	-10.2823
経営	-10.2825
そんなに	-10.2829
フィ	-10.2835
戦闘	-10.2838
物質	-10.2845
ペ	-10.285
指	-10.2854
良かった	-10.2857
日本人	-10.2865
たった	-10.2867
53	-10.287
込む	-10.2871
屋	-10.2871
俳優	-10.2879
言い	-10.2882
年前の	-10.2883
楽しみ	-10.2884
▁Air	-10.289
修正	-10.2891
▁HOME	-10.2891
引き	-10.2892
姫	-10.2895
ヨーロッパの	-10.2898
▁Never	-10.29
%	-10.2902
明	-10.2905
手紙	-10.2906
毒	-10.2907
しても	-10.2908
2016	-10.2908
▁Super	-10.291
こういう	-10.2915
奴	-10.2916
の場所	-10.2917
99	-10.2919
われわれの	-10.2919
MA	-10.292
眼	-10.2922
大きく	-10.2924
▁Music	-10.2926
主は	-10.2933
キロ	-10.2933
▁やはり	-10.2933
アート	-10.2935
▁それを	-10.294
保険	-10.2942
ノー	-10.2945
レス	-10.2949
詩	-10.2954
▁Are	-10.2955
観	-10.2957
ガイド	-10.2963
停止	-10.2968
今年	-10.2972
ちょうど	-10.298
オン	-10.2985
▁質問	-10.2994
雑誌	-10.3006
悲しみ	-10.3011
ひとり	-10.3013
いたします	-10.3016
満足	-10.3018
!!」	-10.3022
暮らし	-10.3022
▁By	-10.3022
90%	-10.3026
意見	-10.3028
聖	-10.3028
わたしに	-10.3035
やって	-10.3043
魔法	-10.3046
▁NO	-10.3047
サー	-10.3048
両	-10.3049
残り	-10.305
▁クリスマス	-10.3051
続く	-10.3054
人口	-10.3057
▁An	-10.3058
位置	-10.3059
その他	-10.3063
▁Back	-10.3064
ワイン	-10.3066
エジプト	-10.3073
学生は	-10.3076
せよ	-10.3078
進歩	-10.3081
要因	-10.3083
Re	-10.3083
出来事	-10.3084
割	-10.3088
知る	-10.3089
知ってる	-10.3089
▁IT	-10.3091
年以上	-10.3095
そうな	-10.3096
付け	-10.3101
▁これを	-10.3103
ジャ	-10.3104
▁←	-10.3106
タン	-10.3113
▁何故	-10.3115
にとっては	-10.3116
▁Play	-10.3123
トルコ	-10.3124
▁追加されました	-10.3124
▁彼	-10.3137
党	-10.3137
するか	-10.3139
兵士	-10.314
に従って	-10.3142
▁Now	-10.3148
▁モデル	-10.3153
香港	-10.3165
を示す	-10.3166
▁”	-10.3171
ほ	-10.3172
原題	-10.3175
存在する	-10.3176
レン	-10.3179
▁ルーム	-10.318
2009	-10.3181
▁少なくとも	-10.3183
ありがとうございました	-10.3183
▁イン	-10.3183
da	-10.3186
〔	-10.3186
支払い	-10.3188
▁School	-10.3188
ユダヤ人	-10.3188
うち	-10.3191
いなかった	-10.3192
のであれば	-10.3195
▁More	-10.3196
民族	-10.3199
られている	-10.3202
資金	-10.3202
単位	-10.3205
の使い方	-10.3206
▁King	-10.3209
▁今年は	-10.3213
計算	-10.3215
▁Who	-10.3216
自分に	-10.3217
持ち	-10.3217
ころ	-10.3219
か月	-10.3223
仕事を	-10.3237
▁Edition	-10.3239
までに	-10.3241
軍隊	-10.3248
、“	-10.3249
エン	-10.325
展開	-10.3253
ワールド	-10.3254
ガー	-10.3255
ボタン	-10.3263
者たち	-10.3265
2020	-10.3271
はすでに	-10.3272
li	-10.3272
建物	-10.3273
疑問	-10.3276
伝統的な	-10.3278
を失った	-10.328
年で	-10.3283
器	-10.3285
民主主義	-10.3286
冒険	-10.3287
ボランティア	-10.3292
七	-10.3295
分間	-10.3296
人権	-10.3296
の下で	-10.3298
チャ	-10.3298
車両	-10.3307
労働者	-10.3307
最低	-10.3308
炎	-10.3309
ついに	-10.3309
子供の	-10.3311
▁誰も	-10.3312
54	-10.3316
買う	-10.3323
▁Not	-10.3323
時間が	-10.3326
わけではありません	-10.3327
‐	-10.333
正義	-10.3335
▁2000	-10.3337
と呼ぶ	-10.3337
重い	-10.3342
孤独	-10.335
▁ラベル	-10.3358
があって	-10.3361
▁アカウント	-10.3363
▁time	-10.3364
▁36	-10.3375
まま	-10.3376
それでも	-10.338
フィリピン	-10.3384
エンジン	-10.3384
を有する	-10.3388
通知	-10.3389
政治家	-10.3392
あなたがたの	-10.3394
▁new	-10.3394
分かる	-10.3394
▁ビデオ	-10.3395
▁Plus	-10.3398
▁West	-10.3402
ブル	-10.3403
時々	-10.3405
と言って	-10.3405
歩	-10.3413
業務	-10.3415
ent	-10.3416
医者	-10.3417
を買う	-10.3417
額	-10.3418
▁――	-10.342
類	-10.3424
▁́	-10.3426
56	-10.3426
▁TV	-10.3429
ist	-10.3432
▁1.1	-10.3435
まったく	-10.3439
書く	-10.344
ビーチ	-10.3442
脚	-10.3445
デー	-10.3447
することは	-10.3447
注目	-10.3449
▁イスラエル	-10.3452
▁Post	-10.3453
一生	-10.3458
相	-10.3466
永遠に	-10.3468
みたいに	-10.347
▁まあ	-10.3472
哲学	-10.3478
の言葉	-10.3479
ファ	-10.348
列	-10.3491
言って	-10.3493
十分な	-10.3494
株	-10.3494
▁全ての	-10.3499
組	-10.3506
)』	-10.3506
で最も	-10.3507
資産	-10.3511
砂漠	-10.3511
わたしを	-10.3513
ステップ	-10.3517
変	-10.3521
▁インターネット	-10.3525
オランダ	-10.3529
▁ブランド	-10.3529
nd	-10.353
注文	-10.3537
としての	-10.3539
▁イタリア	-10.3541
ていません	-10.3542
に向けて	-10.3548
はなぜ	-10.3548
質	-10.3549
財産	-10.3549
大丈夫	-10.3549
人気	-10.355
当社の	-10.3559
マリア	-10.3559
バッグ	-10.3562
ω	-10.3565
費用	-10.3568
中で	-10.357
共和国	-10.357
by	-10.3573
ビットコイン	-10.3575
っと	-10.3575
66	-10.3576
英	-10.3586
ゆ	-10.3588
もので	-10.359
層	-10.3591
▁韓国	-10.3593
かもしれませんが	-10.3594
心臓	-10.3596
▁War	-10.3596
いつか	-10.3599
世界に	-10.3601
One	-10.3601
ant	-10.3611
当時	-10.3612
まるで	-10.3616
個人的な	-10.3618
合い	-10.3621
▁ローマ	-10.3621
歯	-10.3622
とは何ですか	-10.3623
妹	-10.3624
明らかに	-10.3625
▁Get	-10.3628
▁ニューヨーク	-10.3633
コイン	-10.3634
自分たちの	-10.3636
を表示	-10.3637
忘れ	-10.364
▁Days	-10.3644
⌒	-10.3645
ものではない	-10.3646
▁go	-10.3647
研究所	-10.365
私達は	-10.3651
の新しい	-10.3654
▁小さな	-10.3655
▁しかしながら	-10.3658
想像	-10.3665
遺伝子	-10.3669
すなわち	-10.367
パーティー	-10.3675
他人	-10.3677
青	-10.3677
リア	-10.3679
ur	-10.3685
飲み	-10.3696
衛星	-10.3704
▁ブログ	-10.3706
カフェ	-10.3712
よかった	-10.3714
ワン	-10.3716
が無い	-10.3717
レビュー	-10.3718
ほかの	-10.3722
匹	-10.3725
▁Na	-10.3726
ベスト	-10.3726
▁Western	-10.3728
出来る	-10.3729
▁ダーリン	-10.3732
つです	-10.3734
が必要だ	-10.3738
▁(3)	-10.3743
フランス語	-10.3744
説	-10.3748
▁Suite	-10.3752
ino	-10.3752
▁僕の	-10.3753
計	-10.3754
援助	-10.3757
52	-10.3763
太	-10.3764
発売	-10.3765
省	-10.3769
ate	-10.3774
圧力	-10.3774
1%	-10.3775
▁ちょっと	-10.3776
sa	-10.3778
スタート	-10.378
女子	-10.3781
開催	-10.3788
支配	-10.3789
使い	-10.3789
バカ	-10.3789
薬物	-10.379
▁FOR	-10.3791
平	-10.3792
ホーム	-10.3798
あなたがた	-10.3799
ダウン	-10.3799
▁2020	-10.38
編	-10.3801
共に	-10.3802
知恵	-10.3803
2019	-10.3808
先に	-10.381
正	-10.3815
素敵な	-10.3815
ゴミ	-10.3822
スピード	-10.3825
するのは	-10.3826
ユーザーが	-10.3827
涙	-10.3829
解放	-10.383
以降	-10.3833
リリース	-10.3833
を与え	-10.3835
のサポート	-10.3836
RE	-10.3837
混乱	-10.3839
ka	-10.384
奇跡	-10.384
▁35	-10.3841
八	-10.3842
くれる	-10.3846
mg	-10.3846
予約	-10.3848
測定	-10.3848
フランスの	-10.3849
中国は	-10.385
▁ありがとう	-10.385
シングル	-10.3851
必要はありません	-10.3852
剤	-10.3857
do	-10.3858
YouTube	-10.3859
遠い	-10.3864
それから	-10.3867
状	-10.3868
What	-10.3879
はどう	-10.3882
低い	-10.3884
強	-10.3888
切り	-10.3896
エンジニア	-10.3906
すべてが	-10.3908
員	-10.3911
ina	-10.3912
反	-10.3913
からね	-10.3917
制	-10.3919
年以来	-10.392
▁Mar	-10.392
情報を	-10.3926
化学	-10.3932
アイ	-10.3935
▁more	-10.3938
se	-10.3938
57	-10.394
なくなる	-10.394
ごとに	-10.3943
産	-10.3945
これから	-10.3949
の約	-10.3953
事務所	-10.3955
も同じ	-10.3956
を読む	-10.3961
▁時間	-10.3961
コピー	-10.3969
普通	-10.397
すぎ	-10.3973
▁結局	-10.3974
パーセント	-10.3978
の歌	-10.3978
幸せな	-10.398
▁Beach	-10.3982
定義	-10.3987
700	-10.3988
負け	-10.3989
ハート	-10.3991
▁Car	-10.3991
自動	-10.3992
バン	-10.3993
頻繁に	-10.4
▁Or	-10.4
を感じる	-10.4001
内に	-10.4005
▁〔	-10.4011
両親	-10.4015
普通の	-10.4015
国連	-10.4019
諸	-10.4025
に行った	-10.4027
NO	-10.4028
血液	-10.4029
文明	-10.4037
腕	-10.4037
売り	-10.4038
証明	-10.4039
80%	-10.404
であって	-10.4047
早い	-10.4047
杯	-10.4047
提案	-10.4048
×	-10.4048
実際には	-10.4049
決断	-10.4049
鏡	-10.4049
58	-10.405
連絡	-10.4056
飲む	-10.4056
バラ	-10.4059
代わりに	-10.406
▁監督	-10.4061
ミサイル	-10.4062
▁API	-10.4065
▁ON	-10.4067
3000	-10.4068
に近い	-10.4068
なのでしょうか	-10.4069
アメリカ人	-10.4069
黒い	-10.4071
▁ビジネス	-10.4071
るか	-10.4073
才能	-10.4073
ホール	-10.4074
ジェ	-10.4075
小説	-10.4076
マイル	-10.4076
作り	-10.4078
しまう	-10.408
私たちを	-10.4081
▁彼が	-10.4083
入力	-10.4088
ります	-10.4089
の略	-10.409
出発	-10.409
件の	-10.4093
政府の	-10.4097
人々に	-10.4102
▁カテゴリ	-10.4103
してきました	-10.4104
ko	-10.4106
▁80	-10.4106
若者	-10.4108
つき	-10.4108
▁オンライン	-10.4113
▁それに	-10.4114
カップ	-10.4114
困難	-10.4117
▁v	-10.4118
Bitcoin	-10.4118
ヒーロー	-10.4122
ではなかった	-10.4124
〉	-10.4125
現象	-10.4128
製	-10.4131
すばらしい	-10.4135
雇用	-10.4138
ya	-10.4139
2007	-10.414
からである	-10.414
成人	-10.4141
最終的に	-10.4141
クライアント	-10.4144
ブラック	-10.4147
un	-10.4147
に住む	-10.415
聞いて	-10.4153
データを	-10.4156
パフォーマンス	-10.4157
とした	-10.4159
を参照してください	-10.4163
ケア	-10.4167
はどこ	-10.4169
▁Di	-10.4169
君が	-10.417
輸入	-10.4173
学生が	-10.4173
▁45	-10.4173
▁Version	-10.4173
森	-10.4176
CO	-10.4176
われ	-10.4179
起こる	-10.418
生まれた	-10.4182
マシン	-10.4187
税	-10.419
NET	-10.4198
懸念	-10.4199
しなさい	-10.42
岩	-10.4205
▁世界の	-10.4208
お前の	-10.4208
ひどい	-10.4212
?』	-10.4212
▁おそらく	-10.4218
▁その時	-10.4218
輸送	-10.422
▁ロンドン	-10.423
▁もっと見る	-10.4235
卵	-10.4242
飛行機	-10.4252
▁Express	-10.4252
トム	-10.4253
と同様に	-10.4254
▁Star	-10.4256
ずに	-10.4261
デン	-10.4261
それに	-10.4262
彼女に	-10.4262
創造	-10.4262
影	-10.4262
流れ	-10.4273
ものが	-10.4274
72	-10.4275
ドア	-10.4276
▁Rock	-10.4276
深刻な	-10.4278
em	-10.4284
All	-10.4285
自身	-10.4286
▁Group	-10.4288
95	-10.4288
の原因	-10.4292
完全	-10.4296
▁の歌詞	-10.4298
大規模な	-10.4299
New	-10.4301
の時代	-10.4301
▁Know	-10.4304
自分は	-10.4305
昔	-10.4305
こんなに	-10.4307
Love	-10.4311
それらを	-10.4312
角	-10.4315
弟	-10.4316
コスト	-10.4317
完璧な	-10.4318
させて	-10.4318
のではなく	-10.4324
としては	-10.4326
長い間	-10.4326
を取る	-10.433
二人の	-10.4332
GB	-10.4333
輸出	-10.4334
▁マイケル	-10.4341
▁Lodge	-10.4344
派	-10.4344
建築	-10.4345
をご覧ください	-10.4347
出会い	-10.4347
II	-10.4353
を必要とする	-10.4354
予想	-10.4356
▁注	-10.436
タクシー	-10.4367
▁g	-10.4369
ミッション	-10.4371
テキスト	-10.4373
▁Room	-10.4373
▁90	-10.4375
ところで	-10.4378
▁Let	-10.4384
はある	-10.4387
世界中で	-10.4388
解決策	-10.4389
▁33	-10.4391
作戦	-10.4393
大好き	-10.4398
チップ	-10.44
以前	-10.4401
刑務所	-10.4413
破壊	-10.4415
問題は	-10.4421
250	-10.4421
–	-10.4424
鼻	-10.4427
緊張	-10.4427
30%	-10.4431
・・・・・	-10.4431
▁イベント	-10.4433
▁ある日	-10.4434
IS	-10.4434
愛する	-10.4438
トイレ	-10.4448
沈黙	-10.4449
隊	-10.4451
▁国際	-10.4453
初めての	-10.4457
像	-10.4462
昨年	-10.4463
宣言	-10.4463
父親	-10.4464
偶然	-10.4466
40%	-10.4473
▁2003	-10.4474
供給	-10.448
バック	-10.4481
に関する情報	-10.4482
ge	-10.4485
ハイ	-10.4485
近	-10.4488
北朝鮮	-10.449
の国	-10.4491
くれ	-10.4492
一般	-10.4493
側	-10.4495
少ない	-10.4496
する方法	-10.45
症	-10.4511
▁YouTube	-10.4512
されない	-10.4515
そのまま	-10.4516
▁三	-10.4519
ミー	-10.4522
地方	-10.4523
ハリー	-10.4524
フリー	-10.4524
の場合は	-10.4528
変わる	-10.453
大切な	-10.4532
出し	-10.4535
復活	-10.4537
動作	-10.4537
ケーキ	-10.4545
▁Grand	-10.4546
今夜	-10.4547
教	-10.455
時間の	-10.4551
の物語	-10.4552
自由に	-10.4559
でもあります	-10.456
▁う	-10.456
としている	-10.456
分で	-10.4568
シーン	-10.4572
救い	-10.4572
資格	-10.4575
距離	-10.458
笑顔	-10.4582
豚	-10.4582
指導者	-10.4583
列車	-10.4587
86	-10.459
▁Un	-10.4592
相談	-10.4593
進化	-10.4595
信号	-10.4597
主義	-10.4597
鉄道	-10.4597
の声	-10.4601
様子	-10.4601
氏が	-10.4605
ことである	-10.4606
になれる	-10.4609
パス	-10.4609
資源	-10.461
ペン	-10.4621
-3	-10.4622
ジャクソン	-10.4625
▁BE	-10.4633
六	-10.4641
の影響	-10.4645
ke	-10.465
ものではありません	-10.4655
シン	-10.4657
戦車	-10.4662
せず	-10.4663
冊	-10.4665
かつて	-10.4666
人形	-10.4666
窓	-10.467
▁College	-10.467
削除	-10.467
再生	-10.4672
net	-10.4673
殺人	-10.4674
そこ	-10.4675
絶対に	-10.4677
項目	-10.4678
王子	-10.468
」、「	-10.468
だれ	-10.4681
▁Big	-10.4683
を提供し	-10.4685
ac	-10.4686
▁High	-10.4686
つく	-10.4687
律法	-10.4689
経済的	-10.469
塩	-10.469
ドイツの	-10.4691
入れ	-10.4692
心の	-10.4693
側面	-10.4694
舌	-10.4704
▁誰か	-10.4705
▁残り	-10.4705
ary	-10.4705
▁Games	-10.4707
当	-10.4707
カップル	-10.4712
セル	-10.4716
官	-10.4717
▁Cloud	-10.4719
▁今の	-10.4723
逃げ	-10.4726
がなければ	-10.4728
MS	-10.4729
ようになった	-10.4729
インドネシア	-10.473
今回は	-10.473
ということだ	-10.4734
半	-10.4734
うちに	-10.4735
難民	-10.4738
ホルモン	-10.4745
士	-10.4746
▁Baby	-10.4751
なくなった	-10.4754
カン	-10.4755
報道	-10.476
絶対	-10.4764
日前	-10.4767
▁39	-10.4767
兵器	-10.4768
権限	-10.4769
のかもしれない	-10.477
電力	-10.477
アプローチ	-10.4776
既存の	-10.4776
▁OS	-10.4783
行う	-10.4787
使用する	-10.479
大学は	-10.4791
モバイル	-10.4794
▁私たち	-10.4798
完成	-10.4799
ビー	-10.4804
紛争	-10.4811
企業は	-10.4811
従業員	-10.4814
かかる	-10.4817
癌	-10.4823
予算	-10.4824
おもちゃ	-10.4825
グリーン	-10.4834
大陸	-10.4839
台の	-10.4843
フル	-10.4849
頃	-10.485
AR	-10.4851
できますか	-10.4851
恋人	-10.4854
医学	-10.4855
形式	-10.4857
▁Tag	-10.4858
一部	-10.486
kg	-10.4861
キャンペーン	-10.4861
はあなたの	-10.4873
ものの	-10.4874
ますます	-10.4882
:12	-10.4882
定	-10.4883
証明書	-10.489
▁York	-10.4892
カット	-10.4894
ive	-10.4896
会社の	-10.4897
許可	-10.49
実際の	-10.4902
▁2004	-10.4907
解	-10.4908
Do	-10.4909
した場合	-10.4909
ランド	-10.4911
`	-10.4913
▁良い	-10.4914
トゥ	-10.4914
の情報	-10.4915
羊	-10.4918
▁≪	-10.4919
得	-10.4926
生き物	-10.4939
に基づく	-10.4941
それで	-10.4942
ba	-10.4943
▁Art	-10.4947
祝福	-10.4947
走る	-10.495
んですね	-10.4952
ビジョン	-10.4952
現代	-10.4954
やつ	-10.4958
まさに	-10.4959
投資家	-10.496
子供たち	-10.496
モン	-10.4961
▁Watch	-10.4961
▁Open	-10.4962
▁毎年	-10.4964
お客様の	-10.4966
帝国	-10.4967
ユニット	-10.497
サンプル	-10.4972
▁ブラック	-10.4975
信用	-10.4982
するのか	-10.4983
静かに	-10.4984
まして	-10.4985
セント	-10.499
じゃん	-10.4992
MBA	-10.4993
▁ここ	-10.4994
てくれた	-10.4995
られない	-10.4995
▁」「	-10.4996
勝ち	-10.4996
してしまう	-10.4997
電子メール	-10.4997
観察	-10.4999
ler	-10.5
防衛	-10.5001
手を	-10.5001
信念	-10.5002
のに役立ちます	-10.5007
安い	-10.5009
なくて	-10.5013
美術館	-10.5015
安	-10.5021
を失う	-10.5022
やろ	-10.5023
学者	-10.503
無理	-10.5035
ies	-10.504
現	-10.5048
▁はい	-10.505
釣り	-10.505
までは	-10.5051
▁know	-10.5051
登場	-10.5062
▁Old	-10.5066
過ぎ	-10.507
を発表	-10.507
爆弾	-10.5071
砂	-10.5071
到着	-10.5079
ルーム	-10.508
わけです	-10.5082
バル	-10.5085
パーク	-10.5088
生涯	-10.509
How	-10.5091
が含まれています	-10.5095
体の	-10.5097
お前は	-10.5097
資料	-10.5098
可愛い	-10.5102
映像	-10.5106
政権	-10.5107
横	-10.5107
ギリシャ	-10.5107
チームは	-10.5108
英名	-10.5108
脂肪	-10.511
氷	-10.5111
学部	-10.5113
▁製品	-10.5115
筋肉	-10.5117
▁Real	-10.5119
ブルー	-10.512
キン	-10.5122
はどんな	-10.5123
世界を	-10.5124
ざ	-10.5125
達成	-10.5126
ック	-10.5127
ただの	-10.5128
季節	-10.5129
全員が	-10.513
需要	-10.5131
将軍	-10.5131
神経	-10.5132
▁米	-10.5137
▁アル	-10.5138
場所で	-10.5138
たびに	-10.5143
の法則	-10.5144
仏	-10.5146
袋	-10.5146
地域の	-10.5147
持って	-10.5148
の前で	-10.515
午後	-10.5151
der	-10.5151
06	-10.5152
観光	-10.5154
預言者	-10.516
にあり	-10.5161
さんに	-10.5162
くれた	-10.5162
気候変動	-10.5168
だそうです	-10.5172
の価値	-10.5174
支持	-10.5179
▁それでは	-10.518
の両方	-10.5183
済み	-10.5184
It	-10.5184
▁38	-10.5188
ビュー	-10.5188
みなさん	-10.5191
トラ	-10.5192
回の	-10.5196
話し	-10.5199
企業の	-10.5201
(1	-10.5201
▁・「	-10.5201
だね	-10.5202
”(	-10.5203
ができる	-10.5203
担当	-10.5203
の秘密	-10.5204
▁今回	-10.5205
込み	-10.5206
差	-10.521
line	-10.521
祭り	-10.5213
したのは	-10.5215
▁Down	-10.5216
お父さん	-10.5219
伝説	-10.522
の戦い	-10.5222
マネージャー	-10.5225
との関係	-10.5225
広く	-10.5227
ぜひ	-10.5228
SE	-10.5231
日まで	-10.5231
本の	-10.5232
▁^	-10.5235
▁だからこそ	-10.5237
タンパク質	-10.5238
した後	-10.5239
▁ONE	-10.524
項	-10.524
04	-10.5243
俺が	-10.5243
▁なので	-10.5245
インストール	-10.5246
どこに	-10.5247
会員	-10.5248
重要	-10.525
PR	-10.5253
way	-10.5256
ベン	-10.5259
イラク	-10.5259
ことによって	-10.5261
ていて	-10.5265
パー	-10.5265
以外	-10.5267
スペイン語	-10.5267
プール	-10.5268
までの	-10.5268
つか	-10.5279
貢献	-10.528
を購入する	-10.5281
しろ	-10.5281
客	-10.5281
▁れ	-10.5281
▁Mo	-10.5287
たちの	-10.529
英雄	-10.5293
燃料	-10.5299
食物	-10.5299
ゲスト	-10.5302
▁朝	-10.5303
っていた	-10.5304
区	-10.5307
でない	-10.5308
98	-10.5311
のもの	-10.5313
チケット	-10.5314
テロリスト	-10.5315
驚き	-10.5318
うまく	-10.5319
ISO	-10.532
▁about	-10.5322
▁Long	-10.5326
まとめ	-10.5327
▁what	-10.5328
性格	-10.533
使える	-10.5333
逮捕	-10.5335
ことを意味します	-10.5338
指導	-10.534
▁その結果	-10.5342
間違った	-10.5344
簡単	-10.5347
男が	-10.5347
恋愛	-10.5355
オー	-10.5362
ジュ	-10.5363
▁ブラジル	-10.5364
IE	-10.5364
マイ	-10.5365
急	-10.5366
q	-10.537
は通常	-10.5371
▁When	-10.5371
極	-10.5372
科	-10.5374
ビン	-10.5375
180	-10.5376
アパート	-10.5377
のおかげで	-10.5378
▁//	-10.5378
▁48	-10.5378
こともできます	-10.5386
いろいろな	-10.5387
▁次は	-10.5388
情熱	-10.5391
iPad	-10.5392
シャツ	-10.5392
は言った	-10.5393
▁こうした	-10.5394
iOS	-10.5394
打ち	-10.5395
近い	-10.5396
被害者	-10.5397
誕生	-10.5397
ベース	-10.5401
十	-10.5403
間に	-10.5409
▁中国は	-10.541
主の	-10.5412
どれだけ	-10.5414
ber	-10.5417
べきです	-10.5417
私達	-10.5421
貴重な	-10.5421
の専門家	-10.5422
製品の	-10.5428
ステージ	-10.5429
蛇	-10.5433
誰でも	-10.5438
子供が	-10.5444
奥さん	-10.5445
マレーシア	-10.5448
▁National	-10.5451
GO	-10.5454
▁American	-10.5457
なお	-10.5458
▁Dead	-10.5458
新しく	-10.546
ではないか	-10.5462
古	-10.5464
▁いま	-10.5465
温度	-10.5466
スクール	-10.5467
例外	-10.5467
論文	-10.5472
▁34	-10.5475
▁Holiday	-10.548
元気	-10.5482
イスラエルの	-10.5482
▁Category	-10.5487
ul	-10.5487
アー	-10.5496
ああ	-10.5497
市長	-10.5498
モジュール	-10.5504
2:	-10.5506
世界的な	-10.5507
▁App	-10.551
重大な	-10.5511
通常の	-10.5513
栄養	-10.5517
▁そもそも	-10.5519
書いて	-10.5521
スーパー	-10.5526
▁Place	-10.5527
画面	-10.5529
不動産	-10.5531
注	-10.5532
▁Green	-10.5534
館	-10.5537
最悪の	-10.5539
勝	-10.5539
彼女を	-10.5542
笑い	-10.555
居	-10.5556
だという	-10.5559
▁9.	-10.5561
sh	-10.5563
ness	-10.5563
貧困	-10.5565
ジン	-10.5566
ですから	-10.5567
ロバート	-10.5567
滞在	-10.5569
路	-10.5569
85	-10.557
首	-10.5571
▁Part	-10.5574
パパ	-10.5574
▁good	-10.5575
疾患	-10.5576
ヴァ	-10.5579
手順	-10.558
広い	-10.558
弱い	-10.5581
閉鎖	-10.5583
ナイト	-10.5589
▁通常	-10.5593
賢い	-10.5597
装着	-10.5597
善	-10.5599
態度	-10.5599
私には	-10.56
▁America	-10.5601
ぁ	-10.5602
▁Last	-10.5604
ということは	-10.5604
を持った	-10.5605
利	-10.5606
上昇	-10.5611
世界で最も	-10.5616
他者	-10.5616
World	-10.5617
▁SharePoint	-10.5621
カ月	-10.5624
患者の	-10.5624
TM	-10.5625
▁ここは	-10.5626
ad	-10.5626
—	-10.5631
ソーシャルメディア	-10.5633
▁n	-10.5634
▁Residence	-10.5636
法的	-10.564
英語版	-10.564
なんと	-10.564
核兵器	-10.5643
ウェブ	-10.5647
08	-10.5649
事が	-10.565
タワー	-10.565
▁Apartments	-10.565
▁System	-10.5657
ON	-10.5657
確実に	-10.5657
ang	-10.5659
殺	-10.566
min	-10.5663
汚染	-10.5668
へようこそ	-10.567
ES	-10.567
不足	-10.5671
構成	-10.5676
(1)	-10.5677
年以降	-10.5678
聖なる	-10.568
不思議な	-10.5681
サイン	-10.5682
応援	-10.5683
男性は	-10.5684
Don	-10.5685
網	-10.5686
取得	-10.5688
カジノ	-10.569
食料	-10.5695
関心	-10.5696
なに	-10.5699
ケーブル	-10.5699
生徒	-10.57
名誉	-10.5701
以前の	-10.5701
one	-10.5702
興味	-10.5704
▁@	-10.5706
の未来	-10.5707
地震	-10.5708
▁Hostel	-10.5708
ダン	-10.571
が高い	-10.5713
▁こうして	-10.5716
合計	-10.5721
二つ	-10.5721
96	-10.5727
の中には	-10.5727
しい	-10.5731
政府が	-10.5733
▁Sun	-10.5734
比較	-10.5734
▁アドレス	-10.5735
ヨハネ	-10.5735
アルゼンチン	-10.5739
▁Security	-10.5739
繰り返し	-10.5739
▁×	-10.5741
の子	-10.5742
数学	-10.5749
これら	-10.575
天才	-10.575
収入	-10.5751
さない	-10.5752
デザイナー	-10.5753
▁水	-10.5755
lin	-10.5756
1.	-10.5756
▁そこに	-10.5765
[1]	-10.5765
セン	-10.5765
かけ	-10.5768
▁明日は	-10.5769
を完全に	-10.5769
▁どのように	-10.5769
▁Motel	-10.577
ron	-10.577
教室	-10.5773
これで	-10.5774
拡大	-10.5777
DVD	-10.5779
際	-10.578
▁ディズニー	-10.578
▁そのような	-10.578
デート	-10.5782
の権利	-10.5787
成果	-10.5789
の時間	-10.579
▁make	-10.579
▁get	-10.5791
ユ	-10.5791
▁but	-10.5792
▁名前	-10.5794
家で	-10.5795
▁Next	-10.5797
69	-10.5797
ジェームズ	-10.5801
だけではなく	-10.5803
研究者	-10.5804
ティー	-10.5807
ki	-10.5807
のデータ	-10.5808
後で	-10.5812
03	-10.5813
人生は	-10.5814
bit	-10.5814
集中	-10.5819
を行い	-10.5819
▁Game	-10.5826
しております	-10.583
でさえ	-10.5831
別れ	-10.5831
▁たぶん	-10.5832
:9	-10.5832
を行った	-10.5835
out	-10.5841
せい	-10.5842
の記事	-10.5842
の下に	-10.5846
▁♬	-10.5846
USD	-10.5846
を選択します	-10.5846
▁Great	-10.585
▁37	-10.5854
結婚式	-10.5856
任務	-10.5858
ないでください	-10.5859
詐欺	-10.5861
授業	-10.5862
他に	-10.5862
界	-10.5862
の存在	-10.5865
るのは	-10.5865
のうちに	-10.5866
しながら	-10.5868
規定	-10.5868
ようやく	-10.587
▁彼ら	-10.5875
限定	-10.5876
09	-10.5879
Live	-10.5882
ga	-10.5891
自らの	-10.5892
舞台	-10.5893
しばらく	-10.5896
フェ	-10.5899
IC	-10.5902
すごく	-10.5902
姉妹	-10.5905
▁フィリピン	-10.5909
女優	-10.5911
修理	-10.5912
▁エジプト	-10.5914
暗い	-10.5916
▁データ	-10.5918
と思っている	-10.592
▁del	-10.5924
4000	-10.5925
:15	-10.5926
Wi	-10.5931
は全て	-10.5934
動	-10.5935
Pro	-10.5936
プラスチック	-10.5936
mp	-10.5938
05	-10.5939
共同	-10.594
残	-10.5941
▁何か	-10.5942
墓	-10.5943
レッド	-10.5944
捜査	-10.5947
話題	-10.5948
▁シンガポール	-10.595
信	-10.5952
▁イ	-10.5958
ルート	-10.5959
▁今年	-10.596
馬鹿	-10.596
97	-10.5965
できなかった	-10.5965
茶	-10.597
見ている	-10.5972
po	-10.5972
拡張	-10.5974
▁昨年	-10.5975
の設定	-10.5976
はいつ	-10.5978
していく	-10.5981
弱	-10.5983
奇妙な	-10.5984
朝食	-10.5986
増	-10.5988
宝	-10.599
▁Only	-10.5991
挨拶	-10.5992
and	-10.5994
▁Video	-10.5996
tion	-10.5998
コーチ	-10.6001
現代の	-10.6001
待ち	-10.6001
▁レストラン	-10.6002
▁だって	-10.6004
アウト	-10.6005
級	-10.6006
▁Sea	-10.6009
▁Fire	-10.6015
の一つです	-10.6015
はいない	-10.6017
第一	-10.6018
集	-10.6019
喫煙	-10.6022
神に	-10.6022
に必要な	-10.6027
▁Just	-10.6029
79	-10.6029
5%	-10.603
であります	-10.603
ボックス	-10.6032
02	-10.6033
専門	-10.6034
▁♪	-10.6037
我	-10.6038
▁Bo	-10.6038
借金	-10.6039
るの	-10.6042
顔を	-10.6042
▁今年の	-10.6045
チャンピオン	-10.6047
▁11.	-10.6049
成功した	-10.6052
のゲーム	-10.606
男は	-10.6061
は誰	-10.6065
▁みなさん	-10.6066
信頼できる	-10.6068
ドライバー	-10.6069
つながり	-10.607
インチ	-10.6071
費	-10.6075
▁俺	-10.6076
カラー	-10.6076
MB	-10.6076
71	-10.6077
カバー	-10.608
肌	-10.6081
アルコール	-10.6084
信じられない	-10.6086
パイロット	-10.6086
の死	-10.6087
を理解する	-10.6088
に応じて	-10.609
キープする	-10.6091
▁There	-10.6093
いった	-10.6097
参照	-10.6102
のいずれか	-10.611
トータル	-10.6111
企業が	-10.6112
カル	-10.6112
ホワイト	-10.6112
の道	-10.6114
営業	-10.6115
であることを	-10.6116
戦う	-10.6121
泊	-10.6123
▁if	-10.6124
著	-10.6126
と言いました	-10.6128
を開く	-10.6128
デル	-10.613
増加	-10.613
ファミリー	-10.613
教員	-10.6133
▁レビュー	-10.6136
インタビュー	-10.6137
les	-10.6137
▁>「	-10.6138
bo	-10.6139
場所に	-10.6142
速い	-10.6143
宮	-10.6144
周辺	-10.6144
難	-10.6148
の変更	-10.615
とは何か	-10.6152
その時	-10.6154
の準備	-10.6156
老人	-10.6157
発生	-10.6158
ファッション	-10.6162
にならない	-10.6165
かわいい	-10.6168
羽	-10.617
しなければなりません	-10.6177
年度	-10.6178
の詳細	-10.6179
Linux	-10.6179
出した	-10.6182
:6	-10.6184
▁たった今	-10.6187
後悔	-10.6196
▁そういう	-10.62
トリ	-10.62
公式	-10.6202
悲しい	-10.6204
▁夜	-10.6204
ling	-10.6205
無料で	-10.6206
団	-10.6206
たか	-10.6207
名は	-10.621
遠く	-10.6213
▁42	-10.6218
77	-10.6218
コレクション	-10.622
▁ス	-10.6221
▁│	-10.6225
▁パリ	-10.6228
84	-10.6231
どういう	-10.6234
DC	-10.6235
▁Dr	-10.6235
ver	-10.624
▁life	-10.6243
考えて	-10.6244
もいい	-10.6247
もん	-10.6249
パスワード	-10.6251
珍しい	-10.6255
える	-10.6255
タウン	-10.6255
といいます	-10.6257
▁Story	-10.6258
あって	-10.6259
ジー	-10.626
▁am	-10.6263
金額	-10.6264
▁Con	-10.6266
対話	-10.6275
▁God	-10.6276
▁70	-10.6276
多数の	-10.6276
の可能性	-10.6277
を選択する	-10.6281
▁Explorer	-10.6283
最終	-10.6284
いろいろ	-10.6285
を選んだ	-10.6286
それほど	-10.6288
付	-10.6292
生きて	-10.6294
▁US	-10.6296
裏	-10.6296
配信	-10.6297
もう少し	-10.6299
手続き	-10.6305
にあった	-10.6305
▁わたしの	-10.6305
部品	-10.6306
▁◎	-10.6307
op	-10.6308
2006	-10.6311
リソース	-10.6312
pe	-10.6314
特徴	-10.6316
愛情	-10.6317
ヽ	-10.6319
のほうが	-10.6321
▁Centre	-10.6321
を始める	-10.6321
ah	-10.6327
コメントを追加する	-10.6328
を知らない	-10.633
に来て	-10.6331
07	-10.6334
の高い	-10.6334
ライオン	-10.634
AT	-10.6342
どこで	-10.6343
夕食	-10.6343
すら	-10.635
丸	-10.635
児童	-10.6352
PS	-10.6353
DNA	-10.6356
70%	-10.6357
改革	-10.6357
してくれた	-10.6361
してしまった	-10.6363
成分	-10.6365
大統領は	-10.6365
68	-10.6366
いたら	-10.6368
十分	-10.6368
▁とにかく	-10.6374
▁小	-10.6375
▁Win	-10.6377
の作品	-10.6379
MO	-10.638
きて	-10.6382
:20	-10.6384
大使館	-10.6391
▁◇	-10.6391
散歩	-10.6391
もなく	-10.6391
▁Am	-10.6393
▁Project	-10.6393
獣	-10.6395
——	-10.6395
総	-10.6401
▁ページ	-10.6404
ドキュメント	-10.6405
▁41	-10.6405
多くの人が	-10.6412
▁As	-10.6416
きます	-10.6417
休み	-10.642
サラ	-10.6421
詩人	-10.6421
宝石	-10.6424
何で	-10.6427
バランス	-10.6427
▁day	-10.6427
解説	-10.6431
▁Island	-10.6432
分からない	-10.6432
日本は	-10.6434
かん	-10.6434
一連の	-10.6435
電車	-10.6439
圧	-10.6443
有名	-10.6444
88	-10.6444
魔女	-10.6445
は完全に	-10.6445
指示	-10.6446
の第	-10.6447
ピーター	-10.6447
わたしたちの	-10.6448
ハー	-10.6454
地区	-10.6458
プレー	-10.6459
67	-10.646
変換	-10.646
追跡	-10.6461
なった	-10.6464
たぶん	-10.647
被害	-10.6472
▁Got	-10.6472
サル	-10.6473
回目の	-10.6474
を見つけた	-10.6481
しっかり	-10.6484
規格	-10.6485
保存	-10.6485
旧	-10.6487
氏の	-10.6487
}	-10.6488
の位置	-10.6489
都	-10.649
銀	-10.6492
▁お気に入り	-10.6493
▁Over	-10.6497
の間の	-10.65
間違いなく	-10.6502
▁`	-10.6505
▁Us	-10.6506
モスクワ	-10.6507
外部	-10.6507
スミス	-10.6509
嬉しい	-10.6511
外国	-10.6512
電	-10.6512
美しく	-10.6513
基本的な	-10.6515
程	-10.6518
▁URL	-10.652
人たちは	-10.652
輪	-10.6521
をどのように	-10.6521
すごい	-10.6524
残りの	-10.6524
▁アプリ	-10.6525
▁e	-10.654
過去の	-10.6541
階段	-10.6541
▁ところで	-10.6544
▁Sa	-10.6545
モンスター	-10.6547
LA	-10.655
泣き	-10.655
のだから	-10.6552
入院	-10.6555
現金	-10.6556
▁こちらは	-10.6559
乗客	-10.6559
ポーランド	-10.6561
▁Excel	-10.6562
プレイヤー	-10.6568
当たり	-10.6569
を食べる	-10.6571
▁Internet	-10.6573
▁ニックネーム	-10.6576
共	-10.6579
DS	-10.6581
HIV	-10.6581
百	-10.6581
ak	-10.6584
以上に	-10.6585
▁Museum	-10.6587
死体	-10.6589
▁Bay	-10.6591
▁Po	-10.6597
痛	-10.66
プロの	-10.6602
本物の	-10.6602
新たに	-10.6604
▁今まで	-10.6608
サム	-10.661
買い物	-10.661
正確な	-10.6612
59	-10.6612
ことができました	-10.6614
▁とりあえず	-10.6615
範囲	-10.6616
1:	-10.6622
ロス	-10.6622
▁About	-10.6624
印象	-10.6624
情	-10.6624
を作成する	-10.6627
買った	-10.6628
ぼ	-10.663
に加えて	-10.663
62	-10.6631
事情	-10.6632
サプリメント	-10.6633
万人が	-10.6634
小さく	-10.6638
買って	-10.6639
を利用する	-10.6643
死んで	-10.6647
同様の	-10.6648
実現	-10.6649
▁私達は	-10.6653
▁いくつかの	-10.6653
場合があります	-10.6658
次に	-10.6666
はどのように	-10.6667
恥	-10.6668
と思って	-10.6675
設備	-10.6675
走り	-10.6678
▁Boy	-10.6681
ja	-10.6681
ゴールド	-10.6682
報告書	-10.6686
失	-10.6686
の手	-10.6687
を愛する	-10.6687
旗	-10.6688
動く	-10.6689
立場	-10.6694
▁44	-10.6694
素	-10.6694
無し	-10.6695
誇り	-10.6695
の下	-10.6695
▁Point	-10.6697
所有	-10.6699
ミン	-10.6701
戦士	-10.6701
犬の	-10.6706
海賊	-10.6711
高速	-10.6714
書いた	-10.6715
成功する	-10.6715
社の	-10.672
ジャーナリスト	-10.6722
方向	-10.6722
▁だけど	-10.6723
▁皆さん	-10.6724
たとえ	-10.6731
交通	-10.6731
速く	-10.6732
▁Store	-10.6735
酸	-10.6738
ster	-10.6741
とっても	-10.6742
▁Data	-10.6742
に来た	-10.6745
▁Network	-10.6746
分け	-10.6747
▁iOS	-10.6748
:7	-10.675
なんだよ	-10.675
国は	-10.6752
▁North	-10.6753
でもない	-10.6757
▁君は	-10.6759
当然	-10.6759
嫌い	-10.6759
出来ない	-10.676
ユーザーは	-10.6761
ユニークな	-10.6761
▁ここでは	-10.6763
93	-10.6763
独立した	-10.6765
▁Linux	-10.6766
ものであり	-10.6768
▁主は	-10.677
スタジオ	-10.677
▁こういう	-10.6771
の状態	-10.6772
読んで	-10.6774
連合	-10.6776
熱い	-10.6777
の平均	-10.6777
を見ている	-10.6777
幸運	-10.6779
▁もしかしたら	-10.6782
に関しては	-10.6782
首都	-10.6782
いっぱい	-10.6784
▁From	-10.6785
▁最も	-10.6785
5,000	-10.6786
は無い	-10.6786
されていません	-10.6787
やり	-10.6788
得る	-10.6789
の顔	-10.6789
▁1.2	-10.6789
煙	-10.679
人以上の	-10.6791
と話した	-10.6793
▁She	-10.6794
基礎	-10.6794
多分	-10.6797
基本	-10.6798
なしで	-10.6799
que	-10.6801
死者	-10.6803
▁ついに	-10.6805
MP	-10.6807
まい	-10.6809
源	-10.6809
ロード	-10.681
開	-10.6814
学び	-10.6816
:8	-10.6817
▁500	-10.6818
実践	-10.6818
▁Light	-10.6828
社長	-10.6829
▁少し	-10.683
主張	-10.6831
を殺す	-10.6835
内部	-10.6837
最も重要な	-10.6837
▁--	-10.6841
聞き	-10.6842
新規	-10.6843
アップデート	-10.6843
▁see	-10.6846
の名前は	-10.6846
を意味する	-10.6847
聞いた	-10.6848
どこでも	-10.6848
塔	-10.6849
業者	-10.6851
63	-10.6851
教えて	-10.6851
▁Garden	-10.6852
帰り	-10.6856
選ぶ	-10.6859
会社は	-10.686
ru	-10.6861
復元	-10.6864
隣人	-10.6864
お互い	-10.6865
▁Santa	-10.6865
ドラマ	-10.6865
する必要がある	-10.6865
唇	-10.6867
乱	-10.6868
ないように	-10.6869
離	-10.6869
へのアクセス	-10.6869
いますか	-10.6874
継続	-10.6876
▁Ne	-10.6877
▁Exchange	-10.6878
抵抗	-10.6879
歩く	-10.688
dy	-10.6881
艦	-10.6882
出産	-10.6887
ジョーンズ	-10.6887
文学	-10.6888
▁カラー	-10.6889
の動画	-10.6891
時間で	-10.6892
▁車	-10.6893
というもの	-10.6896
SS	-10.6897
ほう	-10.6898
要	-10.6898
じゃなくて	-10.6898
グローバルな	-10.6902
デイ	-10.6904
なにか	-10.6906
疲れ	-10.6914
統合	-10.6915
手に	-10.6919
▁これも	-10.692
リーダーシップ	-10.6923
用語	-10.6923
であると	-10.6926
▁自分が	-10.6927
前から	-10.6931
であっても	-10.6933
プレーヤー	-10.6934
カ国	-10.6937
米国は	-10.6938
3:	-10.6939
感じる	-10.694
▁don	-10.6944
▁Lo	-10.6944
ごと	-10.6945
アナ	-10.6945
何かを	-10.6946
▁con	-10.6946
▁%	-10.6946
金属	-10.6946
優勝	-10.6947
れた	-10.6947
▁誰もが	-10.6952
▁ジョージ	-10.6954
ためには	-10.6955
2005	-10.6956
実際	-10.6958
メモリ	-10.6962
たのか	-10.6963
▁ジャック	-10.6965
▁Media	-10.6966
切	-10.6968
ONE	-10.6969
受け入れ	-10.6971
特	-10.6974
孫	-10.6975
死に	-10.6976
当社	-10.6977
▁東京	-10.6978
他人の	-10.6979
運営	-10.6982
樹	-10.6986
減	-10.6988
ソース	-10.6992
セッション	-10.6994
▁ああ	-10.6994
▁宇宙	-10.6999
は今	-10.7003
の管理	-10.7004
贈り物	-10.7007
読	-10.7007
▁原題は	-10.7008
と私は	-10.7015
選	-10.7016
広場	-10.7019
BTC	-10.702
の紹介	-10.7023
▁First	-10.7026
目を	-10.7028
に入った	-10.703
スマートフォン	-10.703
▁YOUR	-10.7033
に来る	-10.7033
▁俺の	-10.7033
ting	-10.7035
3.	-10.7035
ベイ	-10.7035
復帰	-10.7035
ence	-10.7036
ts	-10.7036
する前に	-10.7039
ことなく	-10.7039
維持	-10.7041
われわれ	-10.7042
ランキング	-10.7048
するには	-10.705
歓迎	-10.7051
▁UpdateStar	-10.7054
▁無料	-10.7055
▁春	-10.7056
方針	-10.7056
葉	-10.7059
時代の	-10.706
族	-10.7061
▁Twitter	-10.7064
ビット	-10.7064
per	-10.7065
パターン	-10.7066
達は	-10.7067
▁May	-10.7068
To	-10.7069
好	-10.7071
の健康	-10.7071
ゾ	-10.7071
900	-10.7071
カテゴリ	-10.7073
▁Villa	-10.7074
今回	-10.7075
EL	-10.7076
▁Have	-10.7078
▁ママ	-10.7085
ジョー	-10.7087
近くの	-10.7091
▁ISO	-10.7094
▁最初は	-10.7094
▁Java	-10.7094
ライ	-10.7095
ましたが	-10.7099
書類	-10.71
ゆっくり	-10.7101
安心	-10.7104
断	-10.7105
▁English	-10.7105
何でも	-10.7106
必須	-10.7108
球	-10.7108
マル	-10.7108
▁人間は	-10.7109
ルカ	-10.7109
罰	-10.7111
の大	-10.7113
GDP	-10.7115
職員	-10.7115
つけ	-10.7118
布	-10.7119
ないのか	-10.712
▁二	-10.7129
大事な	-10.7131
1,000	-10.7132
▁これら	-10.7135
帽子	-10.7135
のひとつ	-10.7137
の色	-10.7144
里	-10.7145
やっと	-10.7146
はほとんど	-10.7147
道を	-10.7149
裁判	-10.7149
潜水艦	-10.7151
兄	-10.7158
口座	-10.7159
LE	-10.7161
▁j	-10.7163
John	-10.7165
>>	-10.7168
UP	-10.7176
姿勢	-10.7177
▁River	-10.7179
谷	-10.718
自由な	-10.7181
結構	-10.7181
入って	-10.7182
▁HD	-10.7185
連	-10.7187
指定	-10.7188
構築	-10.719
展示	-10.7191
ICO	-10.7192
アクション	-10.7195
▁彼女	-10.7198
いれば	-10.72
措置	-10.72
場合には	-10.7203
社員	-10.7203
承認	-10.7205
終わった	-10.7208
演奏	-10.7208
記	-10.7211
豊かな	-10.7212
誤解	-10.7212
願い	-10.7212
恥ずかしい	-10.7212
立って	-10.7215
ピザ	-10.7215
日記	-10.7216
を見ると	-10.7216
以前に	-10.722
神々	-10.722
ヴ	-10.7221
ard	-10.7223
ハン	-10.7224
ブック	-10.7224
同僚	-10.7226
lan	-10.7227
をすべて	-10.7228
▁Ho	-10.7229
ゲイ	-10.723
ユーザーの	-10.7231
飛び	-10.7231
概念	-10.7232
ちゃう	-10.7236
受け	-10.7237
泥棒	-10.7237
vi	-10.7237
始まり	-10.7238
友情	-10.724
たん	-10.7245
クリスチャン	-10.7246
永遠の	-10.725
の価格	-10.725
▁world	-10.7251
記念	-10.7252
目の	-10.7252
発明	-10.7253
ALL	-10.7254
スクリーン	-10.7254
OR	-10.7256
ボブ	-10.7259
結局	-10.7261
フィルム	-10.7263
▁メキシコ	-10.7271
休暇	-10.7273
▁ムハ	-10.7279
-5	-10.728
の方は	-10.7286
結論	-10.7286
続けて	-10.7288
僕に	-10.7289
九	-10.7292
▁ここに	-10.7294
目に	-10.7294
TO	-10.7296
徒歩	-10.7296
保管	-10.7297
がいい	-10.7297
ドライブ	-10.73
行い	-10.7304
アッラー	-10.7306
の生活	-10.7306
の発展	-10.7307
▁グループ	-10.7307
地元の	-10.7308
ran	-10.731
ウィ	-10.7311
スケジュール	-10.7312
ホスト	-10.7312
合う	-10.7312
我が	-10.7313
謝罪	-10.7313
▁同時に	-10.7316
ことができた	-10.7316
中心	-10.7318
あなたがたに	-10.7318
をしています	-10.732
きょう	-10.7322
61	-10.7323
実施	-10.7324
GE	-10.7325
▁12.	-10.7325
お願い	-10.7325
▁2002	-10.7326
正しく	-10.7327
pa	-10.7333
ミニ	-10.7333
を開始	-10.7333
使って	-10.7334
▁White	-10.7334
▁Her	-10.7335
報酬	-10.7335
▁インドネシア	-10.7336
なります	-10.7338
正式に	-10.7338
▁ホット	-10.7339
欲	-10.734
のお	-10.7341
送信	-10.7342
が存在する	-10.7343
AL	-10.7344
家族の	-10.7347
ci	-10.7347
の時	-10.7349
することで	-10.735
できること	-10.7362
青年	-10.7362
マウス	-10.7363
道具	-10.7363
60%	-10.7364
ニック	-10.7365
喜んで	-10.7366
消費	-10.7369
ここにいる	-10.7372
協定	-10.7372
更に	-10.7374
お金を	-10.7375
何の	-10.738
▁(4)	-10.7381
ペット	-10.7383
ときには	-10.7389
史	-10.7391
ありました	-10.7395
コア	-10.7396
がこの	-10.7402
にいた	-10.7404
発行	-10.7404
の数は	-10.7404
チェ	-10.7405
を作り	-10.7406
ous	-10.7409
▁彼らが	-10.7414
78	-10.7414
▁ALL	-10.7416
パスポート	-10.7417
▁タイ	-10.7421
望み	-10.7422
幽霊	-10.7423
取	-10.7428
犯罪者	-10.7428
▁いつ	-10.7436
はかなり	-10.7436
▁米国の	-10.744
設立	-10.7442
▁家族	-10.7444
進	-10.7445
ニュー	-10.7449
誰にも	-10.7451
プライベート	-10.7452
玉	-10.7453
▁たち	-10.7454
87	-10.7457
CAS	-10.746
落ち	-10.7461
wood	-10.7463
工学	-10.7463
打	-10.7463
療法	-10.7467
の定義	-10.7467
治	-10.7467
いくら	-10.7469
を信じる	-10.747
に感謝	-10.747
▁仕事	-10.7472
De	-10.7475
▁Want	-10.7476
でしたが	-10.7479
唯一	-10.7481
▁News	-10.7481
▁サン	-10.7483
こそが	-10.7485
最初	-10.7487
プログラミング	-10.7488
オイル	-10.749
魅力的な	-10.749
▁Royal	-10.7491
一歩	-10.7491
ともに	-10.7493
意図	-10.7493
ni	-10.7493
続け	-10.7496
知っていますか	-10.7497
▁Town	-10.7499
▁スペイン語	-10.7499
ども	-10.75
人には	-10.75
単なる	-10.7502
わかった	-10.7502
Le	-10.7507
万円	-10.7509
トラブル	-10.7509
鶏	-10.751
はるかに	-10.7513
Me	-10.7513
に戻って	-10.7515
肉体	-10.7518
採用	-10.7519
結	-10.752
Super	-10.752
知らなかった	-10.7522
犯	-10.7522
ちゃんは	-10.7522
向上	-10.7527
みる	-10.7527
暗号化	-10.7528
キャ	-10.753
ことがない	-10.753
貧しい	-10.7531
TA	-10.7534
▁Skype	-10.7536
▁プロジェクト	-10.7537
ex	-10.7541
時刻	-10.7542
▁was	-10.7544
どうぞ	-10.7544
るべき	-10.7544
mer	-10.7545
殺害	-10.7549
▁200	-10.7552
メン	-10.7556
の主な	-10.7557
述べた	-10.7558
キャンセル	-10.7562
ブラウン	-10.7562
▁Wi	-10.7563
は何も	-10.7565
▁オランダ	-10.7567
といえば	-10.7567
違反	-10.7567
スウェーデン	-10.757
▁中	-10.7573
の夜	-10.7573
テストステロン	-10.7575
終わる	-10.7575
転	-10.7576
らは	-10.7576
情報は	-10.7577
余	-10.7577
ゼロ	-10.7577
ポリシー	-10.7579
毎月	-10.758
レベルの	-10.7581
▁マ	-10.7581
統一	-10.7582
共通の	-10.7583
貴	-10.7586
いろんな	-10.7587
そのもの	-10.7587
一年	-10.759
られました	-10.759
の全	-10.7591
胸	-10.7591
の特徴	-10.7593
主な	-10.7595
続き	-10.7598
ゾーン	-10.76
注射	-10.76
▁IP	-10.7602
ブラ	-10.7602
アメリカは	-10.7603
黒人	-10.7604
板	-10.7604
コー	-10.7607
ti	-10.761
楽しく	-10.7612
戸	-10.7612
▁USB	-10.7613
▁here	-10.7616
商業	-10.7618
はじめて	-10.7618
者に	-10.7619
院	-10.7621
請求	-10.7625
文章	-10.7626
以外に	-10.7628
▁Dream	-10.7629
▁エ	-10.7631
取る	-10.7633
のだが	-10.7639
を使用します	-10.764
読書	-10.7641
に入って	-10.765
フライト	-10.765
ap	-10.7655
CE	-10.7655
らず	-10.7657
2004	-10.7658
においては	-10.7658
▁アルゼンチン	-10.7661
ベトナムの	-10.7663
しますか	-10.7664
▁CD	-10.7665
コート	-10.7666
十字架	-10.7667
という意味	-10.7668
初め	-10.7669
人民	-10.7669
役割	-10.7671
の経験	-10.7671
中東	-10.7673
▁子供	-10.7673
▁いいえ	-10.7674
、20	-10.7676
乗り	-10.7677
IL	-10.7678
したくない	-10.7678
っていう	-10.768
軒	-10.7682
拒否	-10.7682
復讐	-10.7683
▁トルコ	-10.7685
目は	-10.7686
▁カ	-10.7688
▁僕	-10.7689
▁あなたがたは	-10.7689
▁Mobile	-10.769
ごめんなさい	-10.7691
筋	-10.7692
言えば	-10.7693
がどのように	-10.7694
▁(1	-10.7695
痛い	-10.7698
予防	-10.7702
秋	-10.7702
▁関連する	-10.7703
▁テレビ	-10.7703
在	-10.7704
明確な	-10.7704
▁白	-10.7706
の事	-10.7708
だれも	-10.771
▁実際に	-10.771
たのは	-10.7711
ung	-10.7713
なかなか	-10.7715
ラム	-10.7716
子供は	-10.7717
思った	-10.7718
▁▼	-10.7718
▁システム	-10.7719
▁En	-10.7719
未満	-10.7719
プログラムの	-10.7724
同意	-10.7725
▁man	-10.773
現在は	-10.7731
安全保障	-10.7732
否定	-10.7734
歌う	-10.7738
強化	-10.7742
の治療	-10.7746
の代わりに	-10.7749
発言	-10.775
引き続き	-10.7752
搭載	-10.7752
▁☆	-10.7753
▁目	-10.7754
たかった	-10.7755
▁これらは	-10.7756
ピン	-10.7756
▁最大	-10.7756
みて	-10.7757
私と	-10.7757
im	-10.7758
せん	-10.7759
市場で	-10.776
chi	-10.776
車の	-10.776
どうか	-10.7761
運用	-10.7762
をサポート	-10.7764
▁黒	-10.7764
▁South	-10.7764
ライブ	-10.7765
▁歌	-10.7765
現場	-10.777
出る	-10.7771
side	-10.7775
栄光	-10.7776
アメリカで	-10.7777
▁当時	-10.7777
男の子	-10.7777
まだまだ	-10.778
▁オリジナルタイトル	-10.778
してから	-10.7783
Go	-10.7783
気候	-10.7784
ってこと	-10.7785
チーズ	-10.7786
郡	-10.7788
▁古い	-10.7794
議員	-10.7794
に住んでいる	-10.7795
テル	-10.7796
制作	-10.7798
オンラインで	-10.78
ないで	-10.7801
2003	-10.7804
を使った	-10.7807
記述	-10.7808
▁バスルーム	-10.7808
とにかく	-10.781
園	-10.7811
ねー	-10.7812
シンプルな	-10.7813
▁Per	-10.7815
あい	-10.7815
に見える	-10.7816
《	-10.7816
のリスト	-10.7817
に言った	-10.7817
主よ	-10.7818
扉	-10.7822
研究では	-10.7825
ポスト	-10.7825
▁多分	-10.7826
冷たい	-10.7827
遠	-10.7828
▁See	-10.783
為	-10.7831
▁ラ	-10.7832
▁あれ	-10.7832
音声	-10.7833
サイド	-10.7834
全然	-10.7834
男性が	-10.7835
だけの	-10.7836
税金	-10.7838
ノート	-10.784
ano	-10.7843
▁RE	-10.7843
と思っています	-10.7844
▁Mr	-10.7846
じゃないか	-10.7846
▁昨日は	-10.7846
下の	-10.7849
ris	-10.785
を求めて	-10.785
高度な	-10.7852
ダイ	-10.7852
疑い	-10.7854
▁Song	-10.7855
▁video	-10.7855
あなた方	-10.7856
SP	-10.7857
ance	-10.7859
どれくらい	-10.7862
Who	-10.7862
無料の	-10.7865
ham	-10.7872
はそれ	-10.7873
歳から	-10.7874
過	-10.7875
クロ	-10.7876
▁決して	-10.7877
ドイツ語	-10.788
歌手	-10.7881
ボート	-10.7883
経	-10.7885
▁常に	-10.7885
レッスン	-10.7887
ok	-10.7887
友だち	-10.789
扱い	-10.789
▁先日	-10.789
床	-10.7891
ならない	-10.7893
限界	-10.7894
説教	-10.7895
巨大	-10.7895
の最後の	-10.7896
財団	-10.7898
このように	-10.7898
▁Ka	-10.7899
▁Ra	-10.79
国王	-10.7901
を引き起こす	-10.7902
作る	-10.7905
の部屋	-10.7905
二人は	-10.7909
優しい	-10.791
最近の	-10.7911
mi	-10.7913
サイ	-10.7914
ネズミ	-10.7914
利点	-10.7918
子どもたち	-10.792
のほとんどは	-10.7924
25%	-10.7925
...」	-10.7925
▁Spa	-10.793
いつまでも	-10.793
緑	-10.793
の姿	-10.793
個人の	-10.7931
ut	-10.7933
治療法	-10.7933
が始まる	-10.7934
AWS	-10.7935
皇帝	-10.7935
凄い	-10.7937
完了	-10.7938
と言っている	-10.7939
へ行く	-10.794
才	-10.7945
早	-10.7948
術	-10.795
学校の	-10.7952
激しい	-10.7955
諸国	-10.7956
言葉は	-10.7956
引用	-10.7957
んや	-10.7958
怪我	-10.796
160	-10.7963
▁Company	-10.7963
▁64	-10.7967
具体的な	-10.7967
することはできません	-10.7972
2002	-10.7973
▁日本は	-10.7974
Co	-10.7975
▁›	-10.7975
待つ	-10.7976
はもっと	-10.7976
博士は	-10.7977
ツイート	-10.7977
られます	-10.7979
▁本日	-10.798
研究は	-10.7982
を使用しています	-10.7982
▁UP	-10.7982
レー	-10.7982
ちゃ	-10.7983
▁これまで	-10.7983
amp	-10.7985
TH	-10.7986
の成長	-10.7987
の人々	-10.7989
HP	-10.7989
110	-10.7991
ええ	-10.7993
▁he	-10.7993
密	-10.7994
人質	-10.7995
不満	-10.7998
▁Manager	-10.7998
がいます	-10.7998
息	-10.8
こともある	-10.8007
上げ	-10.8008
お願いします	-10.8008
プライバシー	-10.8011
したこと	-10.8012
ey	-10.8012
考え方	-10.8013
眠り	-10.8013
はしない	-10.8013
▁まさに	-10.8013
むは	-10.8014
クレジット	-10.8016
73	-10.8016
ナイフ	-10.8016
不幸	-10.8016
研究の	-10.8018
興味深い	-10.802
日曜日	-10.8024
89	-10.8025
老	-10.8028
ターゲット	-10.8029
▁これにより	-10.8031
▁この場合	-10.8032
犬は	-10.8032
形で	-10.8036
▁Times	-10.8036
リオ	-10.8038
どのくらい	-10.804
の目	-10.8045
段	-10.8046
高く	-10.8047
76	-10.805
▁サイト	-10.8052
消費者	-10.8053
の人	-10.8058
アンド	-10.8059
▁Access	-10.8059
king	-10.8059
の中心	-10.806
を作って	-10.8067
ますが	-10.8069
コマンド	-10.8069
の中から	-10.807
ってなに	-10.8071
夫婦	-10.8078
とされる	-10.808
は全く	-10.8084
宿	-10.8085
▁レッスン	-10.8086
見つけた	-10.8087
のニュース	-10.8087
▁Moon	-10.8088
Red	-10.8089
応答	-10.8093
遅い	-10.8093
そのうち	-10.8094
▁East	-10.8094
大地	-10.8095
ベースの	-10.8096
国立	-10.8097
:11	-10.8097
▁何で	-10.8099
di	-10.81
一方	-10.8102
▁Hill	-10.8105
ip	-10.8106
Instagram	-10.8106
荷物	-10.8108
や他の	-10.8111
rs	-10.8113
べきか	-10.8113
パキスタン	-10.8114
出身	-10.8116
con	-10.8117
LY	-10.8118
ピアノ	-10.8118
目が	-10.8122
留学	-10.8122
人生を	-10.8124
MC	-10.8124
姉	-10.8126
お気に入りの	-10.8126
に影響を与える	-10.8126
▁アパートメント	-10.8126
事態	-10.8127
分野で	-10.8127
保	-10.8128
(2)	-10.8131
寒い	-10.8132
の上	-10.8133
際に	-10.8133
会長	-10.8134
-4	-10.8135
バルセロナ	-10.8135
予定です	-10.8135
皮膚	-10.8137
1500	-10.8138
TE	-10.8139
タバコ	-10.8141
▁ギリシャ	-10.8141
ことができません	-10.8145
▁just	-10.8147
効果的な	-10.8148
男性の	-10.8151
市場の	-10.8153
シェア	-10.8154
渡	-10.8155
歩いて	-10.8155
ぇ	-10.8156
職場	-10.8157
ここは	-10.8159
cha	-10.8159
んだろ	-10.8159
こんにちは	-10.8161
ショップ	-10.8162
▁お金	-10.8163
何らかの	-10.8163
未来の	-10.8164
あまりにも	-10.8165
悩み	-10.8166
▁Make	-10.8166
を変え	-10.8169
裁判所	-10.817
心に	-10.8172
をしました	-10.8174
ium	-10.8175
一体	-10.8176
乳	-10.8176
▁果たして	-10.8179
年後に	-10.8181
バイク	-10.8185
選び	-10.8186
USB	-10.8187
▁Saint	-10.8187
中国人	-10.819
TS	-10.819
苦痛	-10.819
ワールドカップ	-10.8191
クス	-10.8193
みた	-10.8193
▁End	-10.8194
太平洋	-10.8195
ダイヤモンド	-10.8195
ようとする	-10.8196
嫁	-10.8197
両方	-10.8199
タイプの	-10.82
ville	-10.8202
▁Young	-10.8204
りました	-10.8205
可	-10.8206
子は	-10.8206
ヘンリー	-10.8207
おじさん	-10.8208
ディレクター	-10.821
▁コミュニティ	-10.821
▁Standard	-10.8211
に従う	-10.8212
踊り	-10.8214
父の	-10.8215
食べて	-10.8215
自動的に	-10.8217
ゆう	-10.8218
ミルク	-10.822
犠牲者	-10.8221
れない	-10.8221
しん	-10.8221
の機能	-10.8222
82	-10.8224
キッチン	-10.8225
NY	-10.8226
充電	-10.8226
の利点	-10.823
平等	-10.823
を見つけ	-10.8232
った先月	-10.8235
】【	-10.8235
介入	-10.8235
さんと	-10.8237
アップグレード	-10.8241
走	-10.8243
▁ユーザーがあ	-10.8245
幅	-10.8245
大いなる	-10.8246
に参加する	-10.8247
▁Services	-10.8248
▁結婚	-10.8253
▁《	-10.8253
▁(5)	-10.8256
カレッジ	-10.8256
しゃ	-10.8256
助言	-10.8258
▁Management	-10.8259
椅子	-10.8259
傾向	-10.8262
≫	-10.8265
祭	-10.8265
主人公	-10.8269
劇場	-10.8269
異	-10.8277
マスク	-10.8277
▁Happy	-10.8279
かた	-10.8279
▁僕が	-10.828
チャン	-10.8281
虫	-10.8283
深	-10.8283
ひとつの	-10.8285
色々な	-10.8288
の増加	-10.8288
詳細	-10.829
▁Bad	-10.829
▁最初に	-10.8291
始めました	-10.8292
犯人	-10.8293
と考えている	-10.8293
-10	-10.8293
ストリート	-10.8293
ou	-10.8295
ST	-10.8297
に違いない	-10.8299
▁k	-10.83
お酒	-10.83
故郷	-10.8307
刺激	-10.8307
人です	-10.8316
はなかった	-10.8317
卒業	-10.8319
香り	-10.832
レコード	-10.8321
ネタ	-10.8322
上司	-10.8323
はっきり	-10.8325
部隊	-10.8326
書籍	-10.8328
NE	-10.833
亡くなった	-10.8332
名が	-10.8333
▁シリーズ	-10.8335
林	-10.8335
▁back	-10.8336
▁トム	-10.8337
▁クラブ	-10.8339
スパイ	-10.8339
を得た	-10.8343
必要はない	-10.8343
繁栄	-10.8346
為に	-10.8348
アップロード	-10.835
損	-10.835
ger	-10.8351
闇	-10.8353
の学生	-10.8354
応用	-10.8354
自然な	-10.8355
安全に	-10.8357
をし	-10.8357
▁スポーツ	-10.8357
気が	-10.8358
いくつか	-10.836
地下鉄	-10.836
年代に	-10.836
災害	-10.836
負担	-10.8361
日本で	-10.8363
6000	-10.8363
であるか	-10.8363
▁よう	-10.8363
目標は	-10.8365
色の	-10.8366
の利用	-10.8368
冗談	-10.8368
ヒル	-10.8369
製品は	-10.8369
▁Come	-10.837
大手	-10.8372
Best	-10.8376
動物の	-10.8377
▁GO	-10.8378
んだから	-10.8378
▁Language	-10.8379
・・・・・・	-10.8384
そうした	-10.839
料	-10.839
てしまいました	-10.8392
▁ハ	-10.8393
祈る	-10.8396
製作	-10.8396
の夢	-10.8397
den	-10.8397
すべてを	-10.8398
日付	-10.84
ix	-10.84
常	-10.84
Al	-10.8401
▁43	-10.8403
金持ち	-10.8404
▁James	-10.8407
をもつ	-10.8408
べきだ	-10.8409
生き方	-10.8411
ゴール	-10.8411
決意	-10.8414
※	-10.8416
健康な	-10.8416
静かな	-10.8418
開発者	-10.842
腕時計	-10.8421
んか	-10.8423
工業	-10.8424
いるのか	-10.8424
これまでに	-10.8425
物件	-10.8425
他の仕事	-10.8426
賭け	-10.8427
チョコレート	-10.843
2.	-10.8431
▁Christmas	-10.8432
▁どうやら	-10.8436
メニュー	-10.8436
▁never	-10.8441
記者	-10.8441
If	-10.8444
83	-10.8447
▁セックス	-10.8448
全てが	-10.8448
の息子	-10.8449
していて	-10.8449
の目的は	-10.845
デモ	-10.845
▁Ha	-10.845
寄付	-10.8451
box	-10.8455
クレジットカード	-10.8457
仕様	-10.8458
切れ	-10.846
ましたか	-10.8461
▁Del	-10.8461
▁Call	-10.8464
▁それにしても	-10.8464
かしら	-10.8464
ほか	-10.8465
今年の	-10.8465
▁Again	-10.8465
転送	-10.8465
[...]	-10.8466
ガール	-10.8466
今すぐ	-10.8466
安定した	-10.8466
目覚め	-10.8467
宿泊	-10.8469
アニメ	-10.8472
かけて	-10.8473
ファー	-10.8474
戻る	-10.8474
スタ	-10.8474
はならない	-10.8476
学期	-10.8479
につながる	-10.848
を介して	-10.848
と言われています	-10.848
意	-10.8481
糖尿病	-10.8482
読んだ	-10.8482
になること	-10.8485
売	-10.8488
の活動	-10.8488
守	-10.849
パック	-10.849
▁画像	-10.849
▁もしも	-10.8491
お友達	-10.8492
掃除	-10.8492
言葉を	-10.8495
が悪い	-10.8495
腹	-10.8496
▁誰かが	-10.8497
Dr	-10.8497
の主要な	-10.8498
魔	-10.8504
待って	-10.8507
クルマ	-10.8507
であれ	-10.8507
じゃあ	-10.8508
の関係	-10.8509
CIA	-10.851
▁サーバー	-10.8513
主要	-10.8513
を作った	-10.8518
向けの	-10.8518
の始まり	-10.8519
♡	-10.852
トランプ	-10.852
忍耐	-10.8521
今も	-10.8523
Let	-10.8524
毎週	-10.8525
イギリスの	-10.8525
心を	-10.8527
理	-10.8528
役に立つ	-10.8528
バイ	-10.8529
素材	-10.853
▁Vi	-10.8532
時点で	-10.8533
WHO	-10.8534
▁人間	-10.8535
▁who	-10.8535
寝る	-10.8539
▁Ver	-10.854
最初から	-10.8541
二度と	-10.8542
を救う	-10.8544
基地	-10.8546
不明	-10.8548
ボス	-10.855
印	-10.855
信じ	-10.855
オリンピック	-10.8551
▁マレーシア	-10.8553
することを	-10.8556
▁君	-10.8559
個々の	-10.856
マップ	-10.8564
▁Here	-10.8565
▁答えは	-10.8565
武	-10.8568
気に	-10.8568
▁Ma	-10.8569
ヴェ	-10.857
▁これから	-10.8573
両方の	-10.8576
給料	-10.8577
トー	-10.8579
を除く	-10.858
クリス	-10.8582
借り	-10.8583
同盟	-10.8584
してます	-10.8585
のではない	-10.8585
年代の	-10.8587
出力	-10.8587
尾	-10.8587
▁Why	-10.8589
va	-10.8591
泣く	-10.8593
▁WORLD	-10.8596
ぼく	-10.8597
▁家	-10.8598
国際空港	-10.8599
は同じ	-10.86
ker	-10.8607
ちゃった	-10.8612
bi	-10.8612
込んで	-10.8613
▁早く	-10.8616
日で	-10.8616
批判	-10.8617
抗	-10.8617
価格は	-10.8621
all	-10.8624
したのか	-10.8624
可能です	-10.8626
翼	-10.8627
ポンド	-10.8627
やら	-10.8629
を受けて	-10.863
オフ	-10.8631
▁HP	-10.8632
証	-10.8634
基	-10.8636
発達	-10.8636
案	-10.8637
成長する	-10.8638
▁それぞれの	-10.8641
スマート	-10.8644
ショック	-10.8646
あなたたち	-10.8649
mon	-10.865
理由で	-10.865
my	-10.8651
かね	-10.8652
end	-10.8652
システムの	-10.8654
定期的に	-10.8655
井	-10.8656
▁WHO	-10.8657
▁今夜	-10.8658
▁has	-10.8658
年も	-10.8662
▁雨	-10.8662
特定	-10.8662
お互いに	-10.8664
選んだ	-10.8665
!!!!	-10.8667
MAN	-10.8667
信じる	-10.8668
週末	-10.8669
喧嘩	-10.867
リック	-10.8671
統計	-10.8671
▁いつか	-10.8672
示	-10.8674
94	-10.8676
誰かに	-10.8677
クマ	-10.8678
害	-10.8682
NATO	-10.8686
大量の	-10.8686
背景	-10.8687
国民の	-10.8688
ぶり	-10.8689
愛は	-10.8691
自分自身を	-10.8691
▁ポール	-10.8695
起	-10.8698
81	-10.8703
トークン	-10.8704
▁Show	-10.8708
個人情報	-10.8708
の目的	-10.8712
ET	-10.8713
軽	-10.8713
ネコ	-10.8714
のリスク	-10.8714
推奨	-10.8717
ダメ	-10.872
特性	-10.8721
アイテム	-10.8722
▁Lake	-10.8726
効率	-10.873
▁Dance	-10.8732
LL	-10.8733
が来る	-10.8734
ng	-10.8734
彼と	-10.8735
br	-10.8736
指輪	-10.8737
ニア	-10.8738
人類の	-10.8738
署名	-10.874
速	-10.874
350	-10.8745
回も	-10.8755
ヒト	-10.8756
最良の	-10.8758
学生の	-10.876
警官	-10.876
▁Things	-10.8761
幅広い	-10.8763
ユー	-10.8763
一般的に	-10.8763
立て	-10.8764
抜け	-10.8768
と述べている	-10.8769
▁CAS	-10.8778
生存	-10.8779
会場	-10.878
140	-10.8781
▁そのとき	-10.8781
▁——	-10.8782
あなたの人生	-10.8783
文句	-10.8786
始まる	-10.8787
テン	-10.879
▁SCP	-10.8791
親友	-10.8791
晩	-10.8793
大臣	-10.8794
人がいる	-10.8795
てはならない	-10.8799
ことが出来る	-10.88
飼い主	-10.8802
受賞	-10.8803
白人	-10.8804
を受け入れる	-10.8806
起きて	-10.8807
表面	-10.8812
▁Ad	-10.8812
人とも	-10.8812
見えない	-10.8813
▁Top	-10.8814
接触	-10.8814
ザー	-10.8815
プラス	-10.8822
飲んで	-10.8822
▁100%	-10.8822
▁じゃあ	-10.8824
ことでしょう	-10.8825
の評価	-10.8825
問い	-10.8826
▁300	-10.8827
を楽しむ	-10.8827
ってる	-10.8828
みんなが	-10.8828
ギター	-10.8833
キューバ	-10.8833
天気	-10.8834
落	-10.8834
辛い	-10.8834
どれほど	-10.8835
▁よく	-10.8836
出版	-10.8838
を使用すると	-10.8841
地上	-10.8841
を追加	-10.8841
はあまり	-10.8842
いちばん	-10.8843
夜の	-10.8845
▁元	-10.8847
週に	-10.8847
自宅	-10.885
お茶	-10.8852
議会	-10.8852
求め	-10.8854
末	-10.8855
語った	-10.8855
という事実	-10.8856
一週間	-10.8858
被	-10.886
なくても	-10.8861
を持っていた	-10.8863
走って	-10.8864
の一人	-10.8864
外交	-10.8865
香	-10.8865
▁さあ	-10.8867
──	-10.8869
飲み物	-10.8869
2%	-10.887
▁Limited	-10.8876
▁Girls	-10.8877
を開始する	-10.8878
すぎて	-10.888
状態で	-10.888
いう	-10.8881
河	-10.8885
サタン	-10.8886
▁Design	-10.8886
を学ぶ	-10.8888
キャラクター	-10.889
そこから	-10.8892
メモ	-10.8893
の質問	-10.8893
ベルリン	-10.8895
用意	-10.8898
住所	-10.8898
に直接	-10.8899
真剣に	-10.8901
青い	-10.8904
歴	-10.8905
知り合い	-10.8905
オレ	-10.8908
ウェイ	-10.8909
▁47	-10.891
望む	-10.8912
コンサート	-10.8912
▁テンプレート	-10.8913
夜に	-10.8914
政	-10.8914
推定	-10.8915
の重要性	-10.8917
を殺した	-10.892
cm	-10.8921
航空会社	-10.8923
の人が	-10.8924
ついて	-10.8924
背	-10.8927
心理学	-10.8929
▁Institute	-10.893
おります	-10.893
cent	-10.8931
ier	-10.8933
▁3:	-10.8933
▁Intel	-10.8934
▁北	-10.8935
▁Se	-10.8936
向	-10.8937
▁まぁ	-10.8938
美しさ	-10.8939
▁2)	-10.894
マイク	-10.894
si	-10.8941
mar	-10.8942
▁́・	-10.8943
▁Water	-10.8945
なのである	-10.8945
▁かつて	-10.8946
RO	-10.8947
止め	-10.8947
DE	-10.8948
適用	-10.8948
感想	-10.8952
ますよ	-10.8954
関連の	-10.8955
▁女	-10.8956
共産党	-10.8957
ケン	-10.8958
肩	-10.8958
お客様が	-10.896
▁自由	-10.8964
会う	-10.8964
持つ	-10.8964
▁only	-10.8968
▁一部の	-10.8972
ヒット	-10.8975
しょう	-10.8976
自然に	-10.8977
92	-10.8978
ロケット	-10.8981
歩き	-10.8981
▁ベスト	-10.8982
価値がある	-10.8982
ありますか	-10.8982
time	-10.8984
帰る	-10.8984
英語で	-10.8985
向き	-10.8988
を使用	-10.8989
▁State	-10.8989
庭	-10.8992
人たちが	-10.8993
っぽい	-10.8995
信者	-10.8996
学ぶ	-10.8997
....	-10.8999
アレルギー	-10.8999
引	-10.9001
▁カメラ	-10.9001
いきます	-10.9002
★	-10.9005
マッサージ	-10.9007
フォーラム	-10.9007
▁EU	-10.9008
全国	-10.9009
システムは	-10.9013
ドー	-10.9015
サイクル	-10.902
ということを	-10.9022
SH	-10.9023
世界が	-10.9023
:10	-10.9023
明るい	-10.9025
の曲	-10.9026
▁Ar	-10.9026
うちの	-10.903
を購入	-10.9032
殺し	-10.9032
優秀な	-10.9033
を理解し	-10.9036
忘れた	-10.9039
が含まれます	-10.9039
▁Mc	-10.904
データは	-10.9041
甘い	-10.9041
CM	-10.9047
してた	-10.9051
NASA	-10.9053
つもり	-10.9054
だけではない	-10.9055
噂	-10.9057
のもとに	-10.9059
を止める	-10.9064
追い	-10.9065
▁以前	-10.9065
に参加	-10.9065
農場	-10.9067
に達する	-10.9067
副作用	-10.9068
ゆっくりと	-10.9069
▁over	-10.907
地下	-10.9074
おう	-10.9075
大学で	-10.9077
ヘビ	-10.9077
を使い	-10.9079
▁天	-10.9084
偽	-10.9084
▁上の	-10.9086
盤	-10.9087
海洋	-10.9088
軽い	-10.9088
キム	-10.9088
加盟国	-10.9089
米国で	-10.9091
単純な	-10.9091
ガラス	-10.9092
トピック	-10.9092
代替	-10.9097
2001	-10.9103
so	-10.9104
最	-10.9105
箇所	-10.9107
める	-10.9109
ゲート	-10.9111
の画像	-10.9113
をお	-10.9115
▁ホワイト	-10.9115
▁国連	-10.9121
キャンパス	-10.9122
の大きさ	-10.9123
ようになります	-10.9123
を確認する	-10.9123
艦隊	-10.9124
グラ	-10.9126
がその	-10.9126
調べ	-10.9126
▁なんと	-10.9127
日本に	-10.9127
良心	-10.9129
men	-10.9131
をしていた	-10.9131
エレベーター	-10.9133
看護師	-10.9133
▁2.1	-10.9134
99%	-10.9135
汗	-10.9138
普通に	-10.9138
don	-10.9138
誕生日	-10.9139
When	-10.914
▁than	-10.9142
副	-10.9143
があるのか	-10.9146
どうしても	-10.9148
は私の	-10.9149
▁Software	-10.915
意志	-10.9151
▁女の子	-10.9152
▁このように	-10.9153
複雑	-10.9154
一言	-10.9154
トーマス	-10.9158
退屈	-10.9161
終	-10.9162
月から	-10.9162
▁LA	-10.9162
車は	-10.9163
探偵	-10.9166
NA	-10.9166
美人	-10.9166
ari	-10.9166
our	-10.9167
できるだけ	-10.9168
ソ連	-10.9168
を助け	-10.9171
キャンプ	-10.9173
出荷	-10.9174
脱	-10.9175
の終わり	-10.9177
驚くべき	-10.9183
物事	-10.9184
の役割	-10.9186
証人	-10.9187
方法です	-10.9188
きみ	-10.9188
と呼ばれています	-10.9188
ファイルを	-10.919
数値	-10.9192
アカデミー	-10.9193
で検索	-10.9194
ディー	-10.9196
押し	-10.9196
なんでも	-10.9197
の後に	-10.9198
ボトル	-10.9198
イエスは	-10.9199
検証	-10.9199
ようになりました	-10.9199
▁Michael	-10.92
海の	-10.9203
失われた	-10.9204
ジョンソン	-10.9205
HD	-10.9206
入学	-10.9208
らん	-10.9211
結果は	-10.9211
▁Ex	-10.9211
ジョ	-10.9212
たく	-10.9214
猿	-10.9214
裏切り	-10.9215
の前	-10.9217
を愛し	-10.9217
申請	-10.9218
▁イラン	-10.9219
から始まる	-10.9219
▁Smart	-10.9219
教訓	-10.9222
アイルランド	-10.9224
秩序	-10.9226
仕事は	-10.9228
一人の	-10.9228
についても	-10.9229
他の人	-10.923
比	-10.9232
▁たとえ	-10.9232
お話	-10.9233
▁London	-10.9234
心が	-10.9236
1990	-10.9237
tin	-10.9237
・`)	-10.9239
普段	-10.924
南部	-10.9244
チャネル	-10.9244
▁Land	-10.9246
いても	-10.925
元の	-10.925
91	-10.9252
▁すでに	-10.9252
こともあります	-10.9253
▁NEW	-10.9254
▁ソフトウェア	-10.9254
の為に	-10.9255
結合	-10.9255
メル	-10.9257
FF	-10.9257
その人	-10.9257
慰め	-10.9259
牧師	-10.9259
hi	-10.9261
▁Tom	-10.9261
頭の	-10.9262
シート	-10.9263
8000	-10.9263
軍の	-10.9266
強さ	-10.9267
ませ	-10.9274
▁動画	-10.9277
狩り	-10.9277
ml	-10.9277
▁どうやって	-10.9282
▁最近の	-10.9283
リンゴ	-10.9284
やその他の	-10.9284
消えた	-10.9284
ある日	-10.9285
作用	-10.9287
▁ロバート	-10.9287
を出す	-10.9288
用途	-10.9289
を選んで	-10.929
損傷	-10.929
不思議	-10.929
神殿	-10.9293
++	-10.9294
が良い	-10.9296
ita	-10.9298
と言っています	-10.9298
▁Say	-10.9299
優先	-10.9299
を探して	-10.9301
▁君の	-10.9301
はさらに	-10.9301
尊敬	-10.9305
▁Die	-10.9305
されること	-10.9306
興奮	-10.931
財政	-10.931
やってる	-10.9311
ik	-10.9311
満	-10.9311
ライフ	-10.9312
▁よって	-10.9314
ずつ	-10.9315
帰って	-10.9316
ide	-10.9316
ソング	-10.9319
一度も	-10.9319
言いました	-10.932
観客	-10.9321
王様	-10.9321
と言い	-10.9325
の説明	-10.9326
▁Enterprise	-10.9326
越	-10.9329
▁赤	-10.9329
要件	-10.9329
振り	-10.933
[3]	-10.9331
-8	-10.9331
レベルで	-10.9337
になったら	-10.9337
▁1000	-10.934
私の人生	-10.9343
のかもしれません	-10.9344
ice	-10.9345
AC	-10.9345
リチャード	-10.9347
ウッド	-10.9348
さらなる	-10.9349
この世	-10.9351
のことです	-10.9352
共通	-10.9355
会社が	-10.9356
誘惑	-10.9356
▁現在は	-10.9358
▁サポート	-10.9359
▁Radio	-10.9359
を実行する	-10.9359
さんも	-10.936
▁1)	-10.9361
メイン	-10.9361
▁2.0	-10.9362
延長	-10.9363
企画	-10.9364
領土	-10.9365
ーン	-10.9365
当時の	-10.9365
裁判官	-10.9366
▁やっと	-10.9368
▁Bed	-10.9369
74	-10.937
肺	-10.937
の将来	-10.9371
われわれが	-10.9372
年の間に	-10.9375
ぼくは	-10.9376
のではないか	-10.9376
彼氏	-10.938
▁want	-10.9384
▁pro	-10.9385
行われた	-10.9385
第二	-10.9392
▁あり	-10.9392
▁ドイツ語	-10.9394
の基礎	-10.9394
▁Cisco	-10.9394
▁link	-10.9395
てくる	-10.9396
ないこと	-10.9397
屋根	-10.9398
その日	-10.9399
を行います	-10.9401
の一	-10.9401
なって	-10.9404
するように	-10.9404
イスラム	-10.9408
の街	-10.941
容量	-10.9412
第三者	-10.9413
なー	-10.9417
▁ポルトガル	-10.9417
加工	-10.9417
▁2001	-10.9421
住む	-10.9422
の責任	-10.9423
AS	-10.9423
狼	-10.9425
ヘッド	-10.9426
ウィル	-10.9427
勤務	-10.9428
のレベル	-10.9428
高齢者	-10.9429
することが	-10.9429
病院で	-10.9429
が出る	-10.9433
ICE	-10.9434
▁Li	-10.9436
導入	-10.9437
SCP	-10.9438
ME	-10.9439
ny	-10.9444
込んだ	-10.9444
▁−	-10.9445
交流	-10.9452
てしまいます	-10.9453
争い	-10.9456
▁Collection	-10.9457
管理者	-10.9459
笑う	-10.946
子どもの	-10.946
▁46	-10.9461
候補	-10.9461
アレ	-10.9462
価値観	-10.9465
▁皆さんは	-10.9468
che	-10.9468
org	-10.9468
▁DE	-10.9471
県	-10.9471
▁日本語	-10.9471
のまま	-10.9472
減少	-10.9473
怪物	-10.9474
▁ん	-10.9476
はいけない	-10.9479
おお	-10.948
現れる	-10.948
▁そうすれば	-10.948
www	-10.9481
ませんか	-10.9484
られて	-10.9484
▁CO	-10.9485
ける	-10.9485
と考える	-10.9486
獲得	-10.9487
今でも	-10.9487
▁Search	-10.9488
僕を	-10.9488
EN	-10.949
固定	-10.9491
使	-10.9493
の保護	-10.9495
ade	-10.9497
▁ととも	-10.9498
▁動物	-10.9503
照明	-10.9503
ねばならない	-10.9504
なくてはならない	-10.9508
散	-10.951
今日も	-10.951
ong	-10.951
▁いい	-10.9512
おすすめ	-10.9514
▁Bitcoin	-10.9515
助	-10.952
と呼ばれ	-10.9522
CA	-10.9524
べきである	-10.9524
▁Head	-10.9525
を助ける	-10.9526
チェーン	-10.953
地元	-10.9535
財務	-10.9536
▁there	-10.9537
愛の	-10.9538
じゃないの	-10.9538
▁Pi	-10.9539
火災	-10.9547
▁オ	-10.955
▁our	-10.955
について詳しく	-10.9552
ヴァン	-10.9553
長期的な	-10.9553
ale	-10.9559
性別	-10.956
とすれば	-10.9562
ドルの	-10.9569
に値する	-10.9569
体制	-10.957
が見える	-10.9572
思想	-10.9572
▁Pre	-10.9576
だわ	-10.9577
務	-10.9577
最新	-10.9582
らなかった	-10.9582
▁学校	-10.9583
あなたも	-10.9583
続けている	-10.9584
▁‘	-10.9584
ph	-10.9587
削減	-10.9591
アリス	-10.9591
るように	-10.9592
麻薬	-10.9593
を超えて	-10.9594
曰く	-10.9596
ルー	-10.9596
15%	-10.9597
▁ソース	-10.9599
を始めた	-10.96
世界中に	-10.9601
こちら	-10.9604
になるだろう	-10.9607
もらった	-10.9608
訴訟	-10.9608
95%	-10.9609
途中	-10.9609
00	-10.9611
ヤツ	-10.9612
▁AM	-10.9616
これ以上	-10.9617
rd	-10.9619
死の	-10.9622
むしろ	-10.9624
▁02	-10.9624
それらは	-10.9624
gen	-10.9625
アブラハム	-10.9625
▁now	-10.9626
殆ど	-10.9627
知って	-10.9629
ればいい	-10.9629
▁↑	-10.963
▁わたしが	-10.9632
牛乳	-10.9632
なんですか	-10.9633
警察官	-10.9634
言われた	-10.9635
ほうが	-10.9636
ることができる	-10.9636
電話番号	-10.964
▁白い	-10.9642
トンネル	-10.9643
いわゆる	-10.9645
フォーム	-10.9645
ヨガ	-10.9646
確信	-10.965
を取って	-10.965
頭痛	-10.965
を信じ	-10.9652
誓い	-10.9655
ig	-10.9655
最後	-10.9655
▁アフリカ	-10.9656
しまいました	-10.9657
▁山	-10.9657
をどう	-10.9658
の歌詞	-10.9662
語り	-10.9663
[2]	-10.9665
ゲームの	-10.9666
感染症	-10.9666
恵み	-10.9669
チャレンジ	-10.9669
he	-10.9674
ten	-10.9674
戦闘機	-10.9677
とし	-10.9678
にした	-10.9678
への道	-10.9679
そんなこと	-10.9682
▁本当の	-10.9682
違法	-10.9683
で働く	-10.9684
インドの	-10.9684
となって	-10.9685
ful	-10.9686
一回	-10.9687
過程	-10.9687
想い	-10.969
知り	-10.9691
▁アジア	-10.9691
十分に	-10.9692
をサポートする	-10.9692
▁サイズ	-10.9694
まり	-10.9697
▁問題は	-10.9697
胃	-10.9698
アイドル	-10.9701
を求め	-10.9701
▁自然	-10.9702
COM	-10.9702
に向かう	-10.9702
放	-10.9702
造	-10.9703
車で	-10.9704
るために	-10.9705
▁香港	-10.9706
Black	-10.9708
ens	-10.9709
京都	-10.9709
本当	-10.9709
フォー	-10.9711
まる	-10.9712
アダム	-10.9713
ヶ月間	-10.9717
の首都	-10.9718
の様子	-10.9719
性質	-10.9721
工	-10.9721
▁一覧をみる	-10.9721
安全性	-10.9722
下に	-10.9723
間で	-10.9724
顧客の	-10.9724
ーー	-10.9724
損失	-10.9725
髪の毛	-10.9726
勝つ	-10.9727
▁いる	-10.9728
決め	-10.9729
預言	-10.973
フェイスブック	-10.973
.1	-10.973
の本	-10.9731
のサイズ	-10.9732
人もいる	-10.9734
処分	-10.9735
ることができます	-10.9735
留学生	-10.9735
ものに	-10.9735
会計	-10.9737
酸素	-10.9737
テイラー	-10.9738
管	-10.9739
▁われわれは	-10.974
率は	-10.9741
教会の	-10.9741
の理由	-10.9742
利用者	-10.9744
住	-10.9745
ドラゴン	-10.9745
▁Sleep	-10.9746
lu	-10.9746
2,000	-10.9747
洪水	-10.9748
使命	-10.9748
魅力	-10.9749
オリジナル	-10.9751
▁デンマーク	-10.9753
タブレット	-10.9754
7000	-10.9754
変な	-10.9754
PE	-10.9757
あんた	-10.976
▁コーヒー	-10.9762
端	-10.9762
ないし	-10.9764
日間の	-10.9765
謎	-10.9765
急に	-10.9767
おいしい	-10.9769
通話	-10.9772
多様な	-10.9776
負傷	-10.9778
▁Name	-10.9778
▁ロシアの	-10.9779
▁Our	-10.9779
することです	-10.978
CP	-10.9781
を維持する	-10.9784
部屋に	-10.9784
の作成	-10.9785
ハンター	-10.9786
ボー	-10.9786
区別	-10.9789
みたいです	-10.9791
さい	-10.9793
パーティ	-10.9794
誤	-10.9794
かも知れない	-10.9797
▁w	-10.9798
者を	-10.9799
がありますか	-10.9802
▁Global	-10.9805
収集	-10.981
130	-10.9814
ミュージック	-10.9815
スレ	-10.9815
続けた	-10.9817
私にとって	-10.9819
作った	-10.9823
今年は	-10.9824
女王	-10.9827
▁Phone	-10.9828
たちに	-10.9828
ins	-10.983
▁un	-10.983
食糧	-10.9832
▁Book	-10.9836
ないと	-10.9837
汚い	-10.984
tic	-10.9841
極めて	-10.9841
▁......	-10.9843
急いで	-10.9843
の形	-10.9844
訪問者	-10.9845
おられる	-10.9846
ギャンブル	-10.9848
field	-10.9848
▁GB	-10.9849
まずは	-10.9849
やっている	-10.9851
ho	-10.9852
愛し	-10.9853
ために必要な	-10.9854
リード	-10.9855
▁66	-10.9857
法則	-10.9857
掛け	-10.9859
は言う	-10.986
分類	-10.986
行きたい	-10.9861
変わった	-10.9862
プライド	-10.9863
欲望	-10.9864
良	-10.9865
あげる	-10.9866
出来	-10.9866
ism	-10.9866
▁アナと雪の女王	-10.9866
を買って	-10.9867
よな	-10.9868
Can	-10.9868
を発見	-10.987
に過ぎない	-10.9871
▁リ	-10.9873
患者は	-10.9874
世界最大の	-10.9874
の新	-10.9875
▁ドイツの	-10.9875
視	-10.9876
1970	-10.9878
瓶	-10.988
セクション	-10.988
tt	-10.9881
あなたと	-10.9882
活用	-10.9882
▁13.	-10.9883
正確に	-10.9883
それだけ	-10.9887
▁years	-10.9888
▁{	-10.989
▁Word	-10.9891
ジャー	-10.9893
僕ら	-10.9893
にくい	-10.9893
クロス	-10.9894
▁警察	-10.9895
いって	-10.9895
▁の発音を録音する	-10.9896
チャールズ	-10.9897
ラブ	-10.9902
プラ	-10.9903
野球	-10.9904
▁Paris	-10.9904
▁1:	-10.9905
▁Men	-10.9905
ure	-10.9907
英国の	-10.991
▁Control	-10.9912
のルール	-10.9913
合成	-10.9913
▁Valley	-10.9913
▁Year	-10.9913
と感じる	-10.9914
詰め	-10.9915
ためです	-10.9916
お客さん	-10.9916
専用	-10.9919
あなた自身	-10.9921
以上が	-10.9925
印刷	-10.9925
が少ない	-10.9926
リクエスト	-10.9928
変化する	-10.993
の成功	-10.9932
だめ	-10.9933
苦	-10.9933
SEO	-10.9934
101	-10.9935
のようなもの	-10.9938
清	-10.9943
数多くの	-10.9944
自体	-10.9945
対処	-10.995
ish	-10.9951
どちら	-10.9951
GS	-10.9951
につき	-10.9951
が大好き	-10.9954
初期	-10.9956
ボード	-10.9956
▁55	-10.9956
すみません	-10.9957
されません	-10.9958
そのように	-10.9958
症候群	-10.996
スコット	-10.9961
戻って	-10.9961
ドメイン	-10.9962
調	-10.9962
濃度	-10.9964
を参照	-10.9964
tra	-10.9965
▁ステップ	-10.9967
▁Pack	-10.9969
好み	-10.9971
を表す	-10.9971
▁DO	-10.9972
遅れ	-10.9973
高校	-10.9973
]]	-10.9975
億万長者	-10.9976
差別	-10.998
森林	-10.998
任意の	-10.9983
サンフランシスコ	-10.9984
時間に	-10.9985
▁ご	-10.9985
ab	-10.9989
ren	-10.999
▁死	-10.9991
fr	-10.9992
賛成	-10.9993
芸術家	-10.9993
for	-10.9996
形態	-10.9997
▁Du	-10.9998
いき	-10.9999
募集	-11.0003
かみ	-11.0003
場所です	-11.0003
組み合わせ	-11.0007
午前	-11.0007
▁ページのトップへ	-11.0009
観測	-11.0012
▁イエス	-11.0012
▁Studios	-11.0013
事に	-11.0014
依頼	-11.0014
▁今日も	-11.0021
▁us	-11.0022
ゴルフ	-11.0022
▁つ	-11.0022
らせ	-11.0023
▁ウクライナ	-11.0024
プロトコル	-11.0025
▁}	-11.0025
の方法	-11.0026
評判	-11.0027
話した	-11.0027
使用される	-11.0028
三つの	-11.0028
▁スウェーデン	-11.0031
▁別の	-11.0032
ara	-11.0033
ディスク	-11.0033
もらう	-11.0035
なか	-11.0035
▁残念ながら	-11.0036
ms	-11.0036
づ	-11.0037
、2015	-11.0038
▁Ro	-11.0041
の基本	-11.0048
タグ	-11.005
マタイ	-11.005
なしに	-11.005
月には	-11.005
この世に	-11.005
動機	-11.0052
使っている	-11.0054
とこ	-11.0055
帰	-11.0056
中央	-11.0056
-20	-11.0056
▁ファック	-11.0057
飛ぶ	-11.0057
[4]	-11.0058
○	-11.0059
▁Space	-11.0059
昔の	-11.006
殺す	-11.0061
種の	-11.0063
▁Sky	-11.0064
▁Key	-11.0065
ダニエル	-11.0068
地域で	-11.0068
▁すぐに	-11.0069
▁著者	-11.007
今では	-11.0072
誤り	-11.0073
できるように	-11.0074
▁高	-11.0075
分離	-11.0076
降り	-11.008
フェア	-11.008
▁それも	-11.0082
▁Ever	-11.0084
告白	-11.0084
キリストの	-11.0087
驚いた	-11.0087
ヘリコプター	-11.009
の販売	-11.0091
▁III	-11.0091
の効果	-11.0091
ミャンマー	-11.0093
pt	-11.0094
▁DVD	-11.0096
fan	-11.0096
北京	-11.0098
ジム	-11.01
ps	-11.0101
ビジネススクール	-11.0102
強制	-11.0103
昼	-11.0104
外で	-11.0106
▁Ba	-11.0107
▁他	-11.0107
大学院	-11.0109
の旅	-11.011
進む	-11.0114
つつ	-11.0114
中国が	-11.0114
家は	-11.0115
チャット	-11.0116
とします	-11.0117
sen	-11.0117
の娘	-11.0121
鬼	-11.0121
しないでください	-11.0122
男女	-11.0123
医薬品	-11.0123
TED	-11.0126
の誕生日	-11.0131
ブリ	-11.0132
BS	-11.0132
ウィリアム	-11.0137
を感じ	-11.0138
とう	-11.0138
プラグイン	-11.0139
▁残りの	-11.0141
変革	-11.0144
▁何が	-11.0145
▁アン	-11.0146
を続ける	-11.0148
家族が	-11.0148
ドレス	-11.0155
ワクチン	-11.0156
宮殿	-11.0156
▁猫	-11.0157
▁Ri	-11.0157
わけじゃない	-11.0158
ブリッジ	-11.0158
性能	-11.0162
言うと	-11.0162
節約	-11.0165
▁SP	-11.0167
たとえば	-11.017
と思っていた	-11.017
結婚する	-11.017
絶望	-11.0171
来年	-11.0177
捨て	-11.0178
ロゴ	-11.0179
だれが	-11.0179
▁1990	-11.0181
この国	-11.0182
ようと	-11.0182
年目	-11.0184
たが	-11.0184
食べた	-11.0184
決済	-11.0186
▁way	-11.0187
シア	-11.0187
兄弟たち	-11.0187
便利な	-11.0188
を利用して	-11.019
キャプテン	-11.019
したとき	-11.0194
▁政治	-11.0195
知らせ	-11.0196
においても	-11.0196
推測	-11.0198
人口の	-11.0198
社は	-11.0198
▁午後	-11.0198
証言	-11.0199
▁シーズン	-11.0199
受	-11.02
▁ネット	-11.02
El	-11.0201
、100	-11.0201
に対応	-11.0202
休日	-11.0202
わよ	-11.0203
ee	-11.0203
重量	-11.0205
行われる	-11.0207
保持	-11.0207
真に	-11.0208
したが	-11.0211
わかりません	-11.0212
性的	-11.0214
調理	-11.0215
お前が	-11.0216
んでしょうか	-11.0217
慎重に	-11.0217
心理	-11.022
▁私と	-11.0221
International	-11.0222
画	-11.0223
!』	-11.0225
チームが	-11.0226
SU	-11.0227
▁シティ	-11.0227
に何	-11.0229
ite	-11.023
タル	-11.023
入る	-11.0231
株式	-11.0239
of	-11.0243
中国で	-11.0243
▁人間の	-11.0244
ルイス	-11.0244
歴史的な	-11.0245
を受け取る	-11.0245
▁Two	-11.0248
と考えています	-11.0248
検出	-11.0249
SC	-11.0249
▁65	-11.025
そこまで	-11.0252
意思	-11.0255
細	-11.0257
▁それゆえ	-11.0257
▁Mi	-11.0259
の他の	-11.0259
から来た	-11.0262
の改善	-11.0263
の女性	-11.0266
リーグ	-11.0267
[[	-11.0267
刑事	-11.0268
残る	-11.0268
▁h	-11.027
地球の	-11.027
3,000	-11.0272
科学的	-11.0275
メッセージを	-11.0276
にわたって	-11.0276
年以内に	-11.0276
を探している	-11.0276
祖母	-11.0277
寺	-11.0279
巻き	-11.0283
人種	-11.0284
に比べて	-11.0288
竜	-11.0288
のなかで	-11.0289
jo	-11.029
を避ける	-11.029
自然の	-11.029
ないよ	-11.029
チン	-11.0291
▁海	-11.0294
書き込み	-11.0294
なよ	-11.0296
おく	-11.0296
天然	-11.0303
時から	-11.0306
スコア	-11.0308
▁Mini	-11.0308
▁Right	-11.0308
2.5	-11.0309
周年	-11.0311
まし	-11.0311
に会う	-11.0311
▁Better	-11.0312
吉	-11.0315
ラッキー	-11.0316
貴方	-11.0317
を受け入れ	-11.0317
マーケット	-11.0318
▁とても	-11.032
自分自身の	-11.0321
修復	-11.0321
先輩	-11.0322
たいと思います	-11.0323
金曜日	-11.0324
やん	-11.0325
が最も	-11.0325
▁昨日の	-11.0328
嵐	-11.0328
if	-11.0329
知っています	-11.0331
を愛している	-11.0331
瞳	-11.0333
かもしれないが	-11.0334
を書く	-11.0335
3%	-11.0336
プリ	-11.0336
環境で	-11.0336
覚悟	-11.0337
色々	-11.0338
取って	-11.0338
VE	-11.034
ロサンゼルス	-11.0341
ドラ	-11.0341
▁Earth	-11.0344
▁↓	-11.0345
立つ	-11.0347
すっかり	-11.0349
▁当然	-11.035
GP	-11.035
ソー	-11.0351
任	-11.0352
ビッグ	-11.0353
ぃ	-11.0355
:18	-11.0356
と話す	-11.0356
数百	-11.0359
▁逆に	-11.036
He	-11.0363
▁Too	-11.0363
▁best	-11.0364
弟子	-11.0364
救助	-11.0366
°	-11.0367
のブログ	-11.0368
▁Technology	-11.037
飛んで	-11.0371
報	-11.0373
何年も	-11.0376
ica	-11.0376
▁Family	-11.0376
目的で	-11.0377
車が	-11.0377
PM	-11.0378
▁01	-11.0383
Java	-11.0384
爪	-11.0388
確定	-11.0388
摂取	-11.0388
ot	-11.0389
どのようにして	-11.0394
売却	-11.0396
1999	-11.04
▁Look	-11.0401
仲	-11.0401
▁Lost	-11.0404
犠牲	-11.0404
暇	-11.0405
属	-11.0408
帯	-11.0409
pp	-11.0409
念	-11.0412
一方で	-11.0413
所有者	-11.0413
oo	-11.0413
ow	-11.0417
わたしたちが	-11.0419
▁post	-11.0419
配	-11.0421
ウォーター	-11.0423
出血	-11.0423
▁WordPress	-11.0423
▁ネットワーク	-11.0423
主が	-11.0427
:16	-11.0427
陰	-11.0428
民間	-11.0428
オーストラリアの	-11.0429
予言	-11.043
の元	-11.0431
相手は	-11.0432
ワード	-11.0434
ボン	-11.0436
にお	-11.0437
があなたの	-11.0439
隠	-11.0441
暗号	-11.0445
cc	-11.0445
生活を	-11.0445
CH	-11.0447
▁Opera	-11.0449
破	-11.045
を共有する	-11.045
人々を	-11.0451
だったのか	-11.0451
精	-11.0451
替え	-11.0451
試み	-11.0452
ual	-11.0453
の内容	-11.0453
広	-11.0454
▁Take	-11.0455
ガル	-11.0456
具	-11.0457
本物	-11.0458
大使	-11.046
▁Dark	-11.046
演説	-11.0461
なき	-11.0461
に戻った	-11.0464
▁Area	-11.0466
でございます	-11.0466
AA	-11.0466
▁49	-11.0468
おばさん	-11.0468
法案	-11.0471
▁Stay	-11.0471
が可能	-11.0472
ini	-11.0472
してない	-11.0473
▁Jack	-11.0473
がなく	-11.0473
▁地図	-11.0474
ジャンプ	-11.0476
EA	-11.0476
ford	-11.0477
覚醒	-11.0479
▁Japan	-11.048
の皆さん	-11.048
▁Off	-11.0481
ローズ	-11.0482
出身の	-11.0482
のアルバム	-11.0485
▁時々	-11.0486
▁Ni	-11.0486
スティーブ	-11.0487
権威	-11.0488
衣	-11.0488
数千	-11.0489
ホームズ	-11.0489
違った	-11.0492
EC	-11.0492
所に	-11.0494
▁たくさんの	-11.0495
アレックス	-11.0495
ってきた	-11.0499
正直	-11.0499
おまえ	-11.0499
サメ	-11.0499
けん	-11.0499
丘	-11.0501
Be	-11.0501
アーカイブ	-11.0501
を発表した	-11.0502
栽培	-11.0507
ブロガー	-11.0508
:13	-11.0508
したもの	-11.0509
上位	-11.051
▁Mix	-11.0511
裸	-11.0513
インターナショナル	-11.0514
▁セキュリティ	-11.0515
関係者	-11.0515
-7	-11.0515
地位	-11.0516
▁Port	-11.0517
▁Rain	-11.0518
だからです	-11.0519
▁わたしたちは	-11.052
PA	-11.0521
外に	-11.0522
のトップ	-11.0522
てん	-11.0524
矢	-11.0524
言います	-11.0525
しないで	-11.0528
RT	-11.0529
を待つ	-11.0529
初期の	-11.0529
の心	-11.053
はすぐに	-11.053
いつまで	-11.0531
焼き	-11.0532
従来の	-11.0533
▁Hard	-11.0535
St	-11.0536
エンジニアリング	-11.0536
囚人	-11.0544
マックス	-11.0546
▁下	-11.0546
▁美しい	-11.0546
年間に	-11.0547
era	-11.0547
万人以上の	-11.0548
化学物質	-11.0551
vo	-11.0554
▁クラス	-11.0554
メイ	-11.0555
参加者	-11.0556
回転	-11.0556
するもの	-11.0557
▁name	-11.0559
ze	-11.056
▁デ	-11.0562
に行き	-11.0563
をとる	-11.0563
ないか	-11.0563
もう一つ	-11.0563
360	-11.0565
▁ル	-11.0565
▁夏	-11.0566
隻	-11.057
再開	-11.0571
膝	-11.0572
▁DAY	-11.0572
来ない	-11.0573
アメリカン	-11.0574
パウロ	-11.0574
いいえ	-11.0576
▁社会	-11.0576
うん	-11.058
コンテスト	-11.0581
賃金	-11.0581
宝物	-11.0582
▁関連	-11.0584
を引き	-11.0584
タイミング	-11.0588
ドゥ	-11.0588
返す	-11.0594
モー	-11.0596
と同様	-11.0597
人間に	-11.0598
▁父	-11.0602
異常	-11.0604
の質	-11.0605
写	-11.0605
もうすぐ	-11.0611
食い	-11.0612
▁ノ	-11.0613
送	-11.0613
▁Hot	-11.0614
クリック	-11.062
Good	-11.062
▁PHP	-11.062
しかも	-11.062
▁need	-11.0621
▁1.3	-11.0621
直ちに	-11.0621
腰	-11.0622
こっち	-11.0624
医師は	-11.0624
積	-11.0625
FDA	-11.0625
ck	-11.0628
を生み出す	-11.0629
比較的	-11.0631
▁Da	-11.0632
に入り	-11.0635
▁お前	-11.0636
倫理	-11.0637
もそう	-11.0639
▁Lady	-11.064
アリ	-11.0641
頑張って	-11.0642
を聞く	-11.0643
悪夢	-11.0643
着陸	-11.0646
座って	-11.0647
上海	-11.0653
いったい	-11.0654
学位	-11.0655
This	-11.0655
コレ	-11.0656
題	-11.0657
サイトの	-11.0659
クラ	-11.0659
あら	-11.0659
グループの	-11.066
ランチ	-11.0662
ナンバー	-11.0663
面接	-11.0663
が来た	-11.0665
原子	-11.0665
論理	-11.0667
象	-11.0671
ているのか	-11.0671
に行こう	-11.0671
▁Mountain	-11.0671
何かが	-11.0673
〈	-11.0674
嫌	-11.0674
勘違い	-11.0675
みると	-11.0675
▁雪	-11.0675
移行	-11.0676
作者	-11.0677
ポジション	-11.0679
▁[+]	-11.0679
(3	-11.0679
だい	-11.0683
返	-11.0684
柄	-11.0687
アフガニスタン	-11.0688
どんなに	-11.0688
海岸	-11.0689
事項	-11.069
▁David	-11.069
お知らせ	-11.0691
▁バルセロナ	-11.0692
たま	-11.0693
はそれを	-11.0693
ison	-11.0695
ロイ	-11.0697
主人	-11.0697
装備	-11.0698
しく	-11.0699
の半分	-11.07
いまだに	-11.07
▁Max	-11.07
当たり前	-11.07
ise	-11.0701
ことのない	-11.0702
部族	-11.0704
を守り	-11.0704
言っている	-11.0707
病気の	-11.0707
▁プログラム	-11.0708
電源	-11.0709
人生で	-11.0709
ショッピング	-11.071
お前ら	-11.0711
コール	-11.0711
--	-11.0714
▁Work	-11.0716
za	-11.072
のうちの	-11.072
匹の	-11.0722
住民	-11.0723
複数	-11.0724
苦情	-11.0727
マネジメント	-11.0727
つ目は	-11.0727
BA	-11.0729
永遠	-11.0731
デビュー	-11.0731
途中で	-11.0731
られています	-11.0732
For	-11.0737
▁Ltd	-11.0737
湯	-11.074
▁若い	-11.0741
技術者	-11.0743
▁世界中の	-11.0744
候補者	-11.0746
レート	-11.0746
TOP	-11.0747
light	-11.0747
▁when	-11.0749
うつ病	-11.0752
に位置しています	-11.0753
▁EX	-11.0753
▁75	-11.0755
同じように	-11.0757
灯	-11.0757
▁今すぐ	-11.0757
引退	-11.0759
策	-11.076
▁ワシントン	-11.0761
志	-11.0763
逮捕された	-11.0764
ション	-11.0765
ホー	-11.0765
ニュージーランド	-11.0765
道徳	-11.0766
を除いて	-11.0766
笑って	-11.0767
執行	-11.0767
女は	-11.0767
▁あらゆる	-11.0767
片	-11.0768
▁Gold	-11.0769
ウサギ	-11.0773
テニス	-11.0775
▁Queen	-11.0776
CS	-11.0776
プロジェクトの	-11.0777
連絡先	-11.0778
国籍	-11.0779
:19	-11.0781
▁Chrome	-11.0781
のようです	-11.0782
FS	-11.0782
執筆	-11.0784
オブジェクト	-11.0784
写真は	-11.0784
ゆく	-11.0785
人達	-11.0788
出して	-11.079
を経て	-11.0791
ことば	-11.0791
わかって	-11.0791
是非	-11.0793
より大きな	-11.0794
▁イタリア語	-11.0796
▁ぜひ	-11.0797
ミル	-11.0799
がなかった	-11.0801
僕たち	-11.0802
戦略的	-11.0803
アス	-11.0804
▁一方で	-11.0804
▁スーパー	-11.0806
理想	-11.0807
見られる	-11.0808
tu	-11.0808
国が	-11.0808
長期	-11.0811
悲劇	-11.0811
製品を	-11.0812
▁Away	-11.0813
陣	-11.0813
騎士	-11.0816
▁take	-11.0818
port	-11.0819
龍	-11.0819
細菌	-11.0819
基金	-11.0822
ホワイトハウス	-11.0822
を守るために	-11.0823
SA	-11.0824
PDF	-11.0826
let	-11.0828
の木	-11.0829
配布	-11.0829
ポン	-11.083
話を	-11.083
画家	-11.0831
道は	-11.0831
自宅で	-11.0833
を作成	-11.0833
相互	-11.0835
することができ	-11.0835
ごろ	-11.0837
表記	-11.0837
近くに	-11.0838
▁好きな	-11.0838
るな	-11.0839
空軍	-11.0841
殿	-11.0842
有効	-11.0843
するの	-11.0844
語る	-11.0844
▁もしあなたが	-11.0845
デンマーク	-11.0845
君に	-11.0846
▁Ta	-11.0846
はこれ	-11.0854
てい	-11.0855
導き	-11.0855
を変更する	-11.0855
カリフォルニア	-11.0855
フォロワー	-11.0855
▁Previous	-11.0856
▁タイプ	-11.0858
ことについて	-11.0859
最後まで	-11.086
CT	-11.0862
▁Act	-11.0863
基盤	-11.0863
次第	-11.0864
のファン	-11.0865
乾燥	-11.0865
▁Chi	-11.0868
▁MA	-11.0868
回り	-11.0869
を買い	-11.0872
▁Cat	-11.0873
父は	-11.0873
▁検索	-11.0873
移転	-11.0874
日です	-11.0874
考えた	-11.0874
王の	-11.0876
暗殺	-11.088
同盟国	-11.0881
を考える	-11.0881
ass	-11.0882
▁か月前	-11.0882
死亡した	-11.0889
再度	-11.089
ウェスト	-11.089
殺された	-11.0891
可能性のある	-11.0891
カンボジア	-11.0892
sk	-11.0894
を読んで	-11.0895
AD	-11.0895
人材	-11.0898
最初は	-11.0899
と思い	-11.0899
▁Adobe	-11.09
Li	-11.09
の意味は	-11.0903
がすべて	-11.0904
▁Sc	-11.0905
フットボール	-11.0906
当該	-11.0907
▁iPad	-11.0908
を発見した	-11.0908
▁AT	-11.0908
タブ	-11.0908
ないといけない	-11.091
手法	-11.0912
求める	-11.0914
からの距離	-11.0915
▁なんか	-11.0917
物を	-11.0921
縁	-11.0921
FBI	-11.0923
無事	-11.0925
クラウド	-11.0925
マス	-11.0926
救済	-11.093
答えは	-11.093
がたくさん	-11.0932
まれ	-11.0933
の分野で	-11.0933
ue	-11.0934
忘れる	-11.0935
ソロ	-11.0937
相当	-11.0937
しているのか	-11.0937
意思決定	-11.0937
世紀に	-11.0942
倉庫	-11.0943
▁51	-11.0943
燃え	-11.0945
一致	-11.0947
船長	-11.0947
起業家	-11.0948
OL	-11.0949
▁製品情報	-11.0949
RS	-11.0949
4.	-11.0949
グル	-11.0951
分かった	-11.0953
▁__	-11.0953
なければいけない	-11.0954
ウソ	-11.0954
大型	-11.0955
▁1999	-11.0956
間違って	-11.0956
CI	-11.0957
シャー	-11.0957
▁二人の	-11.0958
yo	-11.096
農民	-11.0962
シェ	-11.0963
▁アメリカは	-11.0964
ッツ	-11.0965
1.5	-11.0966
地の	-11.0967
ヵ月	-11.0967
疲れた	-11.0967
と思いました	-11.0968
キャラ	-11.0968
検討	-11.0969
▁金	-11.0969
▁Digital	-11.097
逃げる	-11.0972
グループは	-11.0974
EX	-11.0974
けれども	-11.0976
協議	-11.0976
雰囲気	-11.0977
▁53	-11.0977
フォーマット	-11.0979
▁Village	-11.0979
死去	-11.098
ola	-11.0983
▁Cas	-11.0986
自分たち	-11.0986
招待	-11.0986
生まれる	-11.0987
行方不明	-11.0989
現状	-11.0989
であるため	-11.099
憎しみ	-11.0996
ハッカー	-11.0998
投与	-11.1
抜き	-11.1005
事柄	-11.1006
bar	-11.1006
»	-11.1009
▁一度	-11.1012
研修	-11.1013
之	-11.1014
休憩	-11.1014
暖かい	-11.1014
ロシアは	-11.1015
クッキー	-11.1015
▁リンク	-11.1015
▁言語	-11.1016
プロデューサー	-11.1017
遊ぶ	-11.1017
▁彼女が	-11.1018
▁愛は	-11.1018
クソ	-11.1018
▁同様に	-11.1019
1998	-11.1021
美味しい	-11.1021
徐々に	-11.1023
もあり	-11.1023
▁Foundation	-11.1024
になっていた	-11.1025
派遣	-11.1028
uck	-11.1029
学校で	-11.103
過去に	-11.103
ウィンドウ	-11.1031
トニー	-11.1032
拷問	-11.1033
連続	-11.1033
の自由	-11.1034
red	-11.1034
を目指す	-11.1035
▁Summer	-11.1036
のすべて	-11.1036
VI	-11.1037
ご飯	-11.1038
▁ホステル	-11.1039
を信じて	-11.104
悪く	-11.1042
▁04	-11.1043
▁15.	-11.1046
パート	-11.1047
奥	-11.1047
▁トップページ	-11.1047
ワイ	-11.1048
女性に	-11.1048
に戻り	-11.1049
審査	-11.105
は既に	-11.105
はあなた	-11.1051
▁Mind	-11.1053
のウェブサイト	-11.1054
クリ	-11.1055
っこ	-11.1057
覚え	-11.1057
嫉妬	-11.1057
ひとりで	-11.106
の町	-11.1064
見た目	-11.1064
避難	-11.1064
するため	-11.1065
遅く	-11.1065
家畜	-11.1071
▁Machine	-11.1072
本当は	-11.1072
相手に	-11.1074
いただく	-11.1074
頼む	-11.1075
仕事の	-11.1076
中止	-11.1077
お客様に	-11.1077
▁ピーター	-11.1079
▁イエスは	-11.1079
▁14.	-11.1081
と答えた	-11.1084
Outlook	-11.1086
▁バンコク	-11.1087
見ると	-11.1088
世界的に	-11.1088
革新的な	-11.109
▁大きな	-11.1091
▁子ども	-11.1091
水の	-11.1091
に行きたい	-11.1092
使った	-11.1092
Con	-11.1095
▁Paul	-11.1097
▁56	-11.1098
市場は	-11.1101
現地の	-11.1102
呼びかけ	-11.1103
所属	-11.1105
▁Need	-11.1106
▁むしろ	-11.1106
公演	-11.1106
American	-11.1106
ダル	-11.1107
方がいい	-11.1108
pi	-11.1108
国で	-11.1109
関数	-11.1109
回数	-11.1109
170	-11.1109
水を	-11.111
不正	-11.1112
▁right	-11.1112
社会の	-11.1112
防止	-11.1114
視点	-11.1114
眠る	-11.1115
信頼性	-11.1118
もありません	-11.1119
より高い	-11.112
ショ	-11.112
バッテリー	-11.112
思っている	-11.112
できました	-11.112
銀河	-11.1121
時間以内に	-11.1121
ってどんな	-11.1122
取引所	-11.1123
統治	-11.1124
本部	-11.1125
:『	-11.1125
のようだ	-11.1126
VR	-11.1126
分かっている	-11.1127
マイクロ	-11.1129
松	-11.1129
MV	-11.113
マク	-11.113
よー	-11.1131
生きた	-11.1132
年生	-11.1134
町の	-11.1136
足を	-11.1136
していること	-11.1139
なきゃ	-11.1139
▁昔	-11.114
ボーナス	-11.1141
旅行者	-11.1141
ものだった	-11.1141
我が家	-11.1142
犬が	-11.1142
取り組み	-11.1143
りする	-11.1149
分割	-11.1149
なかったら	-11.115
解釈	-11.115
という意味です	-11.1152
ようとしている	-11.1153
ワーク	-11.1153
経済学	-11.1156
▁アプリケーション	-11.1157
を読み	-11.1157
衝突	-11.1158
決	-11.116
ユナイテッド	-11.1161
クリントン	-11.1162
地に	-11.1164
の高さ	-11.1168
▁手	-11.1169
を防ぐ	-11.1171
接	-11.1172
中毒	-11.1172
cy	-11.1174
テクニック	-11.1177
UN	-11.1177
演技	-11.1177
を持たない	-11.1179
崩壊	-11.1182
てはいけない	-11.1183
オペレーティングシステム	-11.1183
関連する	-11.1186
安全で	-11.1189
別に	-11.1191
るだろう	-11.1192
ヨン	-11.1194
ステロイド	-11.1195
シナリオ	-11.1195
▁チーム	-11.1195
の女	-11.1196
がいた	-11.1199
夏の	-11.12
が好きです	-11.1202
絶えず	-11.1202
の生産	-11.1206
残念	-11.1208
度目の	-11.1209
▁WITH	-11.121
▁CAN	-11.121
スキャン	-11.1216
子どもが	-11.1216
▁一緒に	-11.1216
いか	-11.1217
▁Code	-11.1218
は過去	-11.1218
王女	-11.1219
あなた方の	-11.1219
あれば	-11.1219
正解	-11.122
合わせ	-11.1222
諸島	-11.1222
しようとする	-11.1222
やり方	-11.1223
ことはありますか	-11.1224
ことにした	-11.1225
▁Country	-11.1225
底	-11.1227
週間で	-11.1227
延期	-11.1228
▁男	-11.1229
ディスプレイ	-11.1232
▁People	-11.1235
-6	-11.1235
公共	-11.1236
を行っている	-11.1236
プレッシャー	-11.1237
VPN	-11.1239
位は	-11.124
出会った	-11.124
仕事が	-11.1241
サーバ	-11.1242
▁わたしたち	-11.1243
時間前	-11.1243
の範囲	-11.1245
▁週末	-11.1245
藤	-11.1246
ストーン	-11.1247
ナン	-11.1248
男子	-11.1248
LOVE	-11.1248
久	-11.1249
まあ	-11.1249
愚かな	-11.1251
大いに	-11.1252
▁Touch	-11.1253
▁母	-11.1254
▁Death	-11.1255
周り	-11.1257
衣装	-11.1257
Ma	-11.1258
もらえる	-11.1258
駐車場	-11.126
をします	-11.1261
ION	-11.1262
▁Please	-11.1263
の主要	-11.1264
▁Made	-11.1264
を改善する	-11.1266
gra	-11.1268
在庫	-11.1269
聞け	-11.1271
▁1995	-11.1274
オーバー	-11.1275
▁初めての	-11.1276
帰宅	-11.1277
の王	-11.1277
▁SQL	-11.1277
移植	-11.1278
▁1998	-11.1278
サブ	-11.1279
▁du	-11.1279
休	-11.128
▁please	-11.128
カール	-11.1281
Or	-11.1283
最終的な	-11.1283
日後に	-11.1286
の原則	-11.1286
冷蔵庫	-11.1287
4,000	-11.1288
共同体	-11.1288
kin	-11.1289
▁戦争	-11.129
算	-11.129
はもちろん	-11.1292
▁CH	-11.1293
勢	-11.1294
場所は	-11.1294
様に	-11.1295
コンテナ	-11.1298
知りません	-11.1301
ランク	-11.1302
無駄	-11.1303
.”	-11.1304
▁地球	-11.1306
▁ま	-11.1311
ほどの	-11.1313
を好む	-11.1313
になれ	-11.1313
を用いて	-11.1313
泣いて	-11.1314
ena	-11.1317
助けて	-11.1317
問題を	-11.1318
日後	-11.1318
の重要な	-11.1319
フォ	-11.1321
当日	-11.1324
を忘れる	-11.1324
を占める	-11.1325
は他の	-11.1326
見解	-11.1326
明日は	-11.1327
沢山	-11.1328
を決める	-11.1329
特殊な	-11.133
矛盾	-11.1331
の起源	-11.1333
自身が	-11.1333
▁ago	-11.1334
交	-11.1334
を使用している	-11.1334
▁花	-11.1335
熊	-11.1336
時代に	-11.1338
つ目の	-11.1338
雄	-11.1341
▁ム	-11.1341
Power	-11.1341
▁Plaza	-11.1342
玄関	-11.1342
がまだ	-11.1342
の映画	-11.1343
どんどん	-11.1347
▁我々の	-11.1348
-9	-11.135
タスク	-11.135
und	-11.1351
今朝	-11.1352
▁Sam	-11.1354
が多く	-11.1354
▁ー	-11.1356
を意味します	-11.1358
に興味	-11.1358
わかっている	-11.1358
の必要性	-11.1359
しやすい	-11.1359
▁Research	-11.136
娯楽	-11.1361
ゝ	-11.1361
するだろう	-11.1361
こちらの	-11.1362
考えている	-11.1362
つの方法	-11.1363
この子	-11.1368
便利	-11.137
財布	-11.137
皮	-11.1371
闘	-11.1371
してくれ	-11.1371
容疑者	-11.1372
1995	-11.1373
能	-11.1375
子犬	-11.1376
知っていた	-11.1377
ひどく	-11.1378
刀	-11.1379
は少し	-11.138
ゴー	-11.138
寿命	-11.1382
▁サ	-11.1383
OP	-11.1384
スマホ	-11.1384
▁友達	-11.1384
低下	-11.1386
▁このため	-11.1386
▁After	-11.1388
▁お前は	-11.1388
ように見える	-11.1388
脱出	-11.139
福	-11.139
与える	-11.1391
・・・?	-11.1392
act	-11.1392
腸	-11.1396
に変更	-11.1396
心から	-11.1396
庁	-11.1397
▁歴史	-11.1398
を食べ	-11.1399
者たちは	-11.14
達が	-11.14
方法を	-11.1402
順	-11.1405
Free	-11.1406
▁Fort	-11.1406
デス	-11.1407
ファースト	-11.1408
▁当社の	-11.1408
とおり	-11.1412
▁Ca	-11.1413
やりたい	-11.1414
車を	-11.1416
戦場	-11.142
野菜	-11.1421
オバマ	-11.1421
▁〈	-11.1422
ドクター	-11.1423
1992	-11.1423
なのは	-11.1424
more	-11.1424
叫び	-11.1425
▁エリア	-11.1427
していなかった	-11.1428
▁Feel	-11.1428
を求めている	-11.1428
動物は	-11.1429
を高める	-11.1429
勢力	-11.143
弁	-11.1433
なっている	-11.1434
▁突然	-11.1434
の製品	-11.1436
王は	-11.1436
の人生	-11.1437
にすぎない	-11.1438
ever	-11.1438
言及	-11.1439
Man	-11.1439
キリスト教	-11.144
▁聖書は	-11.1441
と言えば	-11.1442
尊	-11.1444
▁主な	-11.1447
ことはなかった	-11.1448
▁夢	-11.1449
逆に	-11.145
▁PDF	-11.1451
して下さい	-11.1454
IR	-11.1455
陽	-11.1456
行政	-11.1458
に似ている	-11.146
潜在的な	-11.146
が必要な	-11.146
来週	-11.1461
▁Cookie	-11.1463
▁down	-11.1463
▁パソコン	-11.1466
▁Money	-11.1467
と呼ばれます	-11.1468
本を	-11.1469
▁┃	-11.1472
.2	-11.1473
App	-11.1474
になれば	-11.1474
ala	-11.1476
1996	-11.1476
を知り	-11.1476
向こう	-11.1476
▁58	-11.1477
高さ	-11.1477
掲載	-11.1481
のかしら	-11.1481
▁CA	-11.1482
配達	-11.1483
だけでも	-11.1484
▁君が	-11.1487
方々	-11.1487
目的は	-11.149
ったり	-11.149
体が	-11.1491
慈悲	-11.1491
サプライヤー	-11.1492
伝	-11.1492
割引	-11.1493
に基づき	-11.1493
かない	-11.1495
開け	-11.1496
住んでいる	-11.1497
ella	-11.15
は自分の	-11.15
▁Flash	-11.1501
PP	-11.1503
の利益	-11.1503
ray	-11.1506
▁うちの	-11.1506
暑い	-11.1509
▁3.1	-11.151
正常な	-11.151
僕らは	-11.151
この日	-11.151
^^	-11.1513
を削除する	-11.1514
体は	-11.1514
が大好きです	-11.1517
▁Movie	-11.1518
俺に	-11.1519
FIFA	-11.1521
理想的な	-11.1522
前進	-11.1522
FA	-11.1523
▁最新の	-11.1524
小型	-11.1526
▁Central	-11.1529
初心者	-11.1529
5.	-11.153
文化的	-11.153
ノン	-11.153
録音	-11.1531
ani	-11.1532
トル	-11.1533
有効な	-11.1535
若	-11.1535
の症状	-11.1537
遺体	-11.1538
妻の	-11.1538
▁こちらの	-11.1539
可能性が高い	-11.1541
古代	-11.1543
▁Woman	-11.1543
▁MAN	-11.1543
リス	-11.1545
集合	-11.1546
▁そのうち	-11.1547
債務	-11.1547
ゲン	-11.1548
試	-11.1549
▁ゲスト	-11.155
▁我々	-11.155
特許	-11.1551
はっきりと	-11.1552
▁Was	-11.1552
同じような	-11.1554
アメリカに	-11.1554
貧乏	-11.1557
侵略	-11.1558
判決	-11.1559
賢く	-11.156
気になる	-11.1561
どれ	-11.1561
▁George	-11.1564
cho	-11.1564
シカゴ	-11.1567
工事	-11.1567
側の	-11.1569
知りたい	-11.1571
▁さ	-11.1571
ach	-11.1571
学術	-11.1572
はじめ	-11.1572
の中にある	-11.1572
黄色	-11.1573
が表示されます	-11.1574
ぱ	-11.1576
備え	-11.1576
終わって	-11.1577
息子の	-11.1577
8:	-11.1578
の購入	-11.1578
皆様	-11.1578
^	-11.1578
は良い	-11.1579
容易に	-11.1579
tor	-11.158
ミラー	-11.158
▁99	-11.158
父が	-11.1581
ero	-11.1581
ブレ	-11.1582
なくなります	-11.1583
をつくる	-11.1583
のせい	-11.1583
▁SEO	-11.1585
分裂	-11.1585
天候	-11.1585
▁Give	-11.1588
."	-11.1594
▁Bridge	-11.1594
の言語	-11.1595
娘が	-11.1595
起動	-11.1595
▁Mad	-11.1596
ep	-11.1597
たばこ	-11.1597
ィ	-11.1597
ess	-11.1597
▁car	-11.1598
の男	-11.1598
▁その日	-11.1601
加	-11.1602
奉仕	-11.1604
ヶ月前	-11.1605
化合物	-11.1605
トロ	-11.1605
あなた方は	-11.161
▁PIECE	-11.161
▁Auto	-11.161
事前に	-11.161
んじゃ	-11.1614
を失い	-11.1614
▁さよなら	-11.1616
の音	-11.1616
ですので	-11.1619
が始まった	-11.1622
▁自分で	-11.1623
に大きな	-11.1623
しょ	-11.1623
いくつ	-11.1624
の中で最も	-11.1624
サービスは	-11.1625
役立つ	-11.1633
クリア	-11.1634
を使用し	-11.1634
んですが	-11.1635
岸	-11.1639
▁ベッドルーム	-11.164
を簡単に	-11.1642
沢山の	-11.1643
ッチ	-11.1644
国々	-11.1645
をよく	-11.1646
head	-11.1646
の量	-11.1646
用に	-11.1647
うれしい	-11.165
情報源	-11.1654
▁ポイント	-11.1656
しようとしている	-11.1656
た後	-11.1656
を聞いて	-11.1658
あなたのために	-11.1661
オル	-11.1662
多数	-11.1663
コロンビア	-11.1663
が違う	-11.1665
どちらも	-11.1667
res	-11.1669
日常生活	-11.167
ゲームは	-11.167
技	-11.167
偽物	-11.1671
▁Visual	-11.1672
おき	-11.1673
同期	-11.1673
▁vs	-11.1675
ama	-11.1676
始まった	-11.1678
するよう	-11.1678
言わない	-11.1678
カラ	-11.1679
とある	-11.168
▁r	-11.168
という言葉	-11.1681
になってしまう	-11.1681
隠し	-11.1682
そろそろ	-11.1683
中略	-11.1684
サンタ	-11.1684
▁あとは	-11.1684
動物園	-11.1685
自慢	-11.1686
▁者	-11.1687
びっくり	-11.1687
アップル	-11.1688
感動	-11.1689
型の	-11.1689
日以内に	-11.1689
恵	-11.1691
夫人	-11.1691
▁天気	-11.1691
book	-11.1692
▁記事	-11.1694
神話	-11.1698
かを	-11.1698
▁home	-11.17
を必要としている	-11.17
アシスタント	-11.1701
カリ	-11.1701
模様	-11.1701
ジャン	-11.1703
花火	-11.1704
▁File	-11.1704
モーター	-11.1706
のバージョン	-11.1708
一瞬	-11.1709
華	-11.1711
AV	-11.1712
を減らす	-11.1712
臭い	-11.1715
▁Hall	-11.1716
設置	-11.1716
sy	-11.1716
を待っている	-11.1717
ْ	-11.172
大統領が	-11.1721
▁電話	-11.1722
事例	-11.1723
懐かしい	-11.1724
重要です	-11.1724
身体の	-11.1724
州の	-11.1724
失敗した	-11.1725
API	-11.1727
▁say	-11.1729
▁パブリッシャー	-11.1729
薄	-11.1733
▁わが	-11.1734
死刑	-11.1734
をさらに	-11.1736
分子	-11.1736
ei	-11.1737
ぢ	-11.1739
スク	-11.1739
一日中	-11.174
業界で	-11.174
カナダの	-11.1742
IF	-11.1746
ette	-11.1747
会って	-11.1748
に注目	-11.1749
周波数	-11.1749
▁Archives	-11.175
のページ	-11.175
エイ	-11.1756
▁Miss	-11.1757
▁オリジナル	-11.1759
優しく	-11.1761
子供たちが	-11.1762
外の	-11.1762
▁そこから	-11.1763
綺麗な	-11.1763
tel	-11.1763
どちらが	-11.1764
目の前に	-11.1765
お客様は	-11.1767
▁True	-11.1769
▁Player	-11.1772
▁Remix	-11.1772
理解する	-11.1772
gar	-11.1773
なんの	-11.1775
ベネズエラ	-11.1776
▁Forever	-11.1777
研究者は	-11.1778
歩いて行ける距離	-11.1778
▁犬	-11.178
情報が	-11.178
ピー	-11.1783
認知	-11.1784
退職	-11.1786
値は	-11.1786
▁NASA	-11.1786
▁Vista	-11.1787
1997	-11.179
▁誰でも	-11.1791
▁デバイス	-11.1792
▁久しぶりに	-11.1793
AM	-11.1793
明日の	-11.1794
つの理由	-11.1795
の練習	-11.1796
させること	-11.1796
お話し	-11.1796
するのに	-11.1796
エア	-11.1796
北米	-11.1797
はもはや	-11.1803
back	-11.1803
課	-11.1804
関税	-11.1804
かのように	-11.1805
Open	-11.1806
家族は	-11.1807
の約束	-11.1807
シンプル	-11.1808
▁Premium	-11.1809
書いている	-11.1813
何とか	-11.1813
▁フランスの	-11.1814
捕虜	-11.1817
後半	-11.1818
-12	-11.182
だったので	-11.182
を検索	-11.1821
▁アーティスト名	-11.1823
専門家は	-11.1824
を選択し	-11.1827
根拠	-11.1828
▁PS	-11.1828
会った	-11.1828
▁too	-11.1828
免疫	-11.1829
、2017	-11.1829
▁Martin	-11.183
こともできる	-11.1831
▁人生は	-11.1831
座り	-11.1831
▁ようこそ	-11.1833
やろう	-11.1833
▁heart	-11.1834
view	-11.1834
変わらない	-11.1835
ラウンド	-11.1836
恐竜	-11.1836
ning	-11.1838
資本	-11.1838
する場合	-11.1839
中央銀行	-11.184
を見つけて	-11.184
だけではありません	-11.1841
はみな	-11.1842
で一番	-11.1842
Intel	-11.1843
多くの場合	-11.1844
一緒	-11.1844
さあ	-11.1845
▁例	-11.1845
●	-11.1846
の流れ	-11.1846
▁OUT	-11.1847
あたし	-11.1848
MI	-11.1849
ますね	-11.185
の花	-11.185
いただいた	-11.185
ai	-11.1851
チームの	-11.1851
知った	-11.1852
前後	-11.1853
パートナーシップ	-11.1854
▁Rose	-11.1855
端末	-11.1855
ミュージシャン	-11.1855
に出	-11.1859
最終的には	-11.186
▁Lu	-11.1861
かく	-11.1861
▁太陽	-11.1862
の人は	-11.1864
を超えた	-11.1866
たこと	-11.1869
ロール	-11.1871
▁Azure	-11.1873
腫瘍	-11.1874
肝臓	-11.1875
プロダクト	-11.1875
大変な	-11.1876
▁Mon	-11.1876
▁Comfort	-11.1877
数日	-11.1878
の脅威	-11.188
柱	-11.188
入国	-11.1882
ベルギー	-11.1882
作曲	-11.1882
の長さ	-11.1884
裁き	-11.1885
を売る	-11.1886
取った	-11.1886
low	-11.1887
▁€	-11.1888
私達が	-11.1888
▁ミャンマー	-11.1891
閉	-11.1891
ドルで	-11.1891
▁Law	-11.1892
▁個人	-11.1893
写真を	-11.1894
公表	-11.1894
を使用した	-11.1894
に注意	-11.1894
することもできます	-11.1894
▁people	-11.1895
▁ダブル	-11.1895
▁Pa	-11.1898
侵入	-11.1899
いずれ	-11.19
無視	-11.19
まえ	-11.19
style	-11.19
と比較して	-11.1904
残っている	-11.1905
▁Ch	-11.1906
移	-11.1907
進んで	-11.1909
とり	-11.191
影響力	-11.191
見え	-11.1912
▁Bank	-11.1912
▁Fall	-11.1912
ニング	-11.1913
▁Than	-11.1913
ヴァー	-11.1914
にアクセスする	-11.1914
人格	-11.1915
黙って	-11.1915
おめでとう	-11.1915
炭素	-11.1916
▁Source	-11.1916
スキー	-11.1918
iz	-11.1919
誰に	-11.192
のみが	-11.1923
のセキュリティ	-11.1924
ことができなかった	-11.1925
今や	-11.1925
しき	-11.1927
▁⇒	-11.193
▁クリス	-11.1931
今度は	-11.1937
エス	-11.1937
▁Friends	-11.1939
がいない	-11.194
▁69	-11.194
買収	-11.1941
▁Drive	-11.1942
に基づいています	-11.1943
案内	-11.1945
歳以上の	-11.1945
▁お前ら	-11.1947
を買った	-11.1947
が起こる	-11.1948
が低い	-11.1948
▁平和	-11.195
洞窟	-11.1951
次は	-11.1952
奇	-11.1952
からも	-11.1953
(3)	-11.1953
先祖	-11.1955
非難	-11.1955
Win	-11.1956
るもの	-11.1956
カリフォルニア州	-11.1958
はよく	-11.1958
▁マーク	-11.1959
▁を使用して	-11.1959
Un	-11.196
▁環境	-11.1961
つける	-11.1961
人もいます	-11.1962
が本当に	-11.1962
ヨーロッパで	-11.1962
経過	-11.1963
地球上の	-11.1963
ここから	-11.1965
廃止	-11.1967
祝	-11.1968
お気に入り	-11.1969
みました	-11.1973
ウィキペディア	-11.1973
肥満	-11.1973
師匠	-11.1973
プロパティ	-11.1973
▁心	-11.1975
ヘリ	-11.1975
を取得	-11.1975
乗	-11.1975
原子力	-11.1976
▁Classic	-11.1976
楽しむ	-11.1976
起こります	-11.1976
わけだ	-11.1978
単	-11.1979
TER	-11.1979
を管理する	-11.198
韓国の	-11.1981
▁Sweet	-11.1981
養	-11.1983
なんだろう	-11.1984
下り	-11.1984
▁Fa	-11.1985
ウス	-11.1985
▁SO	-11.1985
Life	-11.199
はしばしば	-11.1991
即	-11.1991
の食事	-11.1994
を教えてください	-11.1995
▁リビング	-11.1995
▁MS	-11.1998
▁Run	-11.2001
▁最高の	-11.2004
▁英	-11.2005
尋ねた	-11.2005
、18	-11.2005
今から	-11.2005
マネー	-11.2006
就職	-11.201
技術は	-11.2011
選ばれた	-11.2012
使徒	-11.2013
を示しています	-11.2013
を与えた	-11.2013
インディアン	-11.2014
あなたたちは	-11.2014
フランス人	-11.2015
su	-11.2017
▁今朝	-11.2018
近代	-11.2018
せずに	-11.2018
はわずか	-11.2019
神さま	-11.202
有名人	-11.202
▁PR	-11.2021
1950	-11.2021
なりました	-11.2021
からな	-11.2023
▁(2	-11.2023
▁パ	-11.2027
ポルトガル	-11.2028
民主党	-11.2029
ところです	-11.2031
ところに	-11.2031
陛下	-11.2032
アニメーション	-11.2032
周辺の観光スポット	-11.2033
葬儀	-11.2033
アフリカの	-11.2033
規模	-11.2034
きれいな	-11.2035
をチェック	-11.2037
勝手に	-11.2038
を決定する	-11.2039
▁学生は	-11.2039
娘の	-11.204
を示し	-11.2043
の大半は	-11.2044
ております	-11.2044
祝日	-11.2045
物理学	-11.2045
下落	-11.2047
敗北	-11.2048
wi	-11.2049
pro	-11.2049
▁Tri	-11.205
グラム	-11.205
▁そこには	-11.205
確率	-11.2052
▁how	-11.2052
プロモーション	-11.2053
▁Inter	-11.2053
大きさ	-11.2055
兼	-11.2055
の都市	-11.2058
大統領の	-11.2058
をより	-11.2058
なのだろうか	-11.206
の天気	-11.206
視聴	-11.2061
▁続きを読む	-11.2062
群衆	-11.2062
絶滅	-11.2064
▁work	-11.2068
hu	-11.2068
の最大の	-11.2071
イスラム教徒	-11.2071
行こう	-11.2072
▁ハリー	-11.2073
全体が	-11.2073
ログインして	-11.2073
▁Lord	-11.2075
男の	-11.2076
▁海外	-11.2076
オール	-11.2077
▁西	-11.2078
マーティン	-11.208
ヤン	-11.2081
天皇	-11.2082
訴え	-11.2084
次のように	-11.2085
しまいます	-11.2085
特殊	-11.2085
BBC	-11.2089
長年	-11.209
組織の	-11.2091
機の	-11.2092
飯	-11.2093
有料	-11.2093
▁59	-11.2094
んじゃない	-11.2096
廃棄物	-11.2096
▁©	-11.2097
▁新たな	-11.2097
▁1980	-11.2101
▁Johnson	-11.2101
を知っていますか	-11.2101
を同時に	-11.2102
今日の言葉	-11.2105
立っている	-11.2106
の壁	-11.2107
ていますか	-11.2108
忘れられない	-11.2109
幕	-11.211
全身	-11.211
ハードウェア	-11.2112
お金持ち	-11.2113
路線	-11.2114
指定なし	-11.2114
回収	-11.2114
▁Mu	-11.2116
▁1.0	-11.2118
▁~	-11.2118
通常は	-11.212
に役立つ	-11.212
の多く	-11.2121
を取得する	-11.2121
-15	-11.2122
を語る	-11.2122
▁やっぱ	-11.2123
長官	-11.2123
起きる	-11.2124
景色	-11.2125
枚の	-11.2125
業界の	-11.2125
Mi	-11.2126
受信	-11.2126
バックアップ	-11.2126
75%	-11.2127
いいね	-11.213
▁とはいえ	-11.2131
▁□	-11.2132
カロリー	-11.2133
の良い	-11.2133
花嫁	-11.2135
UL	-11.2135
現地	-11.2136
han	-11.2136
AF	-11.2138
すべきだ	-11.214
簡単です	-11.2141
と思われる	-11.2142
▁オフィス	-11.2143
国に	-11.2143
▁got	-11.2144
安く	-11.2144
開放	-11.2146
を受けている	-11.2147
値段	-11.2148
外国の	-11.2149
に合わせて	-11.2149
ひとりの	-11.2149
日本人は	-11.2149
動か	-11.215
指標	-11.2152
講師	-11.2152
▁Kiss	-11.2153
ゾンビ	-11.2153
▁Four	-11.2154
上がって	-11.2154
手で	-11.2154
拠点	-11.2154
vin	-11.2156
wa	-11.2159
val	-11.2161
▁Mark	-11.2162
わけで	-11.2164
を言う	-11.2164
オーディオ	-11.2165
ジョニー	-11.2166
IBM	-11.2166
昔から	-11.2168
存在しない	-11.217
▁全て	-11.217
sky	-11.217
米国が	-11.217
発生する	-11.2171
ふたり	-11.2171
監査	-11.2172
納得	-11.2172
廃	-11.2172
人から	-11.2172
▁Su	-11.2172
アルゴリズム	-11.2172
暗闇	-11.2174
しているか	-11.2175
エピソード	-11.2177
されていました	-11.2177
▁come	-11.2178
すべてのもの	-11.2179
必ずしも	-11.2179
フランク	-11.2179
の最新	-11.2179
▁16.	-11.2179
たの	-11.218
分散	-11.218
力を	-11.2182
火星	-11.2184
折	-11.2185
▁Cha	-11.2187
nes	-11.2187
を止め	-11.2187
ショット	-11.2192
変わり	-11.2192
警戒	-11.2193
▁バイ	-11.2193
▁1997	-11.2194
困難な	-11.2194
時間も	-11.2194
ット	-11.2197
▁ポーランド	-11.2197
担当者	-11.2199
寝室	-11.2201
信じて	-11.2201
～」	-11.2202
ことを知っている	-11.2204
を得	-11.2205
▁USA	-11.2205
しなければ	-11.2206
高級	-11.2206
高品質の	-11.2206
を聞いた	-11.2207
プリンセス	-11.2207
を高め	-11.2209
mit	-11.2209
▁広告	-11.221
～～	-11.221
もう一つの	-11.2212
トレーダー	-11.2216
So	-11.2219
▁時には	-11.2219
学生に	-11.2221
券	-11.2221
はどこに	-11.2223
▁WE	-11.2223
ami	-11.2224
水が	-11.2224
▁ク	-11.2225
であろうと	-11.2226
を表示する	-11.2226
世の中	-11.2226
来ました	-11.2228
マンチェスター	-11.2229
key	-11.2231
▁もう一度	-11.2231
シャン	-11.2233
▁Framework	-11.2233
おもしろい	-11.2235
sch	-11.2235
働いている	-11.2235
愛と	-11.2237
我慢	-11.2237
するとき	-11.2238
陸軍	-11.224
リビア	-11.2243
領	-11.2243
は何か	-11.2243
クル	-11.2244
と戦う	-11.2245
ないの	-11.2245
▁2.2	-11.2245
仕事に	-11.2246
期間は	-11.2246
▁Far	-11.2246
開く	-11.2248
出場	-11.2249
▁But	-11.225
は私たちの	-11.225
人生に	-11.225
▁Ko	-11.2251
av	-11.2252
合衆国	-11.2254
▁ポート	-11.2257
福音	-11.2257
がとても	-11.2257
お仕事	-11.2258
平均的な	-11.2259
名を	-11.2259
の光	-11.2259
動物たち	-11.226
をサポートしています	-11.226
方式	-11.2261
1994	-11.2261
お子さん	-11.2261
▁シリア	-11.2262
三人	-11.2264
心は	-11.2265
欧州連合	-11.2266
パル	-11.2266
town	-11.2269
聖書の	-11.227
友人が	-11.227
▁Wild	-11.227
▁mm	-11.2271
ップ	-11.2271
遺産	-11.2272
エージェント	-11.2272
貸し	-11.2273
医	-11.2273
▁TED	-11.2273
歩み	-11.2274
座席	-11.2275
のデザイン	-11.2276
お菓子	-11.2277
呪い	-11.2277
墓地	-11.2278
がそれ	-11.2278
▁Restaurant	-11.2279
電池	-11.228
歴史的	-11.228
の父	-11.2281
変える	-11.2281
▁57	-11.2281
者である	-11.2282
の学校	-11.2282
ペア	-11.2284
の動き	-11.2287
▁の結果	-11.2288
実に	-11.229
▁ビル	-11.2293
よし	-11.2293
パンツ	-11.2294
枕	-11.2294
絵本	-11.2294
ボストン	-11.2294
平安	-11.2295
マリ	-11.2298
激	-11.2299
▁ファイル名	-11.2299
農家	-11.2301
に追加する	-11.2302
▁free	-11.2303
の部分	-11.2303
脳の	-11.2303
▁教義	-11.2306
受ける	-11.2306
Time	-11.2306
をしない	-11.2307
と言われる	-11.2307
尿	-11.2311
この問題	-11.2311
▁1993	-11.2312
▁パキスタン	-11.2312
国民は	-11.2312
CC	-11.2315
和解	-11.2315
▁病院	-11.2317
ここまで	-11.2322
だけは	-11.2323
似	-11.2324
デュ	-11.2324
▁Casa	-11.2325
売る	-11.2325
ソーシャル	-11.2326
指数	-11.2327
外国語	-11.2328
かも知れません	-11.2328
神と	-11.2328
▁再び	-11.2329
LAN	-11.2329
純	-11.2331
退	-11.2331
Car	-11.2333
は主に	-11.2333
▁風	-11.2333
装	-11.2335
ることは	-11.2336
0.5	-11.2336
SD	-11.2337
と信じている	-11.2338
▁6:	-11.2338
は新しい	-11.2338
ada	-11.2338
毎回	-11.2339
ハード	-11.2339
▁Health	-11.2341
告げ	-11.2342
▁予約	-11.2343
、2018	-11.2343
田舎	-11.2345
▁Talk	-11.2347
MD	-11.2347
年後の	-11.2349
政治的な	-11.235
しましたが	-11.2352
句	-11.2353
跡	-11.2355
礼拝	-11.2355
闘争	-11.2355
素早く	-11.2355
障壁	-11.2356
XRP	-11.2359
を取り戻す	-11.2359
治癒	-11.2359
の痛み	-11.236
▁ようやく	-11.2361
リラックス	-11.2362
▁LIFE	-11.2364
億人	-11.2365
▁ベッド	-11.2366
ウィリアムズ	-11.2366
の水	-11.2367
の設計	-11.2368
経営者	-11.2369
過ごす	-11.2369
者と	-11.2369
ble	-11.2369
▁ビーチ	-11.2372
ぽ	-11.2374
年にかけて	-11.2374
虐待	-11.2376
Skype	-11.2376
バイオ	-11.2377
でなく	-11.2378
エイズ	-11.2379
出て	-11.238
最適な	-11.2382
狭い	-11.2382
んですよね	-11.2383
刑	-11.2383
してはならない	-11.2385
▁Kill	-11.2386
▁Education	-11.2387
▁ませ	-11.2387
癒し	-11.2387
こうして	-11.239
もあった	-11.239
▁Hi	-11.2391
可能な限り	-11.2392
ブタ	-11.2393
▁ビタミン	-11.2395
どこかに	-11.2395
完璧	-11.2395
全米	-11.2395
一度に	-11.2396
たる	-11.2396
クリーム	-11.2397
David	-11.2398
負	-11.2401
Excel	-11.2401
▁え	-11.2406
を支援する	-11.2408
方に	-11.241
るんだ	-11.2411
これほど	-11.2413
軍人	-11.2413
無線	-11.2413
▁Vol	-11.2414
▁部屋	-11.2416
コンポーネント	-11.2417
アイディア	-11.2417
お礼	-11.242
できず	-11.242
両親が	-11.2421
つい	-11.2423
▁サム	-11.2425
▁her	-11.2427
と述べています	-11.2427
▁little	-11.2428
持続可能な	-11.2429
堂	-11.243
▁ロレックス	-11.2432
依存	-11.2432
うる	-11.2434
CL	-11.2435
▁Python	-11.2436
TR	-11.2437
奨学金	-11.2438
Ro	-11.2438
解散	-11.2438
政党	-11.2438
米国人	-11.244
レイプ	-11.2441
だぞ	-11.2442
収益	-11.2443
たくなる	-11.2444
ピンク	-11.2444
起き	-11.2445
ニーズ	-11.2445
読者	-11.2448
を設定する	-11.2449
ステ	-11.2449
わかります	-11.2449
ゆる	-11.2451
の例	-11.2451
UFO	-11.2452
▁Stop	-11.2453
急速に	-11.2453
こいつ	-11.2454
を増やす	-11.2456
から転送	-11.2457
があったら	-11.2457
にとっても	-11.2458
▁レッド	-11.2458
▁Professional	-11.2458
▁アメリカン	-11.246
ov	-11.2461
やる夫	-11.2461
fa	-11.2461
尊重	-11.2462
失望	-11.2462
の安全	-11.2462
していきます	-11.2463
英語の	-11.2464
ans	-11.2466
言ってる	-11.2468
提供する	-11.247
▁Angel	-11.247
輝く	-11.2472
あんな	-11.2472
▁Face	-11.2472
だよね	-11.2472
lie	-11.2474
短	-11.2474
お風呂	-11.2475
狂気	-11.2475
相手が	-11.2477
に行きます	-11.2478
▁Jackson	-11.2481
▁Has	-11.2481
飲酒	-11.2481
右側	-11.2483
光の	-11.2484
log	-11.2485
できて	-11.2485
言える	-11.2486
の価格は	-11.2486
倍の	-11.2486
禁	-11.2487
月曜日	-11.2487
の方に	-11.2488
電話で	-11.2489
貨物	-11.2492
屋さん	-11.2493
が正しい	-11.2494
意味で	-11.2495
翌日	-11.2496
湾	-11.2496
Mo	-11.2498
インフルエンザ	-11.25
ディレクトリ	-11.25
▁Yammer	-11.25
[5]	-11.25
世帯	-11.2501
ings	-11.2502
方の	-11.2502
救われる	-11.2502
つつある	-11.2502
愛してる	-11.2502
▁Ben	-11.2502
▁コード	-11.2503
の対象	-11.2504
set	-11.2505
存在している	-11.2506
1989	-11.2506
何回	-11.2506
の地図	-11.2507
いるの	-11.2507
衝撃	-11.251
爆	-11.2511
おばあちゃん	-11.2514
ガソリン	-11.2514
患者が	-11.2515
子供に	-11.2515
▁神様	-11.2515
を学び	-11.2515
欲求	-11.2517
幼児	-11.2517
につれて	-11.2518
長時間	-11.2518
帰還	-11.2518
エルサレム	-11.2518
ヒント	-11.252
宇宙飛行士	-11.2521
ことを知っています	-11.2523
ていなかった	-11.2523
FC	-11.2523
離れ	-11.2524
▁120	-11.2524
▁メッセージ	-11.2525
WTO	-11.2525
海に	-11.2526
をたくさん	-11.2526
曲は	-11.2527
トーク	-11.2527
していますか	-11.2527
諦め	-11.2528
▁人生	-11.2528
▁ということで	-11.2531
1980	-11.2531
FT	-11.2532
人のうち	-11.2533
センサー	-11.2534
先生は	-11.2534
▁先週	-11.2535
のではないでしょうか	-11.2535
防	-11.2535
▁Easy	-11.2536
れて	-11.2536
グレード	-11.2542
聞こえる	-11.2543
ケイ	-11.2544
▁当社は	-11.2545
見よ	-11.2553
量は	-11.2553
集会	-11.2554
性の	-11.2555
az	-11.2555
▁欧州	-11.2559
、2014	-11.2559
▁1996	-11.256
▁親	-11.256
▁PRO	-11.256
新型	-11.2564
を含め	-11.2565
▁日本人	-11.2567
▁このプログラムは	-11.257
か否か	-11.2571
各国	-11.2571
▁コ	-11.2573
を使っている	-11.2573
▁普通の	-11.2574
well	-11.2575
子供達	-11.2577
風呂	-11.2577
▁すなわち	-11.2577
関与	-11.2578
cer	-11.2579
運転手	-11.2579
ことを示しています	-11.258
当社は	-11.2581
働いて	-11.2583
実家	-11.2584
がっかり	-11.2584
購入した	-11.2584
メアリー	-11.2585
を連れて	-11.2585
......」	-11.2587
諸君	-11.2589
げん	-11.2591
KO	-11.2593
次元	-11.2593
流行	-11.2594
当局は	-11.2594
▁Firefox	-11.2596
▁Update	-11.2597
の広告	-11.2597
の神	-11.2599
は再び	-11.2602
ウン	-11.2603
ではありませんが	-11.2603
させます	-11.2603
リゾート	-11.2604
▁デザイン	-11.2605
行われ	-11.2608
、2016	-11.2608
▁ベルリン	-11.2609
▁サッカー	-11.261
を送る	-11.2612
だったが	-11.2613
寒	-11.2614
▁妻	-11.2614
去る	-11.2614
ウィン	-11.2616
夫は	-11.2617
ふり	-11.2617
友達と	-11.2619
クルー	-11.2621
▁Other	-11.2622
の妻	-11.2622
af	-11.2624
トレンド	-11.2625
アインシュタイン	-11.2625
願望	-11.2626
ニン	-11.2626
お腹	-11.2627
▁Eyes	-11.2628
ければ	-11.2628
カーター	-11.2628
この世界	-11.2628
紅	-11.263
を開き	-11.2631
カメ	-11.2632
単一の	-11.2632
を持っていない	-11.2632
深刻	-11.2633
君を	-11.2633
部分は	-11.2633
はどうやって	-11.2634
▁Princess	-11.2634
は毎日	-11.2636
がありますが	-11.2637
ロウ	-11.2637
解析	-11.2639
▁Fe	-11.2639
▁Hat	-11.2639
ラス	-11.2643
これも	-11.2643
児	-11.2643
はここ	-11.2644
短期	-11.2644
サービスの	-11.2645
フィルター	-11.2648
できるだけ早く	-11.265
م	-11.265
▁赤い	-11.265
の値	-11.2651
Star	-11.2651
同時	-11.2652
チョ	-11.2653
カイ	-11.2653
と言われた	-11.2653
▁ワン	-11.2654
▁Debian	-11.2656
最悪	-11.2656
、2012	-11.2656
わない	-11.2656
たいてい	-11.2657
パイ	-11.2658
気温	-11.2659
の鍵	-11.2661
▁人々は	-11.2663
á	-11.2664
1945	-11.2664
今のところ	-11.2666
優	-11.2667
猫は	-11.2668
どうする	-11.2669
girl	-11.267
BE	-11.267
▁Team	-11.2671
の組み合わせ	-11.2671
になってしまった	-11.2672
総合	-11.2673
8.	-11.2673
ボーイ	-11.2674
?」「	-11.2679
人類は	-11.2679
の血	-11.268
DJ	-11.268
8%	-11.2682
かわからない	-11.2683
きっかけ	-11.2684
征服	-11.2685
本日	-11.2685
どこかで	-11.2685
使用されている	-11.2685
連れ	-11.2686
衣服	-11.2686
江	-11.2689
ストレージ	-11.2689
黄金	-11.2689
糞	-11.2689
ぅ	-11.2689
独身	-11.269
浮気	-11.269
水泳	-11.269
ディナー	-11.2691
言っていた	-11.2692
文字列	-11.2692
一定の	-11.2694
風景	-11.2695
▁mg	-11.2697
ora	-11.2697
▁any	-11.2697
騒音	-11.2698
サイトで	-11.2698
支払う	-11.2699
北部	-11.27
を調べる	-11.27
On	-11.2701
子供を	-11.2701
島の	-11.2702
はなく	-11.2703
ことになった	-11.2703
年頃	-11.2703
ことができますか	-11.2704
自体は	-11.2705
▁左	-11.2707
▁以上	-11.2707
制裁	-11.2707
も良い	-11.2709
麻	-11.2709
HS	-11.2709
▁近くのホテル	-11.2711
進み	-11.2714
4:	-11.2715
どこか	-11.2716
的で	-11.2716
ser	-11.272
▁俺も	-11.272
の調査	-11.2721
!?」	-11.2722
中です	-11.2724
と同じです	-11.2725
整理	-11.2727
精神的	-11.2728
んだな	-11.2731
たとき	-11.2731
競技	-11.2731
▁Development	-11.2731
雑	-11.2731
論争	-11.2734
バイト	-11.2734
uch	-11.2735
が現れる	-11.2737
のに役立つ	-11.2738
やめ	-11.2738
頭を	-11.274
直後	-11.274
cl	-11.2741
側は	-11.2741
何度か	-11.2742
昼食	-11.2743
▁大人	-11.2744
DAY	-11.2746
AP	-11.2746
歳の時	-11.2748
▁LIVE	-11.275
愛する人	-11.275
手が	-11.2752
を呼ぶ	-11.2752
計画は	-11.2754
であろうか	-11.2755
発見された	-11.2759
85%	-11.2762
するまで	-11.2765
あなたの心	-11.2765
期限	-11.2766
PI	-11.2766
勝者	-11.2768
:22	-11.2768
を保護する	-11.2768
の記録	-11.2768
Blue	-11.2771
▁Lee	-11.2772
の機会	-11.2773
▁Perfect	-11.2773
ソーシャルネットワーク	-11.2774
▁Sal	-11.2775
お送りします	-11.2775
経路	-11.2776
▁52	-11.2777
▁Te	-11.2778
の家族	-11.2779
まもなく	-11.278
mont	-11.278
漫画	-11.278
送り	-11.2784
参加者は	-11.2784
を得るために	-11.2785
砲	-11.2787
中国に	-11.279
▁Deep	-11.2793
▁GIRL	-11.2795
を切り	-11.2796
今週	-11.2796
仕事をする	-11.2796
光景	-11.2797
離脱	-11.2798
お兄ちゃん	-11.2798
引っ越し	-11.2799
の記憶	-11.28
▁54	-11.28
アジアの	-11.28
悪いこと	-11.2801
▁聖	-11.2801
と思いますか	-11.2804
▁今週の	-11.2804
正常	-11.2805
star	-11.2805
▁ト	-11.2806
▁続いて	-11.281
プレ	-11.2812
発射	-11.2813
はいけません	-11.2815
▁web	-11.2817
絵画	-11.2818
エー	-11.2818
を置く	-11.2823
親父	-11.2824
張り	-11.2825
▁もはや	-11.2826
EV	-11.2826
を知りたい	-11.2827
は必ず	-11.2831
送金	-11.2832
スは	-11.2832
一番の	-11.2834
略	-11.2834
目撃者	-11.2836
量の	-11.2836
LP	-11.2837
▁ウィル	-11.2839
荒	-11.2839
ura	-11.284
著者	-11.2845
保健	-11.2846
は彼の	-11.2847
ていきます	-11.2847
NG	-11.2848
ロシア人	-11.285
クラスの	-11.2851
にまで	-11.2851
▁かわいい	-11.2853
年半	-11.2856
理解できる	-11.2859
展	-11.286
タイヤ	-11.2861
あなたがたが	-11.2863
というのが	-11.2864
ns	-11.2865
ウィルソン	-11.2865
▁──	-11.2866
西洋	-11.2867
歌い	-11.2868
National	-11.2868
以前は	-11.2869
長さ	-11.2869
1200	-11.2869
▁2.3	-11.2871
▁Party	-11.2871
あまりに	-11.2872
専門的な	-11.2872
救急車	-11.2872
降	-11.2873
▁Los	-11.2873
公正	-11.2875
なんとか	-11.2879
を開始した	-11.2879
宣伝	-11.288
奈	-11.2881
系の	-11.2882
この人	-11.2885
あげ	-11.2885
リアル	-11.2886
数が	-11.2888
レーザー	-11.2889
TT	-11.289
▁first	-11.2891
女の	-11.2891
天の	-11.2891
ったら	-11.2891
ほうがいい	-11.2893
▁ミ	-11.2893
番目に	-11.2895
を忘れ	-11.2895
▁レ	-11.2896
識別	-11.2897
▁ですが	-11.2897
▁Cor	-11.2901
のメッセージ	-11.2901
出席	-11.2901
スイスの	-11.2902
お問い合わせ	-11.2902
分かって	-11.2903
決議	-11.2903
勝負	-11.2903
人死亡	-11.2904
んな	-11.2906
▁Program	-11.2908
ization	-11.2909
フォト	-11.2909
この世の	-11.2909
ward	-11.2909
プロファイル	-11.2909
に行きました	-11.291
百万	-11.291
▁Guest	-11.2912
分野の	-11.2912
の概念	-11.2913
▁better	-11.2914
帰国	-11.2914
の建設	-11.2915
oc	-11.2915
純粋な	-11.2915
詳しく	-11.2916
▁表示する	-11.2916
ria	-11.2916
教皇	-11.2918
▁僕も	-11.2918
国会	-11.2918
投げ	-11.2919
市の	-11.2919
触れ	-11.2919
歳以上	-11.2919
豆	-11.292
損害	-11.292
4%	-11.2921
おかしい	-11.2924
物理	-11.2925
あんまり	-11.2926
▁四	-11.2927
最強	-11.2927
を促進する	-11.2927
▁Band	-11.2927
を買収	-11.2928
科学者は	-11.2928
オーナー	-11.2929
改めて	-11.2929
▁Instagram	-11.293
OUR	-11.293
いませんでした	-11.2932
絶	-11.2934
▁Pay	-11.2934
個人的に	-11.2935
著作権	-11.2938
みんなで	-11.294
▁自分は	-11.294
考慮	-11.2941
▁昔の	-11.2943
eg	-11.2944
すべての人	-11.2944
1960	-11.2946
畑	-11.2946
▁Wanna	-11.2948
連携	-11.2948
▁Full	-11.295
を教える	-11.2951
その結果	-11.2952
スタジアム	-11.2953
フォン	-11.2955
に加え	-11.2955
いえ	-11.2956
カテゴリー	-11.2957
の人々は	-11.2959
の意見	-11.2961
どこから	-11.2961
適応	-11.2962
徳	-11.2963
子どもは	-11.2966
そのとき	-11.2968
よりもはるかに	-11.2969
ライフスタイル	-11.2969
人にとって	-11.2971
黙	-11.2971
みます	-11.2972
演	-11.2973
かかった	-11.2975
▁答え	-11.2977
の知識	-11.2977
▁1994	-11.2978
宇宙の	-11.2979
あいつ	-11.298
ゲームです	-11.298
好きです	-11.2981
に位置し	-11.2981
創造性	-11.2982
▁どうか	-11.2984
‘	-11.2984
首相は	-11.2985
回避	-11.2985
見たい	-11.2989
誤った	-11.2991
を恐れる	-11.2991
▁1960	-11.2992
house	-11.2993
▁United	-11.2995
まん	-11.2995
テキサス州	-11.2995
部長	-11.2998
くれました	-11.2999
精神的な	-11.2999
大規模	-11.3001
という事	-11.3002
結婚した	-11.3002
art	-11.3003
井戸	-11.3004
▁150	-11.3004
子どもたちが	-11.3005
▁Ph	-11.3005
商	-11.3005
とは違う	-11.3005
声が	-11.3006
必要性	-11.3006
VO	-11.3006
不可能	-11.3007
力が	-11.3008
ゲームを	-11.3011
コンサルタント	-11.3012
キミ	-11.3012
昨日の	-11.3012
▁まさか	-11.3014
アクティブ	-11.3015
時間以上	-11.3016
III	-11.3016
セイ	-11.3018
ERS	-11.3018
▁Blood	-11.302
2.0	-11.3021
戦争の	-11.3021
フォロー	-11.3021
もしも	-11.3022
いている	-11.3023
週間の	-11.3023
が変わる	-11.3025
▁1970	-11.3025
▁Tour	-11.3026
を探し	-11.3026
▁ずっと	-11.3027
:26	-11.3027
を伝える	-11.3031
に属する	-11.3033
ا	-11.3033
趣味	-11.3034
Ha	-11.3034
▁\_	-11.3035
地中海	-11.3035
↓	-11.3036
防御	-11.3036
ship	-11.3037
のことは	-11.3038
らしく	-11.3042
大好きな	-11.3042
▁アイルランド	-11.3042
の音楽	-11.3044
をもたらし	-11.3044
きちんと	-11.3044
cle	-11.3045
神様は	-11.3046
それも	-11.3046
ナイ	-11.3046
あん	-11.3049
グラス	-11.3049
データの	-11.305
ほんの	-11.3051
ぼくの	-11.3051
焼	-11.3052
▁ST	-11.3052
関	-11.3054
チャート	-11.3054
イー	-11.3054
フェスティバル	-11.3056
over	-11.3056
▁Corporation	-11.3056
▁Page	-11.3057
▁Market	-11.3058
最小	-11.3059
の試合	-11.3062
▁long	-11.3064
礼	-11.3064
中国と	-11.3066
▁次の記事	-11.3066
サウジアラビア	-11.3067
用量	-11.3067
▁主	-11.3067
▁Wall	-11.3069
少なく	-11.307
倍以上	-11.307
▁皆	-11.307
至	-11.3072
イタリアの	-11.3073
ココ	-11.3073
stone	-11.3079
WE	-11.3079
記念日	-11.3079
▁キム	-11.3079
いよいよ	-11.3079
アド	-11.3079
と同時に	-11.308
ご利用	-11.308
▁今では	-11.3081
の技術	-11.3082
は多くの	-11.3083
っけ	-11.3086
んでいる	-11.3087
僕たちは	-11.3087
に含まれる	-11.3088
歌詞	-11.3088
▁どちらも	-11.3088
埋葬	-11.3089
フィル	-11.309
▁英国	-11.309
息子が	-11.3091
DO	-11.3092
▁09	-11.3092
社会主義	-11.3092
しませんでした	-11.3093
eo	-11.3094
▁400	-11.3094
▁Ti	-11.3094
をダウンロード	-11.3095
らい	-11.3098
に追加	-11.3098
親戚	-11.31
試練	-11.31
機構	-11.3101
タオル	-11.3102
使い方	-11.3104
返事	-11.3105
ごく	-11.3105
ご存知	-11.3106
依然として	-11.3109
てくれ	-11.3109
を捨て	-11.3109
を殺し	-11.311
銀行は	-11.311
▁Where	-11.311
明確に	-11.3112
▁神様は	-11.3113
が死んだ	-11.3114
方向に	-11.3115
▁レベル	-11.3117
の祈り	-11.3118
粉	-11.3119
▁4:	-11.312
分解	-11.312
沢	-11.3121
▁ブルー	-11.3121
て下さい	-11.3121
司祭	-11.3122
▁グローバル	-11.3124
ax	-11.3126
▁私には	-11.3127
友人の	-11.3127
正式	-11.3128
▁help	-11.3129
覚えている	-11.313
場合に	-11.3132
▁開発者	-11.3133
子猫	-11.3134
どうでもいい	-11.3136
銀行の	-11.3136
従	-11.3136
ようで	-11.3136
子が	-11.3136
の象徴	-11.3136
olo	-11.3136
池	-11.3137
の一員	-11.3138
置いて	-11.3138
に達した	-11.3139
表情	-11.3142
おめでとうございます	-11.3143
母の	-11.3143
説明する	-11.3143
チェルシー	-11.3144
Big	-11.3146
知的	-11.3146
ハワイ	-11.3148
顧客は	-11.3149
と呼ばれている	-11.3153
▁per	-11.3154
▁うち	-11.3154
観光客	-11.3156
の安全性	-11.3156
始めて	-11.3158
射	-11.316
に向けた	-11.316
泉	-11.3161
しまい	-11.3163
ヘイ	-11.3164
参	-11.3164
▁live	-11.3165
問題を解決する	-11.3165
太陽系	-11.3165
新製品	-11.3166
二度	-11.3166
いかに	-11.3166
しないと	-11.3166
の教育	-11.3167
増加した	-11.3168
最善の	-11.3169
▁al	-11.3169
立派な	-11.3171
祖国	-11.3172
View	-11.3172
Key	-11.3173
両手	-11.3174
パレスチナ	-11.3175
しようと	-11.3175
uri	-11.3176
125	-11.3176
が怖い	-11.3178
▁誰	-11.3179
▁Beautiful	-11.318
年ぶりに	-11.318
▁ex	-11.3181
言葉が	-11.3182
快適な	-11.3185
勧告	-11.3189
哉	-11.3189
薔薇	-11.3189
毎晩	-11.3189
ude	-11.3189
あの人	-11.3189
クレ	-11.3191
レンズ	-11.3191
汚れ	-11.3191
なぜなら	-11.3192
お姉さん	-11.3192
ati	-11.3193
▁モスクワ	-11.3193
公式サイト	-11.3194
ちゃんが	-11.3194
に満ちた	-11.3195
▁世界は	-11.3195
ルイ	-11.3195
聴	-11.3195
残念ながら	-11.3197
ical	-11.3197
単純	-11.3198
水準	-11.3199
側に	-11.3199
DA	-11.3201
僕にとって	-11.3201
できれば	-11.3202
)/	-11.3204
情勢	-11.3205
ブロックチェーン技術	-11.3205
mark	-11.3206
今後も	-11.3206
母さん	-11.3207
▁Under	-11.3208
▁IBM	-11.3208
するという	-11.3208
スープ	-11.3208
者も	-11.3209
を示した	-11.321
▁そういえば	-11.321
要塞	-11.3211
sc	-11.3211
▁米国は	-11.3211
ていること	-11.3212
▁さすが	-11.3213
▁これって	-11.3213
▁今後	-11.3213
大学生	-11.3213
てほしい	-11.3213
交際	-11.3214
霧	-11.3215
本は	-11.3216
忘れて	-11.3217
▁日本人は	-11.3218
間もなく	-11.3219
形成	-11.322
あれは	-11.322
ディズニー	-11.3221
謎の	-11.3222
Ka	-11.3224
▁ハード	-11.3224
米国と	-11.3224
時間と	-11.3225
ーズ	-11.3227
▁ぼくは	-11.3227
気がする	-11.3227
day	-11.3229
シェル	-11.3231
▁Brown	-11.3231
▁22:	-11.3232
同様	-11.3233
プレゼンテーション	-11.3233
▁リチャード	-11.3234
苦しい	-11.3234
なもの	-11.3235
▁ここから	-11.3236
の状況	-11.3238
頭に	-11.3238
努力を	-11.3239
450	-11.324
と同じくらい	-11.324
卒業生	-11.3241
したいと思います	-11.3244
万ドルの	-11.3244
議長	-11.3245
を返す	-11.3245
▁市	-11.3245
コル	-11.3245
台湾	-11.3247
HA	-11.3247
vis	-11.3247
始めます	-11.3247
東南アジア	-11.3248
二人とも	-11.325
位の	-11.3252
ブラウザ	-11.3253
行ける	-11.3253
▁時計	-11.3253
IV	-11.3256
盗難	-11.3256
▁Che	-11.3256
人工	-11.3257
▁次の投稿	-11.3257
危ない	-11.3258
SO	-11.3259
▁─	-11.326
おか	-11.326
泣いた	-11.3261
そこには	-11.3262
は難しい	-11.3263
1993	-11.3263
僕も	-11.3263
▁Information	-11.3264
▁事実	-11.3264
プログラミング言語	-11.3266
bu	-11.3266
なんでしょうか	-11.3267
バーグ	-11.3267
進行	-11.3269
を作成し	-11.3269
に位置する	-11.327
かなりの	-11.327
Ethereum	-11.3271
ag	-11.3271
記載	-11.3271
世界中から	-11.3272
すべては	-11.3273
ATM	-11.3273
▁Future	-11.3273
遊	-11.3274
▁イラク	-11.3274
EST	-11.3275
んじゃないか	-11.3275
ツイッター	-11.3277
受験	-11.3277
ということで	-11.3278
虎	-11.3278
▁Association	-11.3278
配偶者	-11.3278
▁イスラエルの	-11.3279
ガイドライン	-11.3279
▁Sch	-11.3281
▁それらは	-11.3283
ことを意味する	-11.3283
ata	-11.3283
保有	-11.3285
に戻ります	-11.3286
▁キー	-11.3286
▁翌日	-11.3287
さえも	-11.329
所で	-11.329
そもそも	-11.329
hy	-11.329
▁TIME	-11.3291
を維持し	-11.3292
▁may	-11.3292
▁Science	-11.3292
許	-11.3293
名前は	-11.3294
の各	-11.3294
してほしい	-11.3295
点は	-11.3297
どこまで	-11.3297
に触れる	-11.3297
じゃなかった	-11.3298
ney	-11.3299
敵の	-11.3299
度の	-11.3299
市場に	-11.33
▁両	-11.33
赤ん坊	-11.3301
▁Palace	-11.3301
サムスン	-11.3301
デッド	-11.3302
具体的に	-11.3303
やってくる	-11.3303
ay	-11.3305
を守って	-11.3306
血圧	-11.3307
それ以上	-11.3309
後は	-11.3309
覚えて	-11.3309
面積	-11.331
An	-11.3311
貴女	-11.3312
▁Son	-11.3312
アーサー	-11.3313
▁南	-11.3314
▁ジェームズ	-11.3314
かなぁ	-11.3315
▁医師	-11.3315
質問を	-11.3316
健	-11.3316
ものとします	-11.3318
行け	-11.3318
大阪	-11.3318
修	-11.3318
倒	-11.3318
闘い	-11.3319
▁Walk	-11.3319
MT	-11.332
▁今夜は	-11.3322
強盗	-11.3322
敬	-11.3323
ナショナル	-11.3324
夫の	-11.3324
年末	-11.3324
貴族	-11.3325
できるのか	-11.3325
液体	-11.3328
事実上	-11.3329
襲撃	-11.3329
She	-11.3329
辺	-11.3329
番目	-11.333
の愛	-11.333
悪化	-11.3331
▁Sound	-11.3335
▁Quality	-11.3336
教えてください	-11.3337
▁Image	-11.3338
たんだ	-11.3339
itch	-11.3339
失業	-11.334
良いこと	-11.3341
▁今年も	-11.3341
ASEAN	-11.3342
PER	-11.3344
罪人	-11.3344
▁Cross	-11.3344
コミュニティー	-11.3344
即座に	-11.3344
お花	-11.3345
瞑想	-11.3346
坂	-11.3346
何もない	-11.3346
ナチス	-11.3347
なくなりました	-11.3347
▁教育	-11.3347
の最も	-11.3347
ds	-11.3349
哲学者	-11.3349
日程	-11.3351
GM	-11.3353
こない	-11.3357
係	-11.3357
決める	-11.3358
マッチ	-11.3358
材	-11.3359
▁07	-11.3359
土曜日	-11.3362
わか	-11.3362
たりする	-11.3363
繰り返す	-11.3363
場面	-11.3364
gi	-11.3364
をインストールする	-11.3365
の母	-11.3365
部下	-11.3365
▁Hilton	-11.3365
したか	-11.3367
検	-11.3367
教える	-11.3368
▁どこ	-11.3369
モーセ	-11.337
色んな	-11.337
数十	-11.3372
NT	-11.3372
余り	-11.3373
FB	-11.3373
これだけ	-11.3374
国家の	-11.3376
命を	-11.3376
かわ	-11.3377
再発	-11.3378
▁Fr	-11.3378
進め	-11.3378
365	-11.338
孤独な	-11.3381
スコットランド	-11.3382
正式な	-11.3382
称	-11.3383
見つける	-11.3384
が原因	-11.3386
利用する	-11.3386
何のために	-11.3387
数え	-11.3388
のテーマは	-11.3388
になるのか	-11.3388
▁Tower	-11.339
究極の	-11.339
過ぎる	-11.3391
放置	-11.3391
蚊	-11.3391
10,000	-11.3391
を望む	-11.3391
知性	-11.3392
があるの	-11.3392
ダブル	-11.3393
おじいちゃん	-11.3393
んの	-11.3394
が非常に	-11.3396
反映	-11.3396
必要なもの	-11.3402
待っている	-11.3407
が言った	-11.3407
▁NIGHT	-11.3407
米軍	-11.3409
仮	-11.341
もしかしたら	-11.3411
飽き	-11.3412
吸血鬼	-11.3414
で行われた	-11.3414
二人で	-11.3415
チュ	-11.3417
記号	-11.3417
人びと	-11.3419
に存在する	-11.342
支え	-11.342
今後の	-11.3421
:21	-11.3421
のご	-11.3423
利用可能な	-11.3423
▁Soul	-11.3423
ff	-11.3425
2500	-11.3425
Just	-11.3427
▁たった	-11.3427
全てを	-11.3427
冷	-11.3427
返信	-11.3427
所得	-11.3428
伸び	-11.3428
んですけど	-11.3428
▁Secret	-11.3428
108	-11.343
から始まります	-11.343
のさ	-11.3431
顧客に	-11.3431
だけでは	-11.3432
ロビン	-11.3433
アンドリュー	-11.3434
▁アパート	-11.3434
▁MB	-11.3435
菌	-11.3435
言え	-11.3436
植民地	-11.3437
理解し	-11.3437
を再	-11.3438
はみんな	-11.3439
▁18:	-11.3441
を得て	-11.3441
になるでしょう	-11.3442
▁青	-11.3443
支出	-11.3443
降伏	-11.3443
年金	-11.3445
体に	-11.3445
変動	-11.3447
の上で	-11.3448
あっ	-11.3451
▁情報	-11.3451
健康に	-11.3451
▁night	-11.3451
▁無	-11.3453
活動を	-11.3454
収	-11.3454
ted	-11.3456
▁二人は	-11.3456
なさ	-11.3459
▁101	-11.346
▁His	-11.346
船舶	-11.346
問題が	-11.3461
ボク	-11.3461
吹き	-11.3461
ping	-11.3462
軍は	-11.3463
背中	-11.3464
と私	-11.3464
したがって	-11.3466
異常な	-11.3466
加盟	-11.3466
が初めて	-11.3466
怒って	-11.3467
▁°	-11.3468
じゃないですか	-11.3468
お尻	-11.3468
オス	-11.347
同社は	-11.347
母親の	-11.3473
▁英語で	-11.3473
続きを読む	-11.3474
介護	-11.3475
プログラムです	-11.3475
▁Van	-11.3476
過ち	-11.3478
SL	-11.3478
救	-11.3478
愛している	-11.3478
知らず	-11.3479
gan	-11.348
幻想	-11.3481
gu	-11.3481
使用している	-11.3481
▁息子	-11.3482
▁think	-11.3482
行きます	-11.3484
と一緒	-11.3484
生物学	-11.3484
何よりも	-11.3484
▁Side	-11.3489
▁幸い	-11.3489
▁Camp	-11.349
▁other	-11.349
向けに	-11.349
可能性が	-11.3496
会社に	-11.3496
▁Las	-11.35
たのです	-11.35
理解できない	-11.3502
プロセッサ	-11.3502
多くの人々が	-11.3503
▁ドン	-11.3504
のアカウント	-11.3504
が現れた	-11.3505
▁06	-11.3505
愚痴	-11.3506
▁けれども	-11.3507
で初めて	-11.3507
PV	-11.3509
暗号通貨	-11.3509
しっかりと	-11.3509
▁95	-11.351
ek	-11.351
酷い	-11.3511
ロング	-11.3511
ハル	-11.3512
ヘルプ	-11.3512
味方	-11.3512
愛を	-11.3514
▁データベース	-11.3515
▁Tonight	-11.3515
おれ	-11.3516
台所	-11.3516
アマゾン	-11.352
▁子供の	-11.3521
人以上	-11.3521
▁Age	-11.3522
▁Lion	-11.3523
des	-11.3526
屋内	-11.3526
ケル	-11.3529
tro	-11.3529
目的地	-11.353
LED	-11.3531
汝	-11.3532
の大学	-11.3532
▁Station	-11.3534
本能	-11.3535
RAM	-11.3538
主イエス	-11.354
盲目	-11.3541
が必要である	-11.3543
服用	-11.3543
著書	-11.3546
話し合い	-11.3547
グレイ	-11.3548
というか	-11.3551
遺	-11.3552
が同じ	-11.3552
誘拐	-11.3553
の源	-11.3553
EM	-11.3553
nce	-11.3553
言うこと	-11.3553
を離れる	-11.3554
仮想	-11.3555
女が	-11.3555
▁Gonna	-11.3555
▁1.4	-11.3555
ポリ	-11.3556
ona	-11.3556
▁XP	-11.3557
続いて	-11.3557
公平	-11.3558
は素晴らしい	-11.3558
なんですよ	-11.3559
UC	-11.356
エリザベス	-11.3561
ump	-11.3564
▁find	-11.3564
どっち	-11.3567
数週間	-11.3569
ving	-11.3569
としています	-11.3569
▁もしかして	-11.357
スロット	-11.3571
中断	-11.3572
ハリウッド	-11.3573
らせる	-11.3573
コンセプト	-11.3574
かどうかは	-11.3576
ATION	-11.3576
▁Thing	-11.3576
の誕生	-11.3577
鋼	-11.3578
LOW	-11.3578
一般に	-11.3581
ven	-11.3581
▁ファミリー	-11.3581
のグループ	-11.3584
ベー	-11.3584
稼働	-11.3585
▁Jo	-11.3585
Yahoo	-11.3585
やるべきこと	-11.3585
▁研究	-11.3587
▁Jobs	-11.3587
▁クレジット	-11.3587
アンナ	-11.3589
経験を	-11.359
年生まれ	-11.3591
▁SA	-11.3592
祖父	-11.3597
の学位	-11.3597
int	-11.3598
航空券	-11.3599
購入する	-11.36
国立公園	-11.3601
を改善し	-11.3602
ud	-11.3604
の魅力	-11.3604
に達し	-11.3605
▁エラー	-11.3605
がよい	-11.3606
▁アクション	-11.3607
1984	-11.3607
襲	-11.3608
は正しい	-11.3609
ただし	-11.361
リアルタイム	-11.361
ケネディ	-11.3612
効果は	-11.3614
と比べて	-11.3616
ギフト	-11.3617
チャー	-11.3618
込め	-11.3618
911	-11.362
喉	-11.362
▁Magic	-11.362
シス	-11.3621
酵素	-11.3621
▁KB	-11.3624
▁健康	-11.3624
bb	-11.3624
ことから	-11.3625
▁将来	-11.3625
Net	-11.3625
なんだから	-11.3626
);	-11.3627
CR	-11.3628
隠された	-11.363
資本主義	-11.363
▁バス	-11.3631
キュー	-11.3632
ねん	-11.3633
入った	-11.3634
戦争は	-11.3634
▁顔	-11.3636
len	-11.3636
をもたらします	-11.3637
カス	-11.3637
一杯	-11.3637
▁Tree	-11.3637
のほう	-11.3637
Mr	-11.3639
母は	-11.3642
を有し	-11.3642
できるか	-11.3642
があると	-11.3643
を迎える	-11.3643
にしても	-11.3643
ァ	-11.3644
上院議員	-11.3645
をつける	-11.3645
間違っている	-11.3645
的には	-11.3646
KB	-11.3646
いずれも	-11.3647
提携	-11.3648
あなた自身の	-11.3649
▁feel	-11.365
は違う	-11.3652
教育の	-11.3653
▁Break	-11.3653
蔵	-11.3654
給	-11.3655
最も一般的な	-11.3656
▁同社は	-11.3656
を使います	-11.366
習	-11.3661
▁俺が	-11.3661
秒間	-11.3663
MAX	-11.3663
いだ	-11.3665
第二の	-11.3665
▁88	-11.3666
ft	-11.3667
ダイエット	-11.3668
▁Nothing	-11.367
筆	-11.3672
:24	-11.3672
汚	-11.3672
MM	-11.3675
方も	-11.3676
▁Entertainment	-11.3677
時間がかかる	-11.3677
のテスト	-11.3679
▁完全に	-11.3682
のサービス	-11.3682
ブッシュ	-11.3683
簡単で	-11.3688
bel	-11.3688
ポケット	-11.3688
妻が	-11.3689
ガーデン	-11.3689
を保つ	-11.3691
抗生物質	-11.3691
▁360	-11.3691
連中	-11.3691
▁LED	-11.3692
殺した	-11.3693
創業	-11.3694
▁1,	-11.3696
せば	-11.3696
俺達	-11.3697
技術的	-11.3698
行かない	-11.3698
第三	-11.3699
IQ	-11.37
の一部です	-11.3701
足りない	-11.3702
居る	-11.3703
リップル	-11.3704
答える	-11.3705
奴は	-11.3707
▁バー	-11.3707
教授は	-11.3708
▁BEST	-11.3708
▁森	-11.3708
▁フェイスブック	-11.3708
▁後	-11.3709
に参加した	-11.3711
こんなこと	-11.3712
早めに	-11.3712
ick	-11.3712
お祭り	-11.3715
▁off	-11.3715
外出	-11.3716
のビデオ	-11.3717
できる限り	-11.3717
9000	-11.3717
幸	-11.3717
おい	-11.372
を支払う	-11.372
の向上	-11.3721
戦術	-11.3721
国内の	-11.3721
コレクションは	-11.3722
ガガ	-11.3725
ことが多い	-11.3725
無効	-11.3728
閲覧	-11.3731
呼び出し	-11.3732
▁木	-11.3733
子さん	-11.3733
ient	-11.3734
KI	-11.3736
人だ	-11.3736
love	-11.3736
冠	-11.3736
▁ハウス	-11.3736
改正	-11.3738
蝶	-11.3738
タトゥー	-11.3739
二人が	-11.3741
ことが出来ます	-11.3743
123	-11.3743
の構造	-11.3743
やがて	-11.3743
右手	-11.3745
暗	-11.3746
1991	-11.3746
ポスター	-11.3746
ポー	-11.3748
初めに	-11.3748
誰かの	-11.3749
かかります	-11.375
ミラン	-11.3751
上がる	-11.3751
リトル	-11.3752
収録	-11.3752
娘は	-11.3752
激しく	-11.3753
▁Apache	-11.3754
大将	-11.3755
SharePoint	-11.3756
と言える	-11.3756
タッチ	-11.3757
を認め	-11.3757
ear	-11.3758
And	-11.3758
カトリック	-11.3759
yl	-11.3759
先生が	-11.3759
はまったく	-11.3759
▁Tech	-11.376
手数料	-11.376
AG	-11.3761
がいっぱい	-11.3761
ハッキング	-11.3762
欠陥	-11.3762
回以上	-11.3762
が提供する	-11.3764
変え	-11.3764
明るく	-11.3765
▁Apartment	-11.3766
▁センター	-11.3767
ないけど	-11.3768
を訪れる	-11.377
ウォー	-11.377
日間で	-11.3772
▁Master	-11.3772
金の	-11.3774
▁OR	-11.3774
消える	-11.3775
死ね	-11.3776
身長	-11.3776
を飲む	-11.3781
キャッシュ	-11.3785
▁リゾート	-11.3786
の支払い	-11.3786
辞書	-11.3787
が含まれている	-11.3787
株式市場	-11.3788
いらない	-11.3789
服装	-11.3791
ETH	-11.3792
の欠如	-11.3793
国際社会	-11.3793
をもっと	-11.3794
驚く	-11.3795
しゅ	-11.3796
方が良い	-11.3798
zo	-11.3798
以外は	-11.3798
妻は	-11.3798
EP	-11.38
▁クソ	-11.38
数の	-11.3803
滅び	-11.3804
ワー	-11.3804
ーナ	-11.3804
の品質	-11.3805
ベリー	-11.3805
str	-11.3806
成長し	-11.381
永	-11.381
▁ヘンリー	-11.3811
▁曲は	-11.3811
▁アメリカでは	-11.3812
▁エル	-11.3813
宇宙人	-11.3813
PHP	-11.3814
階級	-11.3815
人である	-11.3815
を公開	-11.3815
人数	-11.3817
の年齢	-11.3817
バンコク	-11.3819
MY	-11.3819
心の中で	-11.382
▁カード	-11.382
▁科学	-11.3821
ついた	-11.3822
ern	-11.3825
大気	-11.3826
▁3)	-11.3826
またはその他の	-11.3827
▁1992	-11.3827
勝った	-11.3829
▁EC	-11.3829
講演	-11.383
▁Wind	-11.383
デスクトップ	-11.3833
の冒険	-11.3834
1977	-11.3835
物体	-11.3838
を変えた	-11.3839
品種	-11.3839
うつ	-11.3839
忠実	-11.3842
Lo	-11.3843
寒さ	-11.3846
、2013	-11.3847
▁Les	-11.3848
▁Union	-11.3849
exe	-11.3849
を使っています	-11.385
▁のコメント	-11.3852
▁Hand	-11.3852
の朝	-11.3852
友達が	-11.3853
▁右	-11.3854
追	-11.3854
▁シ	-11.3855
恩	-11.3856
▁answer	-11.3857
に沿って	-11.3857
▁サラ	-11.3858
▁今週は	-11.3861
という名前	-11.3862
兆候	-11.3863
ているのです	-11.3863
の結婚式	-11.3863
女神	-11.3865
▁Kids	-11.3866
ポップ	-11.3866
ANA	-11.3867
▁SE	-11.3867
信じない	-11.3868
になるの	-11.387
▁Tell	-11.3872
▁Basic	-11.3872
になっても	-11.3873
を紹介します	-11.3879
委員	-11.3879
寺院	-11.3881
開いて	-11.3882
San	-11.3882
知事	-11.3882
足が	-11.3883
不可	-11.3883
永久	-11.3883
を見つけました	-11.3883
はありませんでした	-11.3885
と思ったら	-11.3885
▁北朝鮮	-11.3885
作られた	-11.3885
日曜	-11.3888
適	-11.3888
と信じています	-11.389
うまい	-11.389
の勝利	-11.389
を手に入れる	-11.3891
ub	-11.3893
日常	-11.3894
6.	-11.3896
私達に	-11.3898
▁他人の	-11.3898
▁もしくは	-11.3899
他にも	-11.39
声明	-11.39
相続	-11.3901
調和	-11.3902
変わって	-11.3903
これらは	-11.3904
がわからない	-11.3904
▁カンボジア	-11.3905
これに	-11.3905
アホ	-11.3905
秒で	-11.3907
餌	-11.3909
GA	-11.391
受け入れる	-11.3911
使用できる	-11.3911
等の	-11.3911
宇宙船	-11.3913
LAND	-11.3914
戻	-11.3914
殺人事件	-11.3916
;)	-11.3916
遅刻	-11.3917
を支配する	-11.3918
度に	-11.3918
説得	-11.3918
見方	-11.3919
搭乗	-11.3919
テキサス	-11.392
自己紹介	-11.392
座る	-11.3922
紀	-11.3923
投	-11.3925
エロ	-11.3925
-11	-11.3925
パニック	-11.3926
ログイン	-11.3926
に対処する	-11.3926
の敵	-11.3926
美術	-11.3927
かかって	-11.3927
▁女性の	-11.3928
-17	-11.3928
猛	-11.3928
TON	-11.3929
▁Golf	-11.3929
▁much	-11.3929
▁PowerPoint	-11.393
あなたたちの	-11.3931
著名な	-11.3932
キーワード	-11.3932
とりあえず	-11.3933
Air	-11.3933
知られている	-11.3935
年に設立され	-11.3936
しかありません	-11.3936
ジェーン	-11.3938
通過	-11.3938
ira	-11.3938
▁Falls	-11.3938
▁メール	-11.3939
▁Series	-11.3939
のもと	-11.3943
強調	-11.3943
の一つは	-11.3944
っていない	-11.3944
をつけ	-11.3944
持	-11.3945
▁今週	-11.3945
共産主義	-11.3945
相互作用	-11.3946
則	-11.3947
▁63	-11.3948
街の	-11.395
返し	-11.3951
スパ	-11.3951
のいくつか	-11.3952
ものと	-11.3953
▁VI	-11.3956
▁Maria	-11.3959
▁初	-11.396
年ぶり	-11.396
することに	-11.3961
故	-11.3963
を避け	-11.3963
格	-11.3966
の目標	-11.397
berg	-11.3971
ストア	-11.3973
クルーズ	-11.3974
電話を	-11.3974
俺を	-11.3976
を向上させる	-11.3976
▁Audio	-11.3976
当局	-11.3977
▁アーチスト	-11.3977
数ヶ月	-11.3977
戻ってくる	-11.3978
▁AS	-11.3979
IO	-11.3979
IA	-11.398
fer	-11.398
ステーション	-11.3981
人気の	-11.3981
を見ました	-11.3981
やすく	-11.3983
撤退	-11.3984
微	-11.3984
シドニー	-11.3986
ن	-11.3987
は昨年	-11.3987
だったのです	-11.3989
の気持ち	-11.399
外観	-11.399
ようになり	-11.399
スイッチ	-11.3991
INE	-11.3993
んじ	-11.3994
ves	-11.3995
不安定	-11.3995
▁Keep	-11.3996
会談	-11.3996
革新	-11.3996
▁会社	-11.3997
良好な	-11.3998
▁Read	-11.3998
飢え	-11.3999
美女	-11.3999
去	-11.4
ずいぶん	-11.4001
▁Ball	-11.4001
バグ	-11.4001
楽器	-11.4002
air	-11.4004
yn	-11.4004
に関わる	-11.4004
いじめ	-11.4008
上手く	-11.4009
仕事で	-11.4009
があるか	-11.401
株式会社	-11.401
曲目	-11.4012
▁冬	-11.4013
二重	-11.4013
プロフェッショナル	-11.4014
君たち	-11.4016
を必要とします	-11.4016
の製造	-11.402
IM	-11.402
迅速に	-11.402
バンク	-11.4022
▁当時の	-11.4022
全体で	-11.4022
自分の人生	-11.4022
とされています	-11.4023
わざと	-11.4024
棒	-11.4025
伊	-11.4025
好奇心	-11.4025
世界経済	-11.4025
対立	-11.4026
てくれます	-11.4027
コリント	-11.4027
(4	-11.4028
が完全に	-11.4028
"(	-11.4029
ボディ	-11.403
しま	-11.4031
▁Boys	-11.4031
おる	-11.4033
の完全な	-11.4034
▁ニュー	-11.4035
mann	-11.4036
お祝い	-11.4036
▁メンバー	-11.4038
私はこの	-11.4038
初代	-11.4038
を説明する	-11.4039
東部	-11.4041
win	-11.4041
済	-11.4041
▁61	-11.4042
家族に	-11.4042
頭が	-11.4042
全世界	-11.4043
だらけ	-11.4045
がある場合	-11.4046
かよ	-11.4047
▁▲	-11.4047
ドバイ	-11.4049
ゲル	-11.4049
フレーズ	-11.4049
rin	-11.405
リサーチ	-11.405
ADHD	-11.405
って何ですか	-11.4051
lic	-11.4051
ダーク	-11.4052
配置	-11.4052
まち	-11.4054
▁あなたはここにいる	-11.4055
毎日の	-11.4056
まって	-11.4058
を共有し	-11.4058
▁BY	-11.406
思	-11.406
パラ	-11.406
▁Guide	-11.4062
▁イメージ	-11.4062
ドナルド	-11.4064
san	-11.4065
してくれます	-11.4066
お金が	-11.4068
火事	-11.4069
▁娘	-11.4069
皆さんに	-11.407
転換	-11.407
しないこと	-11.4071
残った	-11.4071
▁Change	-11.4073
を行っています	-11.4073
イケメン	-11.4074
サミット	-11.4074
イスラム教	-11.4074
追加の	-11.4074
rit	-11.4074
地雷	-11.4075
必要に応じて	-11.4076
マルチ	-11.4077
ちょ	-11.4078
カム	-11.4078
出会う	-11.4078
年に設立された	-11.4079
ユーザーに	-11.408
みたいだ	-11.408
▁やがて	-11.408
ight	-11.4081
▁前の記事	-11.4083
先の	-11.4084
祈って	-11.4087
つらい	-11.4088
▁アクセス	-11.4088
▁リスト	-11.409
とは異なり	-11.409
かえ	-11.4091
グリ	-11.4091
のネットワーク	-11.4092
▁98	-11.4094
▁ラジオ	-11.4094
BC	-11.4094
TC	-11.4095
▁神の	-11.4095
盛	-11.4096
と発表した	-11.4097
審判	-11.4097
▁幸せ	-11.4097
ダンサー	-11.4099
▁LE	-11.4099
スーツ	-11.4099
▁マリア	-11.4099
▁実際には	-11.41
のテーマ	-11.4105
数年	-11.4105
ec	-11.4107
関係ない	-11.4107
sp	-11.4108
失敗する	-11.4108
▁本日は	-11.4109
から始まった	-11.4111
を知っています	-11.4111
互い	-11.4113
▁Sol	-11.4113
▁東	-11.4113
し続ける	-11.4113
▁すべては	-11.4113
▁食事	-11.4115
じょう	-11.4115
Part	-11.4116
ator	-11.4118
なのかもしれない	-11.412
マリー	-11.4121
フラ	-11.4121
を築く	-11.4121
230	-11.4122
トラフィック	-11.4122
糸	-11.4122
昇進	-11.4122
そちら	-11.4123
の最大	-11.4123
▁デザイナー	-11.4123
は皆	-11.4124
NI	-11.4125
たまに	-11.4125
周辺ホテル	-11.4125
CPU	-11.4125
▁some	-11.4126
一枚	-11.4127
が来て	-11.4127
▁Living	-11.413
度目	-11.4131
原理	-11.4131
あげて	-11.4132
化する	-11.4133
世間	-11.4133
何人	-11.4134
を発表しました	-11.4134
▁Ru	-11.4137
新鮮な	-11.4137
SF	-11.4138
コースは	-11.4139
使われている	-11.4139
Cookie	-11.414
言葉で	-11.414
ico	-11.414
問題の	-11.4141
致します	-11.4142
変化は	-11.4142
彼女と	-11.4143
0.0	-11.4144
室内	-11.4145
えない	-11.4145
を構築し	-11.4145
母が	-11.4147
ر	-11.4148
休息	-11.4148
ッシュ	-11.4149
▁ロサンゼルス	-11.415
のとき	-11.4151
▁68	-11.4151
iss	-11.4151
眠	-11.4151
ev	-11.4154
お互いの	-11.4155
照	-11.4155
ology	-11.4156
行われます	-11.4156
がわかる	-11.4156
の森	-11.4157
会い	-11.4157
▁Fair	-11.4158
都市の	-11.4158
売れ	-11.4159
▁学生	-11.416
無く	-11.416
って言った	-11.4161
▁Bor	-11.4161
参考	-11.4164
魂の	-11.4165
やること	-11.4165
司法	-11.4167
ヶ月で	-11.4168
あるもの	-11.417
ワトソン	-11.4171
▁ibis	-11.4172
月まで	-11.4174
見通し	-11.4174
に相当する	-11.4175
Ta	-11.4176
▁Edge	-11.4177
に非常に	-11.4178
はどうですか	-11.4179
に参加し	-11.4179
▁should	-11.418
建築家	-11.418
寝て	-11.4181
が含まれる	-11.4181
かり	-11.4183
エラ	-11.4183
▁Blues	-11.4184
警察が	-11.4186
POP	-11.4186
は永遠に	-11.4187
OH	-11.4188
ye	-11.4189
周	-11.419
要請	-11.4191
億円	-11.4191
行動する	-11.4194
og	-11.4195
が好きだ	-11.4195
var	-11.4195
゚Д゚	-11.4196
ミーティング	-11.4196
昆虫	-11.4196
▁Peter	-11.4197
En	-11.4198
高価な	-11.42
直後に	-11.42
守る	-11.4204
の大きな	-11.4204
オバマ大統領	-11.4205
▁sp	-11.4207
▁Special	-11.4207
武装	-11.4207
歴史上	-11.4207
---	-11.4208
104	-11.4208
を傷つける	-11.4209
ナル	-11.4211
許し	-11.4211
▁Season	-11.4211
ez	-11.4211
スペインの	-11.4213
そうで	-11.4213
▁Academy	-11.4213
酸化	-11.4213
反射	-11.4221
▁もっとも	-11.4222
ものでした	-11.4222
庭園	-11.4223
てます	-11.4224
商売	-11.4224
想像力	-11.4225
▁ROCK	-11.4225
亡くなりました	-11.4226
守り	-11.4226
ible	-11.4226
ール	-11.4226
提出	-11.4226
▁97	-11.4226
古代の	-11.4228
お手伝い	-11.423
ているか	-11.423
の中でも	-11.423
抗議	-11.4231
国内で	-11.4231
を迎え	-11.4231
モデルは	-11.4232
▁ジョニー	-11.4233
市内	-11.4233
おも	-11.4233
グレー	-11.4234
Pa	-11.4234
ベイビー	-11.4234
高品質	-11.4234
▁スタート	-11.4235
法人	-11.4235
無限の	-11.4235
▁Child	-11.4236
踊る	-11.4237
健康的な	-11.4238
墜落	-11.4238
相手の	-11.4238
▁Heaven	-11.4239
SON	-11.4239
作って	-11.4241
仕	-11.4242
戻り	-11.4242
▁そ	-11.4242
▁Prince	-11.4243
の手紙	-11.4243
納	-11.4244
SI	-11.4245
してるの	-11.4245
露	-11.4245
▁could	-11.4245
てくれました	-11.4246
▁Card	-11.4247
1969	-11.4247
Internet	-11.4247
元素	-11.4248
エキサイティングな	-11.4249
ヘル	-11.4249
マジック	-11.4251
有り	-11.4257
▁Core	-11.4259
本気で	-11.4261
ことをお勧めします	-11.4261
▁Adventure	-11.4261
▁プロ	-11.4264
こころ	-11.4264
薬剤	-11.4264
きり	-11.4265
を開いて	-11.4265
映画の	-11.4265
レット	-11.4265
夫が	-11.4265
深夜	-11.4268
儀式	-11.4268
Real	-11.4269
子供たちは	-11.4269
▁素晴らしい	-11.427
飢餓	-11.427
紅茶	-11.427
女たち	-11.4272
あるのか	-11.4272
立ち上がり	-11.4272
▁Converter	-11.4273
のお客様	-11.4275
の味	-11.4276
▁Were	-11.4277
▁アイコン	-11.4277
スカイ	-11.4278
どうすれば	-11.4278
この映画	-11.4279
赦し	-11.4279
厳しく	-11.4279
UM	-11.428
一生懸命	-11.4281
▁Gun	-11.4282
▁Ten	-11.4282
off	-11.4283
をかけて	-11.4284
未だに	-11.4287
つもりだ	-11.4287
医師が	-11.4288
▁Golden	-11.4289
▁女性は	-11.4289
殺される	-11.4289
▁アレックス	-11.429
虐殺	-11.4294
ポッター	-11.4294
遅延	-11.4295
ヤング	-11.4297
▁Album	-11.4297
見つけ	-11.4299
人が死亡	-11.4299
▁僕らは	-11.43
▁一覧	-11.4301
▁Dog	-11.4301
罠	-11.4301
存在します	-11.4301
▁火	-11.4302
ida	-11.4302
世の	-11.4303
望	-11.4303
続	-11.4304
を見せ	-11.4305
の友人	-11.4305
5:	-11.4306
▁∨	-11.4306
Get	-11.4307
ネル	-11.4308
▁Human	-11.4308
国際的	-11.431
1967	-11.4311
ath	-11.4311
中間	-11.4311
2〜3	-11.4311
▁メイン	-11.4314
基本的に	-11.4314
介	-11.4314
なれ	-11.4315
旦那	-11.4316
ヘン	-11.4316
権利がある	-11.4316
▁ニュージーランド	-11.4317
{	-11.4317
なかったのか	-11.4318
を取り除く	-11.4318
パネル	-11.432
▁未来の	-11.432
PH	-11.4321
▁ARE	-11.4321
James	-11.4324
改良	-11.4324
救急	-11.4324
大人の	-11.4326
Why	-11.4326
言語で	-11.4326
▁something	-11.4326
婚約	-11.4326
一時	-11.4326
必要です	-11.4328
َ	-11.4328
挿入	-11.4329
因	-11.433
▁どう	-11.4331
▁Everything	-11.4332
のイメージ	-11.4334
音が	-11.4335
するな	-11.4336
移住	-11.4337
▁旧	-11.4337
ート	-11.4337
調子	-11.4338
▁Care	-11.4338
TU	-11.4338
▁1.5	-11.4339
感じた	-11.434
熟	-11.4341
Mark	-11.4342
▁Gi	-11.4342
雷	-11.4343
▁DC	-11.4343
敬意	-11.4344
周囲の	-11.4345
脅迫	-11.4345
泳ぐ	-11.4345
衛生	-11.4345
高度	-11.4345
行動を	-11.4346
その人の	-11.4347
お姫様	-11.4348
増え	-11.4348
黄	-11.4349
状況で	-11.435
の国際	-11.4351
▁スタンダード	-11.4352
▁Well	-11.4352
敗	-11.4353
このまま	-11.4353
会合	-11.4353
▁電気	-11.4353
譲	-11.4354
▁我々が	-11.4354
のビジネス	-11.4354
イヤ	-11.4354
べきではない	-11.4356
なのですが	-11.4356
名称	-11.4356
プレス	-11.4356
へ電話をかけ	-11.4356
-18	-11.4357
1987	-11.4358
のダウンロード	-11.436
▁Before	-11.436
言語は	-11.436
▁アリス	-11.4361
270	-11.4363
▁Nature	-11.4363
神様の	-11.4364
▁⌒	-11.4364
世界一	-11.4365
ell	-11.4365
▁男は	-11.4366
▁NY	-11.4367
提示	-11.4369
7.	-11.4369
▁always	-11.437
優しさ	-11.437
1/3	-11.4371
▁Line	-11.4373
結婚して	-11.4373
青春	-11.4373
処	-11.4374
没	-11.4374
▁フリー	-11.4377
あなたにとって	-11.4377
▁未来	-11.4379
もいる	-11.438
争	-11.4383
ガイ	-11.4383
を見てください	-11.4383
への投資	-11.4383
▁本物の	-11.4383
▁カナダの	-11.4384
▁飛行機	-11.4384
▁Hell	-11.4384
有権者	-11.4384
オンラインゲーム	-11.4387
▁どうすれば	-11.4387
ea	-11.4388
排除	-11.4388
pin	-11.4389
ですかね	-11.4389
薬は	-11.4389
たちも	-11.439
してはいけない	-11.439
じっと	-11.439
ji	-11.439
は世界	-11.439
サービスを	-11.4391
▁いう	-11.4392
に乗って	-11.4392
社が	-11.4393
放射線	-11.4393
世代の	-11.4394
あの日	-11.4395
クック	-11.4396
伝える	-11.4397
放棄	-11.4399
売買	-11.44
おまえの	-11.4401
のお知らせ	-11.4402
ハッピー	-11.4402
配送	-11.4403
他国	-11.4406
したりする	-11.4407
洗濯	-11.4408
ロンドンの	-11.4408
国民が	-11.4408
思います	-11.4411
歴史の	-11.4411
▁Travel	-11.4411
に影響	-11.4413
トレ	-11.4414
▁_____________	-11.4415
一切	-11.4416
～!	-11.4417
直す	-11.4418
load	-11.4419
獅子	-11.4419
1981	-11.4419
ゞ	-11.442
亀	-11.442
との戦い	-11.4421
♥	-11.4422
▁Marina	-11.4422
aka	-11.4426
話している	-11.4426
▁従って	-11.4429
過ぎた	-11.443
▁当	-11.443
▁Three	-11.4432
の真実	-11.4432
かす	-11.4432
に接続	-11.4433
ようとした	-11.4435
というものは	-11.4436
ディン	-11.4436
▁Children	-11.4438
いいのか	-11.4438
叫んだ	-11.444
を上げる	-11.444
動物が	-11.444
普及	-11.4444
狂	-11.4446
can	-11.4446
与えられた	-11.4446
▁コンピュータ	-11.4447
金利	-11.4447
スピーチ	-11.4447
母親が	-11.4449
本人	-11.4451
▁犬は	-11.4451
商人	-11.4451
あた	-11.4452
分かりません	-11.4452
▁Alexis	-11.4454
使われる	-11.4454
明らか	-11.4456
▁they	-11.4456
rid	-11.4457
▁Advanced	-11.4458
Home	-11.4459
ことにより	-11.4459
化された	-11.4459
ENT	-11.4459
▁Photo	-11.446
わし	-11.4461
願	-11.4462
認可	-11.4462
ちゃんの	-11.4463
うさぎ	-11.4463
のせいで	-11.4463
bin	-11.4464
金を	-11.4465
ビジネスの	-11.4466
結果を	-11.4467
家を	-11.4468
、50	-11.4469
だす	-11.447
の決定	-11.4471
▁EUR	-11.4472
▁Set	-11.4473
▁詳細については	-11.4473
と考えられています	-11.4473
使いやすい	-11.4474
のところに	-11.4474
▁メディア	-11.4475
朝鮮	-11.4475
面で	-11.4476
VIP	-11.4478
高等教育	-11.4479
いける	-11.448
受付	-11.448
TP	-11.4481
神社	-11.4481
tal	-11.4484
▁Mary	-11.4484
ジャズ	-11.4484
お休み	-11.4484
除	-11.4485
グッド	-11.4486
いきなり	-11.4488
意義	-11.449
▁星	-11.449
▁コロンビア	-11.4491
と彼の	-11.4492
ってしまう	-11.4493
が出た	-11.4493
の計画	-11.4495
かかり	-11.4496
の時計	-11.4496
仮説	-11.4496
最強の	-11.4497
単純に	-11.4498
実装	-11.4499
りんご	-11.4499
nt	-11.4499
をすること	-11.4503
←	-11.4503
楽園	-11.4503
生存者	-11.4503
誰もいない	-11.4504
▁Link	-11.4507
現れた	-11.4507
▁しばらく	-11.4507
いいよ	-11.4509
アナタ	-11.4511
の略です	-11.4511
HTML	-11.4512
切断	-11.4512
▁もうすぐ	-11.4513
ロシアと	-11.4514
▁des	-11.4515
の口コミ	-11.4515
▁問	-11.4515
死んでいる	-11.4518
認め	-11.4518
▁Oh	-11.4519
▁そうして	-11.452
▁更に	-11.4521
6%	-11.4522
を追加する	-11.4522
綺麗	-11.4523
どこにも	-11.4523
すぎた	-11.4523
は米国	-11.4523
ないんだ	-11.4524
クー	-11.4526
をとり	-11.4527
が見つかりました	-11.4527
は依然として	-11.4527
週間前	-11.4527
lon	-11.4528
room	-11.4529
PL	-11.4529
ound	-11.4529
やってきた	-11.4529
せない	-11.4529
嫌いな	-11.4532
焦点	-11.4533
を作成します	-11.4533
十二	-11.4534
6:	-11.4534
を扱う	-11.4536
▁ロ	-11.4536
(5	-11.4536
評	-11.4539
マジ	-11.4539
を確認	-11.454
臭	-11.4541
を獲得	-11.4543
不要	-11.4543
▁Casino	-11.4544
に住んでいます	-11.4544
ハム	-11.4544
rie	-11.4545
▁Society	-11.4547
▁スイート	-11.4547
▁大学	-11.4547
講義	-11.4547
配列	-11.4548
▁正直	-11.4549
ِ	-11.4549
働いた	-11.455
無事に	-11.4551
落下	-11.4551
を知って	-11.4551
GL	-11.4552
ib	-11.4552
▁真実	-11.4552
そのことを	-11.4552
イングランド	-11.4553
ビア	-11.4553
タイムズ	-11.4554
あんなに	-11.4554
▁AI	-11.4555
緑の	-11.4555
空腹	-11.4555
▁色	-11.4556
▁HTML	-11.4557
証し	-11.4557
死を	-11.4557
に到着	-11.4558
▁ロボット	-11.4558
じん	-11.4559
平和な	-11.456
僕には	-11.456
が登場	-11.456
わね	-11.4561
のサイト	-11.4561
▁Ga	-11.4563
喜ぶ	-11.4563
トランザクション	-11.4564
でなければならない	-11.4564
▁今や	-11.4565
フー	-11.4566
劇	-11.4566
生き残る	-11.4567
ハンガリー	-11.4567
錠	-11.4568
患者さん	-11.4568
▁Gu	-11.4568
かれら	-11.457
ディア	-11.457
はほぼ	-11.457
テレビ番組	-11.4572
鎖	-11.4572
カンパニー	-11.4573
▁must	-11.4574
匂い	-11.4575
届け	-11.4576
と結婚	-11.4576
選手は	-11.4579
aya	-11.4579
啓示	-11.4582
帰ってきた	-11.4582
xi	-11.4583
寝ている	-11.4585
同一	-11.4586
果たして	-11.4586
!!!!!	-11.4587
の涙	-11.4587
の合計	-11.4587
1972	-11.4589
を選び	-11.4589
なっています	-11.459
あるの	-11.459
▁千	-11.4591
欧州の	-11.4591
製の	-11.4593
圏	-11.4594
仕上げ	-11.4594
-14	-11.4595
貯金	-11.4595
ste	-11.4595
海上	-11.4596
を示している	-11.4597
教会は	-11.4597
開き	-11.4598
有機	-11.4599
が変わった	-11.46
の行動	-11.46
▁Fun	-11.46
ベトナムで	-11.4602
人間と	-11.4603
▁シカゴ	-11.4603
てない	-11.4605
神を	-11.4606
強度	-11.4606
、[	-11.4608
入手	-11.4608
▁1991	-11.4609
ys	-11.461
の話を	-11.461
Paul	-11.4611
持ってる	-11.4612
マック	-11.4614
山の	-11.4614
起こった	-11.4614
ちょっとした	-11.4615
を書いた	-11.4616
毎	-11.4616
標準的な	-11.4618
▁Ocean	-11.4618
いち	-11.462
ネス	-11.462
▁OneDrive	-11.462
イル	-11.462
場合でも	-11.4623
▁今から	-11.4624
▁以前は	-11.4626
eng	-11.4627
クリップ	-11.4628
子ども達	-11.463
重要である	-11.4631
▁..	-11.4631
次のような	-11.4632
広大な	-11.4633
内戦	-11.4634
欠	-11.4634
共和党	-11.4636
談	-11.4636
▁into	-11.4637
ブロ	-11.4637
厳	-11.4637
多様性	-11.4637
と呼びます	-11.4641
病院の	-11.4642
プル	-11.4642
を持つこと	-11.4642
▁主よ	-11.4643
夕	-11.4643
BB	-11.4645
生きること	-11.4645
の名前を	-11.4645
▁things	-11.4646
CBD	-11.4646
ington	-11.4649
刻	-11.4649
️	-11.4649
エドワード	-11.465
oke	-11.4651
ローン	-11.4651
びと	-11.4651
▁18.	-11.4653
分ほど	-11.4655
を変更	-11.4655
補助	-11.4655
の習慣	-11.4656
目で	-11.4657
の文化	-11.4658
は存在しない	-11.4658
てた	-11.4658
をとって	-11.466
▁Systems	-11.466
▁17:	-11.466
が再び	-11.4661
のよう	-11.4662
する必要はありません	-11.4664
されると	-11.4664
活躍	-11.4665
大事	-11.4667
保護者	-11.4667
魔法の	-11.4668
実際は	-11.4668
を入れ	-11.4668
ROM	-11.4669
bus	-11.4669
物は	-11.467
知らん	-11.467
▁show	-11.4671
ッド	-11.4672
▁History	-11.4673
のリーダー	-11.4675
)”	-11.4675
▁Spring	-11.4676
▁Test	-11.4678
支払	-11.4679
Never	-11.468
240	-11.4681
▁恋	-11.4681
なくなり	-11.4681
やらない	-11.4685
▁Square	-11.4687
ラボ	-11.4687
▁キューバ	-11.4687
▁真の	-11.4689
▁コース	-11.4689
が全て	-11.4689
割合	-11.4689
▁Ruby	-11.4689
なくなって	-11.469
改	-11.4691
にしか	-11.4691
are	-11.4691
しね	-11.4692
周りの	-11.4693
▁da	-11.4694
▁放送	-11.4695
舟	-11.4696
眼鏡	-11.4696
魔法使い	-11.4696
大丈夫です	-11.4697
壊れた	-11.4697
になろう	-11.4698
の危機	-11.4698
7%	-11.4698
106	-11.47
その人は	-11.4701
お医者さん	-11.4702
払い	-11.4702
正確	-11.4703
の多くが	-11.4705
大佐	-11.4705
ライター	-11.4707
107	-11.4707
PO	-11.4708
▁20:	-11.4708
競合	-11.471
訪れる	-11.4711
罪を	-11.4712
まない	-11.4714
か国	-11.4714
に立つ	-11.4715
持っています	-11.4716
起源	-11.4717
補	-11.4718
▁馬	-11.4719
するのが	-11.4721
経由で	-11.4726
科目	-11.4726
気象	-11.4728
らが	-11.4728
ima	-11.4729
オーダー	-11.4731
▁le	-11.4732
北朝鮮の	-11.4732
メント	-11.4732
の反応	-11.4734
▁::	-11.4734
tr	-11.4734
消	-11.4734
cal	-11.4736
問いかけ	-11.4736
によって開発された	-11.4736
▁教会	-11.4737
人が多い	-11.4739
lash	-11.4739
▁キング	-11.474
めっちゃ	-11.474
になるために	-11.4741
▁結果	-11.4742
福祉	-11.4743
上記の	-11.4743
Cl	-11.4744
はどのような	-11.4745
▁おお	-11.4745
ene	-11.4745
呼ぶ	-11.4745
▁1989	-11.4745
▁Texas	-11.4746
▁今度は	-11.4747
ウォン	-11.4747
▁72	-11.475
足の	-11.475
わら	-11.475
▁Robert	-11.4752
立ち上がる	-11.4752
由	-11.4752
ラル	-11.4752
かというと	-11.4753
bot	-11.4753
▁外	-11.4753
▁Mother	-11.4754
▁Gar	-11.4754
レシピ	-11.4754
団結	-11.4754
他の国	-11.4756
▁MySQL	-11.4756
嘘つき	-11.4756
▁それと	-11.4757
家族と	-11.4757
口に	-11.4758
▁第一	-11.4758
▁OneNote	-11.4758
ジョーク	-11.4759
続きます	-11.476
▁発音	-11.476
標的	-11.4762
にわたり	-11.4763
葬	-11.4764
▁VPN	-11.4764
食べない	-11.4764
ほんと	-11.4766
勢い	-11.4769
を提供	-11.4771
フード	-11.4772
▁ありがとうございます	-11.4774
友人と	-11.4775
▁を訪問する	-11.4776
開かれた	-11.4778
ボル	-11.4778
夜は	-11.4779
コンタクト	-11.4779
わざわざ	-11.478
つもりです	-11.478
書かれた	-11.4781
▁Washington	-11.4781
ane	-11.4782
勇敢な	-11.4782
▁クライアント	-11.4782
の墓	-11.4783
we	-11.4783
どうした	-11.4783
する事	-11.4783
par	-11.4784
を与えます	-11.4785
を満たす	-11.4785
▁空	-11.4785
Up	-11.4786
のですから	-11.4786
上院	-11.4787
そば	-11.4788
数回	-11.4789
耳に	-11.4792
▁こちら	-11.4795
史上	-11.4795
mal	-11.4796
なにも	-11.4796
のは初めて	-11.4797
およびその他の	-11.4797
されてる	-11.4799
更新プログラム	-11.4799
を出した	-11.4799
事前	-11.48
アメリカが	-11.4802
1979	-11.4802
▁セクシー	-11.4804
いこう	-11.4805
警備	-11.4805
スピーカー	-11.4806
いのち	-11.4806
特集	-11.4806
▁Bit	-11.4807
スパム	-11.4808
の一環として	-11.4809
▁#1	-11.4809
▁Cry	-11.4809
▁3.0	-11.4809
STA	-11.4811
夜明け	-11.4813
じゃないよ	-11.4813
殺され	-11.4814
賞金	-11.4814
ore	-11.4814
▁レポート	-11.4814
を破壊する	-11.4815
▁足	-11.4815
イエスの	-11.4815
境界	-11.4815
洋	-11.4816
▁going	-11.4818
真剣	-11.4819
とりわけ	-11.4819
Back	-11.4819
ISS	-11.482
大半の	-11.4821
の概要	-11.4821
▁客室	-11.4822
を提供すること	-11.4822
OO	-11.4824
健全な	-11.4824
鉱山	-11.4824
のなかに	-11.4824
西部	-11.4825
▁ユーザー	-11.4825
和訳	-11.4826
妻と	-11.4827
へのコメント	-11.4827
訪れ	-11.4828
主権	-11.4828
▁∩	-11.4828
fi	-11.4828
▁だれが	-11.4829
大企業	-11.4829
に会った	-11.4829
パーツ	-11.4831
▁最後は	-11.4831
天に	-11.4832
vel	-11.4833
top	-11.4835
建	-11.4835
ーーー	-11.4835
▁正しい	-11.4835
次回	-11.4836
でしたか	-11.4836
を起こす	-11.4837
▁私達の	-11.4838
赤ちゃんが	-11.484
小惑星	-11.484
チリ	-11.484
創	-11.4841
認められ	-11.4841
の問題は	-11.4842
ショート	-11.4844
陸	-11.4845
おらず	-11.4847
と言っていた	-11.4849
有益な	-11.4849
が今	-11.4849
低く	-11.4849
Na	-11.4851
フラン	-11.4852
▁ドクター	-11.4853
メイク	-11.4853
スコ	-11.4854
her	-11.4854
を紹介	-11.4854
その理由	-11.4854
学校に	-11.4855
▁サウジアラビア	-11.4858
▁のレビューを書く	-11.4858
抜	-11.4858
display	-11.4859
▁ベン	-11.486
食事を	-11.4864
やま	-11.4865
▁u	-11.4866
UT	-11.4866
▁Ke	-11.4866
創造的な	-11.4866
軌道	-11.4867
組織は	-11.4867
営	-11.4867
だけに	-11.4867
MIT	-11.4868
▁オー	-11.4869
▁call	-11.487
捕	-11.4871
マッ	-11.4871
▁Women	-11.4877
力は	-11.4877
non	-11.4878
さと	-11.4878
tur	-11.4879
159	-11.488
加速	-11.488
elle	-11.4882
違います	-11.4882
質問です	-11.4883
シグナル	-11.4884
ガールフレンド	-11.4885
▁見よ	-11.4885
人目の	-11.4885
▁AC	-11.4885
期間中	-11.4886
気にしない	-11.4887
温かい	-11.4888
に近づく	-11.4891
やり方で	-11.4892
1985	-11.4894
赤ちゃんの	-11.4895
SMS	-11.4895
生物学的	-11.4895
▁祈り	-11.4896
この町	-11.4896
▁Food	-11.4896
影響を受ける	-11.4899
に戻	-11.49
rat	-11.4901
検索結果	-11.4902
ソウル	-11.4902
▁そしてその	-11.4903
起こっている	-11.4904
▁#3	-11.4904
処刑	-11.4904
それらが	-11.4904
た場合	-11.4906
カフェイン	-11.4906
ニューヨーク市	-11.4907
たので	-11.4908
ジェット	-11.4908
科学と	-11.4908
1971	-11.491
先週	-11.491
幹部	-11.4911
ram	-11.4911
緊急事態	-11.4912
ii	-11.4912
1986	-11.4912
を務める	-11.4913
▁08	-11.4914
Ra	-11.4916
中国語	-11.4916
父さん	-11.4916
小学校	-11.4918
王子様	-11.4918
メタ	-11.4918
▁Close	-11.4919
キット	-11.492
▁Records	-11.492
凍結	-11.4923
飲んだ	-11.4924
Ar	-11.4924
(10	-11.4925
然	-11.4925
▁みなさんは	-11.4927
去年	-11.4928
ツリー	-11.493
幸せに	-11.4932
▁Plan	-11.4933
▁説明	-11.4934
そうでない	-11.4934
つが	-11.4935
千人	-11.4935
ラップ	-11.4936
IX	-11.4937
疲労	-11.4937
DM	-11.4938
負ける	-11.4939
▁ヘ	-11.4939
▁黒い	-11.494
形の	-11.494
アプリは	-11.4941
▁ボブ	-11.4942
(*	-11.4942
ball	-11.4942
息を	-11.4944
加入	-11.4947
-13	-11.4947
人体	-11.4949
▁チュニジア	-11.495
▁ウ	-11.495
▁78	-11.4951
ハンド	-11.4952
育	-11.4954
づくり	-11.4954
オペレーティング	-11.4955
技術的な	-11.4956
同社	-11.4956
ベトナム人	-11.4958
見てる	-11.4958
のは誰	-11.4959
を起こし	-11.4961
だからこそ	-11.4961
若者の	-11.4962
アナリスト	-11.4962
真ん中	-11.4962
▁Deluxe	-11.4963
イノベーション	-11.4964
ポケモン	-11.4964
乃	-11.4964
に基づいた	-11.4964
ベルト	-11.4964
▁Evil	-11.4965
現れ	-11.4966
▁Small	-11.4968
pic	-11.4968
包括的な	-11.4968
550	-11.4969
格好	-11.4969
大量	-11.497
軸	-11.497
長生き	-11.4973
zi	-11.4975
▁パパ	-11.4976
出てくる	-11.4976
▁BBC	-11.4977
▁Pat	-11.4977
フィリップ	-11.4978
定め	-11.4979
に立ち	-11.4982
VA	-11.4983
Hotel	-11.4985
▁Motor	-11.4985
▁本日の	-11.4987
ニューヨークで	-11.4988
技術の	-11.499
疑惑	-11.4991
ブレーキ	-11.4991
▁#2	-11.4994
軽く	-11.4994
グランド	-11.4995
少	-11.4996
密度	-11.4998
きれい	-11.4999
▁Most	-11.5
を支持する	-11.5001
でしょうね	-11.5003
おられます	-11.5005
ダビデ	-11.5005
▁China	-11.5007
顔が	-11.5007
uk	-11.5008
▁一般	-11.5008
370	-11.5009
出た	-11.5009
お前たち	-11.501
ナポレオン	-11.5012
▁180	-11.5012
を知った	-11.5013
父親が	-11.5013
豊富な	-11.5013
発信	-11.5013
押	-11.5014
解除	-11.5015
真実を	-11.5015
増加する	-11.5017
650	-11.5017
落ち着いて	-11.5018
ジャケット	-11.5018
栄養素	-11.5018
た時	-11.5018
ライブラリ	-11.5019
フィート	-11.5019
の一つである	-11.502
続けています	-11.5021
の条件	-11.5021
、2011	-11.5022
rate	-11.5022
したい場合は	-11.5024
脚本	-11.5024
▁ウォール	-11.5025
一時的な	-11.5026
積極的に	-11.5026
は初めて	-11.5027
の犠牲者	-11.5027
▁インターネットで	-11.5028
置	-11.5028
されてきた	-11.5029
の扉	-11.503
OD	-11.503
▁≫	-11.5031
負けた	-11.5031
代の	-11.5033
高価	-11.5034
選択した	-11.5037
▁イー	-11.5037
del	-11.5038
▁芸術家	-11.5038
三つ	-11.5039
又	-11.5039
105	-11.5039
警察に	-11.504
けどね	-11.504
売上	-11.504
NC	-11.5041
実践的な	-11.5041
あいさつ	-11.5041
▁JAPAN	-11.5041
万台	-11.5042
▁mini	-11.5042
って言う	-11.5043
メンテナンス	-11.5044
パブリック	-11.5044
▁Six	-11.5045
このことを	-11.5045
の追加	-11.5045
仰	-11.5048
ial	-11.5049
さっき	-11.5049
盗まれた	-11.5051
ことにしました	-11.5052
▁それなのに	-11.5053
▁Hope	-11.5054
液	-11.5054
下記の	-11.5054
▁Si	-11.5055
SN	-11.5056
気をつけて	-11.506
データが	-11.5061
の車	-11.5062
▁それ以来	-11.5062
▁Double	-11.5063
▁Number	-11.5063
いただき	-11.5065
わたしたちに	-11.5066
▁ウィリアム	-11.5067
ごめん	-11.5067
ae	-11.5067
Tom	-11.5068
レーダー	-11.5069
の伝統	-11.5069
すいません	-11.5069
言えない	-11.507
負債	-11.5071
賃貸	-11.5071
若干	-11.5071
などで	-11.5072
聖霊	-11.5072
チャーリー	-11.5073
1976	-11.5074
Book	-11.5075
そこにある	-11.5076
飲料	-11.5076
ぼくら	-11.5076
通訳	-11.5077
▁Every	-11.5077
name	-11.5077
自体が	-11.5078
1968	-11.5078
大気汚染	-11.5078
ニャ	-11.5081
張	-11.5081
▁ちょうど	-11.5081
倍に	-11.5084
様式	-11.5085
▁Bon	-11.5085
水は	-11.5086
異なります	-11.5086
愛が	-11.5089
上げる	-11.509
旨	-11.5091
益	-11.5092
dr	-11.5092
適切に	-11.5092
千年	-11.5092
同社の	-11.5093
をダウンロードする	-11.5094
皆が	-11.5094
プロバイダー	-11.5094
亜	-11.5095
そうですね	-11.5096
暮らす	-11.5096
Album	-11.5096
そういうこと	-11.5097
打ち上げ	-11.5097
ロシア語	-11.5098
それについて	-11.5098
プリンス	-11.5098
縮小	-11.5099
▁change	-11.5099
救出	-11.5099
の中では	-11.5099
オオカミ	-11.51
▁Bal	-11.5101
0°	-11.5102
CG	-11.5102
ika	-11.5103
ウォッチ	-11.5103
幸い	-11.5105
▁Download	-11.5106
▁グランド	-11.5106
タンク	-11.5106
▁BLACK	-11.5106
の小さな	-11.5107
金融機関	-11.5108
▁写真は	-11.5108
▁Think	-11.5109
▁キッチン	-11.511
を必要とし	-11.511
誤って	-11.5111
ダメージ	-11.5111
小規模	-11.5112
人間を	-11.5112
▁Without	-11.5113
▁ロシアは	-11.5114
スタン	-11.5115
みよう	-11.5116
今月	-11.5116
を打ち	-11.5118
無限	-11.512
続けます	-11.512
楽しんで	-11.5121
楽曲	-11.5121
年の間	-11.5121
▁早速	-11.5121
何千	-11.5124
ラテン語	-11.5125
アイス	-11.5126
体を	-11.5128
包	-11.5128
▁インドの	-11.5128
起きた	-11.5129
給与	-11.5129
最古の	-11.5131
日本では	-11.5131
▁ほぼ	-11.5132
歳の時に	-11.5132
115	-11.5134
いたしました	-11.5135
cas	-11.5136
理事会	-11.5136
郵便	-11.5137
(=	-11.5137
ぴ	-11.5137
はできません	-11.5138
わからん	-11.5139
SR	-11.5139
である場合	-11.5139
あそこ	-11.514
▁妊娠	-11.5142
ドイツ人	-11.5143
確か	-11.5143
開いた	-11.5143
アメリカ人の	-11.5145
親が	-11.5146
▁Bi	-11.5146
OC	-11.5148
▁Active	-11.515
機能は	-11.515
ッカー	-11.5151
見せ	-11.5151
調査によると	-11.5151
rich	-11.5152
誰よりも	-11.5152
▁Taylor	-11.5152
▁あなたも	-11.5152
サウンド	-11.5152
LGBT	-11.5152
っていました	-11.5152
収穫	-11.5152
▁━┳━	-11.5152
活性	-11.5153
宗教的	-11.5153
証券	-11.5153
▁Avenue	-11.5154
▁銀行	-11.5154
space	-11.5155
ニューヨークの	-11.5155
さが	-11.5158
の性質	-11.5159
▁オーストラリアの	-11.5159
はそれぞれ	-11.5159
へん	-11.516
スー	-11.5162
の名	-11.5162
事です	-11.5162
天使たち	-11.5162
の期間	-11.5163
▁本当は	-11.5163
▁テーブル	-11.5166
答	-11.5166
踏み	-11.5166
ことではない	-11.5168
病院に	-11.5168
▁BABY	-11.5168
▁Simple	-11.5169
だけじゃない	-11.5169
朝の	-11.5171
を隠す	-11.5171
を構築する	-11.5172
同様に	-11.5173
あの子	-11.5174
問題です	-11.5175
に与え	-11.5175
そのうちの	-11.5175
▁アップル	-11.5175
の女王	-11.5176
手の	-11.5176
ランプ	-11.5177
▁五	-11.5177
を受けました	-11.5178
臓器	-11.5178
を伴う	-11.5179
野郎	-11.5179
孤児	-11.5179
返済	-11.5179
750	-11.5179
処置	-11.5179
ギャラリー	-11.518
制服	-11.518
罰金	-11.518
のコメント	-11.5182
cat	-11.5182
-0	-11.5182
▁お前の	-11.5182
▁Swift	-11.5183
早速	-11.5183
ウェル	-11.5185
にします	-11.5187
▁皆様	-11.5187
高校生	-11.5188
▁こいつ	-11.5188
に入れ	-11.5189
の著者	-11.5189
インター	-11.5189
利用できる	-11.519
顧客が	-11.519
輝き	-11.519
ドール	-11.5192
にふさわしい	-11.5194
さて	-11.5194
分に	-11.5194
の検索	-11.5195
ぷ	-11.5195
居住	-11.5199
韓国人	-11.52
▁ブロンド	-11.52
▁HTTP	-11.52
症状は	-11.5201
、2010	-11.5201
Po	-11.5203
に及ぶ	-11.5204
宗	-11.5206
枝	-11.5206
退院	-11.5207
キル	-11.5207
子育て	-11.5209
を評価する	-11.5211
うた	-11.5212
RI	-11.5213
ヤコブ	-11.5213
水分	-11.5214
を教えて	-11.5214
:40	-11.5216
▁夫	-11.5217
ように設計されています	-11.5218
1930	-11.5218
▁Dragon	-11.5219
若者は	-11.5219
▁一般的に	-11.5219
個人データ	-11.522
の本質	-11.522
の名称	-11.5221
コンサルティング	-11.5222
▁お母さん	-11.5223
忍者	-11.5223
▁京都	-11.5224
od	-11.5225
ACE	-11.5225
した時	-11.5226
gh	-11.5228
死なない	-11.523
▁CR	-11.523
自宅に	-11.523
anda	-11.523
ログ	-11.5231
ときの	-11.5231
▁スタジオ	-11.5231
CNN	-11.5232
水中	-11.5232
除去	-11.5232
独占	-11.5233
正規	-11.5234
▁5:	-11.5234
▁たまに	-11.5235
シンボル	-11.5235
条項	-11.5235
を読んだ	-11.5235
銀行が	-11.5236
▁私はこの	-11.5236
血の	-11.5236
何者	-11.5239
空港で	-11.5241
That	-11.5242
om	-11.5243
これからも	-11.5243
キュ	-11.5243
▁page	-11.5243
▁お互い	-11.5245
おいで	-11.5245
▁62	-11.5245
▁Convention	-11.5246
IDE	-11.5246
▁神が	-11.5247
のではありません	-11.5247
言い訳	-11.5249
els	-11.5249
パーカー	-11.5249
▁him	-11.5251
から離れ	-11.5252
▁鳥	-11.5252
▁王	-11.5255
フロー	-11.5255
学校は	-11.5256
こい	-11.5257
サイエンス	-11.5258
▁住所	-11.5258
の周りに	-11.5259
1982	-11.526
ことのできる	-11.526
▁Mor	-11.526
当事者	-11.526
を感じた	-11.5261
ビートルズ	-11.5261
昼間	-11.5262
邪魔	-11.5262
▁Farm	-11.5263
整備	-11.5263
米国に	-11.5266
忘れない	-11.5266
時まで	-11.5266
合って	-11.5266
LU	-11.5267
1975	-11.5267
壮大な	-11.5267
わかってる	-11.5269
▁Wood	-11.5269
も同じです	-11.527
拒絶	-11.527
▁1950	-11.527
信じている	-11.5272
▁Pop	-11.5272
ori	-11.5273
ニール	-11.5274
拘束	-11.5277
オメガ	-11.5277
粒	-11.5279
ius	-11.5281
アルファ	-11.5282
master	-11.5283
▁CON	-11.5283
まった	-11.5285
役員	-11.5285
Sun	-11.5286
ポーカー	-11.5287
主義者	-11.5288
▁Train	-11.5288
ほんとうに	-11.5288
ができた	-11.5289
空っぽ	-11.5289
▁サンタ	-11.5289
をプレイ	-11.5291
gate	-11.5291
ライダー	-11.5293
推進	-11.5293
Ad	-11.5293
SIM	-11.5294
マンガ	-11.5296
使え	-11.5296
の門	-11.5297
なきゃいけない	-11.5299
▁BACK	-11.53
俺たち	-11.53
欠点	-11.53
の終わりに	-11.5301
▁ライセンス	-11.5302
令	-11.5302
ピア	-11.5303
の能力	-11.5304
出された	-11.5305
▁Ain	-11.5307
水と	-11.5307
を示します	-11.5308
▁Journal	-11.5309
をリリース	-11.5311
バレ	-11.5313
マウンテン	-11.5315
にはならない	-11.5315
果	-11.5315
叫ぶ	-11.5316
▁Sand	-11.5316
あなたの体	-11.5318
▁4.1	-11.5319
▁(6)	-11.532
を発見する	-11.5322
SM	-11.5322
指揮	-11.5322
▁別に	-11.5325
ILL	-11.5325
苦労	-11.5326
を作り出す	-11.5326
を持っており	-11.5327
を開発する	-11.5327
Adobe	-11.5328
つあります	-11.5328
望んでいる	-11.5328
を見つけること	-11.5329
法の	-11.5329
ホット	-11.533
把握	-11.533
▁モンスター	-11.5332
ことができれば	-11.5332
▁Grace	-11.5332
ban	-11.5332
大切に	-11.5332
▁03	-11.5333
▁現代	-11.5336
▁こんなに	-11.5336
プロジェクトは	-11.5337
sha	-11.5337
火山	-11.5338
早期	-11.5338
残って	-11.5338
▁いよいよ	-11.5338
▁Steve	-11.5339
があること	-11.5339
がよく	-11.5341
▁give	-11.5341
カウント	-11.5341
崎	-11.5343
開示	-11.5343
潮	-11.5343
に従い	-11.5344
セミナー	-11.5344
[6]	-11.5344
▁DON	-11.5345
ula	-11.5345
つの異なる	-11.5346
冷戦	-11.5348
続いた	-11.5348
人のフォロワー	-11.5348
目覚めた	-11.5349
学会	-11.5351
何千もの	-11.5351
ができない	-11.5352
自動化	-11.5352
あらゆる種類の	-11.5352
ターン	-11.5354
▁Tu	-11.5354
大切	-11.5355
活	-11.5357
ものすごく	-11.5357
▁オンラインゲーム	-11.5358
国際法	-11.5358
▁テスト	-11.5359
▁96	-11.5359
▁them	-11.5359
ネパール	-11.5359
ML	-11.536
ホント	-11.5361
家が	-11.5361
継	-11.5362
離れて	-11.5362
やや	-11.5362
との間の	-11.5363
都市で	-11.5363
造られた	-11.5364
▁Mars	-11.5364
ローラ	-11.5364
を探しています	-11.5365
ぉ	-11.5365
混合	-11.5368
危険性	-11.5368
アブ	-11.5369
野心	-11.5369
帰ってくる	-11.5369
▁トイレ	-11.537
1/2	-11.537
ef	-11.5371
▁again	-11.5371
▁ベルギー	-11.5371
待機	-11.5372
カタール	-11.5373
のご提供で	-11.5374
cr	-11.5374
▁Val	-11.5374
とは思わない	-11.5375
ドローン	-11.5376
の足	-11.5376
プロフィール	-11.5377
代謝	-11.5377
(18	-11.5377
▁Voice	-11.5379
短く	-11.538
人間関係	-11.5381
喜	-11.5381
ますように	-11.5382
屋外	-11.5382
6,000	-11.5382
警察は	-11.5384
締め	-11.5384
の奴隷	-11.5385
─	-11.5386
行動は	-11.5386
共感	-11.5388
くださった	-11.5388
▁昔は	-11.5391
ole	-11.5392
と述べました	-11.5393
理由がある	-11.5393
すき	-11.5393
合わせて	-11.5394
▁コレクション	-11.5394
▁وَ	-11.5394
馬は	-11.5395
を訪れた	-11.5395
▁made	-11.5396
コレステロール	-11.5396
原油	-11.5396
呼び	-11.5397
▁次回	-11.5397
ello	-11.5397
交通事故	-11.5398
を可能にする	-11.5399
仁	-11.5399
だんだん	-11.5399
をもたらした	-11.54
良き	-11.54
▁89	-11.54
▁Private	-11.5401
▁日本で	-11.5401
ヤギ	-11.5403
shi	-11.5403
とのことです	-11.5403
第二次世界大戦	-11.5405
与え	-11.5405
▁Bill	-11.5406
温	-11.5406
ali	-11.5406
を信じている	-11.5408
るとき	-11.5408
すればいい	-11.5409
くれて	-11.5411
▁誕生日	-11.5412
司	-11.5413
▁ハンガリー	-11.5415
▁Cap	-11.5416
190	-11.5416
は特に	-11.5418
▁RO	-11.5419
メガネ	-11.5419
新年	-11.5419
導	-11.5419
夢を	-11.5419
を越えて	-11.542
Hello	-11.5422
チェン	-11.5422
含む	-11.5422
万の	-11.5423
彩	-11.5424
回る	-11.5425
の支援	-11.5426
都会	-11.5426
国旗	-11.5426
▁最初	-11.5427
報復	-11.5427
粉末	-11.5427
▁Own	-11.5427
▁代わりに	-11.5428
VC	-11.5428
新作	-11.5428
稀	-11.5429
初日	-11.5429
に出る	-11.543
Pe	-11.5431
上昇する	-11.5431
被験者	-11.5432
振	-11.5432
の基本的な	-11.5433
▁1988	-11.5433
▁before	-11.5433
▁part	-11.5434
ラベル	-11.5434
時点	-11.5434
▁ポルノの	-11.5435
▁Asia	-11.5435
女性たち	-11.5436
ノード	-11.5437
▁Mal	-11.5439
▁3.2	-11.5439
いいか	-11.544
が最初に	-11.544
についてです	-11.5441
想定	-11.5442
することによって	-11.5442
こう言った	-11.5442
▁IV	-11.5443
▁MI	-11.5443
▁アメリカで	-11.5444
左手	-11.5444
▁Roll	-11.5444
car	-11.5444
使用されています	-11.5445
快	-11.5446
▁自己	-11.5447
んだろうか	-11.5447
つである	-11.5447
▁今のところ	-11.5448
を破壊し	-11.5449
ないので	-11.5451
駄目	-11.5451
してくれました	-11.5452
るまで	-11.5452
毎朝	-11.5453
色は	-11.5453
を強化し	-11.5454
カクテル	-11.5455
、2009	-11.5455
▁友人	-11.5456
を認識し	-11.5456
ks	-11.5456
チュー	-11.5457
登山	-11.5458
出張	-11.5459
が私の	-11.546
前半	-11.5461
▁おすすめ	-11.5461
▁それだけ	-11.5461
は毎年	-11.5462
排出	-11.5463
バリ	-11.5463
ことになるだろう	-11.5464
ken	-11.5466
▁過去の	-11.5467
bell	-11.5468
机	-11.5469
の報告	-11.5469
▁Sh	-11.5474
のち	-11.5474
無料の情報	-11.5474
邪悪な	-11.5477
▁残りは	-11.5477
ُ	-11.5477
を離れ	-11.548
SEC	-11.5481
一種の	-11.5481
BL	-11.5481
の新たな	-11.5481
ておく	-11.5483
甲	-11.5483
盾	-11.5483
授業料	-11.5485
のイベント	-11.5485
▁不	-11.5485
状況は	-11.5486
ハワード	-11.5486
着物	-11.5487
ə	-11.5488
ンズ	-11.549
若者たち	-11.549
発送	-11.549
を捨てる	-11.5491
発音	-11.5491
頼	-11.5491
▁Cam	-11.5492
対戦	-11.5492
大統領選	-11.5493
くて	-11.5494
るよ	-11.5494
おまえは	-11.5495
▁PM	-11.5496
お子様	-11.5496
隠れ	-11.5497
以外で	-11.5498
▁現代の	-11.55
▁Smith	-11.5502
DR	-11.5504
視聴者	-11.5505
域	-11.5506
▁book	-11.5506
▁あの日	-11.5506
もしあなたが	-11.5506
仕組み	-11.5508
1973	-11.5508
理由です	-11.5511
のキャリア	-11.5511
har	-11.5511
暴	-11.5511
▁Beatles	-11.5512
つかない	-11.5512
静	-11.5513
わり	-11.5514
inc	-11.5514
中国政府	-11.5514
軽量	-11.5515
ムーン	-11.5515
偽り	-11.5518
ソロモン	-11.5519
歳まで	-11.5519
あなた方が	-11.552
▁Escape	-11.552
近代的な	-11.552
は今年	-11.5521
グレ	-11.5521
▁カリフォルニア	-11.5522
カネ	-11.5522
▁DEAD	-11.5524
レオ	-11.5524
しめ	-11.5526
▁Wonder	-11.5526
地点	-11.5526
アプリケーションは	-11.5528
との出会い	-11.5528
の人々が	-11.553
▁本名	-11.553
しているのは	-11.553
oh	-11.5532
テープ	-11.5534
▁結婚式	-11.5534
永久に	-11.5534
初めから	-11.5535
▁UK	-11.5535
を選びます	-11.5536
lover	-11.5536
を集め	-11.5536
私の心	-11.5537
京	-11.5537
がいかに	-11.5538
築	-11.5538
ku	-11.5538
▁Speed	-11.5539
の多い	-11.5539
ジャーナル	-11.5539
の海	-11.554
ドリンク	-11.554
北極	-11.5541
▁Ann	-11.5544
ect	-11.5544
わかりました	-11.5545
んだよね	-11.5545
777	-11.5548
コードは	-11.5549
現時点で	-11.5549
不平等	-11.5549
の提供	-11.555
がたくさんあります	-11.5551
TB	-11.5551
監督は	-11.5552
世界を変える	-11.5553
が起こった	-11.5553
可能性があり	-11.5553
Su	-11.5554
攻め	-11.5555
MON	-11.5556
処方	-11.5556
を代表する	-11.5556
縮	-11.5556
といい	-11.5557
は大きな	-11.5557
いられる	-11.5558
ヴォ	-11.5559
女性と	-11.5559
フロリダ	-11.5559
いませんか	-11.5562
って感じ	-11.5562
ものがある	-11.5566
ポジティブな	-11.5567
の求めは	-11.5567
日本が	-11.5567
ロジャー	-11.5567
のユーザーレビュー	-11.5568
しておく	-11.5568
できている	-11.5569
を忘れた	-11.5569
1600	-11.5569
してくる	-11.557
▁Yes	-11.5571
▁国	-11.5571
夕方	-11.5571
vy	-11.5572
FU	-11.5576
▁学名	-11.5576
各種	-11.5578
lip	-11.5578
戻ってきた	-11.5578
あう	-11.5578
可能性は	-11.5579
fe	-11.5579
の子供	-11.558
ご家族	-11.558
down	-11.558
ドリーム	-11.5581
一時的に	-11.5582
せて	-11.5582
世界中	-11.5584
映画は	-11.5584
8,000	-11.5585
▁これには	-11.5585
リットル	-11.5586
▁彼と	-11.5586
ions	-11.5586
ってしまった	-11.5587
▁GOOD	-11.5589
だいぶ	-11.5589
▁グリーン	-11.5592
顔に	-11.5593
▁PA	-11.5593
立ち上がって	-11.5593
おっさん	-11.5594
魅力的	-11.5594
心理的	-11.5595
ヂ	-11.5596
土壌	-11.5596
技能	-11.5596
しもべ	-11.5597
▁Smile	-11.5597
前は	-11.5599
use	-11.5599
が終わった	-11.5599
▁最安値の	-11.56
体調	-11.56
row	-11.56
ではないでしょうか	-11.5601
を選択して	-11.5602
お金は	-11.5604
先月	-11.5606
、2008	-11.5608
▁Some	-11.5608
ジェイ	-11.561
重さ	-11.5611
EE	-11.5611
▁一体	-11.5611
▁ミニ	-11.5612
公式に	-11.5612
はアメリカ	-11.5612
二十	-11.5613
を手に	-11.5613
秘密の	-11.5615
▁けれど	-11.5615
▁その中で	-11.5615
るでしょう	-11.5616
pl	-11.5617
▁end	-11.5618
作られ	-11.5618
320	-11.5618
マルコ	-11.5619
▁のサポート	-11.5619
▁play	-11.5619
もらって	-11.5619
野生の	-11.5621
空き	-11.5622
DB	-11.5622
▁FROM	-11.5622
▁They	-11.5622
静か	-11.5623
喪失	-11.5623
始	-11.5624
込まれ	-11.5626
なんだか	-11.5626
Python	-11.5626
ジョーダン	-11.5626
スターリン	-11.5627
▁2.4	-11.5627
アイスランド	-11.5627
全体を	-11.5627
沖縄	-11.5628
ense	-11.5629
フランクリン	-11.5629
重力	-11.5629
▁Snow	-11.563
というより	-11.563
どうやら	-11.563
▁Model	-11.5635
0.00	-11.5636
、2007	-11.5636
ヴィン	-11.5636
こんな感じ	-11.5636
▁Sp	-11.5637
落ちる	-11.5638
長期間	-11.5638
35%	-11.5638
少女は	-11.5638
インドで	-11.5639
境	-11.564
▁猫は	-11.564
月末	-11.564
名前を	-11.5641
の更新	-11.5642
▁Near	-11.5642
ウェ	-11.5642
▁photo	-11.5642
ug	-11.5643
少しだけ	-11.5644
風の	-11.5646
ごみ	-11.5646
▁トーマス	-11.5647
ことがありますか	-11.5647
有害	-11.5648
混	-11.5648
情報の	-11.5649
▁見	-11.5649
怒る	-11.565
履歴	-11.5652
▁そんな中	-11.5652
エグゼクティブ	-11.5653
ここでは	-11.5654
国防	-11.5654
▁Via	-11.5654
その子	-11.5655
ご主人様	-11.5656
やる気	-11.5657
▁Reader	-11.5657
悟り	-11.5658
メモリー	-11.5658
いけ	-11.5659
だけである	-11.5659
の出現	-11.5659
oz	-11.5659
くなる	-11.5659
既	-11.566
めて	-11.566
豊	-11.5662
▁ダニエル	-11.5662
に与える	-11.5664
▁アイ	-11.5664
なぜか	-11.5664
われる	-11.5665
写真家	-11.5666
RA	-11.5667
の唯一の	-11.5667
同士	-11.5668
ありえない	-11.5668
ですけど	-11.5669
ring	-11.567
のひとつです	-11.5671
君と	-11.5672
▁Br	-11.5673
イランの	-11.5674
上級	-11.5674
と共有	-11.5674
神聖な	-11.5676
をサポートします	-11.5676
属性	-11.5677
▁Capital	-11.5679
ドラッグ	-11.568
前で	-11.568
するでしょう	-11.568
を得ることができます	-11.5681
太郎	-11.5681
認める	-11.5681
調達	-11.5682
の距離	-11.5683
▁言葉	-11.5683
tte	-11.5683
ロンドンで	-11.5683
wiki	-11.5683
一体何	-11.5684
の外に	-11.5684
▁タクシー	-11.5684
これまでの	-11.5685
髪型	-11.5686
▁old	-11.5686
(^^)	-11.5687
▁父は	-11.5687
もしかして	-11.5688
▁Nokia	-11.5691
▁マイ	-11.5694
オランダの	-11.5694
▁ゴールド	-11.5695
ash	-11.5695
Ch	-11.5695
か分からない	-11.5695
死ぬまで	-11.5696
▁Class	-11.5697
の公式	-11.5697
委員会は	-11.5698
自分たちが	-11.57
sion	-11.57
創立	-11.57
怖くない	-11.57
の一部として	-11.5701
を常に	-11.5701
▁Crazy	-11.5702
単独	-11.5703
促進	-11.5705
および他の	-11.5706
お勧め	-11.5706
▁キャプテン	-11.5707
BP	-11.5707
を思い出す	-11.5709
座っている	-11.5709
山々	-11.5709
スポット	-11.5709
抑圧	-11.571
トレーナー	-11.571
復旧	-11.571
ミング	-11.571
それでは	-11.571
Th	-11.5712
を呼び	-11.5712
ドッグ	-11.5713
ラッセル	-11.5713
ギル	-11.5715
まっ	-11.5716
吸収	-11.5716
ペンギン	-11.5716
MU	-11.5718
ux	-11.5719
Uber	-11.572
送って	-11.5721
財	-11.5722
つのこと	-11.5722
食材	-11.5722
ほとんどが	-11.5723
get	-11.5723
▁FIFA	-11.5723
佐	-11.5724
を開催	-11.5725
部屋で	-11.5725
ティン	-11.5725
逃亡	-11.5725
夢は	-11.5725
mas	-11.5725
ノルウェー	-11.5725
▁Box	-11.5726
を過ごす	-11.5726
買える	-11.5727
▁Always	-11.5728
クリエイティブ	-11.5729
▁85	-11.573
▁Lab	-11.573
▁start	-11.5733
の違いは	-11.5734
分前	-11.5734
▁Des	-11.5735
lt	-11.5735
▁Sha	-11.5737
なんですね	-11.5738
フレ	-11.5738
▁先生	-11.5739
モニター	-11.5739
仮面	-11.574
▁Dan	-11.574
書物	-11.5741
の強さ	-11.5741
のオファーを探	-11.5741
にし	-11.5742
世は	-11.5743
を始め	-11.5745
どうなるか	-11.5747
声を	-11.5747
▁あっ	-11.5747
奥様	-11.5751
ほかに	-11.5751
▁光	-11.5752
ダム	-11.5753
TI	-11.5754
▁Mont	-11.5755
part	-11.5755
+1	-11.5755
強力	-11.5756
nie	-11.5756
マイクロソフト	-11.5756
▁そのために	-11.5757
怪	-11.5758
私たちの生活	-11.5758
YOU	-11.5761
生まれて	-11.5763
▁Micro	-11.5763
やな	-11.5764
嬉しいです	-11.5765
テッド	-11.5766
時折	-11.5766
侵攻	-11.5767
生産者	-11.5769
不在	-11.5769
ロマンス	-11.577
▁friend	-11.577
指名	-11.577
一本	-11.5771
レディ	-11.5773
▁敵	-11.5773
▁thing	-11.5774
払う	-11.5775
人や	-11.5775
ことわざ	-11.5775
欲しいもの	-11.5776
料金は	-11.5776
化粧	-11.5777
▁あまり	-11.5778
終了しました	-11.5778
Firefox	-11.5778
▁パッケージ	-11.5779
金銭	-11.578
エイリアン	-11.578
WA	-11.578
High	-11.5782
は絶対に	-11.5783
オート	-11.5784
▁ポルトガル語	-11.5785
誓って	-11.5786
人はいない	-11.5786
婚	-11.5788
▁Action	-11.5788
▁先月	-11.5788
▁Pass	-11.5789
重要なのは	-11.5789
自分自身に	-11.5789
の学生は	-11.5791
道徳的	-11.5791
の出来事	-11.5792
周辺の	-11.5794
の窓	-11.5794
いること	-11.5795
影響を与える	-11.5797
試し	-11.5797
陰謀	-11.5797
アンケート	-11.5797
インフラ	-11.5797
osa	-11.5798
祭司	-11.5799
視線	-11.5799
氏によると	-11.58
敵は	-11.5801
我々を	-11.5801
システムが	-11.5802
お兄さん	-11.5802
が彼	-11.5802
示す	-11.5804
日あたり	-11.5804
くら	-11.5804
件数	-11.5804
を傷つけ	-11.5806
▁Op	-11.5806
ではありませんでした	-11.5807
達の	-11.5809
Where	-11.5809
半年	-11.5809
ct	-11.581
▁[]	-11.581
我々に	-11.5811
の記事一覧	-11.5811
研究によると	-11.5811
ダイヤ	-11.5813
にとっての	-11.5813
ェ	-11.5813
一家	-11.5813
整	-11.5814
はこれを	-11.5815
症例	-11.5816
やれ	-11.5816
国際的に	-11.5818
いけない	-11.5819
▁Qu	-11.5819
eria	-11.5819
▁Tra	-11.582
はそう	-11.582
良くない	-11.5821
近年	-11.5821
▁Virtual	-11.5822
の数字	-11.5822
▁WAY	-11.5822
体系	-11.5823
▁Net	-11.5823
ウクライナの	-11.5824
の場	-11.5825
not	-11.5825
桜	-11.5825
下で	-11.5827
修道院	-11.5828
code	-11.583
________________	-11.5831
提供される	-11.5832
アク	-11.5833
▁two	-11.5833
聞いたこと	-11.5833
実績	-11.5834
nu	-11.5834
後退	-11.5835
語っている	-11.5837
を受けています	-11.5838
地帯	-11.5839
物理学者	-11.5839
ゲイツ	-11.5839
(7	-11.5839
Happy	-11.5839
でなければ	-11.5839
ものではなく	-11.584
カナダで	-11.5842
氏と	-11.5844
枠	-11.5845
▁名称	-11.5848
レバノン	-11.585
▁被害者	-11.5851
に対応する	-11.5852
▁Fly	-11.5852
外見	-11.5855
[8]	-11.5855
オススメ	-11.5855
の取引	-11.5855
膨大な	-11.5856
以後	-11.5856
合理的な	-11.5858
業績	-11.5858
í	-11.5858
独	-11.5858
が必要になります	-11.5858
選手たち	-11.586
アメリカ合衆国の	-11.586
▁小さい	-11.5862
1.0	-11.5863
▁Type	-11.5863
HR	-11.5864
に変え	-11.5865
みましょう	-11.5868
は別の	-11.587
FI	-11.587
の指導者	-11.5871
もなかった	-11.5872
ski	-11.5872
Flash	-11.5873
gram	-11.5873
ホテルの	-11.5874
▁Disney	-11.5875
media	-11.5875
を使用すること	-11.5875
▁ボランティア	-11.5876
フィン	-11.5876
▁General	-11.5877
だれでも	-11.5877
探索	-11.5878
▁SSD	-11.5879
サマー	-11.5879
を発見し	-11.5879
のはなぜ	-11.5879
将	-11.5879
使われ	-11.5879
とされている	-11.588
▁look	-11.5881
tan	-11.5881
制定	-11.5881
ほとんどの人が	-11.5882
指紋	-11.5883
復興	-11.5883
妖怪	-11.5883
海外で	-11.5884
集まった	-11.5884
▁ジョー	-11.5884
叔父	-11.5885
戻った	-11.5887
を使えば	-11.5887
Bo	-11.5888
どちらか	-11.5888
RD	-11.589
昨夜	-11.5891
ミスター	-11.5892
入れる	-11.5892
若者が	-11.5892
ヌー	-11.5893
テント	-11.5893
、2020	-11.5893
と言われている	-11.5894
との間に	-11.5895
猫の	-11.5895
▁アルバム名	-11.5896
▁Stone	-11.5896
ウル	-11.5898
冬の	-11.59
行っている	-11.59
神様が	-11.5901
私たちにとって	-11.5901
LC	-11.5902
Nokia	-11.5902
いなさい	-11.5903
の目標は	-11.5903
のコース	-11.5904
▁let	-11.5906
▁MP	-11.5907
小児	-11.5908
インスピレーション	-11.5909
ことさえ	-11.5909
そうする	-11.591
▁Joe	-11.5911
いたい	-11.5911
よろしく	-11.5912
に行ってきました	-11.5913
人種差別	-11.5913
異なった	-11.5913
を設定	-11.5914
ないでしょう	-11.5914
都合	-11.5914
▁Bro	-11.5914
過ぎて	-11.5915
置き	-11.5916
を開設	-11.5916
能力は	-11.5916
バブル	-11.5917
-16	-11.592
はこう	-11.592
確立	-11.592
得点	-11.592
カエル	-11.592
の回答	-11.5923
▁翻訳	-11.5924
hal	-11.5925
ネットで	-11.5926
カードは	-11.5926
あなたはあなたの	-11.5927
がある場合は	-11.5927
準備を	-11.5928
▁平均	-11.5928
ato	-11.5929
2030	-11.5929
▁76	-11.5929
▁000	-11.593
否	-11.593
生徒が	-11.593
rt	-11.593
侵害	-11.5931
FX	-11.5932
キャスト	-11.5932
▁Hello	-11.5933
に乗り	-11.5933
ができます	-11.5934
▁多くの人が	-11.5935
医師の	-11.5935
されなかった	-11.5936
エンド	-11.5936
▁続きを見る	-11.5936
お母さんが	-11.5937
ain	-11.5938
の制限	-11.5939
人類が	-11.5939
▁テクノロジー	-11.594
いつものように	-11.594
ペリー	-11.5941
▁Mer	-11.5941
の地	-11.5941
ポルシェ	-11.5942
少々	-11.5942
▁鉄	-11.5943
匿名	-11.5944
分後	-11.5944
無かった	-11.5944
で構成されています	-11.5946
それぞれが	-11.5947
一族	-11.5948
を繰り返し	-11.5948
の方々	-11.5948
口を	-11.5948
幾	-11.5949
SNS	-11.5949
よりよい	-11.5951
生き残った	-11.5952
▁Engine	-11.5952
の所有者	-11.5953
lay	-11.5955
けい	-11.5956
LT	-11.5956
へのフライト	-11.5956
をサポートし	-11.5957
世界初の	-11.5958
カ所	-11.5958
理性	-11.5959
▁Truth	-11.596
なんだけど	-11.5961
親切	-11.5961
札	-11.5961
のマスター	-11.5961
しるし	-11.5961
去って	-11.5962
んだね	-11.5962
かけた	-11.5962
ポルノ	-11.5963
宛	-11.5964
Take	-11.5965
女の子が	-11.5967
だったんだ	-11.5968
とあります	-11.5968
落ちて	-11.597
効果的に	-11.597
▁というわけで	-11.597
via	-11.597
さらには	-11.597
誓う	-11.597
の考え	-11.5971
入浴	-11.5971
歳になる	-11.5972
アメリカでは	-11.5972
申し出	-11.5973
プライバシーポリシー	-11.5973
南米	-11.5975
▁大きい	-11.5976
ign	-11.5979
▁あれは	-11.598
他人に	-11.5982
▁CPU	-11.5982
の使用は	-11.5983
必	-11.5983
身体的	-11.5983
毒性	-11.5983
▁place	-11.5983
アラ	-11.5984
ons	-11.5984
再建	-11.5985
▁bar	-11.5985
について考える	-11.5985
▁she	-11.5986
▁つい	-11.5986
大勢	-11.5986
隣	-11.5987
寄り	-11.5987
オファーを	-11.5988
くださる	-11.5988
▁今連絡	-11.5988
世界では	-11.5989
ではなくて	-11.5992
330	-11.5992
いいですか	-11.5993
持続	-11.5993
司令官	-11.5994
炎症	-11.5994
未だ	-11.5995
癖	-11.5996
をやる	-11.5997
上から	-11.5997
の精神	-11.5999
▁まだまだ	-11.6
智	-11.6001
ターミナル	-11.6001
▁エネルギー	-11.6001
泳ぎ	-11.6001
▁21:	-11.6001
▁someone	-11.6001
セクター	-11.6001
▁ほとんど	-11.6001
講座	-11.6001
適切	-11.6001
満月	-11.6002
好きだ	-11.6002
醜い	-11.6003
市場が	-11.6004
▁ハイ	-11.6004
違いは	-11.6005
問い合わせ	-11.6005
のコミュニティ	-11.6008
引越し	-11.6008
は確かに	-11.6009
課税	-11.6009
どこにでも	-11.601
▁日本では	-11.601
▁悪魔	-11.601
▁それらの	-11.6011
▁ma	-11.6011
の中にいる	-11.6012
お墓	-11.6013
概要	-11.6013
を行うこと	-11.6014
を達成する	-11.6015
割り	-11.6017
もその	-11.6017
手荷物	-11.6017
船が	-11.6017
たもの	-11.6019
チキン	-11.6019
はそれほど	-11.6021
ページに	-11.6021
▁Had	-11.6021
を開始し	-11.6022
梅	-11.6023
ile	-11.6024
の詳細情報	-11.6024
を減らし	-11.6025
USA	-11.6025
遊んで	-11.6025
は中国	-11.6025
▁自転車	-11.6026
▁注意	-11.6027
恐らく	-11.6028
▁►	-11.6028
風が	-11.6029
るのに	-11.6029
アーキテクチャ	-11.603
クローゼット	-11.603
▁Francisco	-11.603
専門知識	-11.6031
告発	-11.6032
光が	-11.6032
ヴェル	-11.6032
切って	-11.6032
グラフ	-11.6033
そんなことを	-11.6034
日中	-11.6035
状態に	-11.6035
▁Library	-11.6035
Ve	-11.6036
粒子	-11.6036
言い方	-11.6036
などを	-11.6037
を決め	-11.6038
機能する	-11.6038
数時間	-11.6038
はできない	-11.6039
ことができるのか	-11.6039
就任	-11.6041
を超え	-11.6041
が何	-11.6041
時間後に	-11.6043
▁Wish	-11.6044
のは難しい	-11.6044
猫が	-11.6044
▁二つの	-11.6045
イエスが	-11.6046
以前から	-11.6046
恩恵	-11.6046
トンの	-11.6047
ペース	-11.6047
ボンド	-11.6047
本来	-11.6047
を構成する	-11.6049
の基準	-11.6049
オファー	-11.6049
最も人気のある	-11.6049
シャワー	-11.605
長い時間	-11.605
ラスベガス	-11.605
自由と	-11.605
は死んだ	-11.6052
を手に入れ	-11.6052
社会的な	-11.6052
民は	-11.6053
シリアの	-11.6053
board	-11.6053
原因は	-11.6053
忙しく	-11.6053
Is	-11.6054
ところは	-11.6054
▁真	-11.6054
イタリア人	-11.6055
play	-11.6055
軍団	-11.6055
tre	-11.6056
ケンカ	-11.6056
もっともっと	-11.6058
の異なる	-11.6058
Michael	-11.6058
バビロン	-11.6059
カレンダー	-11.606
ざる	-11.6061
グーグル	-11.6061
○○	-11.6063
を全て	-11.6063
イギリス人	-11.6065
思いやり	-11.6065
独り	-11.6066
の時に	-11.6066
議	-11.6066
融資	-11.6067
ッと	-11.6067
エマ	-11.6068
cu	-11.6068
全世界で	-11.6068
経済の	-11.6069
を取った	-11.6069
飛	-11.6069
に直面する	-11.607
調査では	-11.607
に触れ	-11.607
メイド	-11.6071
白色	-11.6073
▁Cu	-11.6074
歌って	-11.6074
判	-11.6075
▁トニー	-11.6075
▁Ab	-11.6076
ors	-11.6076
この病気	-11.6076
慣れ	-11.6077
のユーザー	-11.6079
▁愛の	-11.6079
▁会場	-11.6079
今日まで	-11.608
難しく	-11.608
の言葉を	-11.6082
探す	-11.6082
サイトに	-11.6085
CU	-11.6085
をかけ	-11.6086
のパフォーマンス	-11.6086
ケイト	-11.6087
みんなに	-11.6087
バージョンの	-11.6088
AN	-11.6088
言語の	-11.6089
▁チャンネル	-11.6089
(15	-11.6089
102	-11.609
マンハッタン	-11.609
洗浄	-11.609
▁RAM	-11.609
Chrome	-11.609
の市外局番	-11.609
シャンパン	-11.6091
お土産	-11.6091
▁mi	-11.6092
と指摘	-11.6092
MR	-11.6093
sis	-11.6094
リズム	-11.6095
アメリカ人は	-11.6096
頭部	-11.6097
▁アート	-11.6097
▁Multi	-11.6097
決めた	-11.6098
を確認し	-11.61
▁Ice	-11.61
変数	-11.61
▁en	-11.61
はいらない	-11.61
はいつでも	-11.6106
だろうな	-11.6107
-19	-11.6108
夏休み	-11.6108
失踪	-11.6108
他の人々	-11.6108
▁雑誌	-11.6109
質問は	-11.6109
がやってくる	-11.611
誘導	-11.611
arm	-11.6111
▁THAT	-11.6112
中間体	-11.6113
しまって	-11.6114
▁ムザ	-11.6115
余裕	-11.6116
賞賛	-11.6116
走れ	-11.6116
指摘	-11.6116
0.2	-11.6117
受け取る	-11.6117
▁複数の	-11.6118
予告	-11.6119
CAD	-11.612
発想	-11.612
に勝つ	-11.612
献血	-11.612
を占めています	-11.6121
コト	-11.6121
家具	-11.6121
マンション	-11.6122
LINE	-11.6123
ブライアン	-11.6123
尋ねる	-11.6123
に加盟	-11.6124
▁Battle	-11.6125
eri	-11.6126
愚か	-11.6127
継続的に	-11.6127
準	-11.6127
他の場所	-11.6129
俺も	-11.6131
アメリカ軍	-11.6132
の拡大	-11.6132
レル	-11.6133
Bar	-11.6133
As	-11.6133
風邪	-11.6135
運航	-11.6135
▁05	-11.6135
ノア	-11.6136
翌年	-11.6136
はどうなる	-11.6137
▁Arts	-11.6137
再起動	-11.6138
じゃありません	-11.6139
一気に	-11.6139
起こり	-11.614
漁	-11.6143
データセンター	-11.6143
▁レイ	-11.6143
ことなど	-11.6145
力と	-11.6147
えば	-11.6148
バフェット	-11.6149
▁movie	-11.615
苦難	-11.615
状況を	-11.615
高速道路	-11.615
▁そしたら	-11.615
rel	-11.6151
ture	-11.6151
あなた達	-11.6151
時間です	-11.6152
発症	-11.6154
に登録	-11.6154
▁Thomas	-11.6155
くれない	-11.6155
▁最新	-11.6157
タリバン	-11.6157
周りに	-11.6157
禁煙	-11.6157
会社で	-11.6158
リリー	-11.6159
通りに	-11.616
クモ	-11.616
より多く	-11.6161
▁この記事	-11.6161
スクリプト	-11.6162
ender	-11.6165
▁23:	-11.6166
に復帰	-11.6166
奴ら	-11.6167
継承	-11.6167
北アメリカ	-11.6169
辞任	-11.6169
んだろうな	-11.617
はあなたが	-11.6171
天から	-11.6171
この瞬間	-11.6171
▁17.	-11.6172
たび	-11.6172
EF	-11.6173
▁明日の	-11.6173
よっ	-11.6174
久しぶり	-11.6175
のプログラム	-11.6177
ö	-11.6177
▁GET	-11.6177
が起きた	-11.6179
浮	-11.6179
の御	-11.6179
カラオケ	-11.6179
住まい	-11.618
マフィア	-11.618
家庭で	-11.618
不能	-11.618
BOX	-11.618
▁経済	-11.6182
EI	-11.6182
▁Tools	-11.6182
している場合	-11.6183
マヤ	-11.6183
ute	-11.6186
少しずつ	-11.6188
まわり	-11.6188
の絵	-11.619
できませんでした	-11.619
link	-11.619
到達	-11.619
▁Friend	-11.6191
▁お前が	-11.6191
道に	-11.6191
に生まれた	-11.6192
当て	-11.6193
ことを示している	-11.6193
部屋の	-11.6195
製造業者	-11.6196
くだ	-11.6197
本気	-11.6197
を経験する	-11.6197
ガード	-11.6198
科学の	-11.62
の影	-11.62
問題に	-11.6201
について話す	-11.6201
▁夜の	-11.6202
hr	-11.6202
OFF	-11.6202
lia	-11.6202
IMF	-11.6202
ym	-11.6202
ロープ	-11.6202
もらい	-11.6203
の建物	-11.6203
▁■「	-11.6204
ロマンチックな	-11.6205
▁モーテル	-11.6206
マジで	-11.6207
ソル	-11.6208
互換性	-11.6208
RY	-11.6209
をもっている	-11.6209
玩具	-11.621
かっこいい	-11.621
廊下	-11.6211
を表示します	-11.6211
さき	-11.6211
ディーン	-11.6213
の持ち主	-11.6213
アンタ	-11.6214
あっという間に	-11.6214
起こ	-11.6214
ボクは	-11.6215
行きました	-11.6216
ヶ国	-11.6216
同性愛者	-11.6216
ないだろう	-11.6216
恐れる	-11.6218
、16	-11.6218
公的	-11.622
身体は	-11.622
政府機関	-11.622
▁人類	-11.622
▁́∀`)	-11.6221
を考え	-11.6221
▁Pan	-11.6222
ジェリー	-11.6223
you	-11.6223
割れ	-11.6224
▁セット	-11.6225
UI	-11.6226
ラリー	-11.6226
倒れ	-11.6226
▁Experience	-11.6227
BU	-11.6227
待た	-11.6227
裕福な	-11.6227
消え	-11.6228
▁ソニー	-11.6229
▁Cut	-11.6229
中世	-11.623
減少した	-11.623
BR	-11.623
を聞き	-11.6231
Work	-11.6233
からなる	-11.6234
ソニー	-11.6234
が高く	-11.6234
でいい	-11.6235
▁Case	-11.6236
方を	-11.6236
の際に	-11.6237
経済的な	-11.6238
稼ぎ	-11.624
シミュレーション	-11.624
フレーム	-11.624
選出	-11.624
みてください	-11.624
▁Horse	-11.624
プレミアム	-11.624
お金を稼ぐ	-11.624
の人気	-11.6241
unt	-11.6242
のを助ける	-11.6244
何百	-11.6244
▁Total	-11.6245
どういうこと	-11.6246
▁ヨーロッパの	-11.6247
城壁	-11.6248
はいません	-11.6248
Char	-11.6248
ヴィー	-11.6249
VER	-11.625
以内	-11.625
FR	-11.625
この本	-11.6251
・・。	-11.6252
ゴン	-11.6252
さよなら	-11.6252
どれだけの	-11.6253
メールアドレス	-11.6253
ブー	-11.6254
が好きで	-11.6254
▁HEART	-11.6254
友人たち	-11.6255
チー	-11.6255
▁エレベーター	-11.6255
火の	-11.6257
自立	-11.6258
人たちの	-11.6258
▁Awards	-11.6259
初恋	-11.6262
だれか	-11.6263
診	-11.6263
pur	-11.6265
にのみ	-11.6265
という考え	-11.6266
かって	-11.6266
▁(8)	-11.6267
つぶ	-11.6267
▁本名は	-11.6267
日には	-11.6267
地上の	-11.6268
クジラ	-11.627
温泉	-11.627
直感	-11.6271
▁長い	-11.6272
に集中	-11.6272
男たち	-11.6275
▁Around	-11.6275
者には	-11.6275
▁ビッグ	-11.6276
une	-11.6276
われら	-11.6276
目覚める	-11.6277
Mar	-11.6277
いるか	-11.6277
の内部	-11.6278
▁Mercure	-11.6279
圧縮	-11.6279
映	-11.6279
▁87	-11.6279
船は	-11.6279
年後には	-11.628
設立された	-11.6281
▁Spotify	-11.6282
神戸	-11.6282
みれば	-11.6283
お城	-11.6284
を守ること	-11.6285
Word	-11.6285
成人の	-11.6285
答えた	-11.6286
▁Planet	-11.6287
AK	-11.6288
ご存知ですか	-11.629
あきらめ	-11.6291
が亡くなった	-11.6291
▁baby	-11.6291
もっと早く	-11.6292
ل	-11.6293
▁既に	-11.6293
造り	-11.6294
になってる	-11.6295
DES	-11.6295
思って	-11.6295
1978	-11.6295
責任者	-11.6296
切り替え	-11.6296
のね	-11.6297
全世界の	-11.6298
研究室	-11.6299
で何	-11.63
カリキュラム	-11.63
沿岸	-11.63
煮	-11.63
嘘をつく	-11.6301
ゴースト	-11.6301
▁子供は	-11.6302
治療は	-11.6302
bank	-11.6304
厳格な	-11.6305
illa	-11.6306
容疑者は	-11.6307
回は	-11.6308
たのだ	-11.6309
pu	-11.6309
をコントロールする	-11.6309
109	-11.6309
▁アダム	-11.6309
に取り組む	-11.631
怒	-11.631
価格で	-11.6311
の登録	-11.6311
自分にとって	-11.6312
1935	-11.6313
に何か	-11.6313
を見つけることができます	-11.6313
▁2,	-11.6315
に関心	-11.6316
▁Bear	-11.6318
AU	-11.6319
の成果	-11.632
▁DJ	-11.632
皿	-11.6322
▁Eye	-11.6323
▁赤ちゃん	-11.6325
店長	-11.6326
幼い	-11.6326
ペルー	-11.6327
のエネルギー	-11.6327
の開始	-11.6327
受けた	-11.6328
▁8.1	-11.6328
従業員の	-11.6328
死亡率	-11.6329
落ちた	-11.6329
渡し	-11.6329
健康状態	-11.633
の通り	-11.633
このゲーム	-11.633
塵	-11.6331
を置いて	-11.6331
を使用している場合	-11.6332
2/	-11.6333
▁Dis	-11.6333
でなければなりません	-11.6334
ことを願っています	-11.6335
を見ることができます	-11.6335
の法律	-11.6335
どこの	-11.6336
0000	-11.6337
▁バ	-11.6338
▁Peace	-11.6339
▁Pie	-11.6339
の分析	-11.634
天地	-11.634
▁Dec	-11.6341
▁big	-11.6341
▁DOWN	-11.6341
なるべく	-11.6342
留	-11.6343
pre	-11.6344
は次の	-11.6344
の感覚	-11.6344
▁Monte	-11.6344
に至る	-11.6345
▁1945	-11.6345
モア	-11.6346
▁Any	-11.6346
Ex	-11.6346
lock	-11.6347
▁ワイン	-11.6347
買え	-11.6347
得た	-11.6348
その逆	-11.6348
フィー	-11.6348
実行する	-11.635
ケリー	-11.635
ost	-11.6352
聖人	-11.6352
になるか	-11.6352
▁Shadow	-11.6352
▁ドバイ	-11.6355
je	-11.6355
Se	-11.6355
危険です	-11.6357
ボーイズ	-11.636
ライアン	-11.6361
連盟	-11.6361
蓋	-11.6361
也	-11.6361
チェス	-11.6362
Fire	-11.6364
Donald	-11.6365
わが国	-11.6365
テレ	-11.6365
システムを	-11.6366
▁マイク	-11.6368
▁御	-11.6369
詳しい	-11.6369
申し訳ない	-11.6369
とも呼ばれる	-11.6371
を教え	-11.6371
したのです	-11.6372
年ぶりの	-11.6375
▁Dreams	-11.6375
▁実	-11.6375
洋服	-11.6376
詳細な	-11.6377
で最高の	-11.6378
失業率	-11.6378
数々の	-11.6378
▁次回は	-11.638
短縮	-11.6381
▁his	-11.6381
必要があり	-11.6381
歳のとき	-11.6381
▁STAR	-11.6382
の商品	-11.6383
ディング	-11.6384
を動かす	-11.6384
岡	-11.6384
のバランス	-11.6385
スーパーヒーロー	-11.6386
una	-11.6386
__	-11.6387
▁207	-11.6387
ポイントは	-11.6387
ってのは	-11.6389
に出演	-11.639
誰にでも	-11.6391
最長	-11.6391
ヴィル	-11.6391
where	-11.6391
デザート	-11.6392
なのよ	-11.6394
演習	-11.6394
お姉ちゃん	-11.6394
オフライン	-11.6394
gr	-11.6394
9%	-11.6396
の無い	-11.6396
▁110	-11.6396
では無い	-11.6397
uff	-11.6398
ネーム	-11.6399
環	-11.6399
Days	-11.6401
国際関係	-11.6402
メッセージは	-11.6403
ペトロ	-11.6403
1940	-11.6403
が生まれた	-11.6403
▁パレスチナ	-11.6403
▁なに	-11.6405
パリの	-11.6406
GW	-11.6406
を失って	-11.6407
に適した	-11.6407
▁Could	-11.6407
許容	-11.6409
ことを示す	-11.6409
てから	-11.6409
学問	-11.641
▁犬の	-11.641
と感じた	-11.641
滅	-11.6413
を受け取った	-11.6416
絆	-11.6416
が好きな	-11.6416
ww	-11.6417
999	-11.6418
ブラッド	-11.6418
補給	-11.6419
NBA	-11.6419
新人	-11.6421
ことを目指しています	-11.6421
aga	-11.6422
変わります	-11.6422
▁コン	-11.6422
使用された	-11.6422
顧問	-11.6423
▁600	-11.6423
賢者	-11.6423
聞	-11.6424
上映	-11.6425
大衆	-11.6426
出口	-11.6426
っちゃ	-11.6428
脳は	-11.6428
▁ライオン	-11.6429
のパートナー	-11.643
見ました	-11.643
画像は	-11.6431
を訪れ	-11.6431
意欲	-11.6431
▁八	-11.6432
を行いました	-11.6432
の授業	-11.6432
▁何も	-11.6433
クロー	-11.6434
TPP	-11.6434
であるという	-11.6435
てはいけません	-11.6438
子供たちに	-11.6439
▁AD	-11.6441
使用できます	-11.6442
開設	-11.6442
豚肉	-11.6442
▁Silver	-11.6442
調査結果	-11.6444
上がり	-11.6444
▁Th	-11.6445
へ戻る	-11.6445
ワイルド	-11.6446
もち	-11.6446
できていない	-11.6447
の攻撃	-11.6447
▁そうすると	-11.6449
ディラン	-11.6449
前提	-11.6449
ヘア	-11.645
▁ホワイトハウス	-11.645
への影響	-11.645
があなた	-11.645
さら	-11.6451
越え	-11.6452
規律	-11.6454
[7]	-11.6454
は少なくとも	-11.6454
感じられる	-11.6455
▁#4	-11.6455
の規定	-11.6455
平和と	-11.6455
主演	-11.6456
このサイト	-11.6456
イヤー	-11.6457
メー	-11.6458
の証拠	-11.6459
の導入	-11.6459
の最高	-11.6459
▁弁護士	-11.6459
ake	-11.6461
▁グラフィック	-11.6461
大好きです	-11.6461
典	-11.6462
来ます	-11.6464
ホスティング	-11.6464
世界的	-11.6465
▁どんなに	-11.6465
日数	-11.6467
ピット	-11.6468
が嫌い	-11.6469
を正確に	-11.647
だったか	-11.647
は別	-11.6471
1.8	-11.6473
に至るまで	-11.6473
べし	-11.6473
いるのです	-11.6474
化した	-11.6474
▁Still	-11.6476
瀬	-11.6476
まぁ	-11.6476
Exchange	-11.6477
州立大学	-11.6477
全土	-11.6477
本を読む	-11.6477
の英語	-11.6478
天気予報	-11.648
はあなたに	-11.6481
方法について	-11.6481
記載されています	-11.6481
成績	-11.6483
母親は	-11.6483
飾り	-11.6484
マウント	-11.6485
外科医	-11.6485
の最終	-11.6485
ではないのです	-11.6488
隣の	-11.6488
▁Gmail	-11.6488
労働者の	-11.6489
も多い	-11.649
▁Diamond	-11.6491
lot	-11.6491
今までに	-11.6491
ご主人	-11.6491
ize	-11.6492
いただきました	-11.6492
sey	-11.6495
状態です	-11.6495
チベット	-11.6495
描く	-11.6495
▁イギリスの	-11.6496
顔の	-11.6496
を書いて	-11.6496
(^	-11.6499
dia	-11.6501
▁Pinterest	-11.6501
スカ	-11.6501
話をする	-11.6502
研究センター	-11.6502
セットアップ	-11.6503
▁Twin	-11.6503
ホン	-11.6503
きん	-11.6504
の土地	-11.6504
を知ること	-11.6504
名前が	-11.6504
緩和	-11.6504
があるから	-11.6505
▁version	-11.6505
ロナウド	-11.6505
▁Morning	-11.6505
スタートアップ	-11.6506
ないもの	-11.6506
ult	-11.6506
妊婦	-11.6507
最も有名な	-11.6507
13%	-11.6507
目の前で	-11.6508
聴いて	-11.651
地域社会	-11.6511
触	-11.6512
▁Paradise	-11.6512
を選択してください	-11.6512
ックス	-11.6513
専門家の	-11.6513
間違え	-11.6513
app	-11.6513
警察の	-11.6514
ゲー	-11.6514
▁Connect	-11.6515
スペシャル	-11.6516
ムスリム	-11.6516
秘	-11.6516
▁投稿者	-11.6517
▁かなり	-11.6517
下げ	-11.6518
▁Hills	-11.6518
rio	-11.6518
▁日曜日	-11.6518
▁回答	-11.6518
イス	-11.6519
残された	-11.6519
バトル	-11.652
いただけます	-11.652
典型的な	-11.652
何より	-11.652
ニフ	-11.652
快適	-11.6521
▁朝食	-11.6522
▁Single	-11.6522
戦った	-11.6523
すべての人に	-11.6525
ですし	-11.6525
は最近	-11.6527
の危険性	-11.6527
Bit	-11.6528
の女の子	-11.6528
▁ver	-11.6528
かず	-11.6531
2、3	-11.6531
目的のために	-11.6531
られません	-11.6531
をやめる	-11.6531
を続け	-11.6532
安定性	-11.6533
サイトは	-11.6533
車に	-11.6533
が生まれる	-11.6533
警備員	-11.6534
▁低	-11.6534
競争力	-11.6535
があっても	-11.6535
盗	-11.6537
鉄の	-11.6537
がやってきた	-11.6538
夜間	-11.6539
述べている	-11.6539
のコピー	-11.654
fo	-11.654
何人か	-11.6543
励まし	-11.6543
または地域	-11.6544
他の多くの	-11.6544
enny	-11.6544
苦しむ	-11.6544
耐	-11.6545
Gmail	-11.6546
火曜日	-11.6546
ネイティブ	-11.6547
られていた	-11.6547
に語った	-11.6547
地球に	-11.6549
▁Return	-11.655
バーン	-11.6551
流通	-11.6551
、2019	-11.6553
▁Gets	-11.6554
使ってる	-11.6556
もこの	-11.6557
▁Premier	-11.6558
LI	-11.6558
▁今でも	-11.6558
省略	-11.6558
何時	-11.6559
が原因で	-11.6561
アメリカと	-11.6561
場で	-11.6561
ことがわかりました	-11.6562
例として	-11.6563
付き合って	-11.6564
人目	-11.6565
ぼう	-11.6566
▁Gone	-11.6566
ヒュー	-11.6567
薬の	-11.6567
言われて	-11.6568
帳	-11.6568
ちょう	-11.6568
▁last	-11.6569
どこへ	-11.657
▁140	-11.657
は誰も	-11.6571
何をする	-11.6571
飼育	-11.6572
たいと思う	-11.6572
▁歌詞	-11.6572
の限界	-11.6573
▁商品	-11.6573
はあります	-11.6574
免許	-11.6574
ハッ	-11.6576
WordPress	-11.6576
▁girl	-11.6577
にも関わらず	-11.6578
ギャング	-11.6578
▁この投稿を	-11.6579
AGE	-11.658
には多くの	-11.658
除外	-11.6582
活動は	-11.6582
キャリー	-11.6583
週間後	-11.6583
予備	-11.6583
広島	-11.6585
▁93	-11.6585
職人	-11.6585
▁Jean	-11.6586
選ばれ	-11.6586
市民の	-11.6586
先日	-11.6587
子どもたちは	-11.6587
最速	-11.6587
を尊重し	-11.6587
を獲得する	-11.6587
レストランで	-11.6588
▁Devil	-11.6589
RU	-11.6589
を確保する	-11.659
▁お客様の	-11.6591
判事	-11.6591
▁それぞれ	-11.6592
ストップ	-11.6592
位に	-11.6593
数学者	-11.6593
る者	-11.6594
▁というか	-11.6595
▁Help	-11.6595
と話している	-11.6595
▁Years	-11.6595
▁旅行	-11.6597
海外の	-11.6598
▁dog	-11.66
▁離婚	-11.6601
▁その夜	-11.6601
未来を	-11.6602
ナム	-11.6602
尻	-11.6603
離れた	-11.6605
のアプリ	-11.6606
を備えた	-11.6606
銭	-11.6607
を奪う	-11.6608
菜	-11.6608
を脅かす	-11.6609
▁Gra	-11.6609
▁would	-11.6609
ダーウィン	-11.661
▁OK	-11.661
▁LIKE	-11.661
▁過去の投稿	-11.661
最低賃金	-11.661
を変えて	-11.661
いざ	-11.6611
目撃	-11.6612
発表した	-11.6612
666	-11.6612
▁Bell	-11.6612
干渉	-11.6613
狂った	-11.6614
から約	-11.6614
感じている	-11.6614
結末	-11.6614
占領	-11.6614
▁収録アルバム	-11.6615
▁Nu	-11.6616
人のために	-11.6618
祖先	-11.6618
アメリカ大統領	-11.6619
価値のある	-11.6619
入場	-11.662
▁この日は	-11.6621
が強い	-11.6621
国では	-11.6622
GI	-11.6623
いますが	-11.6623
行為は	-11.6624
なれば	-11.6624
ある種の	-11.6624
罪悪感	-11.6624
の立場	-11.6626
しないように	-11.6626
冷え	-11.6626
を禁止	-11.6627
ることを	-11.6628
を強化する	-11.6629
食べられる	-11.663
殺害された	-11.663
気をつけ	-11.663
を入れて	-11.663
存	-11.663
商標	-11.6631
▁Rooms	-11.6631
▁ベル	-11.6631
ほんとに	-11.6632
が私	-11.6635
▁Today	-11.6635
▁空港	-11.6637
▁そろそろ	-11.6639
するべき	-11.6639
▁私にとって	-11.6639
139	-11.664
迫害	-11.6641
っていく	-11.6641
ND	-11.6641
させていただきます	-11.6641
▁石	-11.6641
を処理する	-11.6641
傷跡	-11.6641
欠席	-11.6641
が分かる	-11.6642
にあたる	-11.6643
をご存知ですか	-11.6644
cker	-11.6644
128	-11.6644
▁勿論	-11.6646
に影響を及ぼす	-11.6646
ばかりの	-11.6647
に出会う	-11.6648
▁お客様は	-11.6649
▁いったい	-11.665
すべきである	-11.665
といって	-11.665
▁Dar	-11.6651
MIN	-11.6651
るような	-11.6652
ِي	-11.6652
1963	-11.6655
▁Bob	-11.6656
パズル	-11.6657
▁been	-11.6658
AMP	-11.6658
▁Nice	-11.666
にあって	-11.666
98%	-11.6661
長距離	-11.6663
▁モ	-11.6664
▁私に	-11.6665
大部分の	-11.6666
の謎	-11.6666
NZ	-11.6667
RP	-11.6667
食べたい	-11.6668
▁great	-11.6669
▁Comes	-11.6669
実証	-11.6669
▁前回	-11.667
▁政府は	-11.667
荷	-11.667
ゆき	-11.6672
双方	-11.6672
脳卒中	-11.6672
▁脚本	-11.6672
ストリーミング	-11.6672
サプライズ	-11.6673
民衆	-11.6673
▁own	-11.6673
セールス	-11.6674
止	-11.6674
数日間	-11.6674
元々	-11.6674
積極的な	-11.6675
王妃	-11.6675
berry	-11.6676
Little	-11.6676
わたしも	-11.6677
航海	-11.6678
現在も	-11.6679
移動する	-11.6682
のタイトルは	-11.6683
三人の	-11.6683
聴く	-11.6683
本社	-11.6683
良好	-11.6685
本名	-11.6685
と協力して	-11.6687
投資家は	-11.6688
を増やし	-11.6689
Hey	-11.6689
はどこで	-11.6691
っぱ	-11.6691
145	-11.6692
ウィキ	-11.6693
壁に	-11.6694
機種	-11.6694
▁Beauty	-11.6694
ó	-11.6694
遅れて	-11.6695
弱さ	-11.6695
LLM	-11.6695
吸	-11.6696
eu	-11.6696
生活の	-11.6697
進展	-11.6698
になるまで	-11.6699
があるので	-11.6699
▁人生の	-11.6699
不倫	-11.67
UV	-11.6701
▁NOW	-11.6701
使用した	-11.6702
▁Jones	-11.6702
友人に	-11.6702
▁携帯	-11.6702
理由から	-11.6703
カウンセリング	-11.6704
ベンジャミン	-11.6704
ピカソ	-11.6704
言われる	-11.6704
[...]
